the 47518
of 36890
, 35863
. 30105
and 25884
in 20264
to 19605
) 12196
( 11877
for 9912
Bank 9608
a 9147
on 9041
The 8383
as 7316
by 7049
is 6574
with 5582
are 5166
/ 4514
from 3791
per 3748
at 3744
has 3740
year 3382
was 3111
₹ 2940
Reserve 2910
India 2762
be 2699
cent 2672
's 2640
financial 2559
' 2495
during 2437
which 2380
F@@ 2379
its 2344
that 2332
- 2313
also 2280
under 2278
an 2261
been 2180
or 1978
In 1925
were 1918
have 1905
banks 1782
: 1732
-@@ 1586
ation 1575
" 1531
other 1525
% 1522
it 1484
L@@ 1466
market 1449
will 1431
billion 1427
through 1419
March 1409
up 1384
re@@ 1352
not 1347
all 1321
credit 1294
.@@ 1284
their 1276
A 1273
growth 1263
ing 1253
rate 1232
; 1232
s 1226
such 1218
1 1208
crore 1207
B@@ 1203
policy 1175
risk 1163
this 1094
RBI 1083
R@@ 1080
management 1050
C@@ 1039
bank 1028
banking 1023
than 1010
assets 1000
ated 997
account 991
various 989
S@@ 975
Committee 970
sector 958
Board 958
D@@ 947
Management 944
basis 942
interest 941
As 920
period 906
Financial 899
un@@ 885
including 883
Government 881
out 875
foreign 875
inflation 873
R 870
2020 856
any 855
business 841
over 840
capital 831
Act 827
issued 826
liquidity 822
Banking 819
& 818
income 817
value 811
2018 811
system 808
based 802
services 797
2 795
net 791
time 787
guidelines 787
more 784
made 777
set 773
ed 772
3 767
these 760
M@@ 758
currency 753
government 751
new 745
increased 742
transactions 730
years 728
Risk 722
June 716
amount 716
investment 715
e-@@ 714
G@@ 709
A@@ 708
ances 706
During 695
total 692
t 691
I@@ 688
o 687
non-@@ 686
B 680
M 677
2017 672
rates 670
audit 666
This 665
against 665
due 664
securities 662
into 650
framework 649
prices 648
terms 646
customers 638
your 637
accounts 636
our 630
2019 626
branches 623
provided 615
F 613
ers 612
being 609
4 608
Central 607
er 607
31 605
T@@ 605
date 600
exchange 599
able 598
Baroda 597
increase 596
operations 595
dis@@ 593
borrow@@ 593
Department 590
statements 590
P@@ 587
abilities 581
E@@ 579
As@@ 574
payment 574
Y@@ 569
if 569
level 568
cost 567
N@@ 567
balance 567
de@@ 564
respect 563
in@@ 562
t@@ 561
ating 560
tax 560
higher 559
held 558
30 558
global 555
domestic 555
ance 553
ate 550
Account 550
information 544
Indian 543
al 536
Directors 533
well 533
may 530
In@@ 529
H@@ 525
b@@ 522
across 519
one 519
view 517
II@@ 516
li@@ 516
L 514
risks 513
2016 513
Prof@@ 513
investments 509
economic 507
central 503
provisions 501
It 501
number 500
O@@ 499
Cs 497
Char@@ 495
2015 493
part 492
demand 492
2015-16 491
5 491
process 491
S 490
US 488
loans 485
would 484
provide 484
Q@@ 482
implementation 481
6 480
9 480
Your 479
Fund 479
conditions 478
asset 477
ting 476
Credit 471
employees 470
scheme 470
internal 470
average 469
2017-18 469
shares 465
ments 465
term 463
while 460
10 458
ment 457
NB@@ 457
previous 456
Con@@ 454
equity 454
SBI 452
2014 451
data 449
expenditure 449
W@@ 448
Banks 447
corporate 445
cash 445
customer 442
Group 441
ted 438
country 436
c 436
es 433
Bs 432
l@@ 431
accordance 431
between 431
2013 430
public 428
0.@@ 428
aud@@ 426
ent 426
after 425
each 424
measures 423
case 422
requirements 420
2016-17 419
regulatory 418
deposits 417
sets 417
preci@@ 416
oss 416
monetary 414
2019-20 413
expected 413
8 412
related 411
can 410
Rs 410
crores 410
14 409
place 409
policies 409
both 409
impact 409
products 408
towards 408
further 408
following 407
three 406
VI@@ 403
above 403
April 402
price 402
U@@ 402
itors 400
accounting 400
compliance 399
share 396
order 396
current 395
ti@@ 395
I 394
D 393
loss 393
7@@ 391
taken 390
over@@ 390
1.@@ 390
X@@ 390
state 389
De@@ 389
CB@@ 389
valuation 387
provision 387
systems 386
aries 386
like 385
funds 382
ates 381
2014-15 380
rep@@ 380
lower 379
entities 379
isation 377
2021 376
security 376
trade 375
7 375
end 375
markets 375
Au@@ 374
Director 374
Accoun@@ 374
conducted 373
al@@ 373
5@@ 373
end@@ 371
first 370
ability 370
two 370
same 369
those 369
ban@@ 369
ures 369
had 368
available 368
recognised 368
debt 368
V@@ 367
4@@ 367
service 367
line 366
external 366
With 365
there 365
State 365
economy 364
dit 363
Invest@@ 363
required 362
ant 361
it@@ 361
ts 361
valued 360
international 360
lending 359
form 359
payments 359
paid 356
ren@@ 356
i 356
ations 355
ements 355
only 355
ings 354
To 353
major 352
NP@@ 352
initiatives 352
Li@@ 350
use 350
no 350
Re@@ 349
last 348
large 348
However 347
6.@@ 347
offices 345
received 345
sw@@ 343
3.@@ 343
reporting 342
activities 341
forward 341
p@@ 340
2018-19 340
Corporate 339
outstanding 339
FY 339
but 338
IC@@ 337
we 337
Shri 336
Foreign 335
2.@@ 334
quality 334
National 334
infrastructure 333
significant 332
high 331
ensure 331
These 330
consolid@@ 329
9.@@ 329
where 327
around 327
For 327
them 326
Policy 326
CC@@ 326
ly 325
tions 324
December 324
report 324
fiscal 323
within 323
ally 323
alised 322
etc 322
20 322
states 321
8@@ 320
respective 319
5.@@ 319
areas 319
about 318
GDP 318
aggreg@@ 318
July 317
os@@ 315
action 314
d@@ 314
advances 313
food 312
continued 312
3@@ 312
Company 311
We 309
accounted 308
sed 308
cy 308
7.@@ 308
Sha@@ 307
million 307
or@@ 306
dated 306
res 306
bonds 306
respectively 305
8.@@ 305
con@@ 304
issues 303
development 303
ratio 302
remained 302
money 301
flows 300
Further 299
15 299
4.@@ 299
so 298
s@@ 298
January 297
shall 297
ative 296
applicable 296
less 295
review 295
monitoring 294
on@@ 293
2020-21 293
include 293
CA@@ 292
ity 292
e 292
Stat@@ 291
position 290
d 290
days 289
v@@ 289
using 289
portfolio 289
used 289
down 289
qu@@ 289
supply 289
sale 289
support 288
ps 288
i.e. 288
Interest 287
ex@@ 287
overall 286
Income 286
C 285
rural 284
Capital 284
IT 284
ited 284
deriv@@ 282
control 282
sectors 281
loan 280
future 279
b 278
September 276
P 276
since 276
category 275
production 275
Table 275
$ 274
back 273
undertaken 273
mod@@ 273
ds 273
en@@ 272
finance 272
6@@ 272
members 271
commercial 271
als 270
E 270
ati@@ 270
countries 269
activity 269
et 269
ecting 269
Cur@@ 268
rupee 268
profit 268
st@@ 268
viz 267
19@@ 267
companies 267
effective 267
changes 267
i@@ 267
y 265
Section 264
fund 264
transfer 263
limits 262
Ex@@ 261
February 260
9@@ 259
am@@ 258
facility 258
aps 257
training 257
additional 257
SE@@ 256
digital 255
deposit 255
O 254
retail 254
On 253
ended 253
Bal@@ 253
25 252
given 252
Scheme 252
could 251
classified 251
System 250
second 250
up@@ 250
el@@ 249
decline 249
August 249
oil 249
34 249
lakh 249
Loan 249
insurance 249
COVID-19 248
Chairman 248
Accordingly 248
key 248
providing 247
tion 247
contracts 247
some 246
department 246
constituted 246
certain 246
e@@ 246
si@@ 245
target 245
existing 244
eligible 244
notes 244
0@@ 243
staff 243
before 243
focus 243
meeting 242
Business 242
2@@ 242
performance 242
implemented 241
group 241
bud@@ 241
opinion 241
revised 241
All 241
carried 240
di@@ 240
age 240
ud@@ 239
months 239
put 239
holders 238
is@@ 238
losses 238
segment 238
efforts 237
ening 237
50 236
working 236
Report 236
resolution 236
2013-14 236
Development 235
Non-@@ 235
Companies 235
technology 234
exposure 234
manner 233
Finance 233
practices 233
they 233
mis@@ 233
day 232
included 232
compared 232
revenue 232
work 232
need 232
Exchange 232
effect 232
addition 231
St@@ 231
maturity 231
Regulations 231
o@@ 230
An 230
gold 230
ury 229
approved 229
several 229
atives 229
er@@ 229
specific 228
sheet 228
mainly 228
assessment 227
role 227
Sub@@ 227
governments 227
Operations 227
Other 227
institutions 226
recovery 226
relating 226
processes 226
13 226
sub@@ 226
we@@ 226
While 226
out@@ 225
introduced 224
deficit 224
norms 224
12 224
Crores 224
_ 223
environment 223
when 223
ence 222
subsidi@@ 222
BC 222
K@@ 222
Dep@@ 221
November 221
recorded 221
provides 221
low 221
em@@ 220
International 220
exports 220
material 220
among 219
operational 219
change 219
launched 219
charged 218
Net 218
May 218
BI 218
17 217
includes 217
declined 217
acy 217
General 216
platform 216
trading 216
book 216
four 215
supervis@@ 215
meetings 215
imports 215
FT 214
overseas 214
Securities 214
fixed 213
ory 213
issue 213
operating 213
l 213
im@@ 213
New 213
way 212
18 212
October 212
purpose 212
real 212
pro@@ 212
half 211
under@@ 210
better 210
entures 210
kno@@ 210
Investment 209
below 209
statement 209
def@@ 209
prescribed 208
g@@ 208
BO@@ 208
Transfer 208
Market 207
settlement 207
AS 207
Mumbai 207
She@@ 207
k@@ 207
1,@@ 207
making 206
Insurance 206
approach 206
Limited 206
appropriate 206
refl@@ 205
Regulation 204
Executive 204
units 204
continue 204
pr@@ 203
FS@@ 203
x 203
performing 203
considered 203
meet 203
fall 202
make 202
RE@@ 202
Rep@@ 202
factors 201
recognized 201
resources 201
bal@@ 201
however 201
quarter 200
y-@@ 200
benefits 200
governance 200
private 199
MS 199
ari@@ 199
inter@@ 199
office 199
ighted 199
improve 199
se 199
ur@@ 199
flow 199
eration 198
regulations 198
ensuring 198
industry 197
small 197
limit 197
MS@@ 197
having 197
ap 197
alisation 196
important 196
he@@ 196
strategy 195
month 195
followed 195
ii 195
base 195
MSME 195
ls 195
improved 194
Services 194
items 194
different 194
pandemic 193
building 193
needs 193
vision 192
returns 192
plan 192
31st 192
estimates 192
vol@@ 192
ised 192
sec@@ 191
results 191
should 191
procedures 191
y@@ 191
11 191
research 191
RA@@ 190
premium 190
objective 190
section 190
u@@ 189
G-@@ 189
inclusion 189
levels 189
statutory 188
annual 187
Ltd 187
transaction 187
rec@@ 187
vis@@ 186
liability 186
facilitate 186
who 186
instruments 186
tes 186
ential 185
22 185
along 185
shareholders 185
ar@@ 185
Annual 185
experience 185
fin@@ 184
ge@@ 184
19 184
registered 184
capacity 183
gross 183
erred 183
Payment 183
us 182
solid@@ 182
ering 182
contribution 182
projects 182
90 181
SC 181
pos@@ 181
holding 180
Pro@@ 180
ward 180
led 180
gains 180
matters 180
c@@ 179
ul@@ 179
PS@@ 178
Pre@@ 177
SA@@ 177
fair 177
website 177
Centre 177
categories 176
till 176
ion@@ 175
enable 175
minimum 175
sp@@ 175
amounting 175
developments 175
side 174
points 174
company 174
sl@@ 174
surplus 174
SB@@ 174
improving 174
11.@@ 174
daily 173
on-@@ 173
Adv@@ 173
Information 173
om@@ 173
yiel@@ 173
100 173
CR@@ 173
10.@@ 172
function 171
mac@@ 171
ro@@ 171
rem@@ 171
special 170
monthly 170
subject 170
Is 169
Institute 169
access 169
present 169
taking 169
model 168
Y 168
awareness 168
recommendations 168
necessary 168
Hindi 168
reduction 167
extended 167
best 167
potential 167
even 167
23 167
stress 166
stakeholders 166
laws 166
stand@@ 166
No 165
PO@@ 165
five 165
prov@@ 165
local 165
take 165
card 165
progress 165
general 165
ators 164
ter 164
se@@ 164
res@@ 164
agriculture 164
He 164
an@@ 164
structure 164
approval 164
functions 164
ail 163
going 163
mechanism 163
RT@@ 163
upon 163
40 163
peri@@ 163
especially 163
Office 162
0 162
FI@@ 162
m 162
reported 162
comprehensive 162
Go@@ 162
ses 162
le@@ 162
acc@@ 162
PC 161
ened 161
ual 161
Sh@@ 161
relevant 161
earlier 161
standards 160
mobile 160
co@@ 160
lity 160
ies 160
MA 159
ions 159
member 159
Dis@@ 159
help 159
2012 159
advised 159
voting 159
ing@@ 159
ational 159
requirement 159
fl@@ 159
construction 159
ans 159
down@@ 159
form@@ 159
Year 159
long 158
project 158
schemes 158
adequate 158
electronic 158
ch@@ 158
Ret@@ 157
DR 157
segments 157
T 157
identified 157
28 157
primary 157
announced 157
power 157
address 156
21 156
specified 156
GST 156
-based 156
most 155
21.@@ 155
improvement 155
denom@@ 155
deb@@ 155
Ds 155
Custom@@ 155
Mon@@ 154
driven 154
reserves 154
cases 154
reflected 154
amounts 154
4,@@ 154
covered 154
done 154
area 154
16 154
obtained 154
dec@@ 153
Treas@@ 153
su@@ 153
ents 153
enhanced 153
whether 153
201@@ 153
Under 153
remaining 153
financing 152
closure 152
robust 152
now 152
reports 152
economies 152
tive 152
2012-13 152
expenses 152
benefit 152
marked 151
permitted 151
AC@@ 151
reviewed 151
G 151
a-@@ 151
ago 151
officers 151
treated 151
At 150
AN@@ 150
imp@@ 150
facilities 150
effects 150
increasing 150
sub-@@ 150
online 149
syst@@ 149
spread 149
fully 149
efficient 149
controls 149
12.@@ 149
m@@ 148
V 148
application 148
iv@@ 148
VA 147
generally 147
There 147
Rupee 147
complaints 147
erated 147
decided 147
issu@@ 147
except 146
employee 146
Aud@@ 146
volume 146
network 145
consumption 145
stressed 145
dem@@ 145
analysis 145
remain 145
goods 145
Governance 145
ass@@ 145
party 145
emerging 145
stability 144
crude 144
bi@@ 144
top 144
miti@@ 144
transferred 144
SL@@ 143
Trans@@ 143
Tr@@ 143
EC@@ 143
conduct 143
acquisition 143
regard 143
resulting 143
recent 142
Hel@@ 142
off 142
defined 142
Tax 142
completed 142
processing 141
every 141
medi@@ 141
strengthening 141
etary 140
analy@@ 140
ND@@ 140
branch 140
details 140
urban 140
ary 140
created 140
Bas@@ 140
took 139
broad@@ 139
reduced 139
CPI 139
infl@@ 139
counter@@ 139
ks 139
enhance 139
receip@@ 139
Global 139
27 138
manufacturing 138
Bills 138
Offices 138
output 138
rating 138
programmes 138
ables 138
ac@@ 138
ag@@ 137
ending 137
comprising 137
ATMs 137
Internal 136
04.@@ 136
centr@@ 136
ten@@ 136
Box 136
primarily 136
employment 136
responsible 136
social 136
Pension 136
commission 135
clusion 135
consumer 135
priority 135
31.@@ 135
FC 135
appointed 135
fraud 135
stock 135
programme 135
setting 134
underlying 134
Provis@@ 134
world 134
FE@@ 134
free 134
investors 134
maintain 134
proposed 134
adopted 134
Code 134
product 134
ent@@ 133
CO@@ 133
IF@@ 133
26 133
ches 133
2010 133
dic@@ 133
yield 133
el 133
ars 132
housing 132
o-@@ 132
coll@@ 132
eff@@ 132
clos@@ 132
hold 131
opened 131
communication 131
Oper@@ 131
actions 131
GS 131
cover 131
Note 131
Rev@@ 131
responsibility 131
um@@ 130
IL 130
uity 130
Sub-@@ 130
opening 130
29 130
as@@ 130
at@@ 130
purchase 130
ru@@ 130
tured 130
export 129
lease 129
legal 129
classification 129
dividend 129
ors 129
costs 129
greater 129
indicators 128
id@@ 128
strengthen 128
centres 128
particularly 127
BR@@ 127
Our 127
Cont@@ 127
Lo@@ 127
linked 127
IS 126
eas@@ 126
Joint 126
turing 126
En@@ 126
HT@@ 126
status 126
expansion 125
then 125
tered 125
Standards 125
pressu@@ 125
positive 125
stood 125
NE@@ 124
Managing 124
started 124
SC@@ 124
arising 124
cards 124
strong 124
Fac@@ 124
charges 124
delivery 123
efficiency 123
prepared 123
established 123
AI 123
PI 123
r@@ 123
Rural 123
published 123
Equ@@ 123
pl@@ 123
Ban@@ 123
estimated 123
six 123
direct 123
enabled 123
NO@@ 122
determined 122
exp@@ 122
co-@@ 122
options 122
Union 122
Rec@@ 122
Cash 122
excess 122
bench@@ 122
mark 122
functioning 122
Mat@@ 122
significantly 122
preparation 122
Acqu@@ 122
ATM 122
ec@@ 122
Regional 121
Super@@ 121
fore@@ 121
result 121
trad@@ 121
pre@@ 121
pension 121
Ps 121
ages 121
initiated 121
non@@ 121
departments 121
posit 121
Un@@ 121
es@@ 121
AL@@ 120
subsidiary 120
5,@@ 120
face 120
2011 120
realised 120
mobil@@ 120
contrac@@ 120
Under@@ 120
f@@ 119
contr@@ 119
n@@ 119
active 119
there@@ 119
turn 119
agenda 119
pe@@ 119
20@@ 119
pertaining 119
itory 119
ad@@ 119
independent 119
off@@ 119
Public 119
00 119
past 119
site 119
[ 118
iti@@ 118
inter-@@ 118
monsoon 118
core 118
own 118
sharp 118
-up 118
wide 118
d-@@ 118
odi@@ 118
expectations 118
03.@@ 118
ging 118
Based 117
] 117
far 117
bond 117
features 117
Issue 117
covering 117
CP@@ 117
a@@ 117
placed 116
J@@ 116
farmers 116
actu@@ 116
For@@ 116
Service 116
rise 116
termin@@ 116
without 116
disclosed 116
iii 116
Set@@ 116
1970 116
appropri@@ 116
restruc@@ 116
If 116
re-@@ 116
Commission 116
alone 116
groups 115
slowdown 115
thereby 115
strategic 115
standard 115
Delhi 115
enhancing 115
does 115
firms 115
reverse 115
real@@ 115
encies 115
Par@@ 115
Schedule 115
developing 115
national 115
itor 115
struc@@ 114
allowed 114
INR 114
35 114
ows 114
issuance 114
point 114
likely 114
mat@@ 114
Furthermore 114
Am@@ 114
extent 114
24 113
nature 113
fraud@@ 113
operative 113
aims 113
ked 113
red 113
pay 113
Accounts 113
takings 113
14.@@ 113
reserve 113
IB@@ 112
joint 112
80 112
excluding 112
vide 112
notified 112
whole 112
fication 112
short@@ 112
PS 112
evalu@@ 112
Gr@@ 112
ration@@ 112
Gold 111
tional 111
he 111
ged 111
uncertainty 111
entered 111
single 111
U 111
alized 111
mon@@ 111
isition 111
Total 111
committee 111
idity 111
Sector 111
stated 110
together 110
ency 110
channels 110
pace 110
Rate 110
closing 110
early 110
Budget 110
events 110
unless 110
outlook 110
Res@@ 110
ale 110
2010-11 110
principles 110
participants 110
brought 109
ME@@ 109
life 109
regarding 109
rever@@ 109
option 109
75 109
ver@@ 109
compl@@ 109
CR 109
off-@@ 109
growing 108
otes 108
call 108
claims 108
ail@@ 108
in-@@ 108
focused 108
CG@@ 108
RC@@ 108
steps 108
stance 108
industrial 107
48 107
remains 107
Ministry 107
Associ@@ 107
k 107
entity 107
Card 107
Over@@ 107
regional 107
ator 107
decreased 107
organised 107
developed 107
Domestic 106
redressal 106
AF@@ 106
response 106
concerns 106
context 106
comprises 106
sales 106
Standard 106
Def@@ 106
entire 106
third 106
Value 106
funding 105
RA 105
ateral 105
assurance 105
effectiveness 105
quarter@@ 105
evidence 105
PP@@ 104
IMF 104
challenges 104
shown 104
basic 104
size 104
collection 104
literacy 104
ix@@ 103
initial 103
ical 103
NC@@ 103
33 103
ense 103
Pradesh 103
multiple 103
Data 103
uation 103
least 103
design 103
per@@ 103
Security 103
ation@@ 103
rising 103
resili@@ 103
Regulatory 102
his 102
MT@@ 102
aging 102
cyber 102
FS 102
inated 102
uc@@ 102
exercise 102
Co@@ 102
Special 102
open 102
itis@@ 102
circulation 102
sted 101
Cir@@ 101
PF@@ 101
head@@ 101
released 101
Mar@@ 101
timely 101
listed 101
critical 101
36 101
sur@@ 100
regul@@ 100
fied 100
alia 100
decision 100
ap@@ 100
ising 100
Paren@@ 100
do 100
targets 100
u 100
advanced 100
reforms 100
th@@ 100
ever@@ 100
PM@@ 100
head 100
books 100
man 100
ris@@ 99
pre-@@ 99
centre 99
SS 99
many 99
spot 99
measured 99
raised 99
momentum 99
KYC 99
range 99
ic@@ 99
normal 99
prevailing 99
MC@@ 99
row@@ 99
Previous 99
air@@ 99
no@@ 99
preceding 99
physical 99
sources 98
fuel 98
gam@@ 98
3,@@ 98
mentioned 98
tlement 98
Ter@@ 98
identification 98
Rs. 98
regular 98
FDI 98
du@@ 98
give 97
adju@@ 97
RO@@ 97
supervision 97
managed 97
consistent 97
ution 97
1949 97
ann@@ 97
autom@@ 97
te 97
series 97
Ad@@ 97
cies 97
posted 96
X 96
cred@@ 96
percentage 96
holder 96
ise 96
depos@@ 96
draft 96
Technology 96
Education 96
Ag@@ 96
king 96
largest 96
sustainable 96
List@@ 96
directors 96
urity 96
participation 96
ement 96
to@@ 96
contract 96
distribution 96
sof@@ 95
largely 95
14@@ 95
ra@@ 95
Level 95
Working 95
presentation 95
Committees 95
acquired 95
separate 95
6,@@ 95
mutual 95
integrated 95
ste@@ 95
il@@ 95
After 94
leading 94
RS 94
short-@@ 94
directly 94
CS@@ 94
stipulated 94
difference 94
parties 94
Systems 94
earnings 94
highest 94
Appro@@ 94
demonetisation 94
er-@@ 94
10@@ 94
transmission 94
Association 93
Framework 93
Guidelines 93
DAI 93
ar 93
savings 93
final 93
lockdown 93
true 93
bu@@ 93
w.e.@@ 93
individual 93
instructions 93
whichever 93
maintaining 93
p 93
reduce 92
knowledge 92
BS 92
house 92
Private 92
IS@@ 92
Small 92
aspects 92
ination 92
purposes 92
availability 92
contributed 92
kets 92
Employees 92
land 91
-to-@@ 91
ading 91
supported 91
ically 91
45 91
sections 91
ab@@ 91
principal 91
debit 91
maintained 91
NA@@ 91
sha 91
Ti@@ 91
reviews 91
method 91
energy 91
est 90
ably 90
vers@@ 90
payable 90
Local 90
Stock 90
though 90
components 90
trillion 90
Trade 90
witnessed 90
vis 90
protection 90
200@@ 90
agricultural 90
authorised 90
Deb@@ 90
index 90
medium 90
directions 90
60 90
agency 90
Life 90
ased 89
for@@ 89
ding 89
ying 89
generation 89
consultation 89
others 89
senior 89
ease 89
relationship 89
Stand@@ 89
rules 89
education 89
Money 89
32 89
pursu@@ 89
essing 89
times 89
said 89
alu@@ 89
import 88
premises 88
ics 88
consideration 88
IR@@ 88
Funds 88
short 88
2,@@ 88
commodity 88
ME 88
changed 88
negative 88
portal 88
outside 88
II 88
Cl@@ 88
Statement 88
ext@@ 88
comp@@ 88
crisis 88
continuously 88
human 88
DE@@ 88
coins 88
IP@@ 88
identify 88
institutional 87
gap 87
currently 87
manage 87
decisions 87
agreements 87
limited 87
either 87
tic@@ 87
ection 87
concern 87
respon@@ 87
profits 87
IN@@ 87
x@@ 87
C-@@ 87
Compl@@ 87
until 87
referred 87
incurred 87
ish 86
bills 86
absor@@ 86
ongoing 86
Sw@@ 86
agreement 86
utory 86
personal 86
f. 86
Polic@@ 86
already 86
po@@ 86
Corporation 86
actual 86
charge 86
Bran@@ 86
Infrastructure 86
Man@@ 86
65 86
continuous 86
curren@@ 86
bring 85
space 85
Recovery 85
owned 85
Gujarat 85
cooperative 85
cont@@ 85
coverage 85
dur@@ 85
vi@@ 85
Officer 85
Str@@ 85
cor@@ 85
structural 85
auctions 85
continues 85
bound 85
treas@@ 85
ed@@ 85
select 85
ber 85
media 85
reasonable 85
promote 85
full 85
monitor 85
scope 85
associated 85
49 85
plans 84
hi@@ 84
few 84
another 84
next 84
inter 84
contingent 84
carrying 84
obligation 84
hand 84
Integr@@ 84
managing 84
eous 84
added 84
Bon@@ 84
AS@@ 84
health 84
kar@@ 84
regulation 83
ensu@@ 83
computed 83
people 83
13.@@ 83
sharply 83
dev@@ 83
resulted 83
Raj@@ 83
sold 83
NS@@ 83
reg@@ 83
Key 83
movements 83
AM@@ 83
Wh@@ 83
Besides 82
Authority 82
Ac@@ 82
dig@@ 82
return 82
fications 82
secured 82
Sec@@ 82
fresh 82
ness 82
ou@@ 82
ants 82
dings 82
appreciation 82
05 82
observed 82
Training 82
AG@@ 81
util@@ 81
China 81
Secretary 81
solution 81
Provident 81
disrup@@ 81
introduction 81
t-@@ 81
possible 81
eness 81
ility 81
Rece@@ 81
standing 81
reference 81
Ku@@ 81
pressure 81
assessed 81
margin@@ 81
productivity 81
turned 81
Os 81
16.@@ 80
achieved 80
successfully 80
rence 80
contributions 80
enabling 80
mium 80
corpor@@ 80
od@@ 80
projected 80
labour 80
'@@ 80
ied 80
submitted 80
error 80
NI@@ 80
ected 80
record 80
represents 80
,9@@ 80
holds 80
18@@ 80
tants 80
retirement 80
fees 80
First 80
speci@@ 80
DS 80
offer 79
emic 79
achieve 79
assess 79
society 79
ater@@ 79
ill@@ 79
SA 79
eded 79
method@@ 79
helped 79
types 79
sh 79
impacted 78
ology 78
unit 78
mode 78
recognition 78
Ls 78
completion 78
95 78
strengthened 78
become 78
paper 78
2011-12 78
taxes 78
trend 78
01.@@ 78
III 78
flo@@ 78
ut@@ 78
ST 78
Chief 78
operation@@ 77
positions 77
transparency 77
Me@@ 77
T-@@ 77
44 77
guidance 77
lead 77
ici@@ 77
9,@@ 77
direction 77
Manager 77
lic@@ 77
applications 77
equivalent 77
ingent 77
IC 77
tr@@ 77
46 77
creating 77
maximum 77
Pur@@ 76
initiative 76
marginal 76
objectives 76
Governor 76
Prin@@ 76
ci@@ 76
fle@@ 76
regulated 76
Housing 76
CA 76
submission 76
br@@ 76
quarters 76
Agriculture 76
TC 76
lever@@ 76
mark@@ 76
immediately 76
studies 76
ess@@ 76
keeping 76
carry 75
obtain 75
Digital 75
nominated 75
Ap@@ 75
tion@@ 75
concerned 75
pending 75
Indi@@ 75
actively 75
en 75
os 75
accepted 75
amongst 75
Pr@@ 75
therefore 75
fe@@ 75
conver@@ 75
fee 75
51 75
Om@@ 75
Ut@@ 75
Implementation 74
Coun@@ 74
forming 74
tu@@ 74
bas@@ 74
Since 74
UK 74
post-@@ 74
gation 74
according 74
parameters 74
corresponding 74
reducing 74
dedicated 74
rap@@ 74
Non 74
backdrop 74
note 74
adequ@@ 74
wise 74
scale 74
sustained 74
sight 74
tonnes 74
Head 73
learning 73
World 73
cle@@ 73
sanctioned 73
porting 73
1@@ 73
relatively 73
act 73
sts 73
elevated 73
villages 73
authorities 73
Op@@ 73
Sol@@ 72
be@@ 72
campaign 72
Sale 72
Respon@@ 72
qui@@ 72
source 72
Mobile 72
maintenance 72
15.@@ 72
cell@@ 72
valu@@ 72
iv 72
ties 72
cash@@ 72
ards 72
committees 72
kept 72
ach 72
correc@@ 72
resident 72
close 72
ter@@ 72
AD@@ 72
01 72
gain 72
requires 72
weak 72
circul@@ 71
historical 71
ning 71
suppl@@ 71
k-@@ 71
measure 71
h@@ 71
500 71
Unit 71
software 71
accel@@ 71
circular 71
trac@@ 71
lines 71
phase 71
rose 71
despite 71
tant 71
recommended 71
ring 71
reach 71
course 71
survey 71
s-@@ 71
event 71
women 71
thus 70
Assessment 70
Economic 70
persist@@ 70
Revenue 70
ible 70
path 70
laid 70
users 70
alization 70
relation 70
pres@@ 70
Cards 70
ick@@ 70
eg@@ 70
sufficient 70
ahead 70
proper 70
Tech 70
agencies 70
CE@@ 70
read 70
goals 70
93 70
twithstanding 70
Comp@@ 70
effectively 70
facil@@ 70
dollar 69
V.@@ 69
buildings 69
* 69
Members 69
remote 69
solutions 69
worth 69
reli@@ 69
create 69
Research 69
08 69
seen 69
et@@ 69
Mis@@ 69
clud@@ 69
transf@@ 69
Overseas 69
aged 69
bha@@ 69
enterprises 69
tran@@ 69
main 69
70 69
bar@@ 69
front 69
confidence 69
mandate 69
CC 69
war@@ 69
sel@@ 69
amended 68
P.@@ 68
mp@@ 68
post 68
tical 68
64 68
Boards 68
professional 68
AB@@ 68
aid 68
opportunities 68
planned 68
Ob@@ 68
prior 68
ship 68
called 68
ST@@ 68
mid-@@ 68
integration 68
raising 68
models 68
41 68
separately 68
circumstances 68
comprise 68
8,@@ 68
2009 68
share@@ 68
whol@@ 68
RM 67
envisaged 67
ID 67
42 67
IV@@ 67
ality 67
MSMEs 67
declared 67
fr@@ 67
enders 67
revival 67
ately 67
12@@ 67
monitored 67
adverse 67
23.@@ 67
GO@@ 67
evolving 67
study 67
platforms 67
engaged 67
atistical 67
grew 67
ju@@ 67
old 67
66 67
associates 67
salary 67
RO 67
advance 67
promoting 67
rated 67
ys 67
cap@@ 67
still 67
profile 66
Some 66
? 66
calculated 66
ually 66
7,@@ 66
29@@ 66
Le@@ 66
ad 66
competition 66
spending 66
develop 66
drawn 66
merch@@ 66
29.@@ 66
AT@@ 66
w@@ 66
Payments 66
households 66
passed 66
marks 66
Book 66
13@@ 66
Such 66
agreed 66
etc. 66
SMS 66
ena 66
Fin@@ 66
week 66
dge 66
commenced 66
stable 66
besides 65
conducting 65
cli@@ 65
38 65
inputs 65
differences 65
modified 65
bringing 65
formal 65
beginning 65
87 65
much 65
tics 65
pulses 65
long-term 65
ms 65
RT 65
designated 65
Bo@@ 65
turn@@ 65
expanded 65
purcha@@ 65
CN@@ 65
Chennai 65
commitment 65
tees 65
inspection 65
No@@ 65
simpl@@ 65
very 65
crop 65
relative 65
composition 64
ented 64
amal@@ 64
served 64
planning 64
budget 64
58 64
Moreover 64
testing 64
adjust@@ 64
right 64
faster 64
ign@@ 64
importance 64
Monitoring 64
sem@@ 64
sion 64
85 64
ker 64
ir@@ 64
h 64
channel 63
tisation 63
grievance 63
force 63
assu@@ 63
proposals 63
usage 63
subsequent 63
15@@ 63
otherwise 63
residential 63
boost 63
trans@@ 63
rement 63
Trust 63
run 63
ow@@ 63
wid@@ 63
Aadhaar 63
takes 63
PC@@ 63
Institutions 63
revenues 63
designed 63
play 63
innovative 63
24@@ 63
pen@@ 63
UA@@ 63
aya 63
gate 63
Ear@@ 63
Over 63
USD 63
W 63
har@@ 63
Core 63
particular 62
SH@@ 62
well-@@ 62
disbur@@ 62
tri@@ 62
cycle 62
24.@@ 62
Sign@@ 62
ific@@ 62
good 62
ished 62
ep@@ 62
emp@@ 62
Resolution 62
Meeting 62
variable 62
Fs 62
plus 62
latest 62
merger 62
database 62
favourable 62
Micro 62
int@@ 62
credited 62
here@@ 62
Date 62
Dr. 62
DA 62
We@@ 62
but@@ 62
39 62
NABARD 62
itated 62
abroad 61
IA 61
Commercial 61
C.@@ 61
LO@@ 61
transparent 61
ples 61
deals 61
natural 61
bit 61
shore 61
prof@@ 61
af@@ 61
99 61
duty 61
Review 61
ol@@ 61
N 61
47 61
printing 61
responsibilities 61
worked 61
tual 61
letter 61
movement 61
pricing 61
43 61
Bharat 61
Senior 61
ght 61
accordingly 61
ker@@ 61
str@@ 61
operation 61
Al@@ 61
locations 61
+ 61
com@@ 60
farm 60
MEs 60
ping 60
External 60
skills 60
strategies 60
persons 60
Home 60
matter 60
Rules 60
granted 60
joined 60
la@@ 60
saving 60
Coll@@ 60
receiv@@ 60
factor 60
ign 60
broad 60
wherever 60
offers 60
ized 60
68 60
availed 60
tible 60
us@@ 60
Div@@ 60
erves 60
One 60
55 60
20.@@ 59
volumes 59
aring 59
self-@@ 59
safety 59
offering 59
grat@@ 59
37 59
gh@@ 59
multi@@ 59
micro 59
pattern 59
scenario 59
obligations 59
behalf 59
culture 59
workshops 59
76 59
criteria 59
Strateg@@ 59
similar 59
picked 59
par@@ 59
74 59
collaboration 59
NH@@ 59
consecutive 59
Human 59
From 59
constitu@@ 59
fol@@ 59
Primary 59
syn@@ 59
72 59
iance 59
April-@@ 58
phased 58
ge 58
Additional 58
Av@@ 58
territories 58
ities 58
DR@@ 58
undertake 58
indicated 58
seven 58
sentiment 58
determin@@ 58
ig@@ 58
test 58
del@@ 58
reached 58
covers 58
rements 58
States 58
forms 58
S. 58
um 58
18.@@ 58
UPI 58
SI@@ 58
aver@@ 58
hol@@ 58
reflect 58
examined 58
fy 58
assigned 58
High 58
IO@@ 58
meas@@ 58
implementing 58
LA 58
ped 58
scheduled 58
Kumar 58
multi-@@ 57
surveillance 57
hence 57
population 57
Programme 57
rolled 57
arrangements 57
common 57
xibility 57
ha@@ 57
restrictions 57
signed 57
reason@@ 57
v 57
ble 57
offered 57
whose 57
border 57
integral 57
BSE 57
industries 57
ective 57
ulated 57
written 57
No.@@ 56
NT@@ 56
RC 56
receipt 56
enting 56
ch 56
competitive 56
keep 56
defence 56
tim@@ 56
17.@@ 56
cross-@@ 56
uring 56
faced 56
hard@@ 56
ip@@ 56
Basic 56
surge 56
met 56
adoption 56
kers 56
wholly 56
Also 56
vote 56
med 56
Given 56
formed 56
Vij@@ 56
th 56
ered 56
award 56
Apart 56
stage 56
cular 55
wherein 55
sanction 55
directives 55
recogn@@ 55
continuing 55
ends 55
revision 55
electricity 55
uses 55
57 55
enforcement 55
cre@@ 55
noti@@ 55
andi@@ 55
one-@@ 55
build 55
pri@@ 55
Internet 55
constr@@ 55
facilitating 55
emb@@ 55
Leave 55
17@@ 55
firm 55
adhe@@ 55
Fe@@ 55
weak@@ 55
attri@@ 55
Imp@@ 55
built 55
rights 55
Vol@@ 55
SAARC 55
Pay 55
sing 55
79 54
deal 54
receive 54
addressing 54
augm@@ 54
exce@@ 54
powers 54
Even 54
caused 54
ER 54
orders 54
harmon@@ 54
moderate 54
ones 54
ching 54
bill 54
Deputy 54
le 54
came 54
require 54
allocated 54
tives 54
presented 54
affairs 54
quanti@@ 54
get 54
Any 54
combined 54
detailed 54
io 54
inf@@ 54
increases 54
toral 53
ID@@ 53
16@@ 53
duly 53
Out@@ 53
dual 53
officials 53
input 53
impar@@ 53
step 53
writing 53
instrument 53
assi@@ 53
MO@@ 53
home 53
struction 53
mental 53
alising 53
examination 53
Cost 53
1st 53
follows 53
Project 53
nings 53
host 53
announcement 53
SW@@ 53
BS@@ 53
surve@@ 53
see 53
rev@@ 53
Centres 53
records 53
63 53
sell 52
IA@@ 52
crops 52
heads 52
Per@@ 52
technical 52
Inter@@ 52
tor@@ 52
insu@@ 52
Enterprises 52
generated 52
counter 52
her 52
Time 52
amoun@@ 52
interests 52
2008 52
thereafter 52
involved 52
Against 52
differen@@ 52
transformation 52
presence 52
Bor@@ 52
cement 52
kruptcy 52
entitled 52
Employe@@ 52
00@@ 52
move 52
properties 52
ER@@ 52
creation 52
dissem@@ 52
elected 52
erstwhile 52
our@@ 52
feedback 52
materi@@ 52
Rem@@ 52
Gross 51
discount 51
ous 51
almost 51
withdrawal 51
executive 51
app@@ 51
certificates 51
person 51
fell 51
89 51
year-@@ 51
sibility 51
buff@@ 51
Among 51
Electronic 51
represent 51
Acc@@ 51
vulner@@ 51
timing 51
thereof 51
77 51
conversion 51
partly 51
lear@@ 51
AR@@ 51
inations 51
Bill 51
Consequently 51
ves 51
welfare 51
88 51
mail 51
works 51
oriented 51
ethical 51
Official 51
chain 51
inars 51
ry 51
IT@@ 51
tory 51
ai@@ 51
board 51
pose 51
safe 51
guarantee 51
rang@@ 51
shi@@ 50
dissemination 50
dynam@@ 50
OF 50
ro-@@ 50
complete 50
earned 50
useful 50
extending 50
found 50
CF@@ 50
translated 50
BB@@ 50
dil@@ 50
outcome 50
pilot 50
throughout 50
ket 50
upto 50
eline 50
Val@@ 50
id 50
ports 50
04 50
I-@@ 50
encourage 50
53 50
achieving 50
papers 50
eight 50
Language 50
alise 50
e- 50
71 50
Bro@@ 50
proj@@ 50
sent 50
endeavour 50
web@@ 50
too 50
requested 50
document 50
ests 50
implement 50
Sav@@ 50
Industrial 50
awarded 50
sions 50
Officers 50
diversi@@ 49
makes 49
fac@@ 49
By 49
healthy 49
consists 49
counted 49
82 49
SO@@ 49
26.@@ 49
affected 49
LE@@ 49
committed 49
acts 49
funded 49
ty 49
oned 49
suggests 49
IM@@ 49
coal 49
community 49
73 49
aints 49
1,5@@ 49
moved 49
33.@@ 49
ases 49
opti@@ 49
ignored 49
doing 49
ded 49
collections 49
deployed 49
,@@ 49
water 49
98 49
resi@@ 49
aj@@ 49
wards 49
capit@@ 49
secure 49
grievances 49
explan@@ 49
leave 49
sli@@ 49
enti@@ 49
principle 49
Mut@@ 49
leadership 48
CEO 48
seasonal 48
beyond 48
ee 48
They 48
Plan 48
internet 48
investor 48
technological 48
arrangement 48
grow 48
22.@@ 48
26@@ 48
28@@ 48
AD 48
z@@ 48
overs 48
sh@@ 48
Following 48
sive 48
strength 48
recovered 48
27.@@ 48
emerged 48
coupled 48
regime 48
Index 48
shoc@@ 48
indic@@ 48
students 48
installed 48
sound 48
uni@@ 48
Technical 48
shift 48
values 48
copy 48
199@@ 48
Ms 48
weight 48
bro@@ 48
deemed 48
27@@ 48
30.@@ 48
nar@@ 48
NR@@ 48
individuals 48
96 47
field 47
ce@@ 47
Gs 47
Marg@@ 47
59 47
Long 47
Hyderabad 47
ores@@ 47
Advisory 47
fact 47
allied 47
modi@@ 47
tative 47
54 47
@ 47
fying 47
evaluation 47
lig@@ 47
come 47
SP@@ 47
n 47
aug@@ 47
marketing 47
f 47
connected 47
selling 47
Speci@@ 47
year@@ 47
| 47
immediate 47
Others 47
friendly 47
equ@@ 47
Ref@@ 47
Court 47
14,@@ 47
Source 47
recruitment 47
selected 47
ownership 47
updated 47
Off@@ 47
Liter@@ 47
categor@@ 47
Direct 47
RF 47
transport 47
Council 46
vegetables 46
PA@@ 46
non 46
dealt 46
nodal 46
Learning 46
Medium 46
92 46
Branch 46
documents 46
format 46
mining 46
look 46
undertaking 46
mu@@ 46
underway 46
tax@@ 46
g 46
Yojana 46
ure 46
substantial 46
ES@@ 46
prospects 46
sensitive 46
ained 46
BE 46
political 46
2.5 46
cut 46
61 46
commitments 46
gained 46
reck@@ 46
urement 46
rol@@ 46
periods 46
81 46
prompt 46
Standing 46
tools 46
AA 46
commencement 46
Top 46
Pune 46
Eff@@ 46
steel 46
Es 46
ified 46
AI@@ 46
all-@@ 46
attention 46
28.@@ 46
because 45
suggest 45
migr@@ 45
rat@@ 45
establishing 45
became 45
notice 45
operate 45
affordable 45
tial 45
cat@@ 45
cycl@@ 45
window 45
MC 45
K 45
Registrar 45
man@@ 45
inv@@ 45
itself 45
engagement 45
utation 45
constitute 45
2006 45
parag@@ 45
headed 45
ident 45
19.@@ 45
MB@@ 45
Com@@ 45
involving 45
MD 45
fir@@ 45
understanding 45
Resource 45
Processing 45
69 45
Investors 45
Consumer 45
contrast 45
metric 45
implications 45
d. 45
applied 45
Within 45
resource 45
architecture 45
tune 45
tors 45
mises 44
encouraging 44
liqu@@ 44
entation 44
code 44
inclusive 44
PF 44
go 44
grad@@ 44
districts 44
Uttar 44
2007 44
frequency 44
identi@@ 44
Red@@ 44
Similarly 44
user 44
purchased 44
Urban 44
dealing 44
Nor@@ 44
allotted 44
dents 44
Ki@@ 44
OD@@ 44
1955 44
component 44
all@@ 44
team 44
propor@@ 44
believes 44
solvency 44
1,0@@ 44
ession 44
dimin@@ 44
divid@@ 44
52 44
puted 44
joining 44
migration 44
Insolvency 44
Guarantee 44
request 44
sub-section 44
acceptance 44
publications 44
permission 44
sees 44
ules 44
me@@ 44
ensed 44
coordination 44
sequent 44
anc@@ 44
imposed 44
equal 44
Second 44
pp@@ 44
Agreement 44
ob@@ 44
te@@ 44
household 44
forec@@ 44
auction 43
uting 43
Two 43
ugg@@ 43
sement 43
62 43
AND 43
cation 43
cast 43
ensing 43
H 43
aimed 43
02 43
amendments 43
judgment 43
Har@@ 43
Food 43
dynamic 43
mandatory 43
coming 43
law 43
ressed 43
od 43
ier 43
Growth 43
to-@@ 43
ters 43
combination 43
centers 43
Gandhi 43
200 43
PR 43
iting 43
train@@ 43
Fore@@ 43
capabilities 43
skill 43
ority 43
Ar@@ 43
whereas 43
t. 43
outlets 43
round 43
de 43
College 43
cooperation 43
procurement 43
Co 43
filed 43
situation 43
Thus 43
06 43
super@@ 43
Lt@@ 43
calcul@@ 43
ders 43
changing 43
mandated 42
itiz@@ 42
considerable 42
Of 42
reconc@@ 42
regularly 42
organisation 42
revis@@ 42
mor@@ 42
raise 42
conventional 42
Organisation 42
near 42
Governments 42
03 42
11,@@ 42
PL 42
Notice 42
ful 42
Cor@@ 42
dates 42
97 42
nor 42
registering 42
margin 42
cater 42
representing 42
ition 42
zed 42
Tru@@ 42
it-@@ 42
email 42
solar 42
issuing 42
directed 42
authorized 42
Il@@ 42
complaint 42
progres@@ 42
am 42
CO 42
50@@ 42
district 42
considering 42
urities 42
ak@@ 42
posure 42
guaran@@ 42
quoted 41
Bul@@ 41
Although 41
atic 41
exceed 41
serve 41
apply 41
ancing 41
Real 41
uted 41
requests 41
Mer@@ 41
furn@@ 41
ming 41
percent 41
mer@@ 41
impl@@ 41
deter@@ 41
oration 41
gg@@ 41
utilised 41
Sensex 41
boards 41
bul@@ 41
contain 41
ditions 41
author@@ 41
Maharashtra 41
comply 41
etings 41
list 41
25.@@ 41
09 41
ily 41
parent 41
stringent 41
estimate 41
convenience 41
curve 41
5-@@ 41
CSR 41
Exp@@ 41
2.0 41
subjected 41
turnover 41
ulating 41
ken 41
machinery 40
accum@@ 40
ght@@ 40
56 40
HF@@ 40
D-@@ 40
THE 40
latter 40
compar@@ 40
examine 40
practice 40
vulnerable 40
ve 40
igned 40
teen 40
regist@@ 40
disposal 40
launch 40
gradually 40
plic@@ 40
beneficiaries 40
Im@@ 40
ri@@ 40
ret@@ 40
RI 40
correspon@@ 40
light 40
neither 40
st-@@ 40
10,@@ 40
although 40
wealth 40
tly 40
30@@ 40
official 40
micro@@ 40
tru@@ 40
usual 40
recru@@ 40
incentives 40
Enter@@ 40
Staff 40
uniform 40
Kolkata 40
AAP 40
transition 40
sively 40
ic 40
ev@@ 40
Out 40
incenti@@ 40
Dem@@ 40
sum 40
Asia 40
An@@ 40
www.@@ 40
interventions 40
allow@@ 40
posi@@ 39
buy 39
experts 39
MA@@ 39
parts 39
notification 39
ons 39
disp@@ 39
ains 39
minim@@ 39
RE 39
officer 39
election 39
lowest 39
businesses 39
Statistics 39
portion 39
secondary 39
pass@@ 39
Reports 39
Exper@@ 39
A-@@ 39
estate 39
tra 39
FI 39
IG@@ 39
Process 39
BP 39
pan@@ 39
stimul@@ 39
apart 39
wage 39
Particip@@ 39
DAY 39
ARC 39
structures 39
12,@@ 39
Kisan 39
enture 39
movable 39
Export 39
Centr@@ 39
ven@@ 39
integrity 39
namely 39
did 39
gener@@ 39
Awareness 39
formation 39
extend 39
tracking 39
innovations 39
cip@@ 39
means 39
institution 39
default 39
pus 39
duced 39
expanding 39
84 39
performed 39
rich 39
2022 39
Zonal 38
larger 38
handling 38
proceeds 38
Affairs 38
derly 38
ine 38
played 38
Future 38
enda 38
hosted 38
exhib@@ 38
initially 38
RD 38
ays 38
rein@@ 38
sharing 38
intr@@ 38
behaviour 38
highly 38
declining 38
Area 38
enacted 38
Ind 38
Award 38
thrust 38
uro 38
Pradhan 38
Mantri 38
sponsored 38
aining 38
calendar 38
engineering 38
alities 38
Is@@ 38
needed 38
improvements 38
smooth 38
tain 38
gage 38
1,7@@ 38
DA@@ 38
She 38
ia 38
closely 38
figures 38
conferences 38
har 38
determine 38
DL 38
mechanisms 38
region 38
of@@ 38
Agricultural 38
execution 38
director 38
item 38
looking 38
eman@@ 38
ne@@ 38
consider 38
class 38
itative 38
cheque 38
ulate 38
ories 38
shows 37
lion 37
auto 37
DC 37
duration 37
moving 37
possibility 37
rers 37
stream@@ 37
ism 37
67 37
ight@@ 37
USA 37
iliation 37
located 37
35@@ 37
Units 37
25@@ 37
weekly 37
UAE 37
decrease 37
you 37
certificate 37
roadmap 37
bearing 37
tier 37
sensi@@ 37
Performance 37
pieces 37
consequ@@ 37
let 37
reflects 37
table 37
comes 37
s- 37
applying 37
ial 37
rest 37
owed 37
formulated 37
conc@@ 37
express 37
itting 37
appe@@ 37
assumed 37
once 37
indirect 37
trained 37
ong@@ 37
ections 37
aided 37
Pl@@ 37
substantially 37
findings 37
interv@@ 37
Line 37
claimed 37
renewable 37
atory 37
showed 37
property 37
administered 37
delayed 37
two-@@ 37
buil@@ 37
elements 37
Cooperative 37
regards 37
AL 37
medical 37
inj@@ 37
3-@@ 37
state-@@ 37
91 37
opportunity 36
package 36
noted 36
eng@@ 36
cal 36
enables 36
goal 36
trust 36
DF 36
Contin@@ 36
temporary 36
Fun@@ 36
evolution 36
antly 36
continu@@ 36
iring 36
successful 36
bri@@ 36
constant 36
modes 36
gence 36
indicating 36
care 36
closed 36
administrative 36
steady 36
owing 36
amb@@ 36
1.5 36
overnight 36
hs 36
essential 36
Develop@@ 36
green 36
ash@@ 36
competi@@ 36
excluded 36
BD 36
proposes 36
eh@@ 36
resul@@ 36
min@@ 36
accommod@@ 36
Se@@ 36
0-@@ 36
detection 36
tenure 36
promotion 36
alternative 36
lack 36
challenge 36
Quar@@ 36
intensive 36
Various 36
residents 36
later 36
ite 36
Building 36
Direc@@ 36
independence 36
exchanges 36
Excellence 36
Asian 36
starting 36
ently 36
Survey 36
enses 36
citizens 36
Another 36
Initi@@ 36
mediate 36
instead 36
Personnel 36
Gener@@ 36
leverage 36
South 36
perspective 36
players 36
stake 35
mission 35
journey 35
exists 35
vigil@@ 35
preparing 35
authenti@@ 35
easy 35
fourth 35
framed 35
extension 35
3.5 35
10-@@ 35
K. 35
relief 35
ator@@ 35
lo@@ 35
ranging 35
satisfaction 35
83 35
wing 35
atile 35
reliable 35
perform 35
ary-@@ 35
again 35
contact 35
messages 35
ment@@ 35
incorporated 35
globally 35
00,000 35
appears 35
tment 35
operates 35
Rs.@@ 35
advantage 35
acting 35
register 35
amin 35
print 35
Po@@ 35
Third 35
proceedings 35
module 35
TS 35
Integrated 35
named 35
stabil@@ 35
ously 35
cl@@ 35
j@@ 35
plays 35
agers 35
Social 35
Sup@@ 35
diverse 35
86 35
falling 35
semi-@@ 35
grown 35
Control 35
IM 35
ole 35
ular 35
tests 34
oper@@ 34
cr@@ 34
Bre@@ 34
individ@@ 34
machines 34
City 34
BT 34
therein 34
G20 34
odes 34
sting 34
feas@@ 34
abl@@ 34
ress 34
tioned 34
mort@@ 34
vari@@ 34
certain@@ 34
ten 34
diver@@ 34
BRICS 34
sal 34
rainfall 34
tool 34
providers 34
believe 34
fut@@ 34
ture 34
Meth@@ 34
courses 34
drawing 34
release 34
allocation 34
dent 34
dependent 34
il 34
season 34
ises 34
78 34
addressed 34
Che@@ 34
que 34
incre@@ 34
rou@@ 34
organization 34
sen@@ 34
Mod@@ 34
emphasis 34
initi@@ 34
hand@@ 34
nine 34
sol@@ 34
ex 34
Rights 34
ardi@@ 34
containing 34
Co-@@ 34
7-@@ 34
cities 34
invest 34
sum@@ 34
App@@ 34
gaps 34
Initiative 34
always 34
Kerala 34
Recogn@@ 34
wave 34
46@@ 34
appointment 34
phases 34
Expenditure 34
Sam@@ 34
FA 34
Sur@@ 34
promo@@ 34
Pri@@ 34
mand@@ 34
indicate 34
Hence 34
BA 34
endeav@@ 34
cements 34
amidst 33
tw@@ 33
fun@@ 33
clear 33
name 33
Rajasthan 33
retained 33
Advanced 33
stands 33
smoo@@ 33
pays 33
instance 33
Departments 33
ling 33
three-@@ 33
depending 33
foodgrains 33
ist 33
went 33
ium 33
back@@ 33
contributes 33
drive 33
incentive 33
stri@@ 33
formulation 33
elled 33
peak 33
Autom@@ 33
recoveries 33
approv@@ 33
organis@@ 33
returned 33
after@@ 33
sc@@ 33
compli@@ 33
La@@ 33
campaigns 33
nearly 33
annually 33
Taking 33
route 33
car@@ 33
More 33
arise 33
longer 33
Keeping 33
intention 33
Cre@@ 33
Mission 33
inal 33
Ben@@ 33
prise 33
Meas@@ 33
amendment 33
Amendment 33
follow@@ 33
count 33
multilateral 33
Best 33
lod@@ 33
ensured 33
Do@@ 33
oles@@ 33
establishment 33
chequ@@ 33
anced 33
polic@@ 33
Regist@@ 33
Prac@@ 33
subsi@@ 33
ines 33
quantum 33
so@@ 33
l-@@ 33
1.1 33
prob@@ 33
helps 33
seam@@ 33
acqu@@ 33
stit@@ 32
invent@@ 32
attend 32
Several 32
idation 32
governed 32
innovation 32
por@@ 32
Right 32
provider 32
avail 32
feren@@ 32
box 32
7.5 32
remun@@ 32
No. 32
show 32
youth 32
NPS 32
ins 32
intended 32
variables 32
intervention 32
ens 32
involves 32
JD@@ 32
typically 32
attendance 32
travel 32
Cyber 32
compens@@ 32
NSE 32
environmental 32
crucial 32
court 32
Ste@@ 32
chapter 32
Japan 32
entrusted 32
meets 32
ways 32
Let@@ 32
65.@@ 32
visited 32
det@@ 32
sessions 32
wider 32
language 32
Guaran@@ 32
comments 32
live 32
jewellery 32
PA 32
2000 32
encouraged 32
serv@@ 32
Ru@@ 32
R. 32
DP 32
identifying 32
CP 32
ff 32
dies 32
SS@@ 32
interim 32
work@@ 32
draw@@ 32
activ@@ 32
concentration 32
artic@@ 32
13,@@ 32
languages 32
custom@@ 32
40@@ 32
venture 31
fts 31
supporting 31
ber@@ 31
Additionally 31
weaker 31
guided 31
cing 31
discussed 31
began 31
normal@@ 31
subsequently 31
Online 31
Application 31
registration 31
statistics 31
pursued 31
fortnight 31
certification 31
petroleum 31
Paper 31
cali@@ 31
LE 31
wai@@ 31
speed 31
ely 31
accept 31
preferred 31
allowance 31
link 31
partnership 31
tan@@ 31
abil@@ 31
ization 31
uration 31
managers 31
ticals 31
usually 31
outcomes 31
ut 31
low@@ 31
brand 31
fies 31
newly 31
els 31
pai@@ 31
2,4@@ 31
optim@@ 31
wages 31
MM@@ 31
NM@@ 31
suitable 31
aim 31
administration 31
tolerance 31
Por@@ 31
establishments 31
discre@@ 31
Singapore 31
suggestions 31
putting 31
Z@@ 31
ns 31
enters 31
onwards 31
connection 31
deployment 31
cuts 31
pay@@ 31
handled 31
ion 31
necess@@ 31
representatives 31
productive 31
Hol@@ 31
anda 31
esti@@ 31
2-@@ 31
erts 31
Scheduled 31
Consid@@ 31
contribute 30
port@@ 30
Status 30
til@@ 30
focusing 30
adopting 30
Pv@@ 30
cannot 30
eds 30
isal 30
upgraded 30
ibility 30
Series 30
AT 30
must 30
32.@@ 30
ard@@ 30
poor 30
entry 30
1.2 30
significance 30
University 30
tiveness 30
10,000 30
Force 30
Those 30
oc@@ 30
sheets 30
cle 30
bed 30
Green 30
Subsequently 30
demands 30
bodies 30
sovereign 30
press 30
consist@@ 30
arrive 30
tices 30
ist@@ 30
aired 30
aeg@@ 30
authority 30
07 30
backing 30
.com 30
executed 30
escal@@ 30
participate 30
dra@@ 30
ard 30
degree 30
Mauritius 30
interface 30
prevalent 30
yet 30
Vision 30
expand 30
CE 30
consumers 30
4.5 30
Analy@@ 30
Malaysia 30
bott@@ 30
pris@@ 30
fo@@ 30
VC 29
Africa 29
cere@@ 29
Tur@@ 29
converted 29
tensions 29
xit 29
assistance 29
targeted 29
sour@@ 29
Mechan@@ 29
Personal 29
ata 29
ang@@ 29
big 29
Federal 29
communicate 29
qualified 29
zero 29
allowing 29
responses 29
Number 29
Bond 29
1961 29
esses 29
indices 29
Large 29
Dra@@ 29
conclusion 29
predic@@ 29
ase 29
push 29
2009-@@ 29
de-@@ 29
Announ@@ 29
iscal 29
participated 29
250 29
Vigilance 29
mostly 29
0.5 29
subsidy 29
resolved 29
European 29
track 29
Strategic 29
Relation@@ 29
SL 29
para 29
alled 29
35.@@ 29
secret@@ 29
processed 29
grou@@ 29
att@@ 29
Minister 29
clearly 29
duct 29
unprecedented 29
consist 29
abi 29
Tamil 29
ess 29
Network 29
Sun@@ 29
tun@@ 29
usion 29
Efforts 29
compensation 29
traction 29
favour 29
capability 29
ern@@ 29
claim 29
Ill 29
burden 29
alternate 29
merchant 29
London 28
vice 28
virtual 28
Nepal 28
Guid@@ 28
accountability 28
deleg@@ 28
content 28
docum@@ 28
room 28
counsel@@ 28
belief 28
absence 28
outbreak 28
valid 28
deep@@ 28
1.3 28
recently 28
specifically 28
employed 28
itions 28
influence 28
safegu@@ 28
arding 28
2002 28
correct 28
Despite 28
Representative 28
cancellation 28
transportation 28
NT 28
vehicles 28
Lim@@ 28
tioning 28
tious 28
driving 28
tern@@ 28
appeals 28
0.1 28
iciency 28
functional 28
2,000 28
36@@ 28
handle 28
clean 28
ishing 28
protect 28
delivered 28
Employment 28
tories 28
Currently 28
08.@@ 28
liber@@ 28
accommodation 28
lets 28
capture 28
cally 28
shock 28
Price 28
reads 28
reviewing 28
esting 28
neutral 28
workers 28
domain 28
iled 28
65@@ 28
advisory 28
scal@@ 28
discussions 28
Bi@@ 28
tary 28
Master 28
der 28
numbers 28
tized 28
chase 28
PT 28
net@@ 28
sought 28
follow 28
delay 28
4.0 28
seminar 28
incident 28
iz@@ 28
RTI 28
ined 28
Identi@@ 28
Details 28
road 28
priorities 28
App 28
equipment 27
Jaipur 27
awards 27
gi@@ 27
task 27
stat@@ 27
sha@@ 27
linkages 27
informed 27
just 27
6.5 27
OR@@ 27
5.0 27
21-@@ 27
hal@@ 27
au@@ 27
sustainability 27
ower 27
etisation 27
Sy@@ 27
booked 27
1-@@ 27
ass 27
50,000 27
Or@@ 27
bo@@ 27
icing 27
suggested 27
comfort 27
math 27
varied 27
metal 27
stronger 27
Though 27
attending 27
draw 27
function@@ 27
ups 27
Us 27
1,4@@ 27
allow 27
topics 27
atisti@@ 27
disputed 27
inception 27
jointly 27
aded 27
evident 27
deliver 27
proved 27
IP 27
IL@@ 27
Not 27
cum@@ 27
juris@@ 27
clu@@ 27
selection 27
cy@@ 27
time-@@ 27
Power 27
elling 27
bur@@ 27
tful 27
regions 27
Analysis 27
ud 27
ner 27
ow 27
increasingly 27
ast 27
thir@@ 27
Benefits 27
ot@@ 27
val@@ 27
penetr@@ 27
a. 27
z 27
Smt 27
depend 27
upgrad@@ 27
.in 27
allotment 27
apers 26
spi@@ 26
balanced 26
drivers 26
unique 26
M-@@ 26
CB 26
AR 26
Madhya 26
Agre@@ 26
cod@@ 26
comparison 26
Academy 26
xed 26
considerably 26
atively 26
spec@@ 26
read@@ 26
seeing 26
ails 26
establish 26
proportion 26
Br@@ 26
original 26
eding 26
e-based 26
Va@@ 26
vid@@ 26
Enforcement 26
touch 26
cumulative 26
maintains 26
vehicle 26
networks 26
irrespective 26
roll 26
gl@@ 26
double 26
procedure 26
SR@@ 26
1995 26
nation@@ 26
type 26
lock@@ 26
targeting 26
outreach 26
S-@@ 26
coordinated 26
IN 26
94 26
Zealand 26
ducted 26
ov@@ 26
1.8 26
EX@@ 26
engage 26
enterprise 26
promoted 26
ree 26
presently 26
ever 26
Ahmedabad 26
generate 26
Prior 26
Protection 26
penalty 26
izes 26
15,@@ 26
posed 26
views 26
Nain@@ 26
ital 26
challenging 26
Current 26
failed 26
prevention 26
ences 26
situated 26
incorpor@@ 26
computing 26
wal 26
asting 26
2005 26
DI@@ 26
Up 26
of-the-art 26
expertise 26
alling 26
ifying 26
ison 26
ecosystem 26
1,8@@ 26
anch@@ 26
career 26
digit 26
tively 25
Pres@@ 25
East 25
Flo@@ 25
Bu@@ 25
certified 25
Disaster 25
climate 25
phones 25
full-@@ 25
declaration 25
1.0 25
viable 25
concept 25
mitting 25
38.@@ 25
sti@@ 25
Computer 25
stay 25
Parliament 25
Principal 25
shifted 25
tur@@ 25
adopt 25
fit 25
1,6@@ 25
stages 25
sensitivity 25
yan@@ 25
ount 25
stocks 25
surrounding 25
vi 25
.0@@ 25
Inter-@@ 25
ana 25
compe@@ 25
School 25
ICT 25
pol@@ 25
iron 25
retired 25
minutes 25
ple 25
organisations 25
Its 25
5,000 25
Jammu 25
iness 25
properly 25
inating 25
uments 25
tap 25
sending 25
Punjab 25
P. 25
consul@@ 25
duties 25
crossed 25
severe 25
alties 25
SEs 25
Back 25
are@@ 25
ground 25
away 25
fting 25
satisfactory 25
introducing 25
saw 25
commodities 25
itates 25
refin@@ 25
obtaining 25
dry 25
body 25
figure 25
worthy 25
bor@@ 25
Governors 25
gress 25
prevent 25
ships 25
# 25
generating 25
operators 25
Corpor@@ 25
stop 25
mix 25
exposed 25
operated 25
Both 25
password 25
invested 25
provisional 25
choice 24
Ris@@ 24
simple 24
ware@@ 24
AC 24
US@@ 24
ched 24
Dil@@ 24
ack 24
electr@@ 24
Innovation 24
filing 24
Nation@@ 24
sand@@ 24
Qu@@ 24
encomp@@ 24
storage 24
nominal 24
spectrum 24
roads 24
distress 24
ori@@ 24
C. 24
3.0 24
ES 24
signs 24
restricted 24
accur@@ 24
Mahatma 24
Goods 24
helping 24
anticipated 24
enhancement 24
certainty 24
files 24
lives 24
relations 24
essional 24
Jan@@ 24
Communication 24
Benefit 24
Task 24
45@@ 24
conducts 24
ore 24
ack@@ 24
relationships 24
Agency 24
1,000 24
Cell 24
requisite 24
lag@@ 24
arriv@@ 24
candidates 24
23,@@ 24
R-@@ 24
ame@@ 24
mo@@ 24
inspec@@ 24
ems 24
E-@@ 24
relates 24
sible 24
preference 24
Quality 24
him 24
Industries 24
NCL@@ 24
digit@@ 24
bilateral 24
initiate 24
tin 24
District 24
2.4 24
NGOs 24
harassment 24
metals 24
ery 24
rather 24
Prevention 24
utilized 24
eer 24
respects 24
Intelligence 24
treatment 24
Supreme 24
EC 24
rent 24
what 24
sequently 24
offs 24
discussion 24
portfol@@ 24
threats 24
intelligence 24
RB 24
placement 24
und@@ 24
dealers 24
connect 23
counting 23
strai@@ 23
instal@@ 23
feature 23
giving 23
pointed 23
FOR 23
ED 23
involve 23
buyers 23
earning 23
program 23
AP 23
oring 23
upgrade 23
attended 23
ra 23
pers@@ 23
gas 23
Min@@ 23
exit 23
elines 23
Taxes 23
endor@@ 23
vegetable 23
exercised 23
Des@@ 23
finalised 23
wake 23
Proc@@ 23
Conference 23
001 23
pping 23
add 23
House 23
27,@@ 23
tab@@ 23
Author@@ 23
bear 23
SCs 23
occur@@ 23
Advance 23
schedule 23
1,9@@ 23
strongly 23
Certific@@ 23
Rat@@ 23
Post 23
800 23
precious 23
avoid 23
dr@@ 23
Conc@@ 23
Each 23
ceiling 23
problem 23
elections 23
ric@@ 23
49.@@ 23
gives 23
Reg@@ 23
journ@@ 23
Chair 23
reasons 23
attached 23
English 23
dw@@ 23
Q 23
D. 23
representative 23
av@@ 23
recommendation 23
forum 23
CD 23
foundation 23
achievement 23
Model 23
communities 23
cap 23
blocks 23
37@@ 23
cent@@ 23
check 23
chest 23
men 23
Oil 23
pressed 23
clause 23
cross 23
voluntary 23
op@@ 23
prosp@@ 23
cas@@ 23
Supply 23
achievements 23
ensation 23
AP@@ 23
boarding 23
getary 23
United 23
-in 23
swit@@ 23
constantly 23
22@@ 23
lap@@ 23
excellence 23
09.@@ 23
According 23
BH@@ 23
centric 23
Pass@@ 23
dro@@ 23
36.@@ 23
MI 23
allows 22
ulation 22
ade 22
Legal 22
late 22
cycles 22
sanctions 22
pro-@@ 22
cur@@ 22
Fair 22
cut@@ 22
Major 22
bulk 22
Transl@@ 22
cou@@ 22
respond 22
Bihar 22
ank 22
Griev@@ 22
pped 22
interaction 22
roles 22
,000 22
ili@@ 22
ck@@ 22
prepare 22
ek@@ 22
write 22
Capacity 22
app 22
ET@@ 22
impe@@ 22
mism 22
tures 22
ces 22
barrel 22
demol@@ 22
liti@@ 22
fil@@ 22
Targ@@ 22
eted 22
contributing 22
Projects 22
submit 22
hang 22
interactive 22
Around 22
front-@@ 22
lis@@ 22
impetus 22
floor 22
expir@@ 22
alists 22
3,6@@ 22
tech 22
0s 22
indicates 22
Golden 22
advice 22
schools 22
ain 22
requ@@ 22
bil@@ 22
DIS@@ 22
cul@@ 22
na 22
fields 22
max@@ 22
backed 22
20,@@ 22
ear@@ 22
writ@@ 22
names 22
agents 22
corporations 22
iation 22
arranged 22
edul@@ 22
quickly 22
Through 22
Mach@@ 22
Awards 22
Pay@@ 22
scen@@ 22
success 22
When 22
corridor 22
iers 22
eases 22
estim@@ 22
ute 22
conclude 22
signals 22
SR 22
execu@@ 22
West 22
rapidly 22
a.@@ 22
attract 22
34.@@ 22
https 22
Dou@@ 22
talent 22
chant 22
Countries 22
lining 22
known 22
nor@@ 22
ster@@ 22
voted 22
AN 21
interrupted 21
CH@@ 21
association 21
Self 21
ice 21
over-@@ 21
ther@@ 21
sibilities 21
02.@@ 21
assist 21
Auto 21
effort 21
automatic 21
1.6 21
exporters 21
MP@@ 21
loc@@ 21
var@@ 21
ordination 21
tor-@@ 21
probability 21
articles 21
cause 21
Health 21
dible 21
milest@@ 21
introduce 21
ay 21
Mor@@ 21
marg@@ 21
diesel 21
consisting 21
declare 21
ums 21
07.@@ 21
Where 21
majority 21
universal 21
CH 21
aper@@ 21
FA@@ 21
Due 21
Nifty 21
shar@@ 21
Up@@ 21
fundam@@ 21
integr@@ 21
arbit@@ 21
Certi@@ 21
discus@@ 21
ade@@ 21
300 21
Schemes 21
ranked 21
edge 21
aware 21
undering 21
outlay 21
attractive 21
Crore 21
academic 21
contained 21
preventive 21
tic 21
capable 21
Industry 21
got 21
Doll@@ 21
CL@@ 21
Therefore 21
8-@@ 21
ferti@@ 21
Resources 21
Annex@@ 21
universities 21
Change 21
Foundation 21
discipline 21
dat@@ 21
bles 21
Results 21
places 21
fifth 21
Rupe@@ 21
revive 21
B. 21
rel@@ 21
associate 21
hike 21
client 21
J 21
distinct 21
constitution 21
extensive 21
accessible 21
74.@@ 21
personnel 21
partners 21
al-@@ 21
Bl@@ 21
sexual 21
ran@@ 21
ours 21
considers 21
posting 21
e.@@ 21
upgradation 21
liquid 21
1000 21
character@@ 21
questions 21
MB 21
Nadu 21
Open 21
distributed 21
version 21
becoming 21
plants 21
capacities 21
ment-@@ 21
deep 21
definition 21
uter@@ 21
reservation 21
06.@@ 21
carries 21
fores@@ 21
remedi@@ 21
TO@@ 20
visits 20
Ne@@ 20
soft 20
pat@@ 20
Andhra 20
Odisha 20
PAT 20
shortly 20
gradation 20
conf@@ 20
vention 20
domin@@ 20
64.@@ 20
backs 20
advis@@ 20
exemp@@ 20
N. 20
how 20
forced 20
occurred 20
Till 20
ving 20
Zone 20
confirmed 20
dum@@ 20
mortality 20
7th 20
Bhutan 20
25,000 20
Doc@@ 20
ner@@ 20
wheat 20
gone 20
39@@ 20
doub@@ 20
ecu@@ 20
tested 20
prec@@ 20
scrip@@ 20
F-@@ 20
Cer@@ 20
sign@@ 20
Ch@@ 20
threat 20
55.@@ 20
difficulties 20
ze 20
2,7@@ 20
getting 20
expert 20
MG@@ 20
mixed 20
ologies 20
istic 20
bedded 20
Establ@@ 20
tionary 20
des@@ 20
Product 20
prep@@ 20
judicial 20
tro@@ 20
tionally 20
linking 20
Indians 20
ects 20
observ@@ 20
mary 20
comfor@@ 20
trends 20
formats 20
1956 20
belonging 20
Quali@@ 20
Division 20
earmarked 20
Law 20
Member 20
Prime 20
proposal 20
philosophy 20
governing 20
ention 20
1998 20
ematic 20
e-commerce 20
Syn@@ 20
incidents 20
conducive 20
vig@@ 20
ordinate 20
examining 20
4-@@ 20
LPG 20
mul@@ 20
ram@@ 20
new@@ 20
ya 20
developmental 20
ateway 20
recur@@ 20
fast 20
reform 20
expedi@@ 20
Organ@@ 20
prin@@ 20
Neg@@ 20
winds 20
ight 20
apex 20
UP 20
link@@ 20
oo@@ 20
landscape 20
itation 20
devices 20
19,@@ 20
nic@@ 20
Medi@@ 20
NDA 20
Ug@@ 20
aff@@ 20
proc@@ 20
interested 20
ke 19
bility 19
programs 19
horticulture 19
hi 19
ide 19
Form 19
communic@@ 19
votes 19
adversely 19
inc@@ 19
flex@@ 19
lost 19
38@@ 19
machine 19
excise 19
ick 19
village 19
iciently 19
she 19
gar 19
Sp@@ 19
rati@@ 19
destination 19
e. 19
1.7 19
essentially 19
reviv@@ 19
widely 19
settled 19
ind@@ 19
delivering 19
inst@@ 19
MoU 19
t-up 19
displayed 19
words 19
inqu@@ 19
merged 19
ect 19
workshop 19
Febr@@ 19
CAG 19
uals 19
A. 19
Bangalore 19
nation 19
erial 19
intern@@ 19
closer 19
1999 19
location 19
privileged 19
gan@@ 19
exceeding 19
crip@@ 19
example 19
ored 19
pression 19
ine@@ 19
IV 19
400 19
buying 19
outs 19
holistic 19
installation 19
cryp@@ 19
camps 19
faculty 19
utions 19
transit 19
desig@@ 19
queries 19
uploaded 19
newspapers 19
lying 19
accurate 19
loaded 19
controlled 19
ech@@ 19
colleges 19
facing 19
37.@@ 19
Related 19
m. 19
participating 19
Certificate 19
seventh 19
PO 19
rest@@ 19
transforming 19
grade 19
here 19
ship@@ 19
govern@@ 19
start 19
websites 19
Peri@@ 19
ellate 19
On@@ 19
gers 19
Prices 19
Make 19
tem@@ 19
PL@@ 19
fruits 19
highlights 19
eter@@ 19
half-@@ 19
Software 19
tiz@@ 19
ject 19
ink 19
Higher 19
Bengal 19
enter 19
exceptional 19
Independent 19
runs 19
note@@ 19
Kar@@ 19
OP@@ 19
Karnataka 19
turning 19
visible 19
Distribution 19
lot 19
e-up 19
technologies 19
attributed 19
brings 19
tify 19
web 19
53.@@ 19
sup@@ 19
presents 19
ound@@ 19
history 19
ership 19
depth 19
2.2 19
46.@@ 19
les 19
g. 19
6-@@ 19
quick 19
announ@@ 19
ault 19
entrepreneurs 19
eless 19
translation 19
Europe 18
inate 18
desired 18
granting 18
Ajay 18
horiz@@ 18
partmental 18
adap@@ 18
Knowledge 18
intends 18
Work 18
Fl@@ 18
0.3 18
seas@@ 18
rela@@ 18
opted 18
duc@@ 18
nomination 18
affir@@ 18
Does 18
conference 18
theme 18
hotels 18
Dec@@ 18
frame 18
ured 18
waste 18
difficult 18
sentiments 18
defin@@ 18
jurisdiction 18
continuation 18
> 18
lined 18
eable 18
Construction 18
realized 18
matches 18
sample 18
pursuing 18
= 18
Voting 18
publ@@ 18
my 18
restr@@ 18
Cent@@ 18
owns 18
Persons 18
stag@@ 18
tap@@ 18
Dig@@ 18
i-@@ 18
top@@ 18
VI 18
touched 18
pillars 18
le-@@ 18
passenger 18
-India 18
judg@@ 18
trigg@@ 18
vendors 18
conservation 18
ults 18
2,6@@ 18
2019-@@ 18
47.@@ 18
thly 18
adi@@ 18
erable 18
comfortable 18
est@@ 18
leaders 18
instant 18
sett@@ 18
pick 18
shared 18
tourist 18
recording 18
accorded 18
hit 18
PM 18
login 18
ihood 18
explore 18
stitutes 18
-day 18
My@@ 18
exercises 18
leads 18
partnerships 18
Ra@@ 18
tancy 18
2001 18
offerings 18
serving 18
0.6 18
54.@@ 18
Movement 18
exempted 18
HA@@ 18
Reforms 18
globe 18
computer 18
experienced 18
entries 18
deteriorated 18
ger 18
sowing 18
Russia 18
Technologies 18
DG@@ 18
FAS@@ 18
Tag 18
dered 18
DI 18
consistently 18
gets 18
ariat 18
massive 18
infections 18
surance 18
ification 18
might 18
rapid 18
ordin@@ 18
decades 18
Head@@ 18
expressing 18
Mark@@ 18
LL@@ 18
coin 18
CT@@ 18
job 18
discuss 18
exclusively 18
ote 18
rank 18
suffered 18
alth 18
controlling 18
hours 18
ace 18
complex@@ 18
near@@ 18
mut@@ 18
pulled 18
Region 18
preventing 18
Fig@@ 18
ender 18
enter@@ 18
Prob@@ 18
Point 18
mar@@ 18
Bh@@ 18
th-@@ 18
neutr@@ 18
weigh@@ 18
cus@@ 18
ogen@@ 18
66.@@ 18
onions 18
person@@ 18
een 18
eth@@ 18
southwest 17
Groups 17
bad 17
invited 17
enough 17
worldwide 17
retain 17
Inte@@ 17
rests 17
Fit 17
yant 17
FT@@ 17
consu@@ 17
candidate 17
ils 17
62.@@ 17
0.4 17
Phase 17
Procedure 17
Sal@@ 17
marking 17
Hand@@ 17
ges 17
playing 17
fur@@ 17
Rel@@ 17
Improv@@ 17
Action 17
mption 17
stitu@@ 17
represent@@ 17
sor@@ 17
bing 17
missible 17
aren@@ 17
Bombay 17
cros@@ 17
emer@@ 17
42.@@ 17
Jain 17
bon@@ 17
utility 17
sugar 17
the-@@ 17
institutes 17
aming 17
mal@@ 17
Vikas 17
partner 17
particip@@ 17
equipped 17
flagship 17
traditional 17
popular 17
igh@@ 17
AM 17
reaching 17
Inf@@ 17
ali@@ 17
r 17
ize 17
99.@@ 17
Hong 17
Kong 17
Test 17
dilig@@ 17
withdrawn 17
raw 17
GS@@ 17
yed 17
responded 17
cust@@ 17
Economy 17
seeking 17
defaul@@ 17
vital 17
ographic 17
IG 17
pursue 17
professionals 17
influenced 17
releases 17
methods 17
prot@@ 17
ection@@ 17
band 17
ila 17
Import 17
bb@@ 17
ump@@ 17
children 17
incidence 17
16,@@ 17
You 17
UC@@ 17
abled 17
pensioners 17
relate 17
sanc@@ 17
greg@@ 17
rer 17
24,@@ 17
sized 17
Assistance 17
Traders 17
toll 17
chemicals 17
20th 17
involvement 17
win@@ 17
48.@@ 17
condition 17
imperative 17
Cha@@ 17
Hon 17
mile 17
Pe@@ 17
Ts 17
block 17
harvest 17
Loo@@ 17
determination 17
21@@ 17
5th 17
itable 17
parti@@ 17
resolve 17
page 17
ler 17
vary 17
ara 17
rains 17
plun@@ 17
Kashmir 17
certi@@ 17
Vi@@ 17
1.4 17
absolute 17
dness 17
financially 17
Self-@@ 17
detect 17
thermal 17
speedy 17
pursuit 17
freight 17
word 17
Administration 17
defic@@ 17
Death 17
Institutes 17
49@@ 17
distri@@ 17
par 17
limitations 17
geographical 17
Path 17
patterns 17
og@@ 16
45.@@ 16
1996 16
oun@@ 16
ff@@ 16
dominant 16
Rajiv 16
Vo@@ 16
avo@@ 16
convergence 16
tuary 16
ex-@@ 16
raft 16
ailed 16
EU 16
send 16
bridge 16
80@@ 16
shr@@ 16
fier 16
cease 16
gri@@ 16
avenues 16
Consul@@ 16
Call 16
teams 16
manual 16
sustain 16
ration 16
Pen@@ 16
Conn@@ 16
variety 16
67.@@ 16
chains 16
Thereafter 16
1990 16
Allahabad 16
falls 16
death 16
junction 16
showing 16
verification 16
ed-@@ 16
judgement 16
ved 16
rice 16
functionaries 16
driver 16
air 16
failure 16
eting 16
division 16
or-@@ 16
triggered 16
pronounced 16
felt 16
TI 16
hia 16
publication 16
32@@ 16
sition 16
realistic 16
slow 16
cell 16
exemption 16
discovery 16
63.@@ 16
President 16
El@@ 16
Four@@ 16
alongside 16
apped 16
envisages 16
2020-@@ 16
partic@@ 16
Engineering 16
Cap@@ 16
appearing 16
1,3@@ 16
forecast 16
ben@@ 16
Shor@@ 16
wal@@ 16
entr@@ 16
rid@@ 16
Professor 16
minority 16
zones 16
cles 16
rare 16
entering 16
spreading 16
Jubilee 16
Gulf 16
consult@@ 16
fer@@ 16
Declaration 16
investing 16
car 16
removed 16
Liv@@ 16
troller 16
Att@@ 16
successive 16
fulfilling 16
ue 16
Medical 16
aside 16
duction 16
sues 16
metro 16
AB 16
ro 16
Ver@@ 16
rafts 16
Institu@@ 16
Econom@@ 16
ima 16
insi@@ 16
advertisements 16
ementary 16
sugg@@ 16
st 16
utes 16
mobility 16
understand 16
organising 16
fa@@ 16
Not@@ 16
exclusive 16
row 16
detected 16
connectivity 16
201 16
liable 16
Import@@ 16
foot@@ 16
serves 16
experiences 16
locked 16
can@@ 16
disruption 16
BCM 16
gran@@ 16
valuable 16
ergy 16
textiles 16
themes 16
ailing 16
Ordinance 16
railway 16
and@@ 16
previously 16
spon@@ 16
Marketing 16
Lead@@ 16
ecture 16
partially 16
Modi@@ 16
Plans 16
Lak@@ 16
Part 16
parallel 16
ep 16
low-@@ 15
ned 15
DP@@ 15
LIC 15
constructed 15
Iran 15
element 15
disclose 15
sequ@@ 15
viol@@ 15
Tran@@ 15
under-@@ 15
visit 15
classes 15
former 15
eminent 15
union 15
Singh 15
modern 15
SSC 15
dam@@ 15
associations 15
sick 15
Property 15
protecting 15
centi@@ 15
Category 15
plant 15
asked 15
produced 15
contemporary 15
Chang@@ 15
financi@@ 15
explo@@ 15
fic@@ 15
foster 15
ell@@ 15
Return 15
CSO 15
arded 15
aint 15
excep@@ 15
larg@@ 15
Commerce 15
PAN 15
wan@@ 15
2,9@@ 15
Please 15
ham@@ 15
fic 15
apping 15
seeks 15
import@@ 15
Swar@@ 15
Has@@ 15
mukh 15
Road 15
economics 15
Heads 15
scrutiny 15
ty@@ 15
120 15
Bharatiya 15
co-operation 15
ested 15
tise 15
MU@@ 15
labourers 15
long@@ 15
Bun@@ 15
Uttarakhand 15
Testing 15
Us@@ 15
where@@ 15
ported 15
VS 15
Economics 15
zone 15
YouTube 15
64@@ 15
Products 15
indication 15
tender 15
materials 15
17,@@ 15
ri 15
young 15
Vish@@ 15
pool 15
Mah@@ 15
appointing 15
stric@@ 15
assum@@ 15
graduate 15
Emp@@ 15
mass 15
Di@@ 15
ites 15
Study 15
PCR 15
2,5@@ 15
indigen@@ 15
relatives 15
cleared 15
occur 15
gender 15
SIM 15
Friday 15
Mal@@ 15
Korea 15
ride 15
etric 15
plate 15
behavi@@ 15
focus@@ 15
lac@@ 15
India@@ 15
Bar@@ 15
producing 15
stipul@@ 15
M. 15
Planning 15
ghts 15
69@@ 15
North 15
Work@@ 15
computers 15
unable 15
ify 15
observations 15
ights 15
sudden 15
preparedness 15
3,7@@ 15
CS 15
Commissioner 15
edged 15
xim@@ 15
rist@@ 15
partial 15
irregularities 15
colonies 15
° 15
instances 15
calls 15
leader 15
post@@ 15
lies 15
Land 15
Canada 15
arrived 15
borne 15
display 15
panel 15
ero@@ 15
55@@ 15
rendered 15
commen@@ 15
Australia 15
Bengaluru 15
-off 14
Middle 14
thirty 14
iding 14
regulate 14
territory 14
comm@@ 14
Ev@@ 14
disciplinary 14
nomin@@ 14
PRO@@ 14
Gandhinagar 14
sparen@@ 14
ur 14
Estate 14
art 14
Vadodara 14
attempts 14
chang@@ 14
techniques 14
relax@@ 14
erations 14
deliber@@ 14
cotton 14
sk@@ 14
family 14
edi@@ 14
Center 14
receiving 14
itu@@ 14
Finally 14
oll 14
beneficial 14
Jun@@ 14
documentary 14
petrol 14
approximately 14
any@@ 14
Ow@@ 14
dep@@ 14
ets 14
6,000 14
alism 14
vement 14
oming 14
sole 14
orig@@ 14
UTs 14
68@@ 14
traffic 14
supports 14
Support 14
18,@@ 14
Ud@@ 14
confirm 14
explanation 14
collapse 14
enquiry 14
2004 14
riya 14
organizations 14
ills 14
sites 14
anti-@@ 14
irrigation 14
huge 14
expect 14
kes 14
phone 14
ma@@ 14
2,0@@ 14
railways 14
Govt 14
cluster 14
spent 14
explored 14
DBT 14
350 14
ferences 14
Wor@@ 14
Grievances 14
assing 14
bl@@ 14
50.@@ 14
houses 14
MSP 14
ile 14
hour 14
eligibility 14
somewhat 14
real-@@ 14
48@@ 14
gathered 14
tor 14
Last 14
ak 14
discharge 14
upper 14
Commit@@ 14
umped 14
ure@@ 14
launching 14
scholarship 14
ech 14
Chapter 14
ze@@ 14
Nagar 14
stakehol@@ 14
graded 14
forces 14
Sustainable 14
-free 14
cancelled 14
highlighted 14
appreciated 14
Agr@@ 14
encing 14
guarante@@ 14
voc@@ 14
ruling 14
pur@@ 14
Welfare 14
U-@@ 14
IND 14
telec@@ 14
tural 14
differ 14
20,000 14
ene 14
break@@ 14
150 14
ath@@ 14
run@@ 14
atoes 14
ym@@ 14
with@@ 14
missions 14
05.@@ 14
pushed 14
collected 14
Access 14
accompanying 14
convention 14
ple@@ 14
Plat@@ 14
Emer@@ 14
legislative 14
ity-@@ 14
cloud 14
G. 14
lu@@ 14
4th 14
tra-@@ 14
ft 14
ful@@ 14
rin@@ 14
explained 14
Glo@@ 14
spite 14
asts 14
pharmaceu@@ 14
-1 14
empowered 14
perpe@@ 14
coordin@@ 14
60.@@ 14
ounded 14
phenomenon 14
istic@@ 14
fundamental 14
Jan 14
gr@@ 14
icient 14
lag 14
deepen 14
hip 14
oured 14
DC@@ 14
promp@@ 14
COVID 14
la 14
ab 14
regulator 14
66@@ 14
FP 14
che 14
His 14
workplace 14
23@@ 14
Southern 14
3,4@@ 14
boo@@ 14
sub 14
Dehradun 14
DM@@ 14
Administrative 14
representation 14
IMS 14
OBC 14
Eastern 13
Cycl@@ 13
missed 13
whenever 13
125 13
chaired 13
empowering 13
Yet 13
cha@@ 13
Categ@@ 13
fall@@ 13
tivity 13
23rd 13
contents 13
tion-@@ 13
consid@@ 13
stand 13
soon 13
Generation 13
diversity 13
carefully 13
retri@@ 13
MP 13
2003 13
superior 13
themselves 13
whom 13
collectively 13
conven@@ 13
rule 13
Tax@@ 13
ans@@ 13
sion@@ 13
priced 13
ounding 13
them@@ 13
part@@ 13
herent 13
and-@@ 13
FO@@ 13
war 13
brief 13
hardware 13
running 13
Car@@ 13
voice 13
described 13
thank 13
commissioned 13
Pat@@ 13
itably 13
Twitter 13
farming 13
milk 13
traders 13
Sust@@ 13
den@@ 13
attacks 13
divided 13
twenty 13
Class 13
workforce 13
Mud@@ 13
ran 13
ron@@ 13
cribed 13
iel@@ 13
relevance 13
concerted 13
TA 13
extraordinary 13
indu@@ 13
ranking 13
ill 13
Bahrain 13
fears 13
ishes 13
ld@@ 13
insul@@ 13
elim@@ 13
i.@@ 13
decide 13
GST@@ 13
Mr. 13
Telangana 13
acknowledge 13
communications 13
B.@@ 13
long-@@ 13
9-@@ 13
Patel 13
intensity 13
ells 13
bre@@ 13
acknowledged 13
Surve@@ 13
34@@ 13
Bureau 13
NF@@ 13
cultural 13
sustenance 13
complex 13
Tribunal 13
happy 13
countr@@ 13
Ma@@ 13
quite 13
lays 13
Western 13
¥ 13
57@@ 13
Channel 13
privilege 13
2,3@@ 13
subst@@ 13
expression 13
2,8@@ 13
emergency 13
harvesting 13
containment 13
MG 13
Main@@ 13
pan 13
posing 13
chron@@ 13
Priv@@ 13
station@@ 13
Farmers 13
Operation 13
RR 13
ume 13
contains 13
cells 13
advant@@ 13
casting 13
ML@@ 13
replacement 13
ared 13
Books 13
Regul@@ 13
Agencies 13
ala 13
hibit 13
1980 13
virus 13
gery 13
update 13
House@@ 13
often 13
arances 13
TP 13
premi@@ 13
notable 13
techn@@ 13
Sales 13
compulsory 13
Trin@@ 13
cal@@ 13
Secretaries 13
uters 13
ll 13
Authorities 13
exam@@ 13
weather 13
sixth 13
700 13
deplo@@ 13
dum 13
Oman 13
Bot@@ 13
cons@@ 13
oph@@ 13
Meanwhile 13
dropped 13
Dhan 13
compromise 13
Ge@@ 13
venue 13
List 13
cadre 13
econom@@ 13
posts 13
stamp 13
seems 13
Gov@@ 13
resumed 13
supplies 13
titled 13
1991 13
Role 13
Five 13
strict 13
cargo 13
engaging 13
video 13
atis@@ 13
vaccine 13
V. 13
intensified 13
avail@@ 13
prop@@ 13
ain@@ 13
plac@@ 13
search 13
ML 13
log@@ 13
excessive 13
600 13
15th 13
west 13
ho@@ 13
Vis@@ 13
Register 13
soci@@ 13
score 13
fulfilled 13
4,9@@ 13
M.@@ 13
acquire 12
opol@@ 12
thod@@ 12
uds 12
tation 12
cident 12
calam@@ 12
earn 12
Memorandum 12
mess@@ 12
India-@@ 12
drag@@ 12
tar 12
clarity 12
nominations 12
ethics 12
edition 12
manufactured 12
city 12
seek 12
PRA@@ 12
GB 12
Portal 12
Once 12
desir@@ 12
Bhar@@ 12
consent 12
elaborate 12
third-@@ 12
straight 12
exception 12
Uni@@ 12
Dubai 12
tising 12
affecting 12
produce 12
ound 12
smaller 12
peti@@ 12
high@@ 12
Common 12
passage 12
Pari@@ 12
Ab@@ 12
endments 12
cu@@ 12
normally 12
accelerate 12
organiz@@ 12
arises 12
existence 12
rella 12
protected 12
fix@@ 12
vaccines 12
citizen 12
cep@@ 12
Sri 12
Lanka 12
ock@@ 12
reaffir@@ 12
an-@@ 12
Swit@@ 12
organized 12
180 12
oj@@ 12
Sans@@ 12
SCO 12
tent 12
Cy@@ 12
fort@@ 12
Mo@@ 12
0.2 12
Nir@@ 12
focuses 12
ish@@ 12
bidding 12
of-@@ 12
enrol@@ 12
ishment 12
links 12
Labour 12
moist@@ 12
distancing 12
internationally 12
lik@@ 12
enh@@ 12
-led 12
Laws 12
advise 12
Nevertheless 12
athan 12
DO 12
plastic 12
198@@ 12
competitions 12
IIT 12
Indira 12
Guwahati 12
SE 12
Gu@@ 12
quantity 12
recomm@@ 12
Lok 12
news 12
Hal@@ 12
quota 12
Three 12
ce 12
quet 12
Deepak 12
pharmaceutical 12
Mysore 12
cated 12
forth 12
intim@@ 12
spend 12
cribing 12
arriving 12
extreme 12
comb@@ 12
Det@@ 12
extends 12
Kanpur 12
well@@ 12
ghtened 12
YO@@ 12
Ro@@ 12
Customs 12
Raipur 12
pe 12
Northern 12
van 12
Campaign 12
nom@@ 12
tak@@ 12
aw@@ 12
evol@@ 12
decis@@ 12
ishments 12
embar@@ 12
ature 12
aviation 12
Cr@@ 12
gar@@ 12
assisted 12
concepts 12
enjoy 12
3,0@@ 12
epis@@ 12
Mac@@ 12
deliberations 12
han@@ 12
Yoj@@ 12
ideas 12
undergo 12
raises 12
contri@@ 12
derived 12
classi@@ 12
laying 12
conferred 12
ues 12
entional 12
pac@@ 12
fastest 12
AY 12
compreh@@ 12
Mehta 12
ingly 12
olog@@ 12
failing 12
worsen@@ 12
suit 12
message 12
drop 12
ti 12
resignation 12
14th 12
Al 12
nominee 12
ast@@ 12
biggest 12
Eng@@ 12
expl@@ 12
guide 12
utili@@ 12
steadily 12
succ@@ 12
gaining 12
eli@@ 12
wind@@ 12
limit@@ 12
ent-@@ 12
drought 12
prominent 12
aving 12
grant 12
school 12
paren@@ 12
thes@@ 12
match 12
leather 12
Facebook 12
11@@ 12
Ministers 12
dy 12
Strength@@ 12
ian 12
Web@@ 12
rig@@ 12
levied 12
< 12
IR 12
attempt 12
cho@@ 12
orm@@ 12
pioneer 12
deposited 12
aspirations 12
priv@@ 12
chief 12
Pan@@ 12
ference 12
-related 12
customs 12
salaries 12
Abhiyan 12
manager 12
bought 12
ing-@@ 12
producers 12
stances 12
WS 12
Sum@@ 12
array 12
exclud@@ 12
inducted 12
equival@@ 12
Produc@@ 12
yer 12
dispute 12
Tri@@ 12
30th 12
susp@@ 12
ample 12
anding 12
ield 12
uty 12
One@@ 11
Lucknow 11
What 11
Help 11
Response 11
occurs 11
refers 11
angle 11
R.@@ 11
protocols 11
illegal 11
Hon@@ 11
aling 11
Forum 11
advantages 11
44@@ 11
clusters 11
Minimum 11
travelling 11
hypo@@ 11
asses 11
Upon 11
aked 11
appoint 11
ept@@ 11
Mov@@ 11
Defence 11
exac@@ 11
Serv@@ 11
So 11
twe@@ 11
prime 11
resol@@ 11
Dist@@ 11
isations 11
tourism 11
extensively 11
passing 11
reveals 11
has@@ 11
1993 11
Sections 11
capita 11
bid@@ 11
sign 11
Now 11
bas 11
entary 11
atters 11
-19 11
Orig@@ 11
prolonged 11
appear 11
assignment 11
gated 11
1,500 11
charging 11
guid@@ 11
ph@@ 11
break 11
amid 11
gm 11
emplo@@ 11
ists 11
ees 11
captured 11
Aat@@ 11
bhar 11
collabor@@ 11
emerge 11
setup 11
PSU 11
realise 11
pipeline 11
viewed 11
replaced 11
television 11
17th 11
uplo@@ 11
PV 11
Mess@@ 11
researchers 11
ir 11
infra@@ 11
relaxation 11
dues 11
masks 11
onal 11
25,@@ 11
Bangladesh 11
thought 11
stones 11
Saudi 11
Bhubaneswar 11
Facil@@ 11
At@@ 11
Factory 11
ke@@ 11
icity 11
sust@@ 11
44.@@ 11
Mob@@ 11
Mid@@ 11
Mohan@@ 11
drugs 11
master 11
facts 11
Memorial 11
ros@@ 11
profession@@ 11
DD 11
goes 11
disaster 11
fulfil 11
2018@@ 11
CIL 11
revealed 11
twin 11
ices 11
Achiev@@ 11
Acts 11
ege 11
Aad@@ 11
Susp@@ 11
Assistant 11
smart 11
collecting 11
acces@@ 11
manpower 11
Japanese 11
ready 11
Retur@@ 11
addresses 11
self 11
Sexual 11
mit@@ 11
approaches 11
never 11
Eligi@@ 11
hel@@ 11
ik@@ 11
perceived 11
ced 11
concluding 11
historic 11
restored 11
hanced 11
Studies 11
recommend 11
via 11
deal@@ 11
GE 11
nur@@ 11
suff@@ 11
SI 11
67@@ 11
progressive 11
Know 11
gave 11
MoUs 11
IND@@ 11
Team 11
Chinese 11
port 11
der@@ 11
popul@@ 11
better@@ 11
hard 11
Chandigarh 11
itted 11
switch 11
Th@@ 11
inking 11
ehol@@ 11
violation 11
May@@ 11
sou@@ 11
tin@@ 11
scholar@@ 11
Car 11
tag@@ 11
chi@@ 11
hub 11
chec@@ 11
How 11
acle 11
27th 11
pass 11
educ@@ 11
Mahindra 11
atically 11
warning 11
Bandra 11
publishing 11
ive 11
simultaneously 11
anywhere 11
essors 11
vaccination 11
pronoun@@ 11
Dom@@ 11
Four 11
UR@@ 11
Goa 11
Sikkim 11
ectively 11
startups 11
Sub 11
Greater 11
seasons 11
ty-@@ 11
little 11
PWD 11
Lin@@ 11
fixing 11
achiev@@ 11
problems 11
0,000 11
eve 11
scientific 11
patri@@ 11
About 11
NRE@@ 11
Promotion 11
Only 11
tom@@ 11
Star@@ 11
silver 11
ived 11
quest 11
reveal 11
present@@ 11
ascertain 11
deceased 11
Venkat@@ 11
legisl@@ 10
permanent 10
Early 10
completely 10
ries 10
quick@@ 10
Er@@ 10
Gazette 10
Notification 10
Telecom 10
permit 10
accompanied 10
accepts 10
Su@@ 10
condi@@ 10
750 10
ditional 10
intensi@@ 10
tend 10
consequence 10
factories 10
renewed 10
assume 10
dependence 10
ew 10
shadow 10
Chall@@ 10
older 10
Fir@@ 10
resorted 10
cutting 10
tern 10
riv@@ 10
dures 10
GE@@ 10
FIC@@ 10
overies 10
MCG 10
sle 10
composite 10
ani 10
ump 10
gro@@ 10
becomes 10
empowerment 10
flu@@ 10
attain 10
Registration 10
Cust@@ 10
essions 10
scr@@ 10
great 10
rap 10
Ph@@ 10
icious 10
save 10
origin@@ 10
INDIA 10
applicants 10
societies 10
goodwill 10
Most 10
fi@@ 10
PSUs 10
itive 10
instrumental 10
ulty 10
Final 10
spirit 10
cate 10
ids 10
manufacturers 10
ept 10
confirmation 10
Steel 10
intense 10
IE@@ 10
possibly 10
Energy 10
Ba@@ 10
Administr@@ 10
ayed 10
find 10
adding 10
Patna 10
assuming 10
bol@@ 10
nesses 10
mind 10
risen 10
Es@@ 10
printed 10
clim@@ 10
Kochi 10
numer@@ 10
extremely 10
represented 10
pur 10
newspaper 10
temporarily 10
book@@ 10
collect 10
legally 10
disabilities 10
dispos@@ 10
Party 10
cultivation 10
possession 10
bered 10
ordinary 10
bands 10
width 10
undergone 10
Ratna 10
viz@@ 10
Saf@@ 10
un 10
alli@@ 10
Mun@@ 10
barriers 10
entive 10
differently 10
main@@ 10
inte@@ 10
license 10
trol@@ 10
mir@@ 10
shoo@@ 10
mild 10
question 10
credibility 10
cer@@ 10
TE@@ 10
Presently 10
eastern 10
shaped 10
innov@@ 10
Schedul@@ 10
30,@@ 10
Sing@@ 10
fined 10
lakhs 10
Mag@@ 10
S.@@ 10
Sar@@ 10
pand@@ 10
Fo@@ 10
York 10
Secret@@ 10
ological 10
ision 10
sev@@ 10
rain 10
Unlike 10
rely 10
cri@@ 10
try 10
meaningful 10
Pacific 10
fallen 10
onion 10
oning 10
ach@@ 10
assembly 10
don@@ 10
Country 10
ental 10
fulfill 10
telecom 10
potentially 10
RDA 10
Satur@@ 10
Start@@ 10
wi@@ 10
lock 10
span 10
Jay@@ 10
akumar 10
vend@@ 10
anned 10
ON 10
expan@@ 10
21st 10
28,@@ 10
formally 10
Bang@@ 10
Tob@@ 10
Six 10
tically 10
1989 10
excellent 10
incid@@ 10
removal 10
conn@@ 10
socio-economic 10
slightly 10
length 10
cour@@ 10
Te@@ 10
rupees 10
Earlier 10
dimensions 10
fre@@ 10
dar@@ 10
2013-@@ 10
adv@@ 10
SD 10
Advis@@ 10
ares 10
tie 10
recover 10
rubber 10
CL 10
Skill 10
orous 10
LS 10
complet@@ 10
ats 10
frontline 10
Jal@@ 10
cess 10
picture 10
council 10
soil 10
Kur@@ 10
laundering 10
Mi@@ 10
quar@@ 10
Increase 10
essed 10
encour@@ 10
doubling 10
Ass@@ 10
file 10
restore 10
severely 10
Prov@@ 10
und 10
26th 10
etting 10
ression 10
Journal 10
m-@@ 10
Kh@@ 10
Revi@@ 10
pic@@ 10
1987 10
Archit@@ 10
fish 10
collaborative 10
rix 10
sy@@ 10
dest@@ 10
Mathem@@ 10
yes 10
Vari@@ 10
attitude 10
concentr@@ 10
iles 10
replacing 10
CMD 10
settle 10
high-@@ 10
inary 10
mal 10
40,000 10
breach 10
Greek 10
aper 10
vac@@ 10
unusual 10
CI 10
61.@@ 10
creates 10
ong-@@ 10
restric@@ 10
Estimates 10
Order 10
tra@@ 10
forefront 10
eman 10
Store 10
weakness 10
pling 10
ati 9
emission 9
appeared 9
damage 9
entially 9
overing 9
mainstream 9
sle@@ 9
Next 9
NG@@ 9
ilseeds 9
uel 9
titude 9
trial 9
reven@@ 9
hands 9
nership 9
resh 9
spe@@ 9
109 9
Bare@@ 9
illy 9
recognise 9
detail 9
ens@@ 9
Streng@@ 9
seem 9
supplied 9
hospitality 9
evidences 9
resolutions 9
surrender 9
step@@ 9
cau@@ 9
Cum@@ 9
entrepreneur@@ 9
im 9
rounds 9
imal 9
satisfied 9
29,@@ 9
flat 9
Tw@@ 9
invest@@ 9
magazine 9
Fle@@ 9
Crude 9
143 9
Brazil 9
NREGA 9
deliberate 9
frequently 9
presided 9
affect 9
errors 9
Buil@@ 9
deliver@@ 9
propag@@ 9
ink@@ 9
satisfac@@ 9
Belgium 9
Tripura 9
ication 9
Reserv@@ 9
Nagpur 9
Indore 9
Germany 9
dress 9
Lic@@ 9
consequences 9
shot 9
ICICI 9
U.@@ 9
lectures 9
Clean 9
reduc@@ 9
Provisional 9
interactions 9
edly 9
166 9
Sabha 9
ster 9
enn@@ 9
Trav@@ 9
Patiala 9
30-@@ 9
24th 9
discern@@ 9
gu@@ 9
copies 9
loading 9
deeper 9
aut@@ 9
motiv@@ 9
occasions 9
Follow 9
Promo@@ 9
securing 9
Many 9
GP 9
day@@ 9
worth@@ 9
Chi@@ 9
throu@@ 9
conflict 9
Multi@@ 9
gift 9
trav@@ 9
240 9
genuine 9
ministries 9
Late 9
lay 9
fro@@ 9
gment 9
Production 9
Institution 9
confir@@ 9
rail 9
civil 9
2012-@@ 9
cataly@@ 9
gli@@ 9
199 9
actor 9
bel 9
challenged 9
strive 9
benef@@ 9
az@@ 9
install@@ 9
Recently 9
Ran@@ 9
freedom 9
join 9
me 9
Smart 9
Shi@@ 9
eld 9
vast 9
tractor 9
poll@@ 9
eing 9
fair@@ 9
Thir@@ 9
2010-@@ 9
assured 9
applic@@ 9
affili@@ 9
bes 9
behind 9
Sim@@ 9
treaty 9
ensively 9
impose 9
Sc@@ 9
Manufacturing 9
lessons 9
skilled 9
Their 9
lab@@ 9
Thailand 9
ools 9
gen@@ 9
load 9
van@@ 9
Block 9
tang@@ 9
Before 9
screen 9
ras 9
1964 9
Science 9
izing 9
Incre@@ 9
sitting 9
Acting 9
han 9
Stop 9
essor 9
tariff 9
imported 9
CEOs 9
sty@@ 9
open@@ 9
ern 9
HC 9
chemical 9
map 9
obj@@ 9
Ur@@ 9
poses 9
mean 9
sortium 9
Secondary 9
nover 9
inning 9
Library 9
en-@@ 9
lev@@ 9
France 9
Inv@@ 9
33@@ 9
iced 9
interacted 9
taxation 9
MM 9
Big 9
Thursday 9
identity 9
aman@@ 9
Kenya 9
org@@ 9
weeks 9
PR@@ 9
Base 9
UL@@ 9
grow@@ 9
bs 9
organise 9
character 9
orable 9
warrant 9
Puducherry 9
fashion 9
WTO 9
influ@@ 9
super 9
prize 9
Record 9
thy 9
Chairperson 9
plo@@ 9
Castes 9
Indonesia 9
rejected 9
pivotal 9
overcome 9
Discus@@ 9
Innov@@ 9
easier 9
25th 9
ew@@ 9
Tata 9
28th 9
frag@@ 9
utmost 9
pric@@ 9
ind 9
Pow@@ 9
Sa@@ 9
Comb@@ 9
sidy 9
event@@ 9
2023 9
Petroleum 9
sal@@ 9
gathering 9
masses 9
Festival 9
Spo@@ 9
sides 9
prote@@ 9
et-@@ 9
Fit@@ 9
Grid 9
overed 9
emphasised 9
trees 9
12th 9
scoring 9
doubt 9
Part@@ 9
km 9
unanimously 9
withdraw 9
heading 9
occup@@ 9
tice 9
1994 9
Masters 9
educational 9
narrow 9
30,000 9
ditionally 9
porter 9
twice 9
entrepreneurship 9
drives 9
journal 9
reserv@@ 9
winter 9
Cross 9
ET 9
H. 9
bat@@ 9
atical 9
Field 9
magnitude 9
won 9
fast-@@ 8
administ@@ 8
concerning 8
sphere 8
Ven@@ 8
ez@@ 8
ela 8
idi@@ 8
osy@@ 8
versus 8
fear 8
38,@@ 8
pu@@ 8
wh@@ 8
easily 8
deprived 8
iver@@ 8
pleased 8
w 8
grid 8
bigger 8
garments 8
rup@@ 8
Pre-@@ 8
Sovere@@ 8
literature 8
reiterated 8
desirable 8
abad 8
equally 8
Stor@@ 8
Pol@@ 8
instituted 8
igh 8
public@@ 8
Anna 8
first-@@ 8
Empowerment 8
premier 8
dispat@@ 8
High@@ 8
bbed 8
rendering 8
evolved 8
Inst@@ 8
ki@@ 8
stream 8
Maldives 8
Hu@@ 8
Metro 8
Short 8
rally 8
arrival 8
if@@ 8
Graduate 8
abe@@ 8
meat 8
Anu@@ 8
logistics 8
onds 8
four@@ 8
ATE 8
Prof. 8
erate 8
col@@ 8
meaning 8
tually 8
remove 8
tight 8
Vice 8
108 8
Sen@@ 8
subscribers 8
Broad@@ 8
rive 8
ar-@@ 8
clock 8
NS 8
121 8
Mater@@ 8
decade 8
Jharkhand 8
ommun@@ 8
lin@@ 8
prohibited 8
practic@@ 8
formula 8
shooting 8
owner 8
exploring 8
And 8
benefitted 8
Arabia 8
aspect 8
HO@@ 8
satis@@ 8
Summit 8
li 8
Job 8
paying 8
recipient 8
gain@@ 8
acted 8
sovere@@ 8
transmitted 8
alist 8
strike 8
hybrid 8
Bikaner 8
causing 8
tied 8
divisions 8
60@@ 8
hope 8
NO 8
sav@@ 8
makers 8
qualification 8
Haryana 8
126 8
residing 8
ort 8
Use 8
Top@@ 8
Jo@@ 8
Khan 8
Sept@@ 8
1973 8
custody 8
feed 8
ert 8
tenance 8
Except 8
Emplo@@ 8
wind 8
Telugu 8
Kannada 8
gn@@ 8
celebrated 8
Prize 8
Bil@@ 8
transform@@ 8
refund 8
farmer 8
pleasure 8
biom@@ 8
nest 8
vibrant 8
petition 8
Relations 8
set@@ 8
discrimination 8
religion 8
tains 8
transform 8
Ease 8
ailers 8
UP@@ 8
safeguard 8
Care 8
Sem@@ 8
SP 8
swi@@ 8
Sinha 8
elevation 8
isions 8
tar@@ 8
licence 8
oler@@ 8
direc@@ 8
VE@@ 8
kind@@ 8
Sun 8
approve 8
violations 8
awaiting 8
fort 8
stor@@ 8
tal 8
lers 8
Shar@@ 8
causes 8
schedul@@ 8
Gi@@ 8
Microsoft 8
Program 8
plying 8
OS 8
reservoirs 8
vic@@ 8
20-@@ 8
ld 8
dismis@@ 8
Fi@@ 8
meant 8
migrant 8
hibition 8
neg@@ 8
HI 8
player 8
preliminary 8
jit 8
applies 8
4,000 8
legacy 8
assign@@ 8
26,@@ 8
clari@@ 8
reward 8
stayed 8
Pvt 8
tend@@ 8
stic 8
fertilizer 8
atures 8
stepped 8
Id 8
gau@@ 8
expects 8
3,9@@ 8
ali 8
Ram@@ 8
ami 8
Jam@@ 8
commence 8
Diffe@@ 8
the@@ 8
Complex 8
Archi@@ 8
fold 8
expressed 8
altern@@ 8
highway 8
utilization 8
15,000 8
menu 8
uries 8
Experts 8
6th 8
homes 8
operator 8
waves 8
leg 8
dges 8
destinations 8
idential 8
Solar 8
clusive 8
auth@@ 8
Sanjiv 8
Chaturvedi 8
ishable 8
servic@@ 8
arshan 8
promotes 8
t.@@ 8
examinations 8
ate@@ 8
Manipur 8
doubled 8
Chhattisgarh 8
deduction 8
Philippines 8
Del@@ 8
1997 8
finally 8
lie 8
careful 8
Artificial 8
ired 8
Physical 8
depends 8
powered 8
mills 8
Bud@@ 8
second-@@ 8
notices 8
situations 8
Ord@@ 8
asters 8
orrow 8
foo@@ 8
Appreci@@ 8
distinction 8
Mul@@ 8
CM@@ 8
wood 8
arm 8
ectations 8
ural 8
scored 8
accompl@@ 8
emia 8
ch-@@ 8
elsewhere 8
cheaper 8
ato 8
redres@@ 8
curb 8
tification 8
Met@@ 8
summer 8
check@@ 8
Nodal 8
affiliated 8
capped 8
Pad@@ 8
Android 8
wil@@ 8
deteriorating 8
Arunachal 8
dominated 8
dealings 8
conferencing 8
reading 8
colour 8
p-@@ 8
intensify 8
Ravi 8
sam@@ 8
fairly 8
Russian 7
Federation 7
div@@ 7
streams 7
log 7
entials 7
developers 7
Octo@@ 7
PG@@ 7
no-@@ 7
leaving 7
fav@@ 7
58@@ 7
olly@@ 7
click 7
Yes 7
WA 7
59@@ 7
Varanasi 7
char@@ 7
stem 7
PE@@ 7
shoulders 7
forcing 7
val 7
green@@ 7
debate 7
Permanent 7
oll@@ 7
unveiled 7
advancement 7
Deliver@@ 7
ant@@ 7
Rising 7
explain 7
nationwide 7
Kalyan 7
Programmes 7
Territories 7
mov@@ 7
launches 7
fu@@ 7
touching 7
jobs 7
wor@@ 7
prone 7
Offic@@ 7
Charge 7
attrac@@ 7
Person@@ 7
construct 7
Deep@@ 7
ask 7
Wil@@ 7
feder@@ 7
consensus 7
ulative 7
umb@@ 7
knowled@@ 7
UT@@ 7
Organization 7
Qualification 7
disputes 7
itra 7
poultry 7
NAM 7
bars 7
mini 7
prestigious 7
140 7
47@@ 7
apps 7
fight 7
habits 7
Appoint@@ 7
Commissions 7
airs 7
eventually 7
eco-@@ 7
healthcare 7
cler@@ 7
€ 7
shor@@ 7
Areas 7
chann@@ 7
culmin@@ 7
Mizoram 7
virtually 7
simul@@ 7
aliz@@ 7
mel@@ 7
zz@@ 7
streaming 7
52.@@ 7
15-@@ 7
pot@@ 7
aire 7
forwarded 7
udes 7
procured 7
TR@@ 7
med@@ 7
unlikely 7
SM 7
lasting 7
Tribun@@ 7
trun@@ 7
allo@@ 7
shape 7
HDFC 7
Set 7
Ambedkar 7
independ@@ 7
37,@@ 7
ining 7
quali@@ 7
revol@@ 7
terminal 7
announce 7
berg 7
ellow 7
cum-@@ 7
Entry 7
olution 7
1972 7
Pandit 7
Pant 7
Presid@@ 7
ef@@ 7
southern 7
western 7
dating 7
age-@@ 7
freely 7
signal 7
Mexico 7
swift 7
shops 7
Gujarati 7
sioners 7
inform@@ 7
White 7
Tab@@ 7
Museum 7
reless 7
Be@@ 7
flight 7
dra 7
collective 7
anim@@ 7
distribute 7
Alli@@ 7
Indr@@ 7
ush 7
anticip@@ 7
beneficiary 7
jewell@@ 7
scrut@@ 7
360 7
crow@@ 7
well-being 7
Nav@@ 7
eously 7
pen 7
opposite 7
attempted 7
cription 7
Mand@@ 7
Fif@@ 7
HU@@ 7
Workshop 7
eigh@@ 7
volun@@ 7
minus 7
crowd 7
poverty 7
Sources 7
Netherlands 7
Agar@@ 7
tala 7
boosting 7
rand@@ 7
holid@@ 7
etr@@ 7
Z 7
strateg@@ 7
listing 7
fire@@ 7
tem 7
benefited 7
bution 7
Equipment 7
counter-@@ 7
int 7
virtu@@ 7
sn@@ 7
spoke 7
ble@@ 7
oti@@ 7
convert 7
carbon 7
motor 7
novel 7
Hall 7
cold 7
ji 7
specially 7
hits 7
ectivity 7
ction 7
ve@@ 7
finding 7
universe 7
distor@@ 7
preserved 7
memory 7
zes 7
windows 7
ly@@ 7
Article 7
origin 7
Phase-@@ 7
Electricity 7
accept@@ 7
intimate 7
pil@@ 7
cum 7
anth@@ 7
iling 7
aying 7
princi@@ 7
Legislative 7
Cam@@ 7
guiding 7
root 7
street 7
D.@@ 7
engine 7
Consu@@ 7
BY 7
guides 7
Em@@ 7
Travel 7
vit@@ 7
expectation 7
seemed 7
ull 7
ony 7
accepting 7
Implem@@ 7
signature 7
http 7
115 7
Later 7
not@@ 7
230 7
Bharat@@ 7
ional 7
ule 7
idence 7
looked 7
75@@ 7
ograp@@ 7
hies 7
Himachal 7
। 7
liberal 7
tariffs 7
Free 7
rage 7
ners 7
plied 7
animal 7
spir@@ 7
Air 7
dom@@ 7
Ind@@ 7
prizes 7
Competition 7
puts 7
heritage 7
know 7
000@@ 7
ath 7
110 7
Chadha 7
belonged 7
Tribes 7
argued 7
icit 7
discrimin@@ 7
England 7
boundary 7
Motors 7
Anand 7
oked 7
begin 7
atics 7
aking 7
America 7
Assam 7
label 7
counters 7
num@@ 7
Bhopal 7
cov@@ 7
Sch@@ 7
IAS 7
Territory 7
gre@@ 7
New@@ 7
Disp@@ 7
Release 7
sor 7
mat 7
Sudhir 7
taining 7
welcome 7
Soci@@ 7
comprised 7
fi 7
History 7
watch 7
ock 7
Kingdom 7
undergoing 7
Google 7
ground@@ 7
Net@@ 7
Krish@@ 7
nan 7
Parents 7
Day 7
autonomous 7
render 7
Micro@@ 7
Clu@@ 7
Pilot 7
kar 7
US-@@ 7
Recruitment 7
numb@@ 7
interpretation 7
102 7
tren@@ 7
march 7
ton 7
Garg 7
eries 7
Town 7
broadcast 7
dimen@@ 7
sional 7
gov@@ 7
151 7
nodes 7
lighting 7
worsened 7
Dev@@ 7
3rd 7
ka 7
Apr@@ 7
Had 7
circle 7
Hi@@ 7
90@@ 7
chosen 7
Video 6
mechan@@ 6
ity@@ 6
founded 6
automobile 6
institu@@ 6
ther 6
fron@@ 6
Acad@@ 6
academ@@ 6
aspir@@ 6
vide@@ 6
corruption 6
sch@@ 6
co 6
thesis 6
anted 6
adh@@ 6
archi@@ 6
commonly 6
WHO 6
advoc@@ 6
Pack@@ 6
Vir@@ 6
ref@@ 6
Alok 6
exemplary 6
ash 6
PPP 6
Gari@@ 6
sym@@ 6
distance 6
11th 6
ING 6
Agra 6
40,@@ 6
era 6
220 6
backward 6
entirely 6
Together 6
radio 6
variant 6
Understanding 6
UT 6
nothing 6
ody 6
contrary 6
title 6
000 6
ainability 6
Bac@@ 6
lived 6
jump 6
Mark 6
things 6
Mad@@ 6
Tal@@ 6
separated 6
pushing 6
Along 6
Stri@@ 6
California 6
avoided 6
minute 6
pun@@ 6
urgent 6
reti@@ 6
ough 6
Iron 6
stly 6
restaurants 6
concep@@ 6
I. 6
audio 6
Society 6
act@@ 6
fabric 6
ams 6
HS 6
concluded 6
acceptable 6
fun 6
ishers 6
commerce 6
automatically 6
describe 6
unity 6
TV 6
Yoga 6
front@@ 6
restriction 6
clarify 6
courts 6
grain 6
grounds 6
anded 6
Foc@@ 6
server 6
loo@@ 6
Environmental 6
damages 6
legitimate 6
offline 6
Nagaland 6
Meghalaya 6
visa 6
witness 6
frequent 6
striving 6
explains 6
eliminated 6
Governing 6
thousands 6
ror@@ 6
113 6
aggres@@ 6
Govind 6
abh 6
IPL 6
German 6
FM 6
dialogue 6
door@@ 6
ement@@ 6
IPS 6
confron@@ 6
pul@@ 6
booking 6
450 6
escape 6
Constitution 6
batch 6
112 6
resid@@ 6
Railway 6
approves 6
etion 6
Wi@@ 6
106 6
161 6
ycl@@ 6
Boo@@ 6
films 6
ANI 6
ond@@ 6
rav@@ 6
interesting 6
Sang@@ 6
watch@@ 6
caste 6
Click 6
itter 6
yp@@ 6
festival 6
buting 6
dition 6
Every 6
need@@ 6
101 6
MT 6
reat 6
text 6
oblig@@ 6
commis@@ 6
EV@@ 6
please 6
fted 6
Bhaskar 6
consultations 6
beat 6
responding 6
shopping 6
ided 6
factory 6
grap@@ 6
urs 6
advertising 6
milestone 6
habit 6
confl@@ 6
producer 6
grants 6
algorith@@ 6
grav@@ 6
electrical 6
q@@ 6
reflection 6
talk 6
child 6
Exam@@ 6
wheel@@ 6
rehabilitation 6
economically 6
Plant 6
alty 6
aning 6
ae 6
Turkey 6
surviv@@ 6
complainant 6
recre@@ 6
bi 6
itating 6
institute 6
confident 6
Van 6
alize 6
hoods 6
Dum@@ 6
pointing 6
Tan@@ 6
ania 6
ply 6
surgical 6
proven 6
reservo@@ 6
informal 6
anning 6
resort 6
Sel@@ 6
Or 6
bloc@@ 6
hearing 6
background 6
millions 6
needy 6
BE@@ 6
Relief 6
ographical 6
arity 6
Beg@@ 6
agement 6
Radio 6
॥ 6
electronics 6
tac@@ 6
personalities 6
08@@ 6
PG 6
Emergency 6
signing 6
Parties 6
reaction 6
pledge 6
teenth 6
ION 6
scription 6
Kharif 6
boun@@ 6
reafter 6
Mur@@ 6
asw@@ 6
tre@@ 6
ky 6
less@@ 6
organic 6
seeds 6
ior@@ 6
8th 6
visiting 6
ode 6
ogn@@ 6
finished 6
convenient 6
pon@@ 6
band@@ 6
paths 6
four-@@ 6
characters 6
apprised 6
cribe 6
empower 6
vacancies 6
oor 6
Any@@ 6
kumar 6
routine 6
Oc@@ 6
bble 6
twelve 6
thered 6
ck 6
heat 6
questi@@ 6
13th 6
sist@@ 6
ose 6
ious 6
ood@@ 6
shortage 6
EPFO 6
heavily 6
mature 6
impressive 6
satisfy 6
Sig@@ 6
Comprehensive 6
ause 6
restoration 6
70@@ 6
Auction 6
kind 6
imag@@ 6
ai 6
Ranchi 6
logical 6
SU@@ 6
ades 6
enly 6
16th 6
clou@@ 6
Rule 6
Bose 6
Good 6
specify 6
Hass@@ 6
BA@@ 6
letters 6
hy@@ 6
19th 6
rolling 6
oting 6
validity 6
With@@ 6
Tim@@ 6
nish 6
white 6
onboard 6
artificial 6
ayers 6
CCTV 6
pel 6
convened 6
intent 6
Records 6
Gh@@ 6
Mallya 6
Animal 6
Husbandry 6
attack 6
Aksha@@ 6
waiver 6
loads 6
Um@@ 6
Train 6
ambi@@ 6
॰ 6
download 6
jun@@ 6
hus@@ 6
certific@@ 6
tiya 6
hall@@ 6
tability 6
highways 6
train 6
tops 6
haven 6
bilee 6
sincere 6
tremendous 6
TH@@ 6
unities 6
ultimate 6
che@@ 6
cited 6
swe@@ 6
Gupta 6
brac@@ 6
left 6
start-ups 6
purely 6
unidentified 6
duce 6
perform@@ 6
ord@@ 6
join@@ 6
transl@@ 6
wa 6
simultan@@ 6
Bhawan 6
164 6
negoti@@ 6
circulated 6
160 6
image 6
Women 6
rooms 6
Play 6
postal 6
Election 6
Ranjan 6
equation 6
urg@@ 6
idst 6
conve@@ 6
annum 6
paise 6
litre 6
preserv@@ 6
145 6
kari 6
highligh@@ 6
Written 6
aves 6
ma 6
plantation 6
seized 6
ession@@ 6
hal 6
shop 6
reiter@@ 6
sors 6
Maj@@ 6
draws 6
yn@@ 6
stret@@ 6
business@@ 6
Rajkot 5
ese 5
Having 5
Meh@@ 5
inging 5
legislation 5
awaited 5
ruled 5
DO@@ 5
asking 5
UN@@ 5
shel@@ 5
icians 5
Expl@@ 5
suffer 5
Textiles 5
Uttar@@ 5
chal 5
Fr@@ 5
anti@@ 5
asing 5
sugarcane 5
29th 5
cope 5
haz@@ 5
protocol 5
minerals 5
mineral 5
livelihood 5
tried 5
refer 5
Have 5
fail 5
portr@@ 5
ktop 5
Surat 5
Chandra 5
courage 5
offence 5
son 5
ASE@@ 5
one-day 5
Press 5
TO 5
pull 5
154 5
unfair 5
heart@@ 5
rog@@ 5
ancell@@ 5
upl@@ 5
popularity 5
free@@ 5
Type 5
unemployed 5
Bhavan 5
arg@@ 5
calm 5
connections 5
leg@@ 5
Times 5
borders 5
strictly 5
allel 5
Run 5
recall 5
percent@@ 5
Feb 5
turns 5
incul@@ 5
Transport 5
compati@@ 5
54@@ 5
Telec@@ 5
kit 5
textile 5
Natural 5
illustr@@ 5
appeal 5
moments 5
2011-@@ 5
Where@@ 5
Sultan@@ 5
subjects 5
six-@@ 5
unlike 5
ook 5
Scholar@@ 5
Citizens 5
entertainment 5
cid@@ 5
modern@@ 5
broken 5
ached 5
treasure 5
.. 5
fewer 5
pre 5
sports 5
living 5
acknowled@@ 5
thousand 5
Gram 5
ni@@ 5
aan 5
preserve 5
los@@ 5
Den@@ 5
founder 5
hind@@ 5
witnessing 5
Dad@@ 5
Afghanistan 5
Pakistan 5
flood 5
brow@@ 5
adjudged 5
film 5
amend 5
occupied 5
Progr@@ 5
happens 5
ire 5
sense 5
pride 5
directing 5
fed 5
answer 5
contin@@ 5
12,000 5
practical 5
disrupted 5
prefer 5
alert 5
choices 5
northern 5
Care@@ 5
publicity 5
eliminate 5
HE@@ 5
ads 5
overwhelming 5
corporation 5
families 5
donation 5
plem@@ 5
fulfil@@ 5
Procurement 5
yst@@ 5
se-@@ 5
alam 5
nered 5
accomplished 5
Hy@@ 5
split 5
All-@@ 5
Entrepreneurship 5
ous@@ 5
employers 5
verified 5
illing 5
yan 5
Atal 5
conscious 5
creed 5
Comm@@ 5
holiday 5
widespread 5
metro@@ 5
politan 5
insti@@ 5
stam@@ 5
Pollution 5
210 5
Provided 5
tt@@ 5
truly 5
theory 5
Pot@@ 5
remarkable 5
scri@@ 5
san@@ 5
faces 5
Ten 5
Just 5
Rag@@ 5
define 5
ax@@ 5
camp 5
tribal 5
kg 5
9th 5
retire 5
resign 5
1979 5
Initially 5
ay@@ 5
Islands 5
itate 5
roof 5
err@@ 5
ynam@@ 5
Ports 5
energ@@ 5
plain 5
simil@@ 5
Today 5
hu@@ 5
ore@@ 5
spective 5
2nd 5
Ul@@ 5
2015-@@ 5
hospitals 5
evertheless 5
Organizations 5
ece 5
prevented 5
Mit@@ 5
originally 5
1983 5
ticket 5
develop@@ 5
trib@@ 5
ews 5
commission@@ 5
organizing 5
mention 5
dable 5
bed@@ 5
poly@@ 5
ood 5
surprised 5
police 5
Tower 5
achi@@ 5
promising 5
zation 5
URL 5
EA 5
canc@@ 5
St 5
start@@ 5
solv@@ 5
amenities 5
graduation 5
nuclear 5
129 5
Italy 5
admission 5
ancy 5
proud 5
2017-@@ 5
900 5
scre@@ 5
Lake 5
Plus 5
tension 5
Sach@@ 5
Kotak 5
town 5
critically 5
connecting 5
mutually 5
135 5
Sen 5
renowned 5
Esti@@ 5
Young 5
possibilities 5
Bha@@ 5
removing 5
demonstrated 5
life@@ 5
RP 5
Exercise 5
Bri@@ 5
ona 5
glo@@ 5
lose 5
clarified 5
1952 5
ung 5
furniture 5
squ@@ 5
edding 5
Dat@@ 5
abase 5
ambitious 5
Exc@@ 5
Resid@@ 5
appreci@@ 5
resor@@ 5
yment 5
circles 5
eshwar 5
132 5
telephone 5
slowly 5
itor@@ 5
formerly 5
uded 5
nationals 5
keeps 5
Proper@@ 5
manirbhar 5
Spain 5
locate 5
bids 5
Swachh 5
south 5
east 5
xi@@ 5
intellectual 5
iller 5
FCI 5
PMC 5
123 5
membership 5
Maruti 5
floods 5
proof 5
memorandum 5
Week 5
RRB 5
chair 5
icon 5
Bus@@ 5
reckoning 5
! 5
lif@@ 5
80,000 5
146 5
KC 5
^ 5
Kend@@ 5
cad@@ 5
criter@@ 5
emphas@@ 5
Agarwal 5
Traditional 5
binding 5
L. 5
grains 5
describes 5
Doing 5
panic 5
coun@@ 5
athy 5
owners 5
execute 5
Thiruvananthapuram 5
Renew@@ 5
Great 5
7,000 5
Sin@@ 5
plications 5
ta@@ 5
exc@@ 5
Water@@ 5
eties 5
fire 5
yam 5
assisting 5
dwell@@ 5
Band@@ 5
Argentina 5
judici@@ 5
Meet 5
Chairmanship 5
eller 5
aker 5
ust 5
176 5
Harv@@ 5
stry 5
Gra@@ 5
wad 5
specifications 5
Sou@@ 5
mas@@ 5
presenting 5
lingu@@ 5
mer 5
highlight 5
persu@@ 5
Leaders 5
Protocol 5
Iraq 5
.in. 5
thanks 5
reduces 5
Dr 5
infection 5
deaths 5
Minority 5
inn@@ 5
advertisement 5
enjoys 5
dairy 5
dio 5
fically 5
bandry 5
Narayan@@ 5
Disabilities 5
Rakesh 5
Cro@@ 5
Regarding 5
hosting 5
Brah@@ 5
coordinate 5
chart 5
ocation 5
Das 5
undred 5
uri 5
ada 5
ulous 5
None 5
interact 5
ong 5
Vas@@ 5
airports 5
trum 5
protective 5
PMLA 5
depend@@ 5
plication 5
Poin@@ 5
swing 5
epid@@ 5
550 5
ourable 5
Windows 5
iOS 5
Police 5
middle 5
Khar@@ 5
ub@@ 5
transformed 5
CW@@ 5
disposed 5
red@@ 5
conflicts 5
pairs 5
renew@@ 5
arrest 5
Acharya 5
Select 5
Farm@@ 5
CBI 5
cars 5
applicant 5
Secretariat 5
add@@ 5
emi@@ 5
blind 5
privacy 5
consci@@ 5
alizing 5
Mayank 5
inks 5
Excise 5
Nov@@ 5
Inc 5
Active 5
™ 5
Nearly 5
oxygen 5
MH@@ 5
ferencing 4
incl@@ 4
ouring 4
warnings 4
ames 4
Hab@@ 4
Sand@@ 4
degrees 4
thing 4
merit 4
Magistrate 4
willing 4
fab@@ 4
rics 4
ichand@@ 4
multi 4
oe 4
Waste 4
nations 4
agarh 4
Visakhapatnam 4
Meerut 4
powerful 4
palm 4
Jodhpur 4
aggressive 4
introduc@@ 4
ascertained 4
noon 4
itations 4
Abu 4
hab@@ 4
asy 4
ude 4
alls 4
DD@@ 4
crossing 4
meter 4
locally 4
stone 4
nam@@ 4
Full 4
Covid-19 4
380 4
anti 4
Lal 4
sus@@ 4
sters 4
Strong 4
depar@@ 4
pered 4
desire 4
Water 4
franchise 4
ame 4
ama 4
aches 4
shoulder 4
Bij@@ 4
Body 4
Petrol 4
Community 4
opport@@ 4
refresh@@ 4
seg@@ 4
judged 4
Sev@@ 4
wars 4
Tir@@ 4
Los 4
ND 4
intentions 4
cidents 4
There@@ 4
NA 4
i.e.@@ 4
lment 4
ga@@ 4
Presidential 4
NE 4
320 4
minent 4
scores 4
Gurgaon 4
Williams 4
say 4
flagged 4
77@@ 4
Wo@@ 4
cauti@@ 4
abuse 4
11-@@ 4
Shimla 4
Bel@@ 4
secretaries 4
om 4
tributes 4
Axis 4
PCL 4
inguished 4
Kapoor 4
Pap@@ 4
Pas@@ 4
expedite 4
envis@@ 4
serious 4
plicate 4
sla@@ 4
food@@ 4
Cov@@ 4
choose 4
testi@@ 4
Educational 4
Nay@@ 4
stories 4
ari 4
ta 4
wa@@ 4
inser@@ 4
tified 4
Partnership 4
decides 4
replace 4
Euro@@ 4
Visa 4
lip@@ 4
stored 4
payee 4
gather 4
logic 4
dignitaries 4
indigenous 4
session 4
Cooperation 4
begun 4
tained 4
column 4
35,@@ 4
Using 4
federal 4
in-charge 4
Assist@@ 4
competent 4
night 4
talks 4
V-@@ 4
Marathi 4
think 4
Campai@@ 4
Auth@@ 4
incur@@ 4
Street 4
Kirti 4
2016-@@ 4
unemployment 4
griev@@ 4
astic 4
Ashok 4
Recru@@ 4
Jyoti 4
constructing 4
Repu@@ 4
toxic 4
protein 4
do@@ 4
Gen@@ 4
prohib@@ 4
ument 4
mits 4
Tak@@ 4
improves 4
cot@@ 4
Gre@@ 4
prev@@ 4
emed 4
atmosphere 4
All@@ 4
225 4
inside 4
Far@@ 4
Do 4
Ahead 4
updates 4
audi@@ 4
visual 4
clin@@ 4
breaking 4
adha@@ 4
chairman 4
demon@@ 4
P-@@ 4
opinions 4
Railways 4
distingu@@ 4
gram 4
Family 4
judiciary 4
tab 4
immune 4
memb@@ 4
cheap 4
necessity 4
ector 4
CM 4
lift 4
tile 4
investigation 4
buses 4
Milk 4
accident 4
device 4
bun@@ 4
walls 4
PMs 4
Schol@@ 4
lier 4
employer 4
equi@@ 4
histor@@ 4
Resp@@ 4
memor@@ 4
yana 4
northeast 4
EE 4
Day@@ 4
tain@@ 4
lifting 4
distur@@ 4
Awar@@ 4
Chamber 4
traditionally 4
bute 4
't 4
Challenge 4
2024 4
ris 4
earch@@ 4
chall@@ 4
osis 4
agg@@ 4
thrown 4
crime 4
minor 4
ake 4
Mining 4
rying 4
illance 4
loyalty 4
unt 4
incomplete 4
pages 4
virtue 4
IMD 4
disabled 4
learn 4
1975 4
autonomy 4
deadline 4
deed 4
rier 4
Coal 4
ATION 4
box@@ 4
recycl@@ 4
Mas@@ 4
hil 4
IST 4
TH 4
fiel@@ 4
isha@@ 4
au 4
erted 4
Pet@@ 4
land@@ 4
rs 4
Warning 4
manifest 4
tendency 4
Vig@@ 4
tionable 4
livel@@ 4
pack@@ 4
tries 4
prac@@ 4
festivals 4
shed 4
Prepar@@ 4
essi@@ 4
announcing 4
evel@@ 4
variants 4
Examination 4
Cal@@ 4
22nd 4
ashi@@ 4
thi 4
fault 4
San@@ 4
expecting 4
slip 4
lodged 4
mid@@ 4
erti@@ 4
heal@@ 4
waiting 4
produc@@ 4
solving 4
Being 4
corridors 4
Med@@ 4
campus 4
Civil 4
pas@@ 4
Tests 4
Live 4
Stre@@ 4
wall 4
viv@@ 4
agent 4
livestock 4
cue 4
stopped 4
configuration 4
iders 4
Almost 4
switched 4
coronavirus 4
1992 4
stranded 4
kinds 4
equitable 4
than@@ 4
door 4
Cad@@ 4
re 4
observe 4
Income-tax 4
sco@@ 4
scar@@ 4
conveyed 4
secret 4
forget 4
ifty 4
Param@@ 4
fine 4
Sk@@ 4
ascer@@ 4
pha@@ 4
Vs 4
Gopal 4
Krishan 4
erals 4
brief@@ 4
sic 4
rit@@ 4
eria 4
qualifying 4
Nigam 4
analyst 4
acute 4
Langu@@ 4
exha@@ 4
inaugurated 4
185 4
ashed 4
dedication 4
Taylor 4
frac@@ 4
Nar@@ 4
ham 4
fuels 4
1988 4
mation 4
time@@ 4
fix 4
house@@ 4
strengths 4
Nations 4
viewing 4
deterior@@ 4
abling 4
five-@@ 4
Chavan 4
riving 4
mitted 4
caution 4
list@@ 4
Questions 4
qualify 4
iso 4
Malayalam 4
ser 4
Israel 4
logging 4
tracks 4
lessly 4
fail@@ 4
confined 4
equipments 4
concrete 4
depic@@ 4
ey@@ 4
suspected 4
deliv@@ 4
Vehicle 4
indeed 4
immense 4
gaz@@ 4
smar@@ 4
design@@ 4
Ga@@ 4
interrup@@ 4
accountable 4
bright 4
onto 4
wisdom 4
breaks 4
cogn@@ 4
iors 4
GW 4
youngest 4
studying 4
122 4
Very 4
velocity 4
chur@@ 4
Reliance 4
og 4
publicly 4
Distri@@ 4
Qatar 4
designs 4
ths 4
Joshi 4
interview 4
Commun@@ 4
Mohan 4
female 4
student 4
Gas 4
may@@ 4
134 4
inviting 4
clarification 4
fore 4
ODI 4
Zero 4
destruction 4
acking 4
attained 4
Pon@@ 4
acad@@ 4
Dutt 4
actors 4
marine 4
ires 4
eget@@ 4
League 4
enrich@@ 4
ban 4
storms 4
Lakh 4
hor@@ 4
esh 4
fisheries 4
Malhotra 4
honest 4
clean@@ 4
met@@ 4
cra@@ 4
recognize 4
outfits 4
Teams 4
sab@@ 4
Ex-@@ 4
unci@@ 4
checked 4
Histor@@ 4
nas@@ 4
preced@@ 4
looks 4
arance 4
ik 4
mai@@ 4
reserved 4
1985 4
lad@@ 4
speeches 4
erring 4
xing 4
barrier 4
hon@@ 4
ol 4
firmly 4
believed 4
parliament 4
sar 4
declaring 4
Between 4
deeds 4
Swiss 4
restingly 4
linder 4
gath@@ 4
subscri@@ 4
Pos@@ 4
Din@@ 4
gaon 4
hes@@ 4
ot 4
tail 4
tone 4
come-@@ 4
reactions 4
MW 4
Ball@@ 4
delight 4
staying 4
Sri@@ 4
Seven 4
perpetr@@ 4
educate 4
rejection 4
taught 4
fellow 4
thick 4
{ 4
} 4
finals 4
111 4
Thous@@ 4
147 4
moun@@ 4
Tok@@ 4
pet 4
3,000 4
pressing 4
story 4
Seva 4
lifted 4
followers 4
Chand@@ 4
characteristics 4
Aut@@ 4
cool@@ 4
inev@@ 4
pm 4
ple-@@ 4
Buddhist 4
preservation 4
negligence 4
Shillong 4
DIA 4
es-@@ 4
Panch@@ 4
wait 4
Liber@@ 4
learnt 4
archy 4
tackle 4
tis@@ 4
Washington 4
Deleg@@ 4
Corp 4
pread 4
Old 4
Fai@@ 3
zabad 3
interacting 3
vacc@@ 3
Village 3
Nep@@ 3
Tyagi 3
Her@@ 3
Miss 3
understood 3
HD 3
cro@@ 3
chan@@ 3
begins 3
Close 3
bery 3
Bahadur 3
ino 3
eval 3
motivate 3
apparent 3
administrator 3
Six@@ 3
tations 3
isms 3
misuse 3
paintings 3
heights 3
thinking 3
sizes 3
shoot 3
prevailed 3
ried 3
Representatives 3
height 3
cautious 3
releasing 3
vely 3
termed 3
drew 3
ingredi@@ 3
trap 3
rough 3
188 3
ou 3
Ham@@ 3
FATF 3
Anti-@@ 3
98@@ 3
Cere@@ 3
शामिल 3
her@@ 3
Var@@ 3
ave 3
thre@@ 3
alli 3
Angeles 3
rant 3
-in-@@ 3
immensely 3
Gro@@ 3
exec@@ 3
conv@@ 3
scholars 3
Instagram 3
investigated 3
ald 3
panchayats 3
sun@@ 3
ear 3
Lower 3
slide 3
command 3
museum 3
Vietnam 3
Fri@@ 3
shell 3
ternal 3
assionate 3
aid@@ 3
istics 3
oud 3
bare@@ 3
oner 3
Cour@@ 3
f-@@ 3
Swami 3
Vivek@@ 3
anand 3
रिपोर्ट 3
essence 3
ener@@ 3
studied 3
tt 3
Workers 3
Bab@@ 3
asaheb 3
ials 3
az 3
PDS 3
ingu@@ 3
examples 3
honor 3
dwelling 3
Pun@@ 3
propos@@ 3
apur 3
ova 3
rescue 3
compete 3
block@@ 3
implem@@ 3
oot 3
topic 3
lay@@ 3
righ@@ 3
candid@@ 3
clubs 3
Govern@@ 3
consecu@@ 3
Name 3
nant 3
Rice 3
zing 3
adver@@ 3
Gil@@ 3
grass@@ 3
yond 3
ageous 3
kings 3
barg@@ 3
delighted 3
now@@ 3
Ri@@ 3
produces 3
eradic@@ 3
Dr@@ 3
Nan@@ 3
eva 3
diff@@ 3
Tom@@ 3
dict 3
SAI 3
precautionary 3
threat@@ 3
inar 3
mill 3
compound 3
tempor@@ 3
pically 3
sequence 3
pin 3
U. 3
dium 3
NCR 3
famili@@ 3
Rou@@ 3
CBDT 3
feeding 3
convey 3
found@@ 3
ov 3
50-@@ 3
eled 3
heavy 3
ide@@ 3
week@@ 3
bes@@ 3
.The 3
ography 3
Bodies 3
Shak@@ 3
navig@@ 3
uda 3
arer 3
q 3
repeated 3
demanded 3
illa 3
ca@@ 3
ctions 3
habilitation 3
131 3
posters 3
AK@@ 3
best@@ 3
Seng@@ 3
upta 3
big@@ 3
devast@@ 3
Cri@@ 3
Nigeria 3
Royal 3
survive 3
sit@@ 3
ah@@ 3
Investigation 3
Ren@@ 3
erns 3
calamity 3
Photo 3
ayal 3
odaya 3
Root 3
uru 3
answers 3
suggestion 3
arrange 3
Independence 3
mega 3
Af@@ 3
isolation 3
images 3
Phone 3
Mail 3
sue 3
strongest 3
DT 3
cryst@@ 3
efs 3
fruitful 3
want 3
lesser 3
demonstration 3
assed 3
Ram 3
ultimately 3
Of@@ 3
illed 3
Kap@@ 3
adia 3
mil@@ 3
dens 3
renamed 3
regardless 3
krup@@ 3
halt 3
ligh@@ 3
filling 3
Gur@@ 3
uk@@ 3
extra 3
Arab 3
Emirates 3
Lib@@ 3
tless 3
Samsung 3
tting 3
nagar 3
missing 3
cogniz@@ 3
langu@@ 3
today 3
tee 3
sidelines 3
star@@ 3
leng@@ 3
conclud@@ 3
ancement 3
stwhile 3
outfit 3
print@@ 3
excell@@ 3
haul 3
warriors 3
196@@ 3
Writ@@ 3
Sports 3
tude 3
Don@@ 3
Monday 3
~ 3
Oxford 3
featured 3
Jio 3
HRD 3
founding 3
AW@@ 3
ior 3
ac 3
necessarily 3
Andaman 3
Nicobar 3
Raj 3
116 3
appro@@ 3
own@@ 3
none 3
pled 3
dreams 3
ticed 3
Media 3
versions 3
insight 3
Put 3
Fre@@ 3
dia 3
pref@@ 3
erably 3
ool 3
eye 3
extile 3
TRS 3
everyone 3
Down@@ 3
gs 3
by-@@ 3
circum@@ 3
tel@@ 3
Gang@@ 3
Districts 3
Chha@@ 3
136 3
umes 3
em 3
idable 3
belong 3
s.@@ 3
cc 3
sends 3
typical 3
arajan 3
aran 3
Backward 3
Vidy@@ 3
repe@@ 3
NHAI 3
Sachin 3
cc@@ 3
bag 3
Maximum 3
Sud@@ 3
enthusiasm 3
instruction 3
sid@@ 3
Bob@@ 3
Korean 3
mit 3
damaged 3
airlines 3
tis 3
illary 3
114 3
Highways 3
Pul@@ 3
Environment 3
da 3
hundred 3
carved 3
Pragya 3
190 3
He@@ 3
leaves 3
tourists 3
grati@@ 3
Fil@@ 3
arsh 3
sim@@ 3
died 3
cylind@@ 3
abundant 3
Suzuki 3
north-@@ 3
Pw@@ 3
compul@@ 3
himself 3
104 3
asc@@ 3
ost 3
contest 3
sil@@ 3
ich@@ 3
del 3
Address 3
But 3
Suc@@ 3
honour 3
Modi 3
spo@@ 3
Ros@@ 3
Parv@@ 3
sta 3
Asi@@ 3
Beh@@ 3
governmental 3
Cr 3
constructive 3
tenders 3
meals 3
rivastava 3
ograph@@ 3
middle-@@ 3
175 3
honesty 3
cyclone 3
earthquake 3
Electronics 3
118 3
Gar@@ 3
observing 3
hardships 3
Rob@@ 3
rown 3
Stan@@ 3
Ann@@ 3
air-@@ 3
dly 3
fish@@ 3
negotiations 3
ni 3
Activities 3
rupe@@ 3
nin@@ 3
black 3
wish 3
speak 3
LED 3
Rajeev 3
attend@@ 3
winning 3
CSI@@ 3
TE 3
mines 3
Has 3
religious 3
greatly 3
emissions 3
symbol 3
ware 3
Safety 3
tag 3
Mumbai@@ 3
aved 3
grace 3
ette 3
Shre@@ 3
legs 3
replac@@ 3
invol@@ 3
650 3
fill 3
admitted 3
come-tax 3
smartphones 3
anonym@@ 3
construc@@ 3
progressing 3
buted 3
poo@@ 3
physically 3
dressing 3
happening 3
inity 3
Like 3
bel@@ 3
Dos@@ 3
Ther@@ 3
Similar 3
Electrical 3
processor 3
diseases 3
Sciences 3
MPs 3
airline 3
advisor 3
hydro@@ 3
Wednesday 3
oday 3
approxim@@ 3
Jas@@ 3
bir 3
T. 3
placing 3
UN 3
Don 3
fifty 3
invite 3
Vik@@ 3
itya 3
helpful 3
mun@@ 3
electric 3
elect 3
Madras 3
Treatment 3
enue 3
Rail 3
Qual@@ 3
GA 3
130 3
103 3
Canadian 3
Directorate 3
university 3
Pro 3
tradition 3
onic 3
ver 3
Justice 3
Kapur 3
Way 3
153 3
Hotel 3
theast 3
ug@@ 3
completing 3
reputation 3
Forces 3
hygiene 3
Main 3
Silver 3
Degree 3
Sank@@ 3
Sor@@ 3
longest 3
decre@@ 3
counts 3
idhi 3
tedly 3
checking 3
Ali@@ 3
zer@@ 3
DM 3
demonstr@@ 3
store 3
grams 3
contesting 3
employe@@ 3
acies 3
Search 3
specialist 3
Bridge 3
restraint 3
sm@@ 3
ell 3
Lab@@ 3
lists 3
Focus 3
18th 3
reason 3
safer 3
ommunications 3
Cabinet 3
urea 3
asi 3
127 3
ghar 3
criminal 3
enormous 3
jour@@ 3
neys 3
shop@@ 3
insp@@ 3
eric@@ 3
chairperson 3
Oct 3
MR 3
odia 3
high-level 3
Noida 3
plat@@ 3
People 3
Viv@@ 3
stations 3
unle@@ 3
Wi-Fi 3
Dam@@ 3
hin@@ 3
diamond 3
ocks 3
bases 3
Cou@@ 3
ella 3
genu@@ 3
HO 3
bid 3
aji 3
migrants 3
hati 3
Bhattacharya 3
Million 3
stro@@ 3
exerc@@ 3
favor 3
surprise 3
unlimited 3
EPF 3
seed 3
agric@@ 3
telephon@@ 3
ounds 3
fifteen 3
subj@@ 3
elev@@ 3
toward 3
Ray 3
test@@ 3
layer 3
tus 3
water@@ 3
else 3
GeM 3
versity 3
Ministries 3
Nation 3
Amit 3
Agrawal 3
embrac@@ 3
colum@@ 3
Rao 3
midst 3
forthcoming 3
planted 3
arily 3
at-@@ 3
ina 3
Ori@@ 3
node 3
SO 3
Ukraine 3
Amid 3
Cz@@ 3
des 3
reign 3
midd@@ 3
snap@@ 3
rain@@ 3
revolution 3
donated 3
Greece 3
dist@@ 3
juven@@ 3
panchayat 3
ok 3
verse 3
san 3
enrolled 3
evening 3
8,000 3
Male 3
lan@@ 3
petitions 3
Rain@@ 3
erous 3
119 3
sa 3
Portugal 3
Ke@@ 3
tal@@ 3
Nov 3
11,000 3
Web 3
architec@@ 3
gle 3
succe@@ 3
sewage 3
drug 3
lit@@ 3
multil@@ 3
menti@@ 3
intend 3
UI@@ 3
regi@@ 3
winners 3
occasion 3
rivers 3
must@@ 3
nut 3
Latin 3
Bhu@@ 3
regarded 3
ross 3
enc@@ 3
Much 3
Need 3
Universal 3
Sof@@ 3
lights 3
visitors 3
mated 3
cop@@ 3
Down 3
interviews 3
struggling 3
Nit@@ 3
oves 3
norm@@ 3
tickets 3
Parliamentary 3
abs@@ 3
taxpayers 3
117 3
inform 3
ands 3
clothing 3
wast@@ 3
Hung@@ 3
® 3
Adviser 3
clearance 3
AY@@ 3
park 3
j 3
electrification 3
Chakraborty 3
dip 3
Prag@@ 2
anal@@ 2
commun@@ 2
aller 2
investigations 2
fake 2
lifetime 2
she@@ 2
imper@@ 2
bottom 2
packages 2
Aviation 2
cel 2
VAT 2
view@@ 2
jo@@ 2
bless 2
Tag@@ 2
Army 2
Back@@ 2
oping 2
avery 2
Billion 2
battle 2
Because 2
people-@@ 2
Nand@@ 2
Nil@@ 2
cive 2
misleading 2
LAC 2
hum@@ 2
Jew@@ 2
situ@@ 2
Are@@ 2
Khur@@ 2
curriculum 2
burg 2
tering 2
bridges 2
Verma 2
ron 2
Vivek 2
clave 2
chamber 2
Diesel 2
Idea 2
acks 2
enth 2
sen 2
justi@@ 2
sewhere 2
solem@@ 2
fortunate 2
speakers 2
resume 2
praise 2
tre 2
Thomas 2
John 2
gradu@@ 2
eep 2
Choksi 2
resigned 2
census 2
2014-@@ 2
Bollywood 2
Football 2
Wildlife 2
Post@@ 2
NG 2
E. 2
Norway 2
wins 2
writes 2
354 2
ornam@@ 2
nus 2
ady 2
counsel 2
वार्षिक 2
disability 2
dear 2
rows 2
uck@@ 2
enant 2
nearby 2
itorious 2
urged 2
attempting 2
J. 2
showcas@@ 2
Hun@@ 2
baaz 2
Kos@@ 2
ki 2
Posts 2
inhabitants 2
Anti@@ 2
Prakash 2
akshi 2
Municipal 2
Panchayat 2
lifestyle 2
Vil@@ 2
amond 2
English@@ 2
assist@@ 2
inder 2
Jayanti 2
hari 2
ution@@ 2
Hav@@ 2
eli 2
occupation 2
magnetic 2
erc@@ 2
isolated 2
forty 2
150@@ 2
audience 2
Vall@@ 2
zen 2
280 2
conflic@@ 2
Himalayan 2
Expressway 2
approached 2
oh 2
laboratories 2
fraternity 2
Whe@@ 2
Scre@@ 2
Bengali 2
hara 2
Big@@ 2
Wind@@ 2
mentally 2
disciplines 2
enthusi@@ 2
mounted 2
inaugurating 2
esp@@ 2
wrong 2
Sab@@ 2
144 2
1B 2
experiencing 2
motorcycle 2
erup@@ 2
beings 2
respected 2
py@@ 2
ram 2
ith 2
é@@ 2
Mir@@ 2
onomy 2
ait 2
fly 2
African 2
separ@@ 2
square 2
retali@@ 2
vs 2
ADB 2
Diwali 2
Mus@@ 2
Ty@@ 2
divis@@ 2
arm@@ 2
Read 2
arious 2
Roads 2
commit 2
Airtel 2
arose 2
uous 2
tery 2
il-@@ 2
1982 2
attracted 2
Ni@@ 2
complim@@ 2
Crime 2
glad 2
Renewable 2
commod@@ 2
Pu@@ 2
Here 2
Electric 2
Raghuram 2
Rajan 2
Vice-@@ 2
Super 2
heres 2
scattered 2
Flipkart 2
une 2
Can@@ 2
ford 2
sex 2
ah 2
Drugs 2
organ@@ 2
SIT 2
warming 2
painting 2
internation@@ 2
patients 2
1800 2
ITC 2
NPR 2
35A 2
collap@@ 2
upheld 2
rich@@ 2
Jeevan 2
alike 2
ghout 2
accid@@ 2
bow@@ 2
Ser@@ 2
amp@@ 2
itals 2
Electr@@ 2
Fort 2
postponed 2
inist@@ 2
gal@@ 2
speculation 2
Dha@@ 2
mak@@ 2
worst 2
shetra 2
ordinance 2
warfare 2
counterpart 2
greatest 2
blow 2
ul 2
grateful 2
Austri@@ 2
Kuwait 2
spare 2
forensic 2
Culture 2
handed 2
ranks 2
bore 2
Ho@@ 2
him@@ 2
choosing 2
divide 2
Meteorological 2
Chand 2
Diplom@@ 2
Case 2
ser@@ 2
Inc@@ 2
interior 2
lady 2
Punj@@ 2
hostel 2
fibre 2
Metropolitan 2
quir@@ 2
plant@@ 2
FICCI 2
PU@@ 2
RIL 2
mate 2
H.@@ 2
Conclave 2
municipal 2
Temple 2
West@@ 2
ba 2
Northeast 2
rallies 2
argue 2
Chancellor 2
sanitation 2
Col@@ 2
By@@ 2
Panchay@@ 2
ppers 2
oral 2
hot@@ 2
gratitude 2
ef 2
narrative 2
Capitals 2
chos@@ 2
mom@@ 2
seconds 2
cure 2
jute 2
barred 2
Monsoon 2
eling 2
yas 2
Making 2
RAM 2
Star 2
SIDE@@ 2
characteristic 2
paddy 2
establ@@ 2
Meena 2
Hem@@ 2
chandra 2
Bhuban@@ 2
Ang@@ 2
aster 2
pal 2
perception 2
1500 2
Activ@@ 2
bran@@ 2
diplom@@ 2
aching 2
occas@@ 2
filled 2
syl@@ 2
denial 2
rewarded 2
Tom 2
solid 2
Responding 2
nes 2
proto@@ 2
boats 2
1977 2
supposed 2
mus@@ 2
Teh@@ 2
ashi 2
Ghaziabad 2
robo@@ 2
Mak@@ 2
Heritage 2
reas@@ 2
TCS 2
NIC 2
circuit 2
Nat@@ 2
Chandrasek@@ 2
Satish 2
Kash@@ 2
Classes 2
plot 2
cs 2
strength@@ 2
Mittal 2
bund@@ 2
emen 2
XI 2
Os@@ 2
underlined 2
transgres@@ 2
Hyundai 2
Toyota 2
sickness 2
Bachel@@ 2
stead@@ 2
Coimbatore 2
diagno@@ 2
exchanged 2
Adarsh 2
edings 2
2025 2
cence 2
phenomen@@ 2
star 2
professor 2
Tit@@ 2
privileges 2
Aug@@ 2
hotel 2
Flight 2
ev 2
indi@@ 2
Her 2
dial 2
Egypt 2
entil@@ 2
IB 2
Khand@@ 2
India-China 2
mid 2
dark 2
Communications 2
American 2
Fertilizers 2
Honda 2
pollution 2
environ@@ 2
cr 2
educated 2
arian 2
ax 2
enjoyed 2
pledged 2
den 2
claiming 2
Without 2
flights 2
56@@ 2
competing 2
shut@@ 2
Speaker 2
rankings 2
essive 2
thor@@ 2
Again 2
affects 2
Narendra 2
world@@ 2
overwhel@@ 2
icked 2
stopping 2
noticed 2
ESIC 2
bus 2
tian 2
author 2
Switzerland 2
spices 2
ores 2
Design 2
fighting 2
Techn@@ 2
offences 2
iconic 2
HP 2
cm 2
north 2
stu@@ 2
testimony 2
hyper@@ 2
hous@@ 2
sunami 2
storm 2
landslide 2
burst 2
Every@@ 2
Menon 2
Pha@@ 2
programm@@ 2
-- 2
ceas@@ 2
exist 2
Kor@@ 2
terrorist 2
wearing 2
vacation 2
hom@@ 2
1981 2
105 2
killing 2
Asked 2
artisans 2
aredness 2
Republic 2
timat@@ 2
Kumari 2
Assam@@ 2
Konk@@ 2
Sindhu 2
aar 2
oes 2
thro@@ 2
pumps 2
grows 2
Sunil 2
sons 2
aj 2
Pand@@ 2
ang 2
broke 2
Eight 2
wari 2
inconvenience 2
N.@@ 2
mala 2
offici@@ 2
aw 2
glorious 2
Auc@@ 2
eral 2
resign@@ 2
handic@@ 2
Chak@@ 2
rab@@ 2
Krishi 2
routes 2
station 2
Conservation 2
Ber@@ 2
triumph 2
poss@@ 2
174 2
Motor 2
bullet 2
remarks 2
ope 2
osh 2
arbitr@@ 2
Kam@@ 2
fitting 2
hall 2
Tou@@ 2
anything 2
promised 2
teen@@ 2
Port 2
unanim@@ 2
Hir@@ 2
NITI 2
Aayog 2
Nag@@ 2
Ji 2
abor@@ 2
Cancer 2
ols 2
thin 2
Will 2
My 2
VV@@ 2
oh@@ 2
Muzaffarpur 2
isance 2
revoked 2
administr@@ 2
ionally 2
harv@@ 2
Lady 2
shocked 2
bone 2
bon 2
constitutional 2
pair 2
upcoming 2
Days 2
Rather 2
poc@@ 2
scienti@@ 2
oom 2
clai@@ 2
slow@@ 2
flood-@@ 2
A.@@ 2
otive 2
definitely 2
uti@@ 2
impossible 2
Jha 2
Vijay 2
Mathur 2
urban@@ 2
progr@@ 2
yar@@ 2
vey 2
andi 2
prey 2
ru 2
infected 2
Subhash 2
owers 2
male 2
center 2
Ludhiana 2
wings 2
Dar@@ 2
ario 2
Paris 2
Club 2
athon 2
younger 2
chlor@@ 2
ulations 2
Ks 2
PPAC 2
point@@ 2
parents 2
tanks 2
reporters 2
tou@@ 2
Pras@@ 2
Bharti 2
liminary 2
ush@@ 2
rences 2
neighbouring 2
returning 2
prospect 2
musical 2
cooking 2
saved 2
ba@@ 2
viral 2
inspiring 2
men@@ 2
complicated 2
audiences 2
gged 2
hur@@ 2
133 2
Britain 2
Australian 2
yal 2
travellers 2
alleged 2
To@@ 2
Films 2
aun 2
Morgan 2
ley 2
speaking 2
ultural 2
eri@@ 2
logged 2
feel 2
friend@@ 2
liness 2
Bhushan 2
Dharm@@ 2
hik@@ 2
lecture 2
banner 2
dh@@ 2
my@@ 2
Tul@@ 2
nak@@ 2
ulam 2
Page 2
thi@@ 2
egu@@ 2
Shakti 2
inner 2
thew 2
jumped 2
orities 2
ye 2
rar 2
maker 2
promise 2
2,500 2
spell 2
tweets 2
275 2
Candidates 2
,999 2
bean 2
Shashi 2
entally 2
help@@ 2
Numb@@ 2
understands 2
liz@@ 2
Thr@@ 2
fatalities 2
alid 2
NRC 2
vendra 2
Narayan 2
Dubey 2
tel 2
perhaps 2
foot 2
resting 2
हैं 2
anta 2
zz 2
passion 2
flowing 2
Mr 2
tit@@ 2
indulging 2
punished 2
blood 2
manip@@ 2
trials 2
suspicion 2
fig@@ 2
203 2
107 2
CCI 2
narrated 2
Sriniv@@ 2
asan 2
Tour@@ 2
ball 2
Saty@@ 2
Tripathi 2
committing 2
iti 2
dwellers 2
pitch 2
grief 2
yers 2
Arts 2
videos 2
games 2
efully 2
mask 2
ould 2
Explan@@ 2
So@@ 2
Swe@@ 2
arrested 2
Achi@@ 2
decl@@ 2
fli@@ 2
toler@@ 2
sure 2
approaching 2
loom 2
Go 2
proceeding 2
Sour@@ 2
Census 2
Speech 2
Thane 2
Peoples 2
PH@@ 2
Lev@@ 2
Sew@@ 2
eply 2
piv@@ 2
favour@@ 2
ja 2
tings 2
β 2
forgotten 2
Chit@@ 2
rak@@ 2
Are 2
Rajya 2
hir 2
etal 2
shipping 2
Roy@@ 2
bench 2
Rapid 2
oo 2
Kr@@ 2
engineer 2
krish@@ 2
asp@@ 2
enger 2
summit 2
Prav@@ 2
Kut@@ 2
apparently 2
Mukherjee 2
115@@ 2
corrupt 2
anguish 2
along@@ 2
Step 2
estion 2
innocent 2
wart 2
Ak@@ 2
farm@@ 2
meg@@ 2
jan 2
Sah@@ 2
Bhag@@ 2
Narasim@@ 2
go@@ 2
Political 2
ing-in 2
survival 2
Ms. 2
harmac@@ 2
ministry 2
mic 2
Prith@@ 2
3000 2
Medic@@ 2
prises 2
Fed@@ 2
Ide@@ 2
drops 2
top-@@ 2
faith 2
beliefs 2
creative 2
brands 2
show@@ 2
Smar@@ 2
eggs 2
host@@ 2
Talking 2
lim@@ 2
edic@@ 2
contem@@ 2
originated 2
aki 2
Cham@@ 2
bers 2
prove 2
rul@@ 2
tired 2
visas 2
density 2
bagged 2
ecosy@@ 2
stems 2
rives 2
Loc@@ 2
gency 2
dri@@ 2
dy@@ 2
aur 2
odi 2
Dh@@ 2
Maharaja 2
Say@@ 2
cin@@ 2
sear@@ 2
182 2
aic 2
wara 2
citizenship 2
color 2
race 2
birth 2
portation 2
birth@@ 2
inous 2
anyone 2
minister 2
Leg@@ 2
moral 2
Highlights 2
mathem@@ 2
invoke 2
villagers 2
evid@@ 2
utiliz@@ 2
ha 2
cricketers 2
badminton 2
NL@@ 2
engines 2
Vigyan 2
Vill@@ 2
fits 2
Wel@@ 2
Constitutional 2
commemorate 2
hospital 2
ey 2
teaching 2
Ever 2
commend@@ 2
Nature 2
jac@@ 2
pip@@ 2
gging 2
hitting 2
discharged 2
K.@@ 2
bar 2
copper 2
secular 2
roughly 2
exist@@ 2
PNB 2
omb@@ 2
ly-@@ 2
cheating 2
ome 2
Rain 2
Hot@@ 2
spok@@ 2
PPE 2
orial 2
omes 2
tonne 2
accor@@ 2
Que@@ 2
butions 2
scientists 2
Users 2
pump 2
fif@@ 2
Dayal 2
lin 2
sigh@@ 2
chro@@ 2
ensity 2
195@@ 2
148 2
withdrew 2
willingness 2
Alliance 2
ISA 2
thorough 2
vocation 2
catch 2
predec@@ 2
Argent@@ 2
128 2
starts 2
magazines 2
Seas@@ 2
Headquarters 2
worse 2
aul 2
andra 2
Kashi 2
Gom@@ 2
Gorakhpur 2
evelop 2
FIFA 2
consuming 2
aer@@ 2
lor@@ 2
lions 2
lec@@ 2
targ@@ 2
thetic 2
Show 2
perf@@ 2
ped@@ 2
Kathmandu 2
emon 2
juvenation 2
perfect 2
Daily 2
moment@@ 2
1963 2
repair 2
Chro@@ 2
ox 2
labor 2
170 2
rit 2
Courts 2
ety 2
reve@@ 2
Fol@@ 2
mes 2
forth@@ 2
Selection 2
ISI 2
Heal@@ 2
Kohli 2
Ed@@ 2
Tar@@ 2
Publ@@ 2
piece 2
alliance 2
references 2
cav@@ 2
eat 2
Cu@@ 2
Bhand@@ 2
Mother 2
corner 2
Dhawan 2
shad@@ 2
doc@@ 2
torate 2
pesti@@ 2
cides 2
Nath 2
umps 2
class@@ 2
pot 2
bh@@ 2
Haz@@ 2
ira 2
officially 2
icket 2
opping 2
inspired 2
COVID@@ 2
phil@@ 2
rop@@ 2
two-day 2
Rai 2
performances 2
304 2
compon@@ 2
demonstrate 2
similarly 2
practi@@ 2
Pink 2
Watch 2
ather 2
Tend@@ 2
Arvind 2
arities 2
Phil@@ 2
Pharmaceu@@ 2
Sweden 2
Express 2
onom@@ 2
Roy 2
trophy 2
Phys@@ 2
Bet@@ 2
hao 2
girl 2
Mil@@ 2
Nad@@ 2
rid 2
IRCTC 2
Stay 2
Works 2
hail 2
spot@@ 2
certainly 2
utting 2
treating 2
Students 2
Amitabh 2
fans 2
Distric@@ 2
revolutionary 2
Goyal 2
Bai@@ 2
Connec@@ 2
spl@@ 2
Udaipur 2
ete 2
exploration 2
Admir@@ 2
Story 2
chat 2
observation 2
etres 2
British 2
Dhan@@ 2
chairmanship 2
law@@ 1
happen 1
simply 1
unknown 1
Dim@@ 1
224 1
enorm@@ 1
delegation 1
judge 1
Judge 1
Gaz@@ 1
Lo 1
trace 1
preparations 1
surface 1
hopeful 1
Bring 1
sporting 1
ox@@ 1
arms 1
fla@@ 1
adop@@ 1
sparked 1
idea 1
ides 1
bird 1
flu 1
GT@@ 1
Terrorism 1
किया 1
गया 1
है 1
typ@@ 1
Advoc@@ 1
Aditya 1
Birla 1
cooper@@ 1
numerous 1
replied 1
hopes 1
cover@@ 1
Squ@@ 1
Chet@@ 1
illustration 1
crashed 1
LD 1
nat@@ 1
IOC 1
ivers@@ 1
itys 1
Kan@@ 1
Jon@@ 1
tari@@ 1
Spe@@ 1
bal 1
manif@@ 1
Space 1
Tel@@ 1
ephone 1
container 1
ere@@ 1
immunity 1
inspir@@ 1
consult 1
Legislature 1
icip@@ 1
Parishad 1
Abhi@@ 1
Hindus 1
Sikhs 1
Buddh@@ 1
sis 1
Christians 1
winner 1
graphy 1
adm@@ 1
enary 1
TM 1
deputy 1
umping 1
Lu@@ 1
really 1
RSS 1
harsh 1
cancel 1
Likewise 1
Hor@@ 1
ticulture 1
Grants 1
pain 1
agu@@ 1
immigration 1
brid 1
gest 1
ayam 1
Sidd@@ 1
roots 1
tournaments 1
obile 1
thoughts 1
Raksha 1
Gul@@ 1
Manish 1
fru@@ 1
Ek@@ 1
lav@@ 1
wada 1
bert 1
portedly 1
alog@@ 1
staged 1
prosperity 1
Mahar@@ 1
comm 1
gy@@ 1
havan 1
Suz@@ 1
ie 1
aband@@ 1
iving 1
Aircraft 1
tense 1
Hindu 1
eti 1
myst@@ 1
pictures 1
hos@@ 1
acker 1
Thiruvan@@ 1
apuram 1
repeat 1
false 1
BSNL 1
NL 1
Jhar@@ 1
Course 1
hydr@@ 1
screening 1
Laun@@ 1
KS 1
INS 1
Sm@@ 1
seize 1
Prot@@ 1
ond 1
tough 1
stating 1
Foot@@ 1
Myanmar 1
Kha@@ 1
ais 1
Sh 1
jah 1
wer 1
timately 1
Aziz 1
Saj@@ 1
jid 1
Chin@@ 1
oy 1
Think 1
Indu@@ 1
Sag@@ 1
riots 1
bears 1
ives 1
abs 1
sory 1
fet@@ 1
equals 1
ko 1
ei 1
Cle@@ 1
Everything 1
don 1
wr@@ 1
reaches 1
mers 1
Message 1
celebrations 1
Red 1
gencies 1
erly 1
cleaning 1
ye@@ 1
demanding 1
Girish 1
Ahuja 1
Janm@@ 1
hoomi 1
critic@@ 1
briefing 1
Citiz@@ 1
376 1
Cat@@ 1
aly@@ 1
survived 1
ruption 1
hasten 1
vacant 1
Tube 1
temper@@ 1
distinc@@ 1
Syria 1
other@@ 1
kout 1
decent 1
rensic 1
requi@@ 1
graphic 1
Tari@@ 1
bec@@ 1
hood 1
towns 1
preval@@ 1
wav@@ 1
tobacco 1
bled 1
Population 1
ater 1
lamps 1
parks 1
gardens 1
battery 1
commits 1
Chemicals 1
Chemical 1
cricketer 1
Mandal 1
Tap@@ 1
Tai@@ 1
agon 1
defense 1
sives 1
round@@ 1
eph@@ 1
desp@@ 1
psy@@ 1
answered 1
threatened 1
Wing 1
Exerc@@ 1
crete 1
Cop@@ 1
PDF 1
miss 1
Reli@@ 1
Jagdish 1
och@@ 1
mem@@ 1
Max 1
Cold 1
oultry 1
Enter 1
500@@ 1
isha 1
tank 1
ministers 1
glori@@ 1
motion 1
traordinary 1
Arti@@ 1
Patt@@ 1
ayak 1
Night 1
Chou@@ 1
liter@@ 1
Hari@@ 1
kti 1
angel 1
Launch 1
Tu@@ 1
contain@@ 1
prejudi@@ 1
lyn@@ 1
sing@@ 1
Neither 1
itude 1
feeling 1
equality 1
wat@@ 1
watching 1
conduc@@ 1
trapati 1
Shivaji 1
Maharaj 1
UNESCO 1
unnecessary 1
Jha@@ 1
settings 1
investigate 1
suspension 1
residence 1
aled 1
137 1
haran 1
amy 1
gifts 1
Swam@@ 1
Srin@@ 1
hear@@ 1
single-@@ 1
Ford 1
Merced@@ 1
nursing 1
Lakshadweep 1
Ganesh 1
Sre@@ 1
Add 1
agitation 1
Clearly 1
assistant 1
tum@@ 1
Follow@@ 1
jury 1
loose 1
respect@@ 1
volunteers 1
elec@@ 1
Ec@@ 1
ainment 1
Parti@@ 1
badly 1
mother@@ 1
daughter 1
hib@@ 1
deeply 1
turb@@ 1
glimp@@ 1
showcase 1
ger@@ 1
Saturday 1
nath 1
Kovind 1
plas@@ 1
retur@@ 1
covenant 1
ori 1
proceed 1
oldest 1
belongs 1
Excell@@ 1
1976 1
Grow@@ 1
plan@@ 1
lands 1
dedicate 1
someone 1
zy 1
Gen 1
shal 1
erings 1
fodder 1
Luc@@ 1
fos@@ 1
sil 1
shut 1
surely 1
rad@@ 1
entions 1
uta 1
260 1
appointments 1
Ko@@ 1
Fat@@ 1
equiv@@ 1
steadfast 1
blems 1
thou@@ 1
expressions 1
Bay@@ 1
assemb@@ 1
420 1
Hemant 1
popularly 1
navigation 1
370 1
obvious 1
asser@@ 1
Infosys 1
chose 1
EF 1
females 1
males 1
Why 1
aspora 1
bestowed 1
ignor@@ 1
Sharif 1
Uz@@ 1
aman 1
askar 1
Odi@@ 1
Happy 1
Ka 1
nutri@@ 1
island 1
affidavit 1
NER 1
Aadha@@ 1
forcement 1
Ek 1
Naz@@ 1
Baat 1
Kiran 1
speech 1
dark@@ 1
138 1
violates 1
expresses 1
pets 1
lest 1
celebrate 1
fabric@@ 1
giant 1
Manufac@@ 1
beli@@ 1
disasters 1
insur@@ 1
ods 1
imperfect 1
neighbourhood 1
rists 1
black@@ 1
dump@@ 1
dingly 1
cir@@ 1
know@@ 1
erv@@ 1
ia@@ 1
clam@@ 1
diplomatic 1
article 1
stretch 1
sey 1
psych@@ 1
ulum 1
Ped@@ 1
pillar 1
profession 1
succeeded 1
varieties 1
symbols 1
literary 1
Laksh@@ 1
amed 1
stays 1
humans 1
nobody 1
Chun@@ 1
Film 1
ideal 1
meal 1
flags 1
Art 1
Harsh 1
Vardhan 1
summons 1
atom@@ 1
Laboratory 1
Children 1
orph@@ 1
argument 1
duo 1
loy@@ 1
aswamy 1
query 1
reader 1
ammed 1
bell 1
Airport 1
meth@@ 1
ane 1
ecation 1
ost@@ 1
naturally 1
mony 1
aka 1
welcomed 1
associ@@ 1
cooperate 1
TVS 1
Maritime 1
theft 1
imming 1
game 1
sacrific@@ 1
watched 1
counterparts 1
traced 1
amm@@ 1
fishing 1
agree 1
Jal 1
familiar 1
manufac@@ 1
Electoral 1
pag@@ 1
batt@@ 1
anna 1
lane 1
tled 1
orney 1
rushed 1
Ranjit 1
Chatterjee 1
lau@@ 1
gres@@ 1
disper@@ 1
Give 1
laboratory 1
162 1
illi@@ 1
ossi@@ 1
Kabaddi 1
king@@ 1
shame@@ 1
athers 1
Tiger 1
chick@@ 1
And@@ 1
Air@@ 1
flying 1
world-@@ 1
Pandya 1
discover 1
Ju@@ 1
ugitive 1
will@@ 1
Chandrashe@@ 1
khar 1
ayan 1
Pandey 1
Rit@@ 1
Marshal 1
si 1
di 1
nec@@ 1
nationalism 1
Expo 1
fing@@ 1
incumbent 1
EV 1
Moscow 1
riding 1
thodox 1
offee 1
danger 1
North-@@ 1
liquor 1
kan@@ 1
mirror 1
onze 1
medals 1
Hospital 1
thr@@ 1
alaya 1
St. 1
surrendered 1
beh@@ 1
chil@@ 1
meric 1
gy 1
Yatra 1
definite 1
reluc@@ 1
Benef@@ 1
merely 1
lots 1
compact 1
surprising 1
Mc@@ 1
Gow@@ 1
Armed 1
conserv@@ 1
parking 1
Swaraj 1
kilo@@ 1
artists 1
styles 1
puram 1
Confederation 1
medic@@ 1
photograph 1
pop@@ 1
flowers 1
territ@@ 1
kil@@ 1
stops 1
mean@@ 1
Would 1
ASEAN 1
tasks 1
brut@@ 1
cel@@ 1
gear 1
Joshua 1
Jitendra 1
abol@@ 1
solve 1
camp@@ 1
spaces 1
eck 1
anci@@ 1
guard 1
plies 1
Nok@@ 1
Hind@@ 1
256 1
Hockey 1
ket@@ 1
wrongdoing 1
ousness 1
hygi@@ 1
David 1
dead 1
usal 1
ers@@ 1
intelligent 1
accoun@@ 1
respite 1
Michael 1
Mexic@@ 1
lightly 1
abandoned 1
devo@@ 1
BSP 1
wishes 1
Tokyo 1
advers@@ 1
Constitu@@ 1
Jama@@ 1
ica 1
belong@@ 1
ingness 1
NIA 1
umed 1
crash 1
Let 1
Whether 1
tea 1
NW 1
surg@@ 1
maiden 1
tally 1
sew@@ 1
actually 1
cigarett@@ 1
minds 1
strugg@@ 1
Kazakhstan 1
Ukrain@@ 1
ool@@ 1
Da@@ 1
phy@@ 1
drome 1
desper@@ 1
Mahab@@ 1
149 1
spots 1
PCB 1
Guntur 1
Jabalpur 1
esh@@ 1
Kamal 1
Kishore 1
tabled 1
trains 1
Wal@@ 1
arrang@@ 1
acre 1
decreas@@ 1
reality 1
landmark 1
French 1
alistic 1
Shik@@ 1
hay 1
Ish@@ 1
bhai 1
angi 1
Fran@@ 1
Swedish 1
Dan@@ 1
KK 1
Phar@@ 1
repeatedly 1
bit@@ 1
Engineer 1
Colomb@@ 1
discourse 1
Kal@@ 1
spring 1
ausp@@ 1
ASI 1
mati 1
Krishna 1
Pradeep 1
Sanjeev 1
hapat@@ 1
sensors 1
dog 1
graph@@ 1
revelations 1
Aff@@ 1
Cyclone 1
Student 1
ears 1
saff@@ 1
cong@@ 1
distinguished 1
businessmen 1
path@@ 1
Commonwealth 1
Samiti 1
alpur 1
Other@@ 1
style 1
Fur@@ 1
Hospit@@ 1
Entertainment 1
industri@@ 1
Result 1
smartphone 1
Kun@@ 1
nutrition 1
happened 1
Fire 1
Bag@@ 1
anners 1
intervene 1
capac@@ 1
probably 1
electoral 1
North-East 1
totally 1
ota 1
yellow 1
behavior 1
exploitation 1
glob@@ 1
extre@@ 1
Until 1
Veer 1
Military 1
oda 1
ora 1
ect@@ 1
acity 1
func@@ 1
warned 1
warded 1
agon@@ 1
ende@@ 1
resses 1
enty 1
eved 1
Gaj@@ 1
jar 1
pit 1
Reuters 1
hr 1
rush 1
atedly 1
Tuesday 1
tom 1
uv@@ 1
ao 1
despair 1
crimin@@ 1
oke 1
run-@@ 1
Pho@@ 1
suburban 1
youths 1
rested 1
walk 1
U.S. 1
hil@@ 1
feet 1
finger 1
Whatever 1
opt 1
Administ@@ 1
arch@@ 1
correctly 1
mere 1
Border 1
ini 1
Chok@@ 1
shi 1
Iyer 1
ometer 1
Some@@ 1
eath 1
ton@@ 1
plenty 1
gh 1
peo@@ 1
insist@@ 1
combat 1
menace 1
forged 1
featuring 1
Intel@@ 1
ligent 1
Sid@@ 1
Rus@@ 1
atiya 1
doors 1
something 1
aircraft 1
helicopter 1
possessed 1
invitation 1
fruit 1
Commission@@ 1
finite 1
Vidya 1
Lakshmi 1
trou@@ 1
harm 1
Sat@@ 1
lam@@ 1
icking 1
logo 1
Birth 1
1951 1
troubles 1
tenth 1
evacuation 1
underground 1
sat@@ 1
ectiveness 1
eclip@@ 1
lab 1
Blu@@ 1
Suresh 1
Tendulkar 1
Joh@@ 1
Hop@@ 1
kins 1
Deshmukh 1
ustin 1
Gau@@ 1
CWC 1
Signs 1
prevail 1
insula 1
Tre@@ 1
Dr.@@ 1
PM-@@ 1
atest 1
loved 1
clo@@ 1
Mode 1
increas@@ 1
Prat@@ 1
Pran@@ 1
prepar@@ 1
pers 1
Candid@@ 1
tiny 1
egg 1
eighth 1
dic 1
maj@@ 1
junior 1
colleagues 1
presidential 1
Chaudhary 1
Mega 1
motivated 1
loyal 1
manufacture 1
conqu@@ 1
humanity 1
Hindustan 1
native 1
pes 1
reacted 1
corona 1
chairs 1
CO2 1
shal@@ 1
gest@@ 1
queues 1
stal@@ 1
presid@@ 1
salute 1
illicit 1
beds 1
Wick@@ 1
toilets 1
za 1
Upper 1
remin@@ 1
nights 1
rumours 1
consumed 1
twitter 1
Rog@@ 1
appreciate 1
grand@@ 1
fath@@ 1
Upadhy@@ 1
Kaus@@ 1
tod@@ 1
secretary 1
Houses 1
throwing 1
expres@@ 1
networking 1
cam@@ 1
tips 1
instr@@ 1
imm@@ 1
Check 1
It@@ 1
Log@@ 1
keepers 1
nearest 1
grave 1
tu 1
teorological 1
passes 1
cher 1
inauguration 1
strikes 1
Ir@@ 1
Anil 1
exactly 1
War 1
H-@@ 1
science 1
profound 1
allies 1
Corruption 1
phere 1
eks 1
fan 1
org 1
god@@ 1
wounded 1
describing 1
discour@@ 1
photographs 1
arming 1
frequ@@ 1
youngsters 1
Penal 1
Premier 1
Cup 1
Games 1
Kab@@ 1
adi 1
Badminton 1
among@@ 1
wants 1
Arm@@ 1
magn@@ 1
Instead 1
Shr@@ 1
avan 1
itment 1
eters 1
says 1
cleanliness 1
dict@@ 1
announces 1
sul@@ 1
favorable 1
ethanol 1
bio-@@ 1
departure 1
Rang@@ 1
Mishra 1
Take 1
saf@@ 1
ISF 1
library 1
iber@@ 1
aste 1
collaborate 1
Rash@@ 1
rejects 1
Az@@ 1
joins 1
suspicious 1
hiked 1
Jackson 1
fit@@ 1
seiz@@ 1
NGO 1
roc@@ 1
Colombo 1
Sl@@ 1
¡ 1
liver 1
alumin@@ 1
ensions 1
Jos@@ 1
é 1
Vin@@ 1
lor 1
rises 1
traveling 1
Nik@@ 1
alysis 1
chemistry 1
ys@@ 1
Mic@@ 1
Franc@@ 1
Sunny 1
Jordan 1
north@@ 1
feels 1
astr@@ 1
had@@ 1
रु@@ 1
headquarters 1
second@@ 1
torial 1
helpline 1
lic 1
Thousands 1
umin@@ 1
osity 1
companion 1
Hai 1
Amar@@ 1
avati 1
ninth 1
poll 1
emin@@ 1
celebrity 1
befitting 1
aland 1
197@@ 1
hospit@@ 1
quarantine 1
ancer 1
pad 1
Jawaharlal 1
Nehru 1
eme 1
eo 1
oz@@ 1
excited 1
abide 1
Word 1
mouth 1
casualties 1
remost 1
clinical 1
sea 1
Tamil@@ 1
adu 1
ord 1
ops 1
truck 1
asted 1
Dharmendra 1
hat@@ 1
Maul@@ 1
Vaish@@ 1
av 1
kilometres 1
titudes 1
contestants 1
whatever 1
Bhatt 1
araman 1
coaching 1
technique 1
mistakes 1
Naveen 1
fled 1
UIDAI 1
Maha@@ 1
ray 1
But@@ 1
utor 1
120@@ 1
doctors 1
ambul@@ 1
conversations 1
fertilizers 1
End 1
Ajmer 1
wan 1
blue 1
movie 1
radiation 1
cub@@ 1
AIM@@ 1
Faridabad 1
Biotechnology 1
expec@@ 1
flag@@ 1
243 1
judi@@ 1
quantities 1
ea 1
Elec@@ 1
estr@@ 1
quiry 1
hurt 1
exempl@@ 1
GH@@ 1
instructed 1
sand 1
resistance 1
Still 1
eternal 1
hosts 1
endar 1
Dec 1
Drug 1
moves 1
som@@ 1
bre 1
delegates 1
hear 1
predicted 1
spouse 1
James 1
Ger@@ 1
Ross 1
requesting 1
Shipping 1
remo@@ 1
Pramod 1
sin 1
ounder 1
tro 1
mag@@ 1
influential 1
AIIMS 1
Climate 1
Accor@@ 1
wadi 1
teachers 1
Asha 1
y. 1
०@@ 1
sacrifices 1
trying 1
goo@@ 1
chap@@ 1
Kol@@ 1
Lud@@ 1
hapatnam 1
param@@ 1
contra@@ 1
Legisl@@ 1
pro 1
favourite 1
rooted 1
exhibition 1
commemor@@ 1
Leader 1
intel@@ 1
Dairy 1
WhatsApp 1
inaugural 1
decla@@ 1
Well@@ 1
fitness 1
Dinesh 1
Push@@ 1
endra 1
Hari 1
Cummins 1
sac@@ 1
transparen@@ 1
punishment 1
wanted 1
warm 1
temples 1
aram 1
seats 1
asion 1
Indeed 1
Jagann@@ 1
accord 1
dramatic 1
qualities 1
tweeted 1
finest 1
akes 1
rom 1
akh 1
kitchen 1
scap@@ 1
Modern 1
Wi-@@ 1
rol 1
Cases 1
Indones@@ 1
iah 1
Philipp@@ 1
Tha@@ 1
esis 1
Terror@@ 1
iny 1
fails 1
refrain 1
incorrect 1
Koh@@ 1
Peter 1
Krishnap@@ 1
uram 1
irregul@@ 1
i. 1
wary 1
ocr@@ 1
disease 1
Vide@@ 1
iya 1
ushed 1
Shweta 1
mi@@ 1
eful 1
mind@@ 1
wooden 1
karni 1
aria 1
bad@@ 1
atta 1
Ground 1
ict 1
reportedly 1
couple 1
Error 1
Rup@@ 1
... 1
conce@@ 1
expensive 1
breathing 1
appl@@ 1
mountain@@ 1
pa@@ 1
yl 1
belt 1
biop@@ 1
sy 1
Vinay 1
Shah 1
fulfillment 1
harb@@ 1
vice-@@ 1
Vehicles 1
Collector 1
Tourism 1
iversity 1
Connectivity 1
Pra@@ 1
Officials 1
panchay@@ 1
raj 1
nu@@ 1
Shri@@ 1
likes 1
2030 1
maternal 1
infant 1
mothers 1
acha@@ 1
Indias 1
Then 1
Scientists 1
ressing 1
commendable 1
Gowda 1
innings 1
kis@@ 1
receives 1
jud@@ 1
vir@@ 1
hardly 1
ariya 1
Columb@@ 1
Kant 1
celebration 1
Finland 1
scar 1
immigrants 1
self-reliant 1
Made 1
denied 1
yourself 1
aks 1
Lewis 1
politically 1
peaceful 1
1986 1
suddenly 1
eful@@ 1
attle 1
description 1
earchers 1
rail@@ 1
Dus@@ 1
hra 1
landslides 1
wild@@ 1
fires 1
vious 1
The@@ 1
boundaries 1
install 1
did@@ 1
anxiety 1
bure@@ 1
s. 1
Son@@ 1
Celebr@@ 1
Island 1
uti 1
teach 1
recipi@@ 1
Rak@@ 1
ilitary 1
stuck 1
124 1
dram@@ 1
Offici@@ 1
personally 1
rightly 1
hist@@ 1
legendary 1
Vod@@ 1
whatsoever 1
supre@@ 1
Hindu@@ 1
PP 1
MEA 1
Kendra 1
Nur@@ 1
Guest 1
hire 1
earth 1
1962 1
poin@@ 1
ester 1
ua 1
sealed 1
vel@@ 1
Can 1
anys 1
est-@@ 1
estive 1
enz@@ 1
Hear@@ 1
4000 1
sci@@ 1
key@@ 1
Rath@@ 1
Ravindra 1
tha 1
Calcutta 1
Pin@@ 1
Prem 1
chance 1
college 1
Men@@ 1
arge 1
talking 1
suffering 1
dering 1
separation 1
ider 1
eci@@ 1
control@@ 1
oa 1
Gl@@ 1
Motor@@ 1
Did 1
NDTV 1
connects 1
cable 1
colours 1
ranges 1
३@@ 1
Represent@@ 1
Roll@@ 1
Psy@@ 1
altogether 1
Colleges 1
meanwhile 1
Kulkarni 1
§ 1
athi 1
mine 1
obst@@ 1
drinking 1
butes 1
Frank@@ 1
Tem@@ 1
kin 1
starring 1
Bachchan 1
substance 1
composed 1
treat 1
temp@@ 1
stores 1
Nic@@ 1
Bhan@@ 1
Jog@@ 1
eshwari 1
Black 1
Navy 1
Coast 1
Guard 1
ordered 1
Dhar@@ 1
Ep@@ 1
postp@@ 1
mang@@ 1
unaware 1
ectors 1
anner 1
esel 1
calling 1
10th 1
ok@@ 1
enjo@@ 1
aken 1
temperature 1
hot 1
interfere 1
kha 1
War@@ 1
Manufacture 1
medicinal 1
stak@@ 1
attachment 1
conviction 1
desc@@ 1
demonstrations 1
compare 1
Gri@@ 1
irman 1
hat 1
investigating 1
trusted 1
blo@@ 1
ourselves 1
powering 1
Youth 1
ellow@@ 1
Should 1
justice 1
Champ@@ 1
Highway 1
NHA@@ 1
va 1
ICC 1
100@@ 1
sister 1
tality 1
Mandi 1
155 1
tters 1
Gol@@ 1
dar 1
adds 1
ashing 1
desires 1
trap@@ 1
Entre@@ 1
prene@@ 1
league 1
esy 1
repres@@ 1
ric 1
voltage 1
astra 1
Gok@@ 1
Vihar 1
pione@@ 1
heard 1
burning 1
military 1
-e-@@ 1
kh@@ 1
Season 1
cricket 1
Twent@@ 1
Intern@@ 1
WD 1
writer 1
mas 1
Command 1
Convention 1
adult 1
tolerate 1
Mi 1
ques 1
Denmark 1
af 1
Years 1
contest@@ 1
tur 1
eed 1
assure 1
ceremony 1
