के 6535587
। 5527196
में 4588440
है 4391107
, 4217391
की 3725200
और 3303261
को 2597021
से 2455171
ने 2150694
का 2007641
. 1903701
हैं 1623232
पर 1588785
कि 1472765
" 1321736
- 1271992
लिए 1203724
एक 1114116
( 1081953
) 1078648
भी 1042008
नहीं 937768
किया 926348
इस 905262
कर 837907
कहा 805596
यह 736433
करने 661563
' 639624
गया 620090
हो 607228
ही 570145
साथ 561460
था 548444
तो 506617
जो 485725
भारत 466731
उन्होंने 451047
अपने 408415
वह 406931
दिया 401065
बाद 346293
हुए 331914
थे 319877
रहे 319855
न 317922
या 311843
पुलिस 308085
लोगों 307764
हम 305851
सरकार 296647
गई 296633
जा 294635
तक 292709
कुछ 287675
दी 286385
रहा 275273
करते 272891
कोई 270631
थी 264934
रूप 263674
रही 257018
? 250592
वे 247814
उनके 246010
मैं 245566
ये 244504
गए 241085
द्वारा 240755
इसके 233200
अपनी 226913
भारतीय 225285
किसी 223309
पहले 219189
एवं 218277
क्या 216756
तथा 214725
लेकिन 211442
राज्य 209017
देश 205411
सिंह 204181
वाले 203472
दो 201416
उन्हें 201199
सभी 199761
श्री 194627
मंत्री 192336
करना 191748
होने 190455
लोग 189932
तरह 188430
जब 187650
बात 186864
फिल्म 183740
हुआ 182147
मोदी 176581
इन 175404
काम 174971
समय 172405
लिया 172241
बहुत 170208
प्रधानमंत्री 169916
हुई 168928
शामिल 167001
क्षेत्र 163016
कई 162097
मामले 161950
जाता 161547
उसके 161502
होगा 158199
दोनों 157886
फिर 157844
चाहिए 157536
अन्य 157303
कांग्रेस 156044
सकता 156011
अ@@ 155643
आप 155498
दिल्ली 154004
बीच 151108
उस 150390
व 148654
किए 148520
करता 147991
दौरान 146032
उनकी 145654
बारे 144706
सकते 142611
तुम 139142
विकास 138921
पास 138911
जाने 137060
उसे 135651
बताया 135172
ले 133589
सबसे 132248
होता 129242
अधिक 127436
खिलाफ 125858
मुझे 122524
: 122487
कम 121477
लेकर 121294
जारी 120657
बार 120223
प्रदेश 119083
पूर्व 118761
शुरू 117359
उन 117055
हूं 116190
भाजपा 115896
ए@@ 115584
दिन 115288
क@@ 114498
हमारे 114422
देने 112828
इससे 112725
न@@ 112306
जांच 111703
ऐसा 110755
मंत्रालय 110395
जाएगा 110267
कारण 109176
/ 108356
म@@ 108190
वाली 107942
राष्ट्रीय 107371
नाम 106985
ली 106963
टीम 105788
करें 105618
पाकिस्तान 105545
वि@@ 105285
दे 104553
पार्टी 104270
दर्ज 103531
जैसे 103189
हमें 103097
करोड़ 101195
ना 100981
तीन 100870
हर 100090
इसमें 99753
क 98692
मुख्यमंत्री 98360
ल@@ 97169
आज 96622
इसे 96134
राष्ट्रपति 96047
ब@@ 95861
ए 95216
रुपये 95193
र@@ 95184
ओर 94749
ऐसे 94173
प्रतिशत 93841
जी 93635
स@@ 92991
चुनाव 92617
क्योंकि 91672
अगर 91606
वर्ष 90487
आ 90350
स 89625
अभी 88743
म 87378
यहां 87154
अध्यक्ष 87049
ख़ुदा 86479
हालांकि 86213
बैंक 86157
नई 86084
हमने 85881
काफी 85667
प@@ 85180
योजना 85094
उसकी 84469
होती 84324
अपना 83702
ल 83637
ना@@ 83336
ता 83229
जिसमें 83138
आ@@ 83125
सुरक्षा 83020
अलग 82913
प्रमुख 82900
होगी 81984
खान 81080
आगे 80798
अब 79317
जानकारी 79262
दूसरे 79250
कार्य 79234
करेंगे 79011
जबकि 78979
प्राप्त 78855
पूरी 78821
गांधी 78782
मौत 78747
अलावा 78353
मेरे 78285
मुख्य 78073
व@@ 77530
तहत 77193
कुमार 77163
इसलिए 77100
मदद 77084
त@@ 76483
1 76455
बड़ी 76350
र 76174
बनाने 75970
उनका 75705
ज@@ 75626
बैठक 75582
विभिन्न 75366
का@@ 75334
इसका 74590
प्रदान 74260
नि@@ 74222
मा@@ 74151
बे@@ 74143
उसने 74069
सब 73981
सी 73837
द 73534
घर 73334
प्रति 73266
ः 73027
इंडिया 72934
नेता 72734
सं@@ 72329
ं@@ 72185
ला 72113
यहोवा 71722
उत्तर 71471
कार्यक्रम 71267
अनुसार 71020
घटना 70887
ह@@ 70717
स्वास्थ्य 70690
द@@ 70443
अधिकारी 70380
ट 70326
बा@@ 69932
स्थिति 69894
दुनिया 69771
सी@@ 69539
जीवन 69497
ग@@ 69475
2 69271
को@@ 69005
ज्यादा 68980
ई 68591
रि@@ 68302
तब 68289
लाख 68253
सेवा 68246
ला@@ 68065
केंद्रीय 68060
कभी 67868
सूचना 67382
सु@@ 67347
वाला 67302
बड़ा 67266
लिये 67035
सकती 66844
संख्या 66739
विशेष 66675
महिला 66384
परिवार 66354
कश्मीर 66087
अस्पताल 65735
वहीं 65711
पूरा 65545
प्रकार 65520
रा@@ 65227
इ@@ 65104
निर्माण 65067
देशों 64960
ज 64833
पिछले 64662
सा@@ 64573
जहां 64141
नी 64052
व्यक्ति 64000
मीडिया 63906
मौके 63738
ई@@ 63463
सि@@ 63406
विभाग 63391
आपको 63327
केंद्र 63285
पता 63270
के@@ 62964
आने 62953
यदि 62913
तैयार 62805
पहली 62723
तौर 62488
अवसर 62349
परमेश्वर 62314
य@@ 61754
! 61633
जाती 61500
दिए 61341
मामला 61331
होंगे 61276
होते 61231
विश्व 61121
भाग 61110
सामने 61027
च@@ 60848
जाना 60825
नए 60794
अल्लाह 60794
आधार 60673
ट@@ 60648
हमारी 60526
करती 60371
केवल 59921
वा@@ 59717
ती 59450
इसकी 59216
बड़े 59063
ड@@ 58970
शिक्षा 58582
पा@@ 58356
मैंने 58339
संबंध 58337
चार 58227
राज्यों 58169
कंपनी 58072
स्@@ 58026
प्र@@ 57862
उपलब्ध 57770
रे@@ 57762
मे@@ 57714
स्तर 57571
आई 57399
उपयोग 57277
बि@@ 57219
बीजेपी 57214
कु@@ 57205
स्थित 57073
अधिकारियों 57005
इसी 56814
श@@ 56804
लि@@ 56635
ताकि 56482
वो 56400
ऑफ 56321
बना 56240
ता@@ 56204
ते 56180
महत्वपूर्ण 56000
ओ@@ 55997
ऐसी 55837
19 55662
नरेंद्र 55542
टी 55507
उसका 55372
क्षेत्रों 55059
राहुल 55039
क्यों 54773
जिस 54702
चल 54672
ध्यान 54495
ने@@ 54441
आरोप 54315
कपूर 53991
अमेरिका 53972
रो@@ 53543
डि@@ 53373
कैसे 53369
बी@@ 53342
3 53007
शर्मा 52874
प 52842
उ@@ 52627
कोर्ट 52576
करके 52512
जीत 52426
मो@@ 52303
देते 52229
जिसके 51863
बाहर 51800
हाल 51754
मौजूद 51730
री 51724
10 51638
मुंबई 51615
सेना 51483
सहयोग 51346
विचार 51172
नजर 51058
मैच 50917
% 50877
पी@@ 50843
आर्थिक 50747
तुम्हारे 50734
स्थान 50732
करेगा 50686
कार 50672
जाए 50670
मु@@ 50369
वे@@ 50303
न्@@ 50153
संबंधित 50151
कृषि 50049
जाएगी 49965
जिसे 49964
जा@@ 49859
से@@ 49664
बयान 49595
तरफ 49561
त 49559
चीन 49538
संयुक्त 49457
रक्षा 49430
मांग 49420
मि@@ 49416
बच्चों 49103
रिपोर्ट 49024
प्रदर्शन 48864
र्@@ 48684
क्रिकेट 48679
इस्तेमाल 48638
ड 48547
वीडियो 48461
जिले 48420
गिरफ्तार 48185
बन 48169
लगा 48152
सचिव 48142
होना 48096
पानी 47891
रखा 47853
क्@@ 47740
वजह 47731
ले@@ 47708
अच्छा 47589
पिता 47567
पत्र 47359
जम्मू 47338
जाते 47293
मेरी 47266
डी 47239
लेने 47231
सहित 47158
लगभग 47112
हिस्सा 47040
जी@@ 46965
आए 46771
मामलों 46728
गयी 46693
फ@@ 46589
पीएम 46449
माध्यम 46234
साल 45956
फैसला 45952
कार्रवाई 45889
भूमिका 45804
देता 45614
5 45593
बल्कि 45206
रा 45022
बनाया 44994
पी 44927
कानून 44807
पूरे 44788
रहने 44773
कुल 44772
चाहते 44645
जे@@ 44629
सिर्फ 44618
घायल 44596
ख@@ 44567
दर 44547
बंद 44535
दिनों 44428
जिससे 44214
जनता 43921
यात्रा 43911
चर्चा 43839
मिला 43598
सहायता 43590
वहां 43560
बी 43539
समिति 43535
वित्त 43476
मिल 43464
लो@@ 43424
चुके 43374
शाह 43331
जल 43327
विधानसभा 43280
सके 43191
आयोजित 43081
पांच 43024
महाराष्ट्र 42977
दक्षिण 42968
ऐ 42916
आरोपी 42909
वरिष्ठ 42644
सदस्य 42585
डॉ 42498
बस 42394
जवाब 42310
जरूरत 42113
समर्थन 42095
रखने 42061
पंजाब 41974
शहर 41836
एस 41822
ब 41818
खेल 41783
प्रक्रिया 41751
जगह 41654
यही 41614
लाभ 41418
आयोग 41393
डी@@ 41196
20 41147
थीं 41127
मिली 41079
उच्च 40943
बेहतर 40899
ो 40837
किसानों 40790
कोविड 40708
लागू 40624
लगाया 40526
जल्द 40460
आपके 40421
क्षमता 40416
सरकारी 40379
हूँ 40279
करो 40261
हा@@ 40259
देखा 40106
प्रयास 40094
सा 40083
उनसे 39963
हासिल 39905
मा 39903
टेस्ट 39866
व्यवस्था 39854
पैदा 39827
अच्छी 39822
विश्वास 39768
4 39613
खुद 39569
लिखा 39567
भर 39532
सीमा 39516
आया 39485
वृद्धि 39298
नगर 39203
भाई 39139
दें 39124
टी@@ 39097
सो@@ 39031
कहना 38736
बल 38662
करीब 38555
पे@@ 38553
गो@@ 38433
उसी 38320
श 38269
उद्योग 38247
लोकसभा 38178
पद 38172
समूह 38168
कों 38105
दा@@ 38031
कहते 37960
रन 37950
दूर 37929
कदम 37893
वा 37871
देना 37775
बोर्ड 37607
कोशिश 37591
प्रौद्योगिकी 37588
सोशल 37582
हमेशा 37565
आदेश 37556
कप्तान 37526
नीति 37488
पश्चिम 37474
गंभीर 37468
2018 37463
सही 37359
उत्पादन 37204
पेश 37201
जि@@ 37072
कि@@ 36988
बनाए 36949
टे@@ 36945
मन 36928
पहुंच 36877
उससे 36860
ठीक 36841
2017 36835
पि@@ 36727
राम 36685
निवेश 36623
आम 36602
बो@@ 36556
विज्ञान 36507
बिहार 36428
गु@@ 36398
डे@@ 36389
गृह 36203
वी 36162
शिकायत 36158
महिलाओं 36156
दूसरी 36144
जिला 36088
या@@ 36068
भ@@ 36059
विदेश 35924
ऊर्जा 35917
15 35883
अमेरिकी 35845
मुताबिक 35812
राष्ट्र 35811
घोषणा 35743
स्कूल 35679
दिशा 35675
लगता 35656
सुनिश्चित 35638
मध्य 35623
वक्त 35471
मेरा 35453
पत्नी 35438
गुजरात 35414
6 35291
2019 35240
सुधार 35237
विरोध 35234
ंग 35206
आधारित 35203
भारी 35115
प्रत्येक 35108
वालों 35041
गये 35032
ट्वीट 35017
दल 34995
आर@@ 34964
गा@@ 34914
टि@@ 34859
प्रणाली 34837
बिना 34789
शा@@ 34787
नों 34710
स्थानीय 34705
सामाजिक 34703
बाजार 34544
रेलवे 34490
रसूल 34484
जिन 34447
मजबूत 34444
चाहता 34430
थ@@ 34325
12 34246
लगे 34094
मै@@ 34074
मगर 34034
नी@@ 33969
केन्द्रीय 33967
ज़ 33932
फि@@ 33868
पो@@ 33827
शेयर 33794
याद 33782
हों 33740
हाथ 33719
राजनीतिक 33610
पहचान 33547
सवाल 33542
अतिरिक्त 33540
ली@@ 33531
ग 33526
शि@@ 33500
रह 33484
बॉलीवुड 33484
सम्मेलन 33479
सार्वजनिक 33471
मंदिर 33468
चुकी 33451
यू@@ 33444
बातचीत 33444
आर 33431
संगठन 33397
हमले 33275
हत्या 33239
परि@@ 33156
पीछे 33154
बंगाल 33011
प्रबंधन 32947
लगातार 32925
अभियान 32884
वर्तमान 32839
पुरस्कार 32837
मे 32806
अवधि 32764
अदालत 32695
जु@@ 32673
स्थापित 32665
महीने 32625
एम@@ 32607
वही 32595
किये 32493
कह 32403
कराया 32382
विषय 32362
रुपए 32361
अधिकार 32350
बच्चे 32281
समारोह 32275
तुम्हें 32272
इनमें 32242
परियोजना 32221
2020 32215
हरियाणा 32212
ज़@@ 32200
व्यापार 32109
उम्मीद 32083
बढ़ 32071
फोन 32012
पूर्ण 32003
लें 31984
राजस्थान 31913
निजी 31905
आवश्यकता 31893
हि@@ 31848
8 31765
पहला 31657
रू@@ 31656
कौन 31647
चि@@ 31643
कल 31572
ें 31566
ल्@@ 31559
प्रभावित 31556
उनमें 31531
यीशु 31482
निर्णय 31470
परीक्षा 31352
एस@@ 31287
आग 31233
मूल्य 31212
भर्ती 31142
उप@@ 31043
चुका 30994
टन 30969
छात्रों 30946
आदि 30831
समाज 30789
मी 30696
जान 30648
विकसित 30617
सामान्य 30609
शक्ति 30562
जिसका 30419
अंतिम 30412
सड़क 30369
पति 30337
देख 30281
रेल 30274
इं@@ 30208
े 30135
उद्देश्य 30077
तेल 30050
वी@@ 30020
अच्छे 30007
यादव 30001
वित्तीय 30000
बढ़ाने 29895
50 29858
कमी 29807
3@@ 29807
बु@@ 29804
भाषा 29791
लों 29777
एं 29760
यहाँ 29701
ह 29693
7 29681
हमारा 29578
नेताओं 29516
कोहली 29355
4@@ 29330
धारा 29310
स्पष्ट 29291
अमित 29273
ओ 29180
अधिनियम 29155
पाया 29141
करे 29139
री@@ 29071
वापस 28994
नो@@ 28935
30 28905
संस्थान 28875
विधायक 28812
मार्ग 28798
प्रयोग 28779
मिलने 28740
दा 28725
नया 28712
बने 28687
उनको 28653
रु@@ 28603
हो@@ 28596
आवश्यक 28562
देखते 28558
11 28541
अगले 28505
नेतृत्व 28505
किस 28454
दिवस 28440
अनु@@ 28431
संघ 28426
कै@@ 28412
लक्ष्य 28406
सामना 28326
य 28323
हे@@ 28271
फिलहाल 28266
मान 28231
पर@@ 28191
एम 28183
आयोजन 28179
100 28164
है@@ 28161
तेजी 28110
माना 28108
धर्म 28104
ों 28081
सदस्यों 28040
मंजूरी 27997
न्यायालय 27938
महा@@ 27864
रों 27833
अंतर्गत 27804
ध@@ 27792
तुलना 27785
भविष्य 27757
छ@@ 27736
लाल 27704
विश्वविद्यालय 27680
डॉलर 27650
तरीके 27649
अंतर्राष्ट्रीय 27630
ति@@ 27617
कीमत 27614
एफ@@ 27585
सांसद 27580
नरेन्द्र 27553
संबंधी 27551
सीट 27536
एन@@ 27471
बेटे 27434
उम्मीदवार 27404
रहते 27359
राज 27351
5@@ 27316
जरिए 27300
जन 27272
प्रति@@ 27159
तों 27131
निर्देश 27094
ग्रामीण 27074
7@@ 27061
डा@@ 26982
जन@@ 26881
गांव 26877
टर 26860
अध्ययन 26830
अनेक 26829
प्रस्ताव 26814
व्यक्त 26786
जुड़े 26740
विदेशी 26698
ड़ 26688
पुर 26679
कहीं 26678
पड़ा 26619
खा@@ 26601
एल 26588
रखते 26559
बढ़ावा 26464
कर्नाटक 26435
ऊपर 26400
तेज 26346
18 26309
राज@@ 26291
एल@@ 26250
प्@@ 26238
े@@ 26232
त्@@ 26219
सुविधा 26214
जो@@ 26212
अनुमति 26191
सम्मान 26174
लाने 26098
25 26084
हैः 26033
अनुसंधान 26027
निदेशक 26015
रे 25999
देखने 25987
प्रभाव 25970
रात 25944
खिलाड़ी 25934
दावा 25892
शव 25888
जानते 25869
मूल 25861
की@@ 25791
बाइबल 25791
पा 25789
आरोपियों 25761
टा 25738
वैश्विक 25724
9 25679
परिषद 25655
बनी 25650
गि@@ 25632
बेहद 25611
ंग@@ 25597
दु@@ 25593
16 25516
धन 25473
शुरुआत 25462
संसद 25455
केन्द्र 25448
छोटे 25436
पु@@ 25422
मी@@ 25421
सूची 25385
भेजा 25347
राशि 25304
प्रशिक्षण 25297
जैसी 25244
जैसा 25229
तू 25201
उपस्थित 25189
करेगी 25162
ओं 25155
ईमान 25150
ण 25126
टो@@ 25093
शादी 25068
लो 25061
कराने 25015
समस्या 25008
फैसले 24988
दे@@ 24984
अभि@@ 24977
हादसे 24976
वर्ग 24972
बेटी 24954
14 24938
उसमें 24930
म्@@ 24900
मानव 24873
टा@@ 24872
समान 24858
फ़@@ 24818
नियंत्रण 24799
सुप्रीम 24796
करण 24780
बता 24743
जाएंगे 24730
जिनमें 24723
नीचे 24685
कार्ड 24671
अली 24662
बदलाव 24647
प्रशासन 24603
अं@@ 24581
फे@@ 24573
छोड़ 24568
एंड 24526
स्वीकार 24482
अभिनेता 24469
तय 24468
8@@ 24440
दिल 24438
होकर 24437
सर@@ 24428
कंपनियों 24426
ो@@ 24417
युद्ध 24386
संबोधित 24366
इलाज 24297
परिवर्तन 24294
अंतरराष्ट्रीय 24272
आई@@ 24266
मां 24236
मुलाकात 24189
योगदान 24170
लगाने 24165
युवा 24159
बिजली 24124
17 24090
2016 24086
शांति 24072
बधाई 24024
इतिहास 24023
किसान 24021
2@@ 23992
वर्षों 23948
नुकसान 23919
घोषित 23909
विकेट 23887
13 23854
बारिश 23813
वन 23807
संपर्क 23727
साफ 23648
जिन्होंने 23639
सीटों 23610
ट्स 23607
यर 23606
भुगतान 23605
सीबीआई 23590
ट्रंप 23577
चला 23575
भू@@ 23570
समेत 23566
मुद्दे 23541
ते@@ 23521
चरण 23491
परिणाम 23490
कं@@ 23486
डर 23478
कल्याण 23422
भूमि 23378
मिशन 23343
फोटो 23318
नागरिक 23314
सू@@ 23251
खबर 23235
च 23223
हजार 23159
केस 23149
चा@@ 23138
मत 23081
स्थापना 23077
मिले 23067
वर्@@ 23046
दी@@ 23046
कर@@ 22999
प्रकाश 22998
भा@@ 22979
भेज 22937
चलते 22925
फीसदी 22904
विराट 22891
गा 22842
परवरदिगार 22812
जिन्हें 22797
सलमान 22788
पसंद 22771
रोजगार 22763
मिलकर 22740
केरल 22670
जिसने 22631
सफल 22619
मौजूदा 22599
संभावना 22585
लगी 22457
गी 22428
पक्ष 22405
बै@@ 22397
सारे 22360
लिमिटेड 22317
शीर्ष 22290
एफ 22274
ज्ञान 22270
व्यापक 22259
कार्यालय 22255
सुरक्षित 22241
कोरोना 22238
6@@ 22234
प्यार 22233
छह 22228
समझ 22183
एन 22170
ा 22104
बर@@ 22091
अथवा 22088
उदाहरण 22078
इनकार 22028
चिकित्सा 21976
ऑस्ट्रेलिया 21976
नंबर 21973
दूसरा 21949
पहुंचे 21886
प्रवेश 21877
ु 21860
उप 21850
फ 21847
नदी 21831
जरूरी 21827
फा@@ 21819
जेल 21803
सर 21736
आवेदन 21721
सात 21707
हमला 21698
संदेश 21678
24 21643
हार 21627
ित 21591
जे 21587
अप्रैल 21539
पालन 21512
अध्यक्षता 21495
चे@@ 21485
ऐ@@ 21366
साझा 21353
कॉ@@ 21340
दि@@ 21338
अरब 21336
क्स 21311
पहुंची 21256
राजा 21246
मिलेगा 21243
पै@@ 21235
अर्थव्यवस्था 21231
प्रधान 21206
इंग्लैंड 21189
नियम 21174
घ@@ 21174
आय 21163
याचिका 21132
डा 21116
विमान 21099
शब्द 21048
डो@@ 21043
हालत 21040
प्रचार 21030
किताब 21022
संविधान 20965
भवन 20961
खाद्य 20915
वर 20912
ु@@ 20908
अव@@ 20905
अभिनेत्री 20902
सलाह 20892
दार 20890
माता 20864
समीक्षा 20852
सन 20846
दिखाई 20825
हेतु 20800
वेबसाइट 20715
गैस 20699
समुदाय 20680
विस्तार 20667
गाँव 20644
कर्मचारियों 20640
लागत 20638
जोर 20625
इन्@@ 20603
ं 20603
अनुभव 20564
मोबाइल 20562
सम@@ 20561
राजनीति 20556
मार्च 20539
रहेगा 20524
परिवहन 20511
इलाके 20467
यु@@ 20458
वायरस 20439
चु@@ 20435
शो 20417
कड़ी 20405
अन@@ 20339
रहेंगे 20322
गलत 20315
प्रवक्ता 20312
चीज़ 20310
बावजूद 20263
अहम 20249
ख 20247
शानदार 20234
संसाधन 20229
उद्घाटन 20218
छात्र 20217
घरेलू 20192
रोक 20190
पर्यटन 20189
9@@ 20153
सत्र 20144
बनने 20138
बातें 20099
मोहम्मद 20095
यो@@ 20064
एँ 20033
चाहे 20030
मुद्दों 20020
गैर 20003
संस्कृति 19999
सेवाओं 19996
ड़ा 19961
परीक्षण 19952
ख़@@ 19934
मतलब 19904
थ 19888
परियोजनाओं 19844
निर्धारित 19821
कार्य@@ 19806
राहत 19719
] 19707
संशोधन 19686
मार 19674
शायद 19671
आपकी 19639
संजय 19609
अपील 19594
21 19565
गठबंधन 19557
निक 19539
खास 19534
लिंग 19516
महसूस 19510
हवाई 19477
एच@@ 19473
प्रियंका 19451
जमा 19421
मिलेगी 19404
हु@@ 19393
यों 19388
ड़ी 19364
ि@@ 19357
जनरल 19334
19@@ 19327
लोक 19323
सफलता 19317
40 19286
शरीर 19271
माल 19259
शहरी 19244
स्वयं 19242
खुशी 19233
रहता 19229
करनी 19217
देगा 19210
ठ@@ 19186
सीएम 19141
ग्@@ 19123
समाप्त 19063
ऑनलाइन 19052
समाधान 19046
किलोमीटर 18994
[ 18990
मं@@ 18945
शिवसेना 18904
यू 18888
हिंसा 18887
शुल्क 18870
वास्तव 18856
आदमी 18856
लु@@ 18837
इतना 18831
बदल 18823
पटेल 18818
2015 18807
संरक्षण 18789
रोहित 18780
प्रस्तुत 18734
ू 18701
देंगे 18696
कप 18691
मारे 18684
प्रगति 18671
राय 18663
संभव 18662
रब 18641
आतंकवाद 18635
मृत्यु 18627
सभा 18625
खत्म 18620
उम्मीदवारों 18598
मौसम 18593
ल्स 18544
विवाद 18538
सीरीज 18516
जिसकी 18492
प्रेम 18479
कौशल 18476
बजट 18454
बांग्लादेश 18422
नेशनल 18387
शे@@ 18376
वॉ@@ 18371
ज़्यादा 18371
सक्रिय 18361
कार@@ 18351
जानता 18338
वें 18307
टे 18299
2014 18284
पर्यावरण 18269
सप्ताह 18240
चयन 18238
श्@@ 18212
फिल्मों 18176
वीं 18166
अफ्रीका 18164
आता 18157
बा 18151
निश्चित 18139
एजेंसी 18106
हैदराबाद 18098
कॉलेज 18051
ऋण 18036
क़@@ 18033
नागरिकों 18031
जिलों 18030
आधिकारिक 18015
प्रथम 18005
लेते 18001
उसको 17971
बाल 17957
संस्थानों 17939
साबित 17936
निगरानी 17838
वाहन 17831
लग 17820
लेंगे 17819
लू@@ 17794
आपूर्ति 17775
यां 17759
हिरासत 17755
पाने 17740
स्वतंत्र 17726
शन 17722
उचित 17720
डिजिटल 17706
स्वागत 17702
खे@@ 17668
केजरीवाल 17653
तलाश 17645
खो@@ 17635
वादी 17584
मुस्लिम 17566
गे@@ 17556
शासन 17526
बेशक 17526
रंग 17507
चुनौती 17483
मतदान 17471
उत्पाद 17469
कार्@@ 17413
न्याय 17394
जून 17389
विजय 17386
मेडिकल 17346
ड़े 17345
ण@@ 17335
अर्थ 17321
ा@@ 17275
तमिलनाडु 17251
जनवरी 17232
संबंधों 17231
परिजनों 17225
पूर्वी 17221
पुष्टि 17220
स्थानों 17209
प्रसाद 17135
जन्म 17129
ऑ@@ 17127
स्टेशन 17107
एशिया 17097
मात्रा 17083
तुम्हारी 17072
क्षेत्रीय 17042
पहल 17041
बढ़कर 17032
सहायक 17028
संदर्भ 17026
बातों 17012
प्राकृतिक 17012
विधेयक 16954
योग 16943
भरोसा 16915
टों 16883
शी 16882
क्ष@@ 16868
पीठ 16850
तु@@ 16836
राम@@ 16823
चालक 16817
असम 16815
वै@@ 16799
धा@@ 16792
रहती 16783
ार@@ 16782
गतिविधियों 16781
पढ़ें 16764
आते 16753
स्ट 16751
मुकाबले 16739
ज़मीन 16688
लाइन 16644
मई 16633
मुश्किल 16617
पोस्ट 16602
इंडियन 16600
नाथ 16596
जीएसटी 16565
कता 16561
खुदा 16551
सांस्कृतिक 16541
वाद 16537
हे 16535
तीसरे 16532
झ@@ 16512
ीय 16499
प्रयासों 16481
यानी 16479
गति 16469
रख 16466
अज़ाब 16416
पाकिस्तानी 16412
वहाँ 16409
बनाई 16401
ब्@@ 16397
अंत 16389
भीतर 16381
तुरंत 16378
हस्ताक्षर 16357
चौ@@ 16341
प्रा@@ 16340
प्रेरित 16305
अंक 16302
मिलियन 16288
पड़ 16284
कहने 16275
सूत्रों 16272
असर 16263
गठन 16247
दो@@ 16209
बैंकों 16203
तर@@ 16197
जिम्मेदारी 16187
टीवी 16175
सह@@ 16146
तस्वीर 16139
समझौता 16135
वायरल 16128
खर्च 16127
रूस 16108
ंट 16092
एयर 16050
मैदान 16043
कार्यों 16041
कहानी 16038
मीटर 16025
रखना 16023
रखी 16017
ी@@ 16017
मुक्त 16014
राजधानी 16014
निर्यात 16010
22 16006
परन्तु 16005
आपका 15997
पोस्टमार्टम 15991
राज्यपाल 15971
18@@ 15950
तकनीकी 15945
लर 15923
किरदार 15923
धार्मिक 15891
पाई 15887
प्रभावी 15871
ंड@@ 15850
बराबर 15833
आंध्र 15829
देती 15817
चिंता 15814
सामग्री 15813
बू@@ 15782
स्वतंत्रता 15779
राव 15776
हिंदी 15770
बल्लेबाज 15743
अंदर 15742
डे 15742
लाया 15738
राजनाथ 15738
यी 15735
आसान 15719
सक्षम 15714
नियमों 15711
हालात 15700
बढ़ा 15686
हिंदू 15675
र्स 15668
शहरों 15645
निगम 15636
पाए 15631
स्टे@@ 15625
ी 15604
लॉन्च 15582
गुणवत्ता 15578
जुलाई 15577
अप@@ 15542
फै@@ 15541
काल 15538
लगाए 15533
31 15523
जिनके 15517
लेना 15508
जाति 15502
वायु 15497
नु@@ 15481
सकें 15462
ती@@ 15454
महान 15447
रोकने 15428
बुनियादी 15422
सारी 15422
विकल्प 15380
ज्@@ 15367
बहु@@ 15343
प्रतिक्रिया 15335
ड़@@ 15333
दौरे 15305
घायलों 15300
नियमित 15295
कहता 15295
न्स 15277
उपराष्ट्रपति 15274
लड़ाई 15265
सुनवाई 15257
ंस 15243
व्यक्तियों 15227
तीनों 15225
स्थल 15225
इनके 15223
याँ 15219
आठ 15209
इलाकों 15196
तुम्हारा 15193
चेन्नई 15188
खारिज 15182
खुश 15176
उपचार 15161
कर्@@ 15157
धरती 15157
फ्@@ 15155
अधीन 15152
देकर 15134
घरों 15131
नर 15125
जस्टिस 15109
रिकॉर्ड 15101
सरकारों 15094
पड़े 15092
पर्याप्त 15088
निधन 15088
जापान 15087
मर 15084
स्ट@@ 15080
सैन्य 15072
मू@@ 15048
बिक्री 15028
विशिष्ट 15019
नेटवर्क 15012
मौका 15010
पार 14996
पारी 14983
एक्@@ 14977
उत्पादों 14975
आशा 14974
पदक 14970
अनुरोध 14961
चीनी 14938
खरीद 14927
नही 14908
बाकी 14881
यन 14871
मिलता 14867
ट्@@ 14856
मान@@ 14853
कारी 14847
जहाँ 14821
खराब 14817
दौरा 14804
प्रकाशित 14803
मानना 14797
छत्तीसगढ़ 14787
कोलकाता 14784
नये 14781
अन्तर्गत 14779
कथित 14769
अगस्त 14763
अपराध 14763
यात्रियों 14753
सिस्टम 14751
बिल 14748
60 14737
महत्व 14736
ू@@ 14726
मॉडल 14721
तो@@ 14721
दलों 14721
पृथ्वी 14721
शासित 14718
निया 14718
बरामद 14679
वैज्ञानिक 14671
मन@@ 14670
सच 14649
संगठनों 14629
खिलाड़ियों 14610
ियों 14591
लंबे 14583
ट्विटर 14570
ंगी 14545
वार 14530
मूसा 14520
उत्पन्न 14511
अक्षय 14511
खाते 14496
औद्योगिक 14471
कला 14465
अनुमान 14454
समझौते 14451
सै@@ 14439
युवाओं 14426
आतंकी 14426
सुबह 14420
पड़ता 14416
पूर्वोत्तर 14402
देखें 14397
द्@@ 14397
ँ@@ 14394
लाए 14394
बनाना 14373
लॉ@@ 14372
ति 14367
खंड 14351
आनंद 14350
ढ@@ 14325
आती 14325
रिलीज 14299
सर्वश्रेष्ठ 14290
ब्रिटेन 14281
मंत्रिमंडल 14261
आवास 14247
s 14245
दान 14240
वोट 14223
संचालन 14219
्@@ 14198
रहना 14194
शा 14163
योजनाओं 14137
त्मक 14106
संगीत 14095
मों 14073
सोच 14072
महामारी 14061
स्टार 14060
वाई 14048
झारखंड 14031
पुरुष 14020
डिग्री 13995
श्रीलंका 13991
नियुक्त 13979
भागीदारी 13964
सका 13953
पूछताछ 13947
0 13945
सत्ता 13941
संकट 13911
नायडू 13901
फरार 13890
सर्@@ 13877
कोच 13876
निकल 13874
सों 13852
इन्हें 13829
रोल 13827
रखता 13798
भगवान 13787
पाक 13780
लता 13775
कू@@ 13775
भि@@ 13774
अंतर 13768
अक्सर 13759
ईरान 13757
in 13757
बचाव 13754
भोजन 13750
श्रृंखला 13742
आग्रह 13736
जाकर 13728
कही 13725
ताओं 13711
धोनी 13692
अधि@@ 13678
चाहती 13672
फायदा 13671
दृष्टि 13666
दास 13655
देव 13650
इन@@ 13643
28 13638
हित 13637
सीटें 13635
दौर 13631
करार 13627
गिरावट 13622
दबाव 13614
डाला 13583
ऐतिहासिक 13582
दों 13577
पूछा 13576
शी@@ 13571
फो@@ 13568
होनी 13562
व्यक्तिगत 13554
23 13550
निपटने 13549
श्रेणी 13520
मैचों 13519
हाई 13484
राज्यसभा 13480
प्रार्थना 13479
ि 13470
पश्चिमी 13469
कैमरा 13456
आतंकवादी 13454
नौसेना 13447
पूजा 13442
चले 13436
छोड़कर 13434
छोटी 13428
अनिल 13422
सराहना 13420
वितरण 13418
योग्य 13401
26 13399
आधुनिक 13393
सहमति 13378
मार्@@ 13376
निश्चय 13356
बच्चन 13355
ग्राम 13352
तैनात 13347
सेवाएं 13344
सम्मानित 13334
सम्@@ 13324
500 13316
शख्स 13316
कारोबार 13306
उल्लेख 13293
बलों 13283
अक्टूबर 13254
सारा 13248
जुड़ी 13233
लग@@ 13224
कर्मचारी 13216
वृ@@ 13210
ची 13194
2013 13192
यो 13187
गोवा 13175
कार्यक्रमों 13170
योगी 13144
अल 13137
आगामी 13130
जवान 13129
जर 13106
खड़े 13106
संपत्ति 13096
बर्@@ 13093
दस 13076
द्विपक्षीय 13069
कारों 13045
हिस्से 13031
डॉक्टर 13031
ध 13022
नेपाल 13007
सीधे 13005
चोपड़ा 13004
हा 12994
मनुष्य 12990
उम्र 12969
फाइनल 12965
दोस्त 12964
ै@@ 12961
:@@ 12960
वास्तविक 12944
लड़की 12938
पेट्रोल 12937
डेटा 12933
शूटिंग 12906
इस्तीफा 12906
नौ@@ 12901
चुनावों 12894
आंदोलन 12885
निर्@@ 12882
त्र@@ 12878
मिलते 12874
बाढ़ 12860
मुकाबला 12812
मुखर्जी 12808
वार्षिक 12805
ंगा 12805
खु@@ 12804
नो 12793
कब्जे 12790
उठाए 12786
छि@@ 12782
दुर्घटना 12773
जू@@ 12772
गंगा 12764
सख्त 12762
फरवरी 12760
तनाव 12759
अधिकांश 12743
लन 12739
टिप्पणी 12731
उल्लंघन 12726
राह 12725
अल्@@ 12720
व्यवहार 12714
तैयारी 12714
रहें 12703
स्व@@ 12698
उठा 12698
कराई 12695
पवित्र 12689
समाचार 12682
था@@ 12678
सजा 12676
कानूनी 12672
बद@@ 12667
ऊ@@ 12661
बहन 12658
भाषण 12645
़@@ 12627
समस्याओं 12626
मिलती 12625
परमाणु 12616
ीं 12613
न्यायाधीश 12609
चर 12608
लोकतंत्र 12604
सेट 12595
टिंग 12592
हर@@ 12590
बॉ@@ 12589
खूब 12568
शो@@ 12566
दिखाया 12560
तेलंगाना 12558
उठाया 12551
आउट 12551
आएंगे 12540
बं@@ 12538
ट्रेन 12525
27 12519
णी 12514
श्रीमती 12507
देर 12503
भावना 12501
सोनिया 12499
समा@@ 12488
बीमारी 12480
चारों 12479
विस्तृत 12478
ये@@ 12469
एं@@ 12465
साइ@@ 12463
ड्स 12459
विवरण 12457
आईपीएल 12455
क्रि@@ 12450
एक्ट्रेस 12448
सुझाव 12431
खोज 12428
200 12419
इमरान 12408
निर्वाचन 12406
्र@@ 12404
स्वस्थ 12398
प्रश्न 12395
डाल 12394
हिमाचल 12391
इंटरनेट 12389
करा 12383
फी@@ 12370
मंत्रियों 12358
जानी 12343
रद्द 12342
आसपास 12336
तापमान 12325
आर्@@ 12306
संक्रमण 12305
पं@@ 12277
त्रि@@ 12274
अंतरिक्ष 12273
ौ@@ 12271
ग़@@ 12262
लिखित 12252
तत्काल 12237
दूसरों 12234
फ्रांस 12230
उपकरण 12212
छा@@ 12212
पह@@ 12202
मानी 12201
अफगानिस्तान 12192
जै@@ 12178
मंच 12174
दीपिका 12166
अजय 12150
में@@ 12146
चौधरी 12146
1.@@ 12131
टिकट 12111
रिया 12108
सवार 12106
प्राचीन 12106
44 12104
शक 12098
पैसे 12095
धीरे 12073
अनुच्छेद 12060
तस्वीरें 12046
गढ़ 12042
अतः 12026
सीमित 12021
80 12017
जमीन 12013
संकेत 12007
आपने 12003
वार्ता 11994
दायर 11987
वाहनों 11973
निर्माता 11960
वस्तुओं 11954
हैंः 11945
ंड 11943
बदला 11943
विरोधी 11931
दिसंबर 11928
खाने 11926
0@@ 11925
विधायकों 11920
प्रावधान 11919
रोग 11913
जर्मनी 11898
ग्रहण 11893
मण्डल 11888
ही@@ 11883
वकील 11881
जल्दी 11879
बुरी 11877
दर@@ 11873
स्वच्छ 11869
बढ़ती 11861
पहुंचा 11856
डीजल 11849
आकार 11845
लै@@ 11834
यात्री 11834
प्रेस 11825
ट्रे@@ 11812
कर्मियों 11812
प्रे@@ 11798
शुभकामनाएं 11792
चलता 11787
इच्छा 11782
कच्चे 11776
कैबिनेट 11766
संघर्ष 11764
चीफ 11756
प्रो@@ 11750
बजाय 11748
मसीही 11747
70 11739
किंग 11732
जोखिम 11726
90 11714
इंस्टाग्राम 11709
वान 11707
2012 11699
दोषी 11688
रखें 11686
ज़ि@@ 11678
उठाने 11661
इतनी 11654
शपथ 11654
ष्@@ 11650
29 11646
पन 11643
युवक 11623
तुमसे 11623
िक 11621
धन्यवाद 11621
प्रोत्साहित 11619
वास्ते 11618
ज़रूरत 11615
जाया 11614
कार्यकर्ताओं 11614
दूरी 11612
नज़र 11604
कारणों 11596
भीड़ 11588
35 11577
जेटली 11570
ँ 11550
खि@@ 11545
इकाई 11544
अर्जुन 11541
हिस्सों 11518
राजीव 11515
आरोपों 11515
जीता 11484
जरिये 11483
शुरूआत 11482
बिल्कुल 11481
जों 11474
पाल 11473
सिवा 11473
भ्रष्टाचार 11462
रखे 11461
न्यूजीलैंड 11457
अहमद 11441
संसदीय 11435
विद्यार्थियों 11431
बीमा 11427
रिजर्व 11421
अशोक 11398
परिवारों 11388
आयात 11383
् 11382
देवी 11381
निशाना 11379
राजमार्ग 11374
दाखिल 11370
प्रभु 11370
गईं 11369
ओडिशा 11354
सेंटर 11350
उत्तरी 11349
प्रतिबंध 11342
ब्याज 11327
मुद्रा 11318
नयी 11314
कार्यकारी 11308
शब्दों 11297
शाहरुख 11297
अरविंद 11292
नवंबर 11279
हाउस 11278
थि@@ 11275
वचन 11272
सिटी 11271
आबादी 11262
दृष्टिकोण 11260
एच 11258
सितंबर 11253
हद 11253
चलने 11249
जलवायु 11233
बढ़ने 11225
ण्@@ 11224
रहेगी 11223
खुलासा 11216
्य@@ 11209
लौ@@ 11208
विधि 11203
हल 11189
तंत्र 11185
देश@@ 11178
छूट 11168
मौ@@ 11168
संचार 11164
ष@@ 11163
अनिवार्य 11161
मेल 11159
लंबी 11153
खाना 11141
सिन्हा 11140
समर्पित 11139
चोट 11128
सौ 11121
फ़ 11120
ंत 11114
स्वामी 11112
स्वच्छता 11101
गेंद 11099
मंडल 11086
जताई 11075
हाईकोर्ट 11074
आत्मा 11060
मोहन 11059
मान्यता 11055
रत 11055
शिखर 11051
पेट्रोलियम 11050
सो 11029
शेष 11025
नागरिकता 11025
डॉ@@ 11021
बीसीसीआई 11015
नौकरी 11008
न्यूनतम 10989
इंजन 10984
वो@@ 10980
लैंड 10975
कब 10971
विपक्ष 10969
माहौल 10964
दिये 10952
क्रम 10944
मानते 10942
2011 10935
प्रतियोगिता 10933
पल 10926
फल 10926
रैली 10922
सलाहकार 10918
ंद@@ 10916
अर्@@ 10907
निर्मित 10893
पर्@@ 10884
खड़ा 10884
बजे 10883
सह 10872
रूपये 10871
बताते 10869
औसत 10865
लेख 10864
पुस्तक 10859
निधि 10844
निर्भर 10831
पीड़ित 10824
पुत्र 10824
पू@@ 10821
बुरा 10817
नियों 10812
महासचिव 10808
वनडे 10806
यूपी 10805
सकारात्मक 10793
अमिताभ 10793
बल्लेबाजी 10791
उपभोक्ता 10785
होंगी 10776
ठाकुर 10771
ब्रिटिश 10765
लेखक 10761
स्कूलों 10754
ग्रुप 10743
अमरीकी 10742
१ 10739
द्र@@ 10734
गरीब 10734
गेंदबाज 10734
कहां 10732
इंसान 10730
प्राथमिकता 10729
प्रसिद्ध 10728
लीग 10719
खतरा 10716
डब्ल्यू@@ 10709
कोरिया 10706
टूर्नामेंट 10706
सुविधाओं 10701
ज़ा@@ 10697
सैनिक 10696
गोयल 10695
क़ 10692
विमर्श 10687
्य 10683
अधिकतम 10678
जीतने 10678
तन 10673
महानिदेशक 10670
पौलुस 10670
मह@@ 10664
क्यू@@ 10661
रो 10658
लंदन 10636
कल@@ 10633
खा 10616
तें 10607
हुक्म 10604
पड़ी 10602
शोध 10602
ची@@ 10593
घंटे 10589
शाम 10588
साझेदारी 10587
1@@ 10584
किन्तु 10584
समुद्र 10571
करा@@ 10570
ॅ@@ 10564
सामान 10564
मैन 10553
तुमको 10551
तियां 10549
वाणिज्य 10538
दाम 10537
विद्युत 10535
लाइ@@ 10518
न्यायमूर्ति 10517
शु@@ 10515
देखभाल 10500
सिर 10497
लिस्ट 10496
तुमने 10496
घु@@ 10493
चौहान 10490
प्रतिनिधि 10487
ारा 10483
लॉकडाउन 10478
प्राधिकरण 10476
क़ौम 10467
नव@@ 10466
रोड 10463
जल@@ 10451
यूनिवर्सिटी 10449
जीबी 10447
फेसबुक 10443
सदन 10437
एक्टर 10424
तोड़ 10423
पेज 10419
स्वा@@ 10414
गै@@ 10414
निकट 10412
बनर्जी 10402
अंग्रेजी 10398
गत 10397
वस्तु 10390
सचिन 10390
राजस्व 10376
व्य@@ 10365
आयुक्त 10359
तर 10354
रास्ते 10342
मेगापिक्सल 10339
चेतावनी 10333
गुप्ता 10332
गन 10328
20@@ 10326
उत्@@ 10326
प्रदूषण 10321
कार्यान्वयन 10317
अन्@@ 10313
टाटा 10308
परिसर 10304
प्रदेशों 10298
न्यू@@ 10294
लोकप्रिय 10291
चुना 10287
नोटिस 10281
ल्ड 10275
टो 10274
कीमतों 10263
तकनीक 10263
पुराने 10251
बेहतरीन 10247
पेंशन 10245
वल 10238
उपाय 10238
केंद्रित 10232
जाएं 10228
झा@@ 10226
बे 10222
गी@@ 10219
वापसी 10216
विचारों 10215
वर्ल्ड 10214
अर@@ 10213
कन 10211
बनाकर 10209
प्रबंध 10208
एक्स@@ 10206
निर्देशक 10202
तारीख 10199
2.@@ 10198
हम@@ 10198
कहती 10176
उत्तराखंड 10175
निम्नलिखित 10165
शैतान 10165
स्थायी 10160
ताकत 10144
हाँ 10141
विशाल 10134
रै@@ 10123
कमजोर 10115
नौ 10111
सैनिकों 10095
न्यू 10088
डिजाइन 10086
स्टेट 10081
तियों 10081
पहुंचने 10080
यत 10079
दोबारा 10078
ममता 10074
32 10059
इंतजार 10051
जिम्मेदार 10048
जाओ 10042
0.@@ 10027
मेहनत 10026
आध्यात्मिक 10020
बोले 10016
10@@ 10015
कृष्ण 10015
मालूम 10012
सौ@@ 10005
आपदा 10003
लघु 10002
प्रोत्साहन 10002
लगने 9992
लाई 9971
हवा 9971
ओवर 9964
अभ्यास 9963
गिरफ्तारी 9963
अवैध 9959
जमकर 9959
आसमान 9951
रणवीर 9950
टीमों 9947
मसीह 9944
3.@@ 9930
प्रभार 9925
हॉ@@ 9923
सच्चाई 9918
ंक 9915
प्रदर्शित 9903
तेरे 9893
मार@@ 9889
सहयोगी 9884
मिश्रा 9884
औ@@ 9879
पदों 9861
दर्शन 9856
मुद्दा 9852
सड़कों 9848
आसानी 9834
पॉ@@ 9833
उपाध्यक्ष 9830
# 9828
प्रमाण 9827
आइ@@ 9825
मर@@ 9825
मनाया 9823
ंगे 9823
निकाल 9819
लियों 9814
ारों 9812
कठिन 9812
दर्@@ 9807
75 9801
निरंतर 9798
वैसे 9797
अनुष्का 9797
प्रतिनिधित्व 9792
देखकर 9781
सुनील 9772
रह@@ 9769
ढंग 9768
गाने 9760
कर्ता 9757
गोली 9756
झु@@ 9749
वत 9742
आखिरी 9738
कितना 9737
संस्था 9734
उल्लेखनीय 9723
प्रकट 9722
आंतरिक 9719
समक्ष 9719
करीना 9715
बदले 9703
स्तरीय 9696
ग्रा@@ 9694
शीघ्र 9676
शोक 9674
समूहों 9673
कृत 9666
निर्देशन 9660
आरंभ 9652
सर्व@@ 9649
नोट 9646
मुकदमा 9641
ज्यादातर 9632
पुनर्@@ 9630
माने 9624
क्लिक 9619
सिविल 9617
परेशान 9616
दुख 9610
महात्मा 9604
15@@ 9597
हरा 9597
पक्षों 9595
महिलाएं 9593
थोड़ा 9591
कां@@ 9585
जायेगा 9575
मृत 9574
पवार 9554
मुसलमानों 9549
जिनका 9546
र्ड 9545
साथी 9542
एकता 9534
कैंसर 9526
मालिक 9521
घटनाओं 9519
दिल्लीः 9515
संरचना 9510
ढांचे 9509
हाथों 9508
एगा 9506
श्री@@ 9504
तिथि 9501
मॉ@@ 9491
आलोचना 9483
गेंदबाजी 9481
एड@@ 9478
चेयरमैन 9475
छोटा 9465
सर्वेक्षण 9463
पूंजी 9456
रेड्डी 9452
मनमोहन 9448
लिन 9446
खेलों 9441
ऐप 9436
अनुरूप 9427
गठित 9417
इनकी 9413
कपिल 9398
बैंकिंग 9396
5.@@ 9390
बढ़ोतरी 9390
भेजे 9382
पारित 9379
सर्वोच्च 9379
भट्ट 9374
श्रम 9368
टू@@ 9366
ग्राहकों 9362
जिंदगी 9362
ंब@@ 9359
लगाई 9359
नामक 9349
धु@@ 9346
बर 9324
टर्स 9323
हथियार 9313
17@@ 9311
स्त 9311
परा@@ 9308
बैठे 9305
शहीद 9305
& 9302
विजेता 9300
हालाँकि 9294
त्र 9288
नेवाला 9287
16@@ 9285
सेल 9280
45 9280
स्रोत 9278
मरीजों 9272
सपा 9272
संस्करण 9267
माँ 9266
धवन 9264
आदित्यनाथ 9252
बाहरी 9251
7.@@ 9245
रानी 9227
रहो 9226
अरुण 9225
संकल्प 9221
अमरीका 9221
दम 9214
रास्ता 9203
सागर 9200
खेलने 9197
फाइल 9195
लेन 9191
रियर 9191
ज़ा 9189
प्राथमिक 9183
डोनाल्ड 9183
स्त@@ 9182
नॉ@@ 9182
भाव 9180
वादा 9177
महीनों 9168
तमाम 9167
6.@@ 9164
थाने 9159
1,@@ 9157
चुनौतियों 9150
मुहैया 9149
नीय 9138
सत्य 9127
विपक्षी 9123
स्था@@ 9118
प्रकृति 9117
वर@@ 9115
माह 9111
न्द्र 9101
काबू 9096
स्मार्टफोन 9096
छु@@ 9095
कृ@@ 9090
हिसाब 9083
ंडा 9083
एजेंसियों 9080
दूध 9075
स्वर्ण 9074
विभागों 9070
ब्र@@ 9065
मानक 9060
नियुक्ति 9059
पुरी 9053
यल 9052
आखिर 9050
डॉक्टरों 9045
पकड़ 9040
कीजिए 9025
ज़रूर 9022
तभी 9012
क्र@@ 9002
ट्रक 8999
बाप 8986
8.@@ 8976
मुख्यालय 8976
स्थिर 8972
नाज़िल 8966
कितनी 8965
प्रसारण 8964
सूचकांक 8963
बदलने 8959
ठाकरे 8956
नेवाले 8948
खेला 8940
ब्रे@@ 8929
तरीका 8924
प्रारंभ 8920
विवाह 8915
बना@@ 8913
करियर 8913
मानसिक 8910
ज़िंदगी 8905
गे 8902
टेड 8900
गडकरी 8890
आईसीसी 8876
उच्चतम 8866
अनुकूल 8858
संचालित 8857
ज्ञापन 8849
जगत 8847
बल@@ 8837
थाना 8836
समुद्री 8828
2010 8822
पड़ेगा 8818
पार्क 8817
दन 8812
विषयों 8807
वर्मा 8807
ारी 8806
यूरोपीय 8803
प्रत्यक्ष 8801
खाता 8795
मेट्रो 8789
इतने 8787
चंडीगढ़ 8786
ज़िले 8781
अगली 8777
चली 8773
ऑफिस 8769
चा 8768
नियंत्रित 8763
ज़रूरी 8762
वेतन 8754
तः 8749
फ्रंट 8749
दर्शकों 8747
नीतीश 8735
जान@@ 8727
फू@@ 8720
मरने 8720
ंद 8719
जवानों 8704
फसल 8700
कायम 8694
मना 8694
यौन 8689
कोविंद 8686
आतंकवादियों 8657
साहित्य 8650
सोने 8648
ऐलान 8635
संसार 8634
अधिकतर 8633
विश्लेषण 8628
निंदा 8619
सच्चे 8618
कलाकार 8614
शारीरिक 8612
प्रशासनिक 8611
/@@ 8594
370 8592
नै@@ 8578
घा@@ 8574
कार्यकर्ता 8573
फ़िल्म 8572
इसको 8571
फ़ि@@ 8567
अधिकारों 8564
300 8562
भाषाओं 8556
एक्स 8556
थे@@ 8547
मर्@@ 8540
प्रोफेसर 8529
यान 8529
विरुद्ध 8522
कोयला 8522
देखना 8522
आमंत्रित 8520
इंजीनियरिंग 8518
स्मार्ट 8518
लाना 8513
4.@@ 8512
टै@@ 8512
मिसाल 8508
एससी 8504
आलिया 8504
सां@@ 8501
पार्@@ 8501
एशियाई 8500
सूचित 8498
ॉ@@ 8489
किमी 8487
मूल्यांकन 8485
एनसी@@ 8482
-@@ 8475
अकाउंट 8475
पुणे 8473
नर@@ 8470
मित्र 8466
पैसा 8456
रुप 8455
बचा 8454
युक्त 8451
चुनावी 8447
हफ्ते 8440
उड़ान 8436
सिं@@ 8430
लखनऊ 8413
रेखा 8411
बचाने 8409
खतरे 8409
जमानत 8409
जिनकी 8404
वर्षीय 8403
लड़ने 8400
लाखों 8397
परेशानी 8397
पैमाने 8390
सुपर 8387
श्रद्धांजलि 8380
नेहरू 8378
मेंट 8375
कम@@ 8373
टल 8373
टक्कर 8368
२@@ 8365
धा 8363
लौट 8360
द्वीप 8358
समझने 8350
सन् 8341
अस्पतालों 8335
वाल 8328
१@@ 8324
भु@@ 8320
क़यामत 8318
टैक्स 8314
जोड़ी 8310
बसपा 8304
हार्दिक 8298
आईटी 8294
चीज 8294
अहमदाबाद 8287
घाटी 8284
टाइ@@ 8282
देव@@ 8281
दंड 8280
हिन्दी 8276
सिद्धांत 8266
13@@ 8263
जयंती 8260
आमिर 8259
लिखे 8255
गर्व 8249
सौर 8246
परिचालन 8244
सीईओ 8243
प्रशंसा 8238
गीत 8228
भो@@ 8223
दीन 8220
क्रिकेटर 8214
पीएम@@ 8213
कमेटी 8207
जुड़ा 8198
दौ@@ 8187
बोल 8185
एंगे 8179
दर्द 8179
कितने 8174
यातायात 8172
ग्रे@@ 8171
णा@@ 8170
लाते 8169
हक़ 8166
चलाने 8160
आपस 8153
व्यय 8152
नितिन 8152
लेट 8147
निर्धारण 8145
सक@@ 8141
होटल 8132
जय@@ 8132
माफी 8131
कोष 8130
हटा 8127
चैनल 8123
स्मृति 8123
गृहमंत्री 8119
रहीं 8117
चै@@ 8117
परामर्श 8114
सर्वाधिक 8111
ठ 8106
गांवों 8103
पीड़िता 8102
दू@@ 8101
बढ़ते 8095
सदी 8094
केंद्रों 8093
वां 8088
एक्सप्रेस 8086
संसाधनों 8085
स्टर 8082
खो 8078
सरदार 8077
_ 8077
इसने 8075
वर्षा 8074
उपायों 8073
इस्पात 8067
36 8064
भिन्न 8064
स्त्री 8061
सुविधाएं 8048
आना 8048
मध्यम 8040
ओलंपिक 8036
रॉय 8035
खुले 8034
33 8033
सौंप 8029
टेक 8028
पोर्टल 8023
आह्वान 8023
दशक 8020
टिक 8018
चू@@ 8015
भारतीयों 8011
रनों 8006
ॆ@@ 8002
शराब 8000
समझते 7997
सकेंगे 7992
पढ़ाई 7992
बह@@ 7988
पाते 7987
टर@@ 7983
आदर्श 7974
झूठ 7974
14@@ 7972
्यु@@ 7971
सहमत 7969
बहस 7969
यूरोप 7968
सें@@ 7968
बेटा 7968
अप 7967
संभावित 7966
शिक्षक 7966
12@@ 7962
मनोहर 7961
प्रतिनिधियों 7960
आकर 7960
गर 7949
अनुसूचित 7948
शिकार 7947
व्यवसाय 7943
हटाने 7942
उपस्थिति 7938
जागरूकता 7935
लड़ 7930
कहाः 7929
मुठभेड़ 7923
आइए 7919
नीतियों 7909
कट@@ 7904
एकमात्र 7902
संग्रह 7897
तीसरी 7893
पुनः 7891
जताया 7890
परंतु 7888
आएगा 7886
बढ़ाया 7883
सबूत 7883
मै 7879
यातना 7879
इस@@ 7876
बहुमत 7872
सीजन 7872
तट 7867
कार्यवाही 7864
रणनीति 7862
9.@@ 7852
दिखा 7851
कर्ज 7845
प्रस्तावित 7836
रणबीर 7834
संग्रहण 7832
लिखी 7831
फंड 7828
आकाश 7820
गाड़ी 7815
अज्ञात 7809
मनो@@ 7808
मनोज 7807
समझा 7804
जॉन 7801
घटनास्थल 7799
श्रीनगर 7798
ंदर 7788
सबको 7787
स्वीकृति 7786
वायुसेना 7779
सेक्टर 7778
रुख 7777
ष्ट 7777
राजपूत 7769
पंजीकरण 7766
सकेगा 7759
दिग्गज 7758
ब्रा@@ 7757
विनिर्माण 7754
खेती 7753
चे 7752
क्टर 7751
फ़ाइल 7751
तीसरा 7748
गुना 7747
भाइयों 7739
सुशांत 7738
कंप्यूटर 7731
डाउनलोड 7728
पूछे 7727
बैरल 7726
अम@@ 7726
नें 7722
सुना 7717
कटौती 7714
लगा@@ 7713
सुरेश 7709
त्री 7708
एनसीपी 7705
दत्त 7700
यक़ीनन 7686
लीटर 7685
जाहिर 7682
खाली 7681
सल 7680
पादुकोण 7679
नू@@ 7674
दिवसीय 7673
ारे 7671
सफाई 7670
संशोधित 7667
धमकी 7667
सब@@ 7661
विशेषज्ञ 7653
मांगी 7645
गं@@ 7645
अयोध्या 7643
अत्यंत 7641
लने 7641
हितों 7639
ठोस 7637
र्ट 7633
चीजें 7633
मूल्यों 7632
प्रतिबद्धता 7631
डाय@@ 7630
विरासत 7629
चित्र 7626
दृश्य 7625
नल 7624
सीसीटीवी 7623
समग्र 7622
युग 7622
दक्षिणी 7615
साक्षी 7613
प्रसार 7609
वों 7602
देखो 7601
संस्थाओं 7597
ष 7594
लेता 7592
यें 7592
देशभर 7585
तमिल 7584
लेगा 7583
टॉ@@ 7582
बाज़ 7578
कल्पना 7568
संवाद 7567
बॉक्स 7566
टिव 7564
चोरी 7564
चेक 7561
पारंपरिक 7561
48 7560
कैसा 7559
क्रमशः 7558
प्रतिबद्ध 7558
उपकरणों 7554
पोषण 7550
स्टेडियम 7548
२ 7546
वैज्ञानिकों 7541
उपयुक्त 7540
मृतक 7531
प्रणब 7529
सन्@@ 7523
बहनों 7520
मुझसे 7517
चाहिये 7515
इंटरनेशनल 7514
ईश्वर 7513
स्थ@@ 7507
देखी 7506
ब्रि@@ 7503
दस्तावेज 7501
एसपी 7500
संहिता 7497
रू 7494
करवाया 7489
वाइ@@ 7487
मोह@@ 7485
हां 7484
एसोसिएशन 7482
३@@ 7479
शरीफ 7476
गौर 7475
निंग 7474
चिदंबरम 7472
भरा 7469
पंचायत 7457
पत्रकार 7457
जिक्र 7451
तरीकों 7450
न्यायिक 7449
जनसंख्या 7435
मात्र 7432
ट्रा@@ 7432
भारती 7431
टू 7424
पे 7424
चुने 7418
बाइक 7418
वार्@@ 7415
कनाडा 7415
जग@@ 7415
हृदय 7413
फी 7408
खेले 7408
क्रेडिट 7407
जाएँगे 7406
हू@@ 7403
इस्लाम 7401
शाखा 7400
लिंक 7396
हरी 7392
एयरपोर्ट 7391
सृजन 7389
रण@@ 7389
ऑपरेशन 7389
डेविड 7389
निभा 7388
लू 7385
जीवित 7368
इनका 7367
आत्महत्या 7359
शै@@ 7358
विश्व@@ 7353
आईसी@@ 7335
ेंगे 7334
पत्थर 7330
वेस्टइंडीज 7330
पावर 7328
पेट 7327
आकलन 7325
रमेश 7319
निवासी 7318
सॉ@@ 7315
रख@@ 7303
एफआईआर 7296
हवाले 7295
करूंगा 7287
अत्यधिक 7278
जमा@@ 7268
आपसी 7264
ल्ला 7259
वातावरण 7258
कृपया 7252
ंसी 7247
कक्षा 7244
प्रारंभिक 7243
देगी 7235
पुरुषों 7230
मध्यप्रदेश 7229
बां@@ 7225
शैली 7224
भय 7220
आयु 7215
आवाज 7215
मद्देनजर 7214
्या@@ 7212
दरअसल 7212
पटना 7211
जोशी 7208
पल@@ 7206
स्वरूप 7203
जानने 7203
अटल 7200
प्रभारी 7199
पायलट 7199
मिट्टी 7198
पश्चात 7187
बनाते 7185
जगहों 7185
रु 7184
शुद्ध 7182
कह@@ 7182
बताई 7179
आजादी 7179
रिंग 7178
गो 7178
आश्वासन 7175
आमतौर 7169
टरों 7168
दीपक 7166
उद्यम 7165
बोला 7161
एयर@@ 7153
परिस्थितियों 7150
यर@@ 7149
म्ब@@ 7147
स्क्रीन 7140
सालों 7140
केट 7136
प्रतीक 7136
उद्योगों 7133
गूगल 7132
आंकड़ों 7129
अचानक 7128
डों 7126
ट्री 7126
शाहिद 7124
रवाना 7123
ै 7118
प्रि@@ 7116
400 7114
टने 7110
कर्ताओं 7102
मो 7095
शताब्दी 7093
रिश्ते 7090
प्रदर्शनकारियों 7086
सिफारिश 7083
हजारों 7075
उन्हीं 7073
इल 7072
शैक्षणिक 7067
कर्मी 7065
साथियों 7058
णों 7056
भरे 7053
बार@@ 7052
सुश्री 7052
ीकरण 7050
सल@@ 7044
34 7043
विपरीत 7040
ईंधन 7039
पुरानी 7039
उन्@@ 7038
श्र@@ 7038
तिवारी 7028
शुभारंभ 7024
सरल 7022
दोस्तों 7019
ख़ा@@ 7015
देखिए 7011
ग्र@@ 7007
क्शन 7007
प्स 7005
निकाला 7005
प्रेरणा 7002
गुण 6999
अभिषेक 6996
डिंग 6993
आये 6993
थो@@ 6992
पड़ोसी 6990
रेट 6989
राज्य@@ 6978
व्यावसायिक 6976
आं@@ 6971
टीमें 6971
ठा@@ 6970
निर्देशित 6970
मणिपुर 6970
ड्@@ 6965
शतक 6958
आएगी 6957
बिग 6947
चीजों 6944
उनपर 6941
लेखा 6940
३ 6940
चंद 6939
कर्म 6939
कामों 6938
नेट 6927
कमान 6927
शिक्षकों 6927
00 6926
मार्गदर्शन 6921
कोर 6919
संदेह 6919
अखिल 6917
छानबीन 6916
जयपुर 6910
अभिनय 6909
ड़ों 6907
योग्यता 6904
हराया 6903
नता 6902
लीड 6902
ढ़@@ 6901
अदा 6900
प्रवाह 6898
4,@@ 6898
एकीकृत 6895
जितना 6892
आरएसएस 6890
गिर 6886
बोली 6881
ंच@@ 6880
2009 6879
दीप 6876
सुन 6874
बिन 6872
रल 6871
इ 6871
ज्ञा@@ 6870
डायरेक्टर 6870
फॉ@@ 6869
I 6868
जोड़ने 6868
स्टोरेज 6868
कोड 6866
37 6862
धान 6851
णा 6850
फॉर 6842
> 6836
मुँह 6836
विशेषज्ञों 6834
बढ़ाकर 6833
अधिसूचना 6830
स्टाफ 6826
प्रवासी 6823
थोड़ी 6822
तहसील 6818
सऊदी 6817
मुझ 6815
क्लब 6814
भले 6810
गहरा 6808
शिव@@ 6808
जनों 6799
आपराधिक 6799
जोड़ा 6794
सकी 6782
सिस 6782
जहाज 6781
ड्र@@ 6780
भला 6778
सिंगापुर 6774
चौथे 6772
डाटा 6768
क्रा@@ 6768
पिछली 6767
बम 6764
स्पे@@ 6760
धन@@ 6758
हुईं 6757
जय 6757
शुरु 6756
ष्ट@@ 6750
जू 6748
+ 6741
अकेले 6739
ईडी 6733
विस्फोट 6733
एकल 6732
डु@@ 6732
बढ़त 6722
ज़ाहिर 6722
मृतकों 6721
कार्यकाल 6720
भी@@ 6720
वार@@ 6717
पांडे 6715
पीढ़ी 6714
मशहूर 6714
मस्जिद 6706
भरी 6705
पदार्थ 6703
फु@@ 6694
इयों 6693
शरद 6691
लय 6690
बादल 6690
म्स 6686
वर्ती 6683
65 6676
तथ्य 6676
खासकर 6675
भेंट 6674
दाऊद 6674
पेशकश 6673
लद्दाख 6672
ग्राहक 6669
चालू 6667
संग 6666
भार 6665
कवर 6663
इंटर@@ 6659
समृद्ध 6658
अल@@ 6657
आत्म@@ 6656
बंध@@ 6652
आयकर 6650
खूबसूरत 6650
क्रिया 6647
लकर 6647
अस@@ 6640
इंदिरा 6640
ऋ@@ 6639
आज्ञा 6635
टर्@@ 6633
एक@@ 6630
आकर्षित 6619
उधर 6613
कुलदीप 6613
होम 6612
पाठ 6611
दिखा@@ 6607
कैमरे 6607
बाजारों 6605
सैफ 6605
कन्@@ 6604
सोचा 6604
बढ@@ 6603
यकीन 6599
दिखाने 6598
कारोबारी 6597
वाई@@ 6596
अग्रवाल 6594
लड़कियों 6594
एक्शन 6592
डीसी 6590
लं@@ 6586
संक्रमित 6582
रस 6570
लित 6567
तेंदुलकर 6567
लोन 6566
सिद्ध 6562
रॉ@@ 6562
परिणामस्वरूप 6561
ेगा 6559
A@@ 6557
तू@@ 6553
स्मिथ 6549
प्रसंस्करण 6546
विधान 6545
जरूर 6545
दुर्@@ 6544
सीतारमण 6541
कुशल 6539
नामांकन 6536
यि@@ 6535
सज़ा 6530
तर्क 6528
रिजल्ट 6526
संस्थापक 6524
बायो@@ 6522
आजाद 6521
किन 6518
क्ट 6515
पहुंचाने 6515
स्वराज 6511
० 6510
निभाई 6506
५ 6506
आशंका 6501
रक्त 6500
मशीन 6499
कमा@@ 6497
गौरतलब 6489
मजबूती 6487
ठहराया 6487
भेजने 6486
स्पीड 6480
रैंकिंग 6479
ठा 6479
कॉन्@@ 6478
निय@@ 6474
ओपन 6474
भूकंप 6474
नवीन 6467
हार्@@ 6466
उठा@@ 6466
नवाचार 6465
बलात्कार 6464
ारा@@ 6463
अंजाम 6463
आरबीआई 6458
त्रा@@ 6458
र्थ 6455
संबोधन 6455
मलिक 6454
निर्देशों 6452
नन 6452
सूक्ष्म 6447
राइ@@ 6447
एक्ट 6447
ताएं 6441
जानें 6438
गुज@@ 6436
फिल्में 6425
टेक्@@ 6423
सशस्त्र 6423
निस्संदेह 6422
पों 6416
सुन@@ 6416
फर 6415
इत्यादि 6412
बिलकुल 6412
शुरुआती 6410
हिन्दू 6410
55 6409
कंपनियां 6408
ड़ा@@ 6406
दैनिक 6404
मारा 6399
नष्ट 6394
प्रतिष्ठित 6381
पुल 6381
बनाये 6380
बेन 6380
गों 6378
रिसर्च 6375
ट्र@@ 6374
मोटर 6371
भोपाल 6369
मिलाकर 6364
फॉर्म 6364
तारीफ 6363
पात्र 6361
सीन 6361
पूर्वक 6359
न्त 6358
पाठ्यक्रम 6355
बुद्धि 6353
इंस्टीट्यूट 6349
कौ@@ 6346
प्रत्याशी 6346
कीय 6344
वानी 6344
करनेवाले 6344
ंद्र 6344
क्रो@@ 6341
पहुंचाया 6340
बीर 6339
डो 6327
150 6324
बरकरार 6322
धो@@ 6321
आदान 6314
उपलब्धता 6313
पक@@ 6305
फर्@@ 6303
सांसदों 6302
रं@@ 6301
फ़ा@@ 6294
जैव 6292
आस्ट्रेलिया 6290
प्ले@@ 6288
निर्मला 6288
पौ@@ 6286
अवश्य 6281
करेंगी 6280
विद्यालय 6276
आईसी 6274
संस्कृत 6274
क्षण 6273
99 6273
पीने 6263
इकाइयों 6262
्यू@@ 6262
ब्यूरो 6262
सिनेमा 6262
प्रावधानों 6254
24@@ 6254
प्रोजेक्ट 6252
पत्रकारों 6251
भागों 6247
आतंकियों 6243
ख़बर 6242
मनी 6241
कॉल 6240
खतरनाक 6239
तूफान 6236
स्कोर 6235
जाएँ 6234
गोल 6234
जुटी 6232
हर्षवर्धन 6228
लाइसेंस 6227
दारी 6224
रखो 6224
शिव 6221
वीर 6221
गवाह 6221
हिस्सेदारी 6220
दवा 6218
गरीबी 6217
मां@@ 6216
रामनाथ 6213
हानि 6212
वेब 6212
स्थिरता 6207
42 6206
अर्थात् 6205
गार 6203
आस 6203
जीतकर 6203
भूषण 6202
गहरी 6197
सुषमा 6196
कानूनों 6190
पार@@ 6190
ॉ 6187
आंकड़े 6186
निकाय 6186
सुंदर 6182
धी 6181
रकम 6178
फाइ@@ 6177
अंग 6176
पढ़ने 6176
स्पेशल 6175
रण 6174
बुलाया 6170
वर्णन 6167
जाये 6167
त्रिपुरा 6163
व्यस्त 6161
धी@@ 6159
सीधा 6157
लक्षण 6157
एमएसएमई 6151
डन 6151
मय 6151
रावत 6150
आय@@ 6144
चेहरे 6144
38 6143
मुर्@@ 6143
डै@@ 6142
आईआईटी 6141
लती 6139
हस्तक्षेप 6137
झटका 6135
दिख 6132
टाइम 6131
भरने 6130
स्टो@@ 6128
सामूहिक 6127
मकसद 6125
निवेशकों 6123
बता@@ 6122
सबके 6114
स्टॉक 6113
जब्त 6113
गंभीरता 6109
इस्राएल 6108
लालू 6106
चलाया 6101
निका@@ 6101
नाइ@@ 6100
समन्वय 6097
सेहत 6097
लगाते 6090
जन्मदिन 6086
शों 6085
ाई 6084
संयंत्र 6078
सूत्र 6077
कृष्णा 6073
अकादमी 6071
कामयाब 6071
घंटों 6070
अंग@@ 6067
ज़रिए 6067
हक 6066
विशेषकर 6064
लड़के 6063
अड्डे 6061
गोलीबारी 6058
फैंस 6053
रियों 6052
करीबी 6051
प्रांत 6040
इलेक्ट्रॉनिक 6039
छोड़ने 6037
कला@@ 6036
सफर 6036
यता 6034
बिजनेस 6033
गलती 6030
तटीय 6025
स्थलों 6021
गौ@@ 6020
नतीजे 6020
लना 6018
हिदायत 6018
भलाई 6018
शुभ 6016
अवसरों 6014
महेंद्र 6013
दूरसंचार 6011
माम@@ 6011
राज्यमंत्री 6008
प्राइवेट 6007
सार@@ 6006
प्रतिनिधिमंडल 6006
इसलिये 6005
जाँच 6002
तम 6001
ख़ास 6000
लुक 5998
आयतों 5997
छवि 5995
तत्व 5991
कंट्रोल 5987
हट 5987
बैक 5986
रोगियों 5986
पेड़ 5980
प्रो 5979
प्राप्ति 5975
शमी 5973
बढ़ी 5972
दायरे 5970
सर्विस 5970
गणराज्य 5969
उपलब्धि 5965
जीव 5965
भर@@ 5964
नबी 5963
स्टेशनों 5962
अल्पसंख्यक 5960
देन 5958
खून 5956
किंग्स 5955
अम्@@ 5952
बोझ 5950
रंग@@ 5948
६ 5944
किनारे 5943
नात्मक 5942
पक्ष@@ 5942
गणना 5940
सेंसर 5940
आईएस@@ 5939
विपणन 5939
बेस्ट 5939
न्यूज 5937
वाणिज्यिक 5935
पड़@@ 5934
कौर 5933
मसीहियों 5931
उत्तराखण्ड 5930
A 5929
3,@@ 5927
चो@@ 5926
खी 5918
डब्ल्यू 5915
टु@@ 5912
ड्राइवर 5906
क्रे@@ 5905
S@@ 5904
धर 5903
खनन 5896
47 5894
वंश 5889
फ्रे@@ 5886
गौतम 5885
विविधता 5884
अधीक्षक 5883
सवालों 5883
सम्बन्ध 5882
43 5881
यद्यपि 5880
सुनने 5880
अत्यन्त 5878
डेट 5877
मिंग 5875
सिंचाई 5875
मार्क 5869
रिलायंस 5869
बैं@@ 5865
शाही 5862
गरीबों 5859
सिंग 5858
प्रतिस्पर्धा 5856
तल 5855
पट@@ 5852
अता 5852
01 5851
लियां 5851
प्रशांत 5849
साउथ 5848
ढा@@ 5846
८ 5844
करों 5843
खड़ी 5843
बाजी 5842
जाएंगी 5841
एफसी 5840
स्प@@ 5836
ब्लैक 5834
वर्गों 5830
गिर@@ 5828
हरि@@ 5828
संदिग्ध 5826
जिंग 5824
राफेल 5818
फायर 5816
नवम्बर 5814
अगुवाई 5813
कहो 5811
विश्वविद्यालयों 5810
एनआरसी 5810
अर्थात 5809
शेट्टी 5808
शास्त्र 5806
नंद 5805
समाजवादी 5802
चूंकि 5801
उद्@@ 5800
सुख 5800
तुझे 5800
यम 5798
साइट 5794
P@@ 5794
बोलते 5793
सतत 5791
दौड़ 5791
राष्ट्र@@ 5787
कपड़े 5783
दरों 5779
अतिथि 5779
नायक 5778
नारायण 5778
भूल 5777
डाक 5777
बद्ध 5772
पत्रिका 5771
आराम 5771
अपेक्षा 5768
2008 5768
तरफ़ 5768
बच्ची 5768
भार@@ 5766
गवर्नर 5766
दित 5763
बैठ@@ 5762
ंडी 5760
संवेदनशील 5759
बच्चा 5758
बाबा 5757
एगी 5753
मना@@ 5747
एनएस@@ 5746
कियों 5743
अवस्था 5740
ड़ने 5739
कामना 5738
आएंगी 5736
L@@ 5735
ख्याल 5735
जर्मन 5733
जौहर 5731
लम 5730
टेक्नोलॉजी 5729
्रा@@ 5729
मंत्रालयों 5729
बंदरगाह 5728
संपन्न 5727
अवगत 5725
रेड 5724
४ 5724
ंच 5724
हुसैन 5723
घो@@ 5722
गर्म 5720
जानिए 5719
औपचारिक 5717
रसायन 5717
प्रतिदिन 5715
गवाही 5713
ऑफ़ 5710
टॉस 5710
रोका 5709
हाइ@@ 5706
दर्जा 5703
पोर्ट 5702
कमाई 5701
मुंह 5701
साफ़ 5699
बचने 5698
उत्तम 5688
जीते 5688
निकालने 5685
समृद्धि 5685
नीलामी 5682
फा 5681
शह@@ 5679
रेडियो 5676
अना@@ 5673
अति@@ 5671
कैं@@ 5671
बीते 5671
ऑटो 5670
कठोर 5669
वाराणसी 5669
यूनिट 5668
अग्रिम 5666
असली 5666
शाह@@ 5665
बचत 5664
अनुवाद 5662
रैम 5661
मध्य@@ 5657
लते 5657
हान 5657
खोल 5656
ईरानी 5655
७ 5651
वली 5649
पहलुओं 5649
देखे 5649
B@@ 5646
मिनट 5645
शिप 5642
पब्लिक 5639
खबरों 5636
वरुण 5636
राजकुमार 5636
माननीय 5634
एसी 5628
खोलने 5623
इंटरव्यू 5623
धि@@ 5620
शिक्षण 5620
सशक्त 5620
मुसलमान 5620
बनना 5619
वास 5617
बीज 5615
र्क 5613
T@@ 5609
पुलवामा 5609
स्मारक 5607
मुफ्त 5605
निर्दिष्ट 5601
प्लान 5601
रता 5598
धर्म@@ 5596
पथ 5595
अंबानी 5595
देवेंद्र 5594
निम्न 5592
गम 5592
रचना 5591
हू 5591
जिसको 5590
वायदा 5588
मरीज 5583
उत्कृष्ट 5582
रियल 5581
तेरी 5581
एप 5580
प्रदर्शनी 5579
उल्@@ 5578
कान 5578
करे@@ 5573
संवाददाताओं 5573
निर्माताओं 5572
उत्पीड़न 5569
रोकथाम 5565
26@@ 5564
कैफ 5564
डू@@ 5563
कॉन्फ्रेंस 5562
of 5562
बढ़ता 5561
द्व@@ 5560
देरी 5555
दारों 5552
बॉस 5551
सीखने 5550
तुर्की 5547
मज़बूत 5546
इमारत 5540
चंद्र 5539
गिरोह 5538
चरणों 5534
नेवाली 5533
39 5530
इटली 5530
गांगुली 5530
आईपी@@ 5527
गुज़@@ 5527
रिया@@ 5526
संपूर्ण 5525
ढांचा 5523
खरीदने 5521
भरपूर 5521
परंपरा 5519
ठी 5518
बढ़ा@@ 5517
अखिलेश 5517
खिताब 5516
लोकतांत्रिक 5514
सिद्धार्थ 5514
कैप्टन 5514
नः 5512
१९@@ 5510
स्टि@@ 5509
तं@@ 5507
हितधारकों 5506
आयी 5506
पशु 5506
सोनम 5506
करी 5503
टॉप 5499
साधारण 5497
सेंट 5497
वाड़ा 5495
़ 5493
पहलू 5491
खिला@@ 5488
मिक 5487
व्@@ 5487
बुक 5486
यूनि@@ 5484
मनीष 5484
उतर@@ 5483
छोड़@@ 5481
इकट्ठा 5481
ट्रो@@ 5478
सदस्यीय 5478
कलाकारों 5477
2,@@ 5476
30@@ 5476
पार्टियों 5475
ंः 5473
मिसाइल 5471
रंजन 5470
चित 5468
वजन 5468
रणनीतिक 5466
शिविर 5466
कराना 5465
निभा@@ 5462
सियों 5461
5,@@ 5460
९ 5459
ग़रज़ 5456
समापन 5455
पड़ने 5453
64 5452
अग्रणी 5451
नवाज 5450
बेंगलुरु 5449
मारने 5449
देखता 5448
सुभाष 5448
मिलेंगे 5446
वारदात 5446
राजदूत 5445
मेक 5443
बुरे 5443
स्ता@@ 5437
6,@@ 5433
E@@ 5428
संतोष 5428
घाट 5428
ंस@@ 5425
विक 5424
हमसे 5422
बच 5422
ः@@ 5416
विफल 5413
दिलों 5413
हमलों 5412
प्लेटफॉर्म 5411
50@@ 5411
आरक्षण 5410
लड़@@ 5410
M@@ 5401
यहूदी 5400
भावनाओं 5399
52 5397
न्या@@ 5397
पवन 5397
पीयूष 5394
आदित्य 5393
मियों 5390
तिक 5387
आईं 5385
भे@@ 5384
ैं@@ 5384
ऑल 5383
सम्मिलित 5382
मकान 5378
क्षमा 5373
शून्य 5370
कनेक्शन 5369
भग@@ 5369
परस्पर 5368
अंकों 5367
इलाहाबाद 5367
प्रतिभा 5366
जुट 5366
कंगना 5366
ंज 5364
कैद 5364
नृत्य 5361
पूर्ति 5358
ट्रेलर 5357
बोलने 5356
पंजीकृत 5355
बुराई 5353
शांत 5352
तिमाही 5351
सौंपा 5351
भड़@@ 5350
सॉफ्टवेयर 5349
एमएस 5348
पाप 5348
सीसी 5347
क़ा@@ 5347
ढ़ 5345
आईएस 5344
शेख 5344
संबद्ध 5340
चर@@ 5340
जलाशयों 5339
अस्तित्व 5338
प्लास्टिक 5337
मानकों 5336
मौजूदगी 5333
भाव@@ 5331
2000 5325
41 5323
पहुँचा 5323
ब्लॉक 5320
स्थ 5318
चर्च 5317
2022 5315
अनुदान 5314
25@@ 5311
बीमार 5308
रेप 5305
द्वितीय 5302
वीजा 5302
संभा@@ 5301
जनजातीय 5299
राजेश 5298
रोज 5297
दावे 5296
टरी 5295
खुफिया 5294
असल 5294
छुट्टी 5293
परियोजनाएं 5293
द्र 5292
जेएनयू 5292
आव@@ 5291
अब्दुल्ला 5290
गहलोत 5288
पहुँच 5278
व्हाइट 5278
काट 5278
पोस्टर 5276
ज़ी 5269
श्रद्धा 5269
मजबूर 5268
बाज 5268
तेरा 5267
विकेटकीपर 5267
लोक@@ 5266
बन्@@ 5265
पैकेज 5265
क्रिस 5264
पर्यटकों 5262
खे 5261
दशा 5260
कृति 5257
एआई 5254
सिख 5253
85 5251
स्वर्ग 5251
भंडारण 5250
बिलियन 5249
निरीक्षण 5249
धे 5247
निलंबित 5247
दिसम्बर 5245
किशोर 5245
न्द 5243
रीति 5243
डालने 5242
कहेंगे 5242
सीसी@@ 5236
गुनाह 5234
a 5233
मास्क 5231
भ 5227
जज 5227
डाले 5225
मुकेश 5225
पीसी 5222
माइ@@ 5222
फीस 5219
उपभोक्ताओं 5218
पंच@@ 5217
फोर्स 5214
ट्रेनों 5214
ंद्र@@ 5212
49 5205
साधन 5201
लाकर 5201
हॉकी 5200
ख़ुद 5200
दिमाग 5199
जाम 5198
ग्लोबल 5197
दया 5197
95 5195
घ 5195
प्रक्रियाओं 5191
निशान 5189
सिक्किम 5188
दोषियों 5186
वितरित 5184
C@@ 5184
फिट 5183
हन 5182
शॉ@@ 5182
शैक्षिक 5178
लोगो 5177
फील्ड 5175
10.@@ 5173
नेवालों 5173
व्या@@ 5171
बताने 5171
गेट 5168
शिवराज 5167
मूर्ति 5165
द्वार 5164
T 5163
केल 5160
अब्दुल 5160
कराए 5158
51 5156
सीआरपीएफ 5155
क्ष 5153
हें 5151
बाग 5151
उल@@ 5148
क्रांति 5148
अपनाने 5146
कने 5143
वेंकैया 5141
कार्बन 5140
ख्@@ 5139
गोल्ड 5138
अख्तर 5138
फ़्@@ 5135
निवास 5135
राय@@ 5134
सपना 5134
राकेश 5133
सैं@@ 5131
सार 5131
सीए 5130
अमल 5128
देशवासियों 5128
अग@@ 5126
फार्@@ 5124
आवंटन 5123
कट 5123
ऋ 5120
उन्नत 5119
यूनियन 5119
नमाज़ 5117
सितम्बर 5115
कामकाज 5114
साक्षात्कार 5112
तृणमूल 5112
जोड़ 5108
कहाँ 5108
उद्धव 5106
एंड@@ 5105
जियो 5105
मोड 5104
संग्रहालय 5104
प्रवर्तन 5102
G@@ 5102
फंसे 5101
उपासना 5101
धोखाधड़ी 5100
सच्चा 5100
पर्व 5099
उतारा 5096
सिद्धू 5091
कॉर्@@ 5088
कमरे 5088
बलिदान 5088
लगाकर 5087
स्नातक 5086
आयुष 5082
महत्त्वपूर्ण 5081
पढ़े 5081
रिक 5080
वाजपेयी 5080
vs 5078
ब्रांड 5077
ंडर 5077
कवि 5077
महेश 5077
सीएए 5076
हरगिज़ 5075
हरा@@ 5073
मानवीय 5072
हिंदुस्तान 5069
समुदायों 5063
र्न 5060
नवा@@ 5060
६@@ 5059
मछली 5058
इलेक्ट्रिक 5057
रखती 5054
घू@@ 5054
स्वि@@ 5052
हीन 5052
किंतु 5050
विभाजित 5050
नोएडा 5048
ढेर 5048
स्वी@@ 5045
कॉम 5045
ताजा 5044
बनाता 5040
साम@@ 5038
लिख 5036
त्व 5034
क्ला@@ 5032
फाउंडेशन 5032
पृष्ठ 5031
व्यव@@ 5030
विभाजन 5029
गल@@ 5029
म्प@@ 5028
बीएस 5024
नियामक 5023
खुला 5022
जित 5022
सेमीफाइनल 5022
उक्त 5021
27@@ 5021
i 5016
यूसुफ 5016
स्त्रियों 5014
गर्@@ 5012
४@@ 5012
आवश्यकताओं 5011
बनाम 5010
देख@@ 5010
साक्षियों 5010
तार 5006
घोटाले 5006
सेन 5004
टूट 5002
संत 4997
उर्वरक 4996
फुटबॉल 4996
स्ट्र@@ 4995
पैनल 4994
दिखाता 4994
ट्रैक 4991
मद@@ 4989
अधिसूचित 4986
लाइट 4986
पिंग 4985
तीं 4985
लेखा@@ 4984
इंकार 4984
बाइ@@ 4983
तत्@@ 4981
गू@@ 4981
टेली@@ 4980
प्रकाशन 4979
दर्शाता 4978
ऊंचाई 4977
भजन 4977
35@@ 4976
संवैधानिक 4976
ज्ञात 4974
विद्यार्थी 4972
लगते 4969
हड़ताल 4968
यहीं 4967
मनोरंजन 4964
चार@@ 4963
@ 4961
माल@@ 4960
शू@@ 4958
ंट@@ 4956
हेक्टेयर 4955
इच्छुक 4953
मुना@@ 4953
सीनियर 4951
केन्द्रों 4950
शेयरों 4949
तौ@@ 4949
पुलिसकर्मी 4948
अनंतिम 4947
आंकड़ा 4947
मील 4947
अनुपात 4944
BJP 4941
यक 4938
सेंट्रल 4936
उत्साह 4936
W@@ 4936
जिन्@@ 4931
नैतिक 4929
इजाजत 4925
उपयोगी 4924
प्रोग्राम 4919
सतह 4918
फडणवीस 4917
रिश्ता 4912
महिंद्रा 4909
पदार्थों 4906
चंद्र@@ 4906
भेजी 4905
शीर्षक 4902
डेब्यू 4902
बन्दों 4902
सत@@ 4900
अर्पित 4900
प्रारूप 4896
कमांडर 4896
धार@@ 4894
संतुलन 4893
जरूरतों 4892
लंबित 4891
सीख 4891
पस 4890
धर्@@ 4889
भौतिक 4887
गुरु@@ 4881
बचपन 4879
एसबीआई 4877
बंग@@ 4877
46 4876
शवों 4876
पूछ@@ 4875
ढ़ी 4874
प्रणालियों 4873
न्यूयॉर्क 4871
सूर्य 4870
विमानों 4869
वें@@ 4867
ध्यक्ष 4864
एनडी@@ 4863
महोत्सव 4863
रूसी 4863
2007 4862
पेशेवर 4860
विज्ञापन 4856
जहन्नुम 4852
बारी 4850
ेगी 4850
दायित्व 4849
काफ़ी 4849
कीं 4848
समानता 4847
सुनकर 4847
निदेशालय 4846
नाटक 4846
तै@@ 4845
लेंस 4843
चावल 4843
ण्ड 4842
शर्त 4842
प्रिंट 4842
उतना 4842
इसरो 4842
अनुपालन 4841
सहकारी 4841
रहमान 4841
टकर 4840
आख़िरत 4840
56 4838
भू 4837
तता 4836
स्कूली 4835
www 4832
समस्त 4829
मिस्र 4829
हादसा 4827
नकारात्मक 4826
सद@@ 4826
खाड़ी 4824
खुली 4824
सिलसिले 4824
टेलीविजन 4823
गंज 4823
करनेवालों 4822
मांग@@ 4821
जेम्स 4821
छू@@ 4819
मानता 4818
उन्होने 4818
टिस 4818
फसलों 4817
षण 4816
फायदे 4812
सुनाई 4812
उमर 4809
मानने 4805
सचमुच 4804
दिलचस्पी 4803
जातियों 4802
फ्री 4801
गल 4801
ट्रस्ट 4800
सफलतापूर्वक 4799
जिनसे 4799
अर 4797
जटिल 4795
त्वरित 4794
इंडोनेशिया 4794
महोदय 4794
प्रताप 4794
पात 4792
बताता 4792
दवाओं 4791
o 4789
गारंटी 4787
लिख@@ 4784
लिया@@ 4778
इंदौर 4777
बनकर 4775
ग्रह 4774
असफल 4771
स्कीम 4768
सेल्फी 4766
R@@ 4764
एम्स 4764
स्टील 4762
चम@@ 4762
निकलने 4762
मायावती 4762
अति 4761
मंत्रि@@ 4760
मुम्बई 4757
बीमारियों 4757
पहुंचकर 4756
तोमर 4756
ीन 4755
कार्तिक 4752
रिय@@ 4751
बतौर 4751
पत्रों 4750
लेक्@@ 4750
पद्धति 4748
आख़िर 4746
मज़@@ 4743
साजिश 4740
किलोग्राम 4739
उतार 4738
28@@ 4736
कविता 4734
णि@@ 4733
मेघालय 4733
न्याय@@ 4731
यूजर्स 4731
मनुष्यों 4731
नाते 4730
ग्रामीणों 4729
विवेक 4728
नतीजा 4727
दिनेश 4727
भुवनेश्वर 4726
दुष्कर्म 4726
रफ्तार 4723
स्थगित 4721
उपधारा 4720
अधिग्रहण 4718
क़ुरान 4716
तत्कालीन 4714
घटनाएं 4712
अध्याय 4711
शक्तिशाली 4708
अट@@ 4708
कमल 4708
जंग 4706
रुचि 4704
लंबा 4703
इबराहीम 4703
क्रियान्वयन 4701
आपसे 4701
ग्रस्त 4700
जबरदस्त 4700
बाँ@@ 4699
रखेंगे 4699
संदीप 4699
बचा@@ 4697
रजत 4696
ट्यू@@ 4693
लेगी 4692
किम 4692
देवगन 4692
K@@ 4691
जेट 4690
सिद्धांतों 4685
रॉयल 4684
नुसार 4683
आन्ध्रप्रदेश 4682
बाई 4681
ंगा@@ 4677
सन@@ 4676
छोड़ा 4674
ट्रि@@ 4673
प्प@@ 4673
पड़ती 4672
मतदाता 4670
त् 4668
खातों 4667
पड़ताल 4667
कोर्इ 4667
सच्ची 4665
विमानन 4664
पोर्@@ 4663
मामूली 4662
शन@@ 4662
निष्@@ 4661
अरुणाचल 4661
स्तान 4661
PM 4658
ौर 4658
रिश्तों 4657
दाता 4654
ारि@@ 4654
बैंड 4654
जोन 4653
झो@@ 4652
वेस्ट 4652
पाएंगे 4652
नियत 4651
कड़े 4650
आप@@ 4649
कदमों 4648
लेखन 4648
कलर 4648
ज़ी@@ 4647
मायने 4645
घटक 4643
मासिक 4641
ईं 4640
आईएम@@ 4639
नड्डा 4636
रूम 4632
पाल@@ 4631
पान 4626
वु@@ 4623
पहुंच@@ 4622
सीमाओं 4620
उत्सव 4620
अंतर@@ 4618
माफ 4616
gov 4616
बिंदु 4614
मल 4613
मिजोरम 4613
विविध 4612
श्रमिकों 4608
यस 4608
काले 4608
द्वि@@ 4607
प्रसन्नता 4607
तुममें 4606
शंकर 4603
हैरान 4603
सीए@@ 4602
हुये 4602
जाए@@ 4597
शांतिपूर्ण 4597
तब@@ 4596
फर@@ 4596
स्पेस 4596
पॉजिटिव 4596
योजनाएं 4594
झा 4593
पारिवारिक 4591
बन@@ 4591
स्तरों 4590
राजनैतिक 4589
स्टा@@ 4587
सूरत 4587
समर्पण 4587
ंदा 4587
ज्ञ 4586
छात्राओं 4586
लिखने 4586
उपचुनाव 4584
D@@ 4583
टिक्स 4582
लाइफ 4578
घड़ी 4577
गौरव 4577
लगाना 4576
मिल@@ 4576
मंजूर 4574
चला@@ 4574
लक 4573
र्म 4572
कलीसिया 4572
चक्र 4564
भेदभाव 4563
नवीकरणीय 4561
मित 4560
वती 4560
वाय@@ 4559
ऑन 4559
काउंसिल 4559
अरोड़ा 4558
54 4557
सदस्यता 4557
एकजुट 4557
उपा@@ 4556
क्वा@@ 4555
C 4555
F@@ 4554
लक्ष्यों 4551
अला@@ 4551
झूठे 4550
कार्यशाला 4549
पेयजल 4549
दिनांक 4548
फेर 4548
प्रशिक्षित 4547
भाग@@ 4541
ंग्@@ 4541
हसन 4541
सीबी@@ 4538
आदर 4538
आभार 4537
नज़@@ 4536
बिया 4531
मानो 4530
परिभाषित 4528
शक़ 4528
स्वामित्व 4527
मलेशिया 4524
सुपर@@ 4524
टक 4524
वैकल्पिक 4523
तत्वों 4522
गोपाल 4522
णु 4520
ईमानदार 4519
मुख 4518
बर्ग 4516
खबरें 4514
72 4513
सचिवालय 4512
टेनिस 4512
चीज़ों 4512
रूपए 4508
जितेंद्र 4508
टियों 4504
क्स@@ 4504
वाकई 4504
लाइव 4503
जायेगी 4503
फर्जी 4502
लम्@@ 4502
250 4501
वर्ड 4499
प्ला@@ 4498
आयुष्मान 4497
नीत 4496
फांसी 4496
सुधारों 4495
बढ़ाना 4492
तियाँ 4491
ल्ट 4491
शौ@@ 4491
नसीहत 4491
ह्@@ 4490
एव@@ 4486
सोमवार 4485
सफेद 4485
पर्यटक 4484
ठि@@ 4481
बहाल 4479
ऑस्ट्रेलियाई 4479
सुरक्षाबलों 4478
टाइम्स 4475
भूटान 4473
इंडस्ट्री 4473
सेनाओं 4473
x 4472
हथियारों 4472
त्वचा 4472
लगती 4469
तलाक 4464
गतिविधि 4463
कानपुर 4462
कब्जा 4462
11.@@ 4461
India 4461
7,@@ 4459
प्याज 4459
चित्र@@ 4457
मतदाताओं 4457
रोधी 4454
दोष 4448
नाइट 4444
लिहाज 4444
स्वीकृत 4443
सहारा 4443
29@@ 4441
पैग़म्बर 4441
S 4440
ग़ा@@ 4436
पहलों 4434
सदैव 4433
साइबर 4432
फैल 4431
तलाशी 4430
शोधन 4428
शील 4427
एनडीए 4427
मददगार 4425
सला@@ 4425
प्लस 4421
पुलिसकर्मियों 4421
हिम्मत 4421
वन@@ 4420
पढ़ेंः 4419
गले 4416
ब्लू 4415
निकले 4415
जाधव 4415
स्टी@@ 4413
सेवन 4413
श्रमिक 4412
तार@@ 4412
कालिक 4411
दबा@@ 4410
सपोर्ट 4410
पीएस 4409
चाय 4409
किलो 4409
सलामी 4409
12.@@ 4408
वस्त्र 4408
सेवक 4407
वादियों 4406
ब्राजील 4405
कथा 4404
मास 4402
वैसा 4401
असाधारण 4399
मजदूरों 4395
अनुमानित 4391
05 4389
हार@@ 4387
गिनती 4386
लाल@@ 4385
धों 4384
भविष्यवाणी 4383
सनी 4382
फैलाने 4381
रिकार्ड 4380
दशकों 4380
कड़ा 4380
सभाओं 4379
नागपुर 4375
गुरु 4373
पैर 4372
करनेवाला 4372
फीचर 4371
नकदी 4369
ड़ियों 4369
कार्मिक 4369
मारी 4369
सामुदायिक 4367
स्पेन 4366
रहित 4364
क्षति 4362
ज़े@@ 4362
केन 4361
68 4357
र्र@@ 4353
क्षकों 4352
अनुबंध 4351
छो@@ 4349
आर्मी 4349
ओबामा 4348
सीपी@@ 4346
दृढ़ 4344
2006 4342
डांस 4341
बाधा 4340
बढ़िया 4339
संवर्धन 4336
IPL 4336
कालीन 4335
डीज 4335
यार 4335
त्ता 4334
लॉजी 4334
चाल 4334
मनाने 4334
धाराओं 4332
परवाह 4332
स्टै@@ 4330
लैस 4323
साधा 4323
दुःख 4322
डायरेक्ट 4321
दोपहर 4320
फर्क 4318
दिखाते 4315
साइंस 4315
पहाड़ी 4315
58 4314
लत 4312
000 4310
नाग@@ 4307
जाय@@ 4305
सहज 4304
शुक्रवार 4304
जानवरों 4304
,9@@ 4302
चिंतित 4302
अवॉर्ड 4300
सैकड़ों 4300
नाम@@ 4299
दीजिए 4299
लांच 4298
सब्सिडी 4297
डाइ@@ 4297
गेम 4297
पत्@@ 4295
आनन्द 4293
गुमराह 4293
रूट 4291
मेहता 4290
पीएफ 4289
अलर्ट 4286
कुमारी 4286
पकड़ने 4285
बचे 4282
महल 4282
सल्@@ 4281
चढ़ा@@ 4280
करवा 4278
हवाला 4278
फ्ट 4276
मोर्@@ 4276
परिणामों 4275
आँ@@ 4266
यानि 4265
कड़@@ 4263
9,@@ 4259
पाकर 4258
62 4256
नदियों 4256
अस्थायी 4253
मिशेल 4250
कॉरपोरेट 4249
जुर्माना 4249
श्वर 4248
लगेगा 4248
नूह 4248
लिस 4245
डरते 4242
रोगी 4239
कक्ष 4238
,000 4238
लौटने 4238
पीए 4236
लेफ्टिनेंट 4236
मच 4234
कार्यालयों 4232
59 4232
इसीलिए 4232
रेंज 4232
युवकों 4232
यूहन्ना 4232
दोस्ती 4231
X@@ 4230
साहस 4230
लियन 4229
भेद 4228
इम्@@ 4227
अगला 4227
राजन 4227
आगरा 4226
पुत्रा 4226
अपनाया 4225
र्थ@@ 4225
पैरा@@ 4224
विंग 4224
पढ़ 4224
दक्षता 4221
गणतंत्र 4221
हॉल 4220
चलो 4218
समझता 4217
निराश 4216
मांगा 4214
क्लि@@ 4212
विनिमय 4211
उत्पादक 4207
तृ@@ 4207
पृष्ठभूमि 4206
राई 4206
कैटरीना 4205
संभवतः 4204
ब्रह्@@ 4204
आडवाणी 4204
बेस 4203
पुरा@@ 4203
दिलचस्प 4203
पारदर्शिता 4201
कम्@@ 4200
अवसंरचना 4199
जेपी 4199
ंक@@ 4198
ज़िम्मेदारी 4197
बताए 4197
अनुसरण 4196
पतरस 4196
पुर@@ 4195
नर्@@ 4193
निभाने 4193
गुर@@ 4193
रेखांकित 4192
लवा@@ 4192
मसले 4191
सबका 4191
कारियों 4189
सत्य@@ 4189
ऑटो@@ 4187
मल@@ 4187
डिया 4183
बानी 4181
सिंधु 4181
चना 4180
कल्@@ 4180
जंगल 4179
शिरकत 4178
पाँच 4176
लेती 4176
बरी 4176
रोशन 4176
सकल 4174
बौद्ध 4174
63 4173
O@@ 4173
घटकर 4171
परिवर्तित 4171
नाथन 4169
वेल 4169
सीधी 4166
H@@ 4165
भली 4164
आवाज़ 4164
विलय 4162
पोत 4161
जावड़ेकर 4160
गेंदों 4160
वंचित 4159
ग्रीन 4159
ढ 4159
उत्साहित 4158
चाह@@ 4157
चार्ज 4156
जितनी 4156
अश्विन 4156
जोड़े 4155
चक 4155
8,@@ 4152
67 4152
मेट 4152
एकत्र 4152
निक@@ 4152
जानना 4151
टी20 4149
करवाने 4148
खेलते 4147
पीछा 4147
अर्जित 4144
गें 4144
बहादुर 4141
यथा@@ 4139
मास्टर 4139
त्योहार 4139
फिलि@@ 4134
स्टन 4134
दीं 4133
गुप्त 4133
सेवकों 4133
करोड़ों 4133
फैला 4132
लापता 4132
फोर्ड 4131
व्यापारिक 4130
जला@@ 4128
आशीष 4128
R 4127
जूनियर 4127
अखबार 4126
माँ@@ 4125
महज 4125
त्तर 4123
इबादत 4123
जम@@ 4122
आईटी@@ 4120
शं@@ 4120
पुष्@@ 4118
विवादित 4117
स्ता 4117
दूतावास 4117
डल 4116
संवाददाता 4116
वर्धन 4114
वं@@ 4114
शर्तों 4113
दस्तावेजों 4113
विनोद 4112
57 4110
खों 4110
पीटीआई 4109
दुआ 4105
खींच@@ 4103
बहरहाल 4103
टेबल 4102
प्रतिबंधित 4100
यरूशलेम 4100
सुपरस्टार 4100
उपग्रह 4098
फॉर्@@ 4096
लीला 4095
राजद 4094
अंतर्@@ 4093
देखेंगे 4093
लड़ाकू 4092
दूर@@ 4091
डिप्टी 4089
ईस्ट 4088
कैसी 4088
ऊ 4087
आओ 4087
बंदी 4086
सांस 4086
ृ@@ 4084
53 4084
रिटर्न 4084
नकद 4082
ब्रिक्स 4082
इस्@@ 4082
गर्मी 4081
चौथी 4080
मानवता 4080
ज़रा 4080
टाइगर 4079
एमसी 4078
सौदे 4078
ईसाई 4078
लक्ष्मी 4078
निर@@ 4076
धम@@ 4075
मस्तिष्क 4075
n@@ 4073
नाकाम 4072
धातु 4070
ट्रै@@ 4068
लाभार्थियों 4067
अपमान 4066
आईपी 4065
चों 4065
ट्रिक 4065
विजन 4064
निर्वाचित 4064
दुश्मन 4064
पढ़ा 4063
शियों 4061
मारुति 4055
धनराशि 4055
झील 4055
डोर 4054
k@@ 4053
त्य 4052
फ़ैसला 4051
धित 4050
महासागर 4050
प्रिय 4047
रोज़ी 4047
दीवार 4046
गिल 4044
मचा 4044
लव 4044
ठे@@ 4042
फायरिंग 4039
N@@ 4038
दुखद 4037
मिलना 4036
इनसे 4034
ऋषि 4034
बेचने 4033
91 4031
महामहिम 4028
फे 4027
एडी@@ 4026
तुमपर 4025
घोष 4023
पासवान 4022
गण@@ 4021
किस्@@ 4021
हियों 4020
संगठित 4019
इजरायल 4015
खेली 4015
समझना 4014
मजदूर 4013
कार्यरत 4012
जोश 4012
टीसी 4011
वाने 4011
प्ले 4010
तान 4008
नामों 4007
बिहारी 4007
भट@@ 4006
वश 4005
ठहरा@@ 4004
गणमान्य 4004
दोहरा@@ 4003
गतिविधियां 4001
युद्ध@@ 4000
चरित्र 4000
बुमराह 4000
संग@@ 3999
सुदृढ़ 3998
सोना 3998
दल@@ 3998
66 3996
उन@@ 3992
बैडमिंटन 3992
ऑफिसर 3990
प्रतिमा 3990
ट्रां@@ 3989
बगैर 3989
कांत 3989
एका@@ 3988
शनल 3988
शुक्रिया 3988
एसटी 3987
क्लास 3984
सुशील 3984
600 3983
चांदी 3983
एन्@@ 3981
उद्देश्यों 3980
त्याग 3980
ख़िलाफ़ 3979
अकबर 3979
संवेदना 3978
मित्रों 3976
नाओं 3973
पैन 3973
स्टीव 3972
मत@@ 3971
मती 3971
तस्वीरों 3971
खेलना 3971
नू 3969
पाटिल 3968
अपडेट 3966
अपराधियों 3966
11@@ 3965
कारक 3963
द्य 3963
मिला@@ 3962
शनों 3960
अभिव्यक्ति 3959
फ्र@@ 3958
जीने 3957
पूर्व@@ 3956
वैध 3955
2005 3955
टाइप 3954
जार 3952
जख्मी 3951
दादा 3950
बाधित 3949
प्रभा@@ 3949
प्रभावशाली 3949
नार 3949
तह@@ 3949
निकायों 3948
कप्तानी 3947
स्पष्टीकरण 3946
ज़ुल्म 3942
स्पिनर 3942
डरा@@ 3942
धारी 3940
शोषण 3940
मत्ती 3940
नाबालिग 3938
गहराई 3937
राणा 3937
ज़ो@@ 3936
बाबू 3935
याह 3935
जीन 3935
त्रुटि 3934
प्री@@ 3932
आफ 3932
कुर्@@ 3932
विटामिन 3932
प्रयुक्त 3930
मारपीट 3930
जन्@@ 3927
जैविक 3925
लैं@@ 3925
फिल्@@ 3925
अफ@@ 3923
पकड़ा 3921
अकसर 3921
अंततः 3920
लिय@@ 3920
कारा 3919
नाश 3919
चिकित्सकों 3918
मुक्ति 3917
आईडी 3916
डियों 3913
मिया 3913
तया 3912
प्रतिभागियों 3912
आवंटित 3912
हताहत 3912
िया 3911
पहुँचा@@ 3911
निवे@@ 3910
धारकों 3910
निकला 3910
धारक 3908
सौंपी 3907
ंडे@@ 3906
वाना 3906
चार्@@ 3905
अक्तूबर 3904
अर्थ@@ 3903
खनिज 3903
रिहा 3902
स्टॉ@@ 3901
सिर@@ 3899
किस्म 3899
स्टोर 3897
चल@@ 3892
रम 3891
पंजाबी 3890
स्को 3889
खन्ना 3889
ज़ोर 3888
बताती 3885
चोटें 3885
एडमिट 3884
नामित 3883
चयनित 3882
निशानियाँ 3882
इस्लामिक 3880
स्थानांतरित 3879
मरे 3879
एँगे 3878
शख़्श 3878
ज़र 3877
चलती 3875
आपत्ति 3874
धिक 3873
टॉम 3873
द्दीन 3873
उपलब्धियों 3872
सुना@@ 3871
जायेंगे 3870
्रे@@ 3868
दिवंगत 3868
पुरा 3868
धारणा 3867
जितेन्द्र 3867
आत्मनिर्भर 3866
चपेट 3865
रूप@@ 3864
युवती 3864
न्य@@ 3863
शर्@@ 3862
81 3861
उठाना 3861
पंडित 3861
विजेताओं 3860
77 3859
सान 3857
लेनदेन 3854
स्ट्रे@@ 3854
ऑर्@@ 3854
प्राथमिकी 3854
अपना@@ 3852
औरतों 3852
माइक्रो@@ 3850
धि 3847
बल्@@ 3847
खुश@@ 3847
हंगामा 3847
हैं@@ 3846
मांस 3845
बत 3845
उपमुख्यमंत्री 3845
साहिब 3844
नेक 3843
सिरे 3842
ईसा 3842
पकड़े 3841
सपने 3841
जीडीपी 3840
मुख@@ 3840
ंगें 3838
गेंदबाजों 3838
निष्कर्ष 3837
पाता 3837
ट्रम्प 3837
विष@@ 3836
दुबई 3832
अमरिंदर 3831
रविवार 3830
ऊण्श्छ्ष् 3829
क्रिया@@ 3828
कनेक्टिविटी 3825
दिला@@ 3825
दियों 3824
मश@@ 3824
फूड 3824
शय 3823
विचारधारा 3822
मुद्र@@ 3821
धार 3821
अनुराग 3821
जर्@@ 3820
काम@@ 3819
आत्म 3819
घाटे 3818
परिदृश्य 3818
भक्त 3817
ड़ते 3816
पल्@@ 3816
कोटा 3815
अनाज 3814
तैयारियों 3814
एल्@@ 3814
आउट@@ 3813
भंडार 3813
डीएस 3812
आजीविका 3812
ईमानदारों 3811
नीतिगत 3809
पुरूष 3807
समस्याएं 3807
निहित 3806
सावधान 3806
प्रीमियर 3806
चलन 3804
सेवानिवृत्त 3804
एंटी@@ 3804
71 3801
स्व 3801
खुदरा 3800
मालदीव 3800
ट्रॉफी 3800
बांध 3800
थोड़े 3798
कुमाऊँ 3798
समर्थक 3797
दीक्षित 3797
शिमला 3796
अभाव 3795
हरे 3792
प्रोटीन 3792
श्रेष्ठ 3788
विदेशों 3786
दिलाने 3785
अंतरिम 3783
प्पा 3782
वासियों 3781
बों 3779
रौ@@ 3778
78 3777
लाता 3777
मार्शल 3777
तकों 3775
09 3775
पद@@ 3775
तौबा 3774
प्रत्य@@ 3772
सोचते 3770
तैनाती 3768
ट्रेनिंग 3767
छापेमारी 3767
हॉस्पिटल 3766
क्षेत्र@@ 3765
ड़ना 3763
सावधानी 3761
संतुष्ट 3758
यूनाइटेड 3758
श्रेय 3758
74 3757
क्लो@@ 3757
बैटरी 3756
हिंसक 3756
गाना 3754
दलित 3754
वां@@ 3753
08 3751
पित 3751
स्वाभाविक 3750
आक्रमण 3750
तैयारियां 3750
खट्टर 3747
सेंसेक्स 3746
शिया 3745
सोनाक्षी 3745
मेन 3744
संभावनाओं 3743
निवासियों 3741
बनता 3741
सना 3741
जितने 3741
शर@@ 3740
प्रबंधक 3739
73 3738
पटा@@ 3738
नीरव 3738
इरादा 3737
जॉ@@ 3737
नींद 3736
लीजिए 3735
एकड़ 3734
दिवाली 3734
मुखी 3733
त्रा 3731
दिलाया 3729
शान 3729
द्ध@@ 3728
मराठी 3727
चं@@ 3726
वल@@ 3726
मंदिरों 3724
संजीव 3722
अधिकृत 3721
61 3720
कत 3720
म्यांमार 3719
मधु@@ 3718
बढ़ेगी 3716
इंडि@@ 3715
टुकड़े 3714
निचले 3713
सांख्यिकी 3712
बोस 3712
लॉग 3710
प्रतीत 3709
जापानी 3709
रेटिंग 3708
कीमतें 3708
बुद्धि@@ 3708
इराक 3706
अपर 3703
पत@@ 3703
याः 3702
B 3701
लपुर 3701
गुवाहाटी 3700
विश्@@ 3698
आकर्षक 3697
800 3697
07 3695
करवा@@ 3695
प्रयोगशाला 3695
मन्@@ 3695
दं@@ 3694
पेरिस 3694
गिरी 3694
00@@ 3693
एलि@@ 3692
स्टिक 3690
पसंदीदा 3689
डर@@ 3688
मिश्रण 3686
पीआई 3685
रुपया 3684
क्षित 3684
रेशन 3684
संस्कार 3684
s@@ 3683
कांस्य 3682
मार्केट 3681
निभाते 3681
डीए 3680
ल्यू@@ 3680
ण्ड@@ 3680
मोर्चा 3679
हर्@@ 3678
तल@@ 3676
मेहरबान 3676
बारा@@ 3674
नक्@@ 3674
अनि@@ 3672
चन 3671
लेस 3670
फुटेज 3670
आदम 3670
मल्होत्रा 3669
मुस्@@ 3669
माइकल 3668
अंदाज 3666
88 3664
रेस 3664
एक्टिव 3663
झि@@ 3663
क्षक 3662
गहन 3661
लोर 3661
दोनो 3659
विरूद्ध 3659
आहार 3659
वासी 3658
उसपर 3658
जनजाति 3656
हुड्डा 3656
अजित 3656
तु 3654
Hindi 3654
ख़र्च 3654
फिटनेस 3653
लि 3652
पुराना 3652
गोगोई 3652
बढ़े 3651
गेहूं 3651
डालकर 3651
दर्दनाक 3651
फीचर्स 3650
अफ्रीकी 3650
स्थितियों 3649
पेपर 3649
हमलावर 3649
अपराधों 3648
रखकर 3646
गिरने 3644
शे 3644
76 3642
कर्तव्य 3642
गणेश 3642
ारिया 3642
भूत 3641
कुरान 3641
समी@@ 3638
फरमा@@ 3638
रजि@@ 3637
69 3635
गुलाम 3634
एकदम 3634
तालिबान 3634
किट 3633
सुनी 3633
अ 3632
बिता@@ 3631
नाय@@ 3631
ब्स 3629
संभावनाएं 3628
जब@@ 3627
V@@ 3627
चिकित्सक 3627
ंश 3626
५@@ 3625
बो 3625
अड्डा 3624
अजीत 3622
वादे 3621
बल्लेबाजों 3621
गहरे 3620
आरक्षित 3617
फौरन 3617
साम्राज्य 3617
दय 3615
संध्या 3615
सहयोगियों 3614
84 3613
विचार@@ 3611
पट 3611
सलाम 3611
पॉल 3609
व्यक्तित्व 3607
83 3606
= 3606
काओं 3606
नाएँ 3604
व्यवस्थित 3602
सीरिया 3601
प्रकरण 3601
नमक 3600
संधि 3599
लिक 3598
औऱ 3598
नफरत 3597
बपतिस्मा 3596
p@@ 3592
दिख@@ 3590
शिकायतों 3589
कॉमर्स 3588
दुखी 3588
लिटी 3585
उ 3585
and 3585
दानों 3584
थल 3584
अमृतसर 3584
40@@ 3582
बैठकों 3580
श्रेणियों 3580
सत्तारूढ़ 3580
जिट 3579
ज़िक्र 3579
न्ट 3578
सर्वर 3578
सर्स 3577
स्रोतों 3576
एडि@@ 3575
आंखों 3574
जिनको 3573
अवधारणा 3572
नोटबंदी 3572
92 3571
देनी 3571
प्रस्तुति 3570
रेन 3569
बिल्@@ 3569
चैंपियनशिप 3568
ंगे@@ 3567
उद्यमों 3566
बॉल 3566
चिन्@@ 3566
82 3565
2021 3564
पहुंचा@@ 3564
याकूब 3564
एनडीआरएफ 3564
आईए@@ 3563
गणित 3563
हेल्थ 3563
सीखा 3563
कॉलेजों 3563
दूंगा 3562
86 3561
97 3560
ंग्स 3560
मुहम्मद 3560
वाह 3559
सईद 3559
पूर्वा@@ 3558
धक 3558
ऊंची 3558
ग्रेड 3556
विंडो 3556
120 3555
वियतनाम 3553
पहाड़ 3553
लीय 3552
उपक्रम 3550
आरआई 3549
छात्रा 3549
कस 3549
०० 3548
जडेजा 3548
98 3547
टूर 3547
अवार्ड 3546
मौलिक 3546
किरण 3546
आश्वस्त 3545
गुण@@ 3544
साहब 3544
इन्कार 3544
काउ@@ 3543
लोड 3542
ईएस@@ 3541
केन्द्रित 3540
आखिरकार 3540
इंच 3540
गान 3540
अध@@ 3538
06 3537
व्याख्या 3537
वट 3535
हराम 3535
स्वदेशी 3534
इस्तीफे 3534
करि@@ 3533
37@@ 3532
ज़िन्दगी 3532
ंडों 3529
1000 3529
प्रतीक्षा 3529
छेड़छाड़ 3529
माया 3529
भावी 3528
विनय 3527
शिक्षा@@ 3526
नाएं 3525
नियां 3525
आवाजाही 3522
पीड़ितों 3521
हिंदुओं 3521
साइड 3520
फोकस 3519
अपराधी 3519
फोटो@@ 3518
इस्लामी 3518
02 3517
तीव्र 3513
कारगर 3513
सशक्तिकरण 3512
प्रायः 3512
दिक 3512
आदिवासी 3512
क़्@@ 3512
बहु 3511
स्ट्रीट 3511
गीता 3509
2004 3508
भीषण 3508
कुरैशी 3506
मैने 3506
स्ट्रि@@ 3505
मेजबानी 3505
गार्ड 3505
रस्@@ 3504
लाहौर 3504
बकाया 3502
हीरो 3502
अनुमोदन 3501
टाई 3501
शरण 3501
चिंग 3497
विवादों 3497
वाणी 3497
कहे 3496
फूल 3496
भगत 3495
नम 3495
वस्@@ 3495
जानकर 3495
इंतजाम 3495
प्रॉ@@ 3491
10,000 3491
फं@@ 3491
ठिकाना 3491
प्रोटोकॉल 3489
मीटिंग 3489
अपहरण 3489
प्रशंसकों 3488
दलील 3487
गंग@@ 3487
कमलनाथ 3487
बान 3487
L 3487
क्षी 3486
पने 3484
पाना 3483
जवाहरलाल 3482
हारी 3481
क्षमताओं 3480
शर 3478
कः 3478
२००@@ 3477
उल 3477
निष्पक्ष 3476
लह@@ 3476
मक्का 3476
सुनते 3476
सेस 3475
कामयाबी 3475
संस्थागत 3473
उद्यमियों 3472
एचडीएफसी 3472
तक@@ 3472
वाशिंगटन 3472
ईसी 3471
मोटरसाइकिल 3470
अनुग्रह 3469
96 3468
ड्रि@@ 3468
स्टार्ट 3466
स्मरण 3466
देय 3465
गुज़र 3464
हालॉकि 3464
E 3464
समावेशी 3462
अमीर 3462
राकांपा 3461
ड़कर 3460
पासपोर्ट 3459
काला 3459
धियों 3458
माल्या 3458
औषधि 3457
एक्सचेंज 3456
अतीत 3456
भूमिकाओं 3455
मार्गों 3454
रूपा@@ 3453
संस्@@ 3451
सोच@@ 3451
अध्य@@ 3449
विद्या 3446
नार@@ 3446
फैशन 3445
माबूद 3445
I@@ 3442
लिखकर 3441
उपन्यास 3441
सर्वोत्तम 3440
ारो@@ 3440
घि@@ 3438
गार्@@ 3438
रिस 3435
मुसीबत 3435
शास्त्री 3435
ारी@@ 3434
अनुप्रयोग 3433
डालते 3433
} 3433
रें 3433
कालेज 3433
क्यो@@ 3432
मीट्रिक 3431
विनाश 3431
धारण 3430
मज़ा 3430
जयशंकर 3430
एमओयू 3429
यूनानी 3428
ज़्@@ 3427
विया 3427
ज़ार 3426
प्रसारित 3423
स्क 3422
न्न@@ 3422
जीती 3422
झड़प 3420
नाराज 3420
मेजर 3420
मानसून 3419
इलेक्ट्रॉनिक्स 3419
सेल्सियस 3419
नग@@ 3415
उर्@@ 3414
बौ@@ 3414
माध्यमिक 3413
मानवाधिकार 3412
कश्मीरी 3412
अंश 3411
पर्वत 3411
सदा 3410
आंशिक 3409
प्रतिस्पर्धी 3409
उद्यमिता 3409
गायक 3409
बालों 3409
समर्थकों 3408
ग्राफ 3407
आईपीसी 3407
स्पीकर 3406
ओवर@@ 3405
नियोजन 3405
मीन 3403
स्थि@@ 3402
ईमानदारी 3402
बढ़ेगा 3401
लाई@@ 3400
बेंगलुरू 3398
लकड़ी 3396
इन्होंने 3396
रान 3396
एसए 3395
ग़ालिब 3395
उपज 3394
र्थी 3394
मुलायम 3394
निशानी 3393
फोरम 3392
निप@@ 3391
रत्न 3391
125 3391
चौथा 3391
कुं@@ 3391
हराकर 3391
ऑयल 3389
टर्मिनल 3389
विध@@ 3389
केशन 3388
आन@@ 3388
श्रीदेवी 3387
क्वि@@ 3386
वैक्सीन 3386
पोल 3386
सालाना 3386
आरसी 3385
सर्किट 3384
दुनियाभर 3384
संज्ञान 3382
वृत्ति 3381
मीर 3381
कुल@@ 3380
इंजीनियर 3380
उठ@@ 3379
बुद्ध 3379
जैश 3379
फार्म 3378
जादू 3378
आकाशों 3376
शनिवार 3374
राधा 3374
सीआर@@ 3372
शक्तियों 3372
m@@ 3372
आयतें 3372
अंडमान 3371
त्रिपाठी 3371
सब्र 3370
निवारण 3367
शुक्ला 3367
परिजन 3366
बन्द 3365
04 3364
रविशंकर 3364
शरीक 3364
पारदर्शी 3363
टेल 3363
बाल@@ 3363
ज़रुर 3363
कबीर 3363
एः 3362
87 3359
i@@ 3359
बाबत 3359
विशेषता 3356
कअप 3356
टेशन 3355
वेस्ट@@ 3354
राउत 3354
पीएस@@ 3352
समितियों 3351
चाहेंगे 3351
रोजाना 3351
हटा@@ 3350
आईएएनएस 3350
उत्सर्जन 3349
डिफेंस 3348
नाक 3347
इसपर 3345
समझा@@ 3345
X 3344
डिस्क 3344
गण 3343
दुकान 3343
समाप्ति 3342
ईमेल 3342
लैंगिक 3342
ऊंगा 3340
घात 3339
धीन 3338
चैन 3338
यूं 3336
प्रसन्न 3335
ज़ालिम 3335
खेत 3334
लिं@@ 3332
कुंजी 3332
डालें 3332
उकसा@@ 3332
विन@@ 3331
ब्रिज 3331
उत्पादकता 3330
सर्वे 3329
समुचित 3328
पथ@@ 3327
खरीद@@ 3326
इजाफा 3325
भक्ति 3323
म्प 3321
काने 3321
प्रमाणपत्र 3317
ंकी 3317
हिट 3317
झुठलाया 3317
94 3316
मंडी 3314
मुंबईः 3314
डू 3313
पीवी 3312
तालिका 3309
उदा@@ 3309
वंत 3309
जरा 3308
इरफान 3308
अंग्रेज़ी 3307
सदर 3307
नारेबाजी 3306
ज़ु@@ 3305
आधारभूत 3304
७@@ 3304
आश्चर्य 3303
सने 3303
जरी 3301
शोर 3300
श्रॉफ 3300
बस्ती 3300
इला@@ 3299
यर्स 3299
कुफ्फ़ार 3299
च्छ@@ 3298
बढ़@@ 3297
सरकारें 3296
दिक्कत 3296
चम्मच 3296
उपयोगकर्ता 3295
रचनात्मक 3295
प्राण 3295
हेड 3294
गर्भवती 3294
टस 3293
पंत 3291
घबरा@@ 3291
मेह@@ 3290
महंगाई 3287
अंडर 3287
03 3285
टीज 3283
गढ 3283
अंसारी 3283
विकासशील 3282
सफ@@ 3282
विन 3281
मंगलवार 3281
अब्बास 3281
सोचने 3281
सिर्फ़ 3280
नमूनों 3279
मरियम 3279
बहा@@ 3278
सन्तान 3278
ट्रेड 3277
ज़ों 3275
सिखा@@ 3274
स्पोर्ट्स 3274
दमकल 3273
डीआर@@ 3272
डीजी@@ 3272
धोखा 3272
ज़न 3271
इए 3271
ख़ूब 3271
93 3270
गाय 3270
ओवैसी 3270
नान 3269
शंस 3268
मरम्मत 3268
रोशनी 3267
U@@ 3267
हिंद 3267
जोरदार 3266
भव्य 3264
स्टूडेंट्स 3263
अद्भुत 3262
संरक्षित 3261
जोधपुर 3261
सिफारिशों 3260
क्रू@@ 3260
फिर@@ 3260
आधारशिला 3259
अमर 3258
हता@@ 3255
महबूबा 3255
साक्ष्य 3254
॰ 3254
रजिस्टर 3253
न्य 3253
विवर@@ 3252
कमीशन 3252
अदा@@ 3252
तालमेल 3251
हालिया 3250
पंक्ति 3249
ट्रैफिक 3249
गढ़@@ 3249
एहसास 3248
मस्@@ 3247
पीसी@@ 3246
कोर्स 3246
अनंत 3245
कलाम 3244
वफादार 3244
प्रोसेसर 3243
सतर्क 3242
d@@ 3242
बीएसएफ 3241
नजदीक 3235
कोह@@ 3235
पर्रिकर 3234
व्यापारी 3233
खर्@@ 3233
शान्ति 3232
सोसाइटी 3231
गोरखपुर 3231
ट्रांस@@ 3230
सेवा@@ 3229
खपत 3229
फ्यू@@ 3226
₹ 3225
संघीय 3225
दगी 3225
अनू@@ 3225
नवीनतम 3224
चेहरा 3224
परे 3223
कहा@@ 3223
2001 3222
ंगों 3222
बुल 3221
लीन 3220
रखरखाव 3218
e@@ 3218
फाई 3218
हज@@ 3218
समकक्ष 3217
वज@@ 3216
गुणों 3215
वसूली 3214
F 3213
व्यापारियों 3212
फार@@ 3212
पक 3212
दृ@@ 3211
89 3211
भा 3210
राजनयिक 3208
मुद्रास्फीति 3207
गेल 3207
कॉफी 3207
्या 3206
उड़@@ 3206
१९९@@ 3205
ध्या@@ 3204
लास 3204
मान्य 3203
नि 3203
पाएगा 3203
वधि 3202
लु 3202
लायक 3201
भागने 3201
पट्@@ 3200
द्ध 3200
डाली 3198
मंदी 3196
मेले 3196
अपेक्षित 3194
येंगे 3194
यक़ीनी 3194
मेगावाट 3193
मतभेद 3192
हॉलीवुड 3192
चारा 3192
सम्पूर्ण 3189
ऊपरी 3189
मुक़र्रर 3187
किफायती 3186
सित 3186
ईवीएम 3186
ब्रेक 3186
प्रतिकूल 3185
उत्तर@@ 3185
मिक्स 3185
बीएस@@ 3184
मुफ्ती 3184
महिमा 3184
लॉ 3181
चैंपियन 3181
पण 3180
अश्@@ 3180
गुमराही 3180
दायक 3178
बच@@ 3177
यहूदियों 3176
पौधों 3176
स्पा@@ 3175
मद्रास 3175
5,000 3174
आईसीआईसीआई 3174
जाल 3174
इंट 3173
पन@@ 3173
भंग 3172
हाइड्रो@@ 3172
एनआईए 3171
हल्की 3170
काव्य 3170
12वीं 3170
सूचीबद्ध 3169
लापरवाही 3169
उदार 3167
एनसीआर 3166
मैनेजमेंट 3164
एयरटेल 3163
फायदेमंद 3163
रांची 3161
गॉ@@ 3161
तेलुगू 3161
आलोक 3160
प्रौद्योगिकियों 3160
नूर 3160
चार्य 3160
b@@ 3159
आरम्भ 3159
क्षतिग्रस्त 3159
तथापि 3158
पेन 3158
दिग्विजय 3158
कम्पनी 3157
जाओगे 3156
फर्म 3155
संभालने 3154
निपटान 3153
प्रीमियम 3153
आईएएस 3152
परीक्षाओं 3152
ड्यूटी 3151
खोला 3151
क्री@@ 3151
इलेवन 3151
जानवर 3150
इंडियंस 3150
कवि@@ 3149
एट 3148
सचिवों 3148
M 3148
प्रमोशन 3148
आईएफ@@ 3147
अनुचित 3147
ध्वनि 3147
D 3147
औलाद 3146
ज़्यादातर 3145
हरित 3144
खण्ड 3144
बह 3143
विक्रम 3143
वेज 3141
८@@ 3141
बौद्धिक 3140
विजय@@ 3138
नारे 3138
उत्कृष्टता 3137
ड़ि@@ 3137
23@@ 3136
तथ्यों 3136
जाग@@ 3135
अधिवक्ता 3134
सरत 3132
शिशु 3131
बचाया 3131
दुर्गा 3130
क्र 3129
चलाई 3128
सूर 3127
रियो 3127
माँग 3126
इंसानों 3126
्यो@@ 3125
नागर 3124
ऑफिशियल 3124
टें 3123
दूत 3122
स्पॉट 3121
80@@ 3120
नत 3119
आधा 3119
पढ़ा@@ 3119
महि@@ 3118
अनुभवी 3118
उर्दू 3118
सेना@@ 3117
ऑपरे@@ 3116
यूजर 3116
पुस्तकों 3116
संयोजन 3115
झग@@ 3114
ऐश्वर्या 3114
प्राधि@@ 3113
एसटी@@ 3113
कबूल 3113
प्रासंगिक 3112
स्वीकार्य 3110
पुनर्वास 3109
हेल्@@ 3109
गोल@@ 3107
छे@@ 3107
उठाते 3104
गुस्सा 3103
विज्ञप्ति 3101
ष्टता 3100
बंधन 3100
उधार 3099
आवासीय 3099
अधिकारिता 3099
नेस 3098
टेलीफोन 3098
लेशन 3097
ारियां 3097
रिज़र्व 3096
नक 3096
रुप@@ 3095
शूट 3095
संख्या@@ 3094
गोया 3094
लक्षित 3093
किले 3092
त्रों 3091
अन्दर 3091
आमदनी 3090
अन्त 3090
षी 3088
रोगों 3088
समर्थित 3087
गुजर 3086
आगमन 3085
ईद 3085
गर@@ 3084
सिखाया 3084
चन्द 3084
आरोपित 3083
{ 3082
शिक्षित 3081
सीएसआईआर 3081
अल्पसंख्यकों 3080
वुड 3079
गुला@@ 3079
तस्करी 3078
नकर 3078
रात्रि 3077
तुल@@ 3076
शौचालय 3076
निष्पादन 3075
सतीश 3075
सतर्कता 3073
आवा@@ 3071
आईडी@@ 3070
एनआई@@ 3070
भौगोलिक 3067
क्त 3067
आद@@ 3067
एमटी 3067
निर्दलीय 3067
कमर 3067
वोटिंग 3066
निभाया 3066
टते 3066
मजिस्ट्रेट 3065
ऑक्@@ 3065
नेकी 3065
दीर्घकालिक 3064
प्रकोप 3064
उतर 3063
सृजित 3062
धैर्य 3062
साउ@@ 3062
अपरि@@ 3061
पढ़िए 3061
जताते 3060
पाउडर 3060
जावेद 3059
हिमा@@ 3059
पुकार@@ 3058
चलेगा 3056
चहल 3056
व्यावहारिक 3055
बुधवार 3055
सुर्खियों 3053
रनौत 3052
धीमी 3051
पायी 3051
संगत 3050
सुधारने 3050
फ्लो@@ 3050
द्य@@ 3048
जड़ 3048
मेडल 3047
सबक 3046
रर 3046
जानती 3046
तोड़ने 3045
१० 3045
जसप्रीत 3044
रूपरेखा 3043
सीई@@ 3043
सुलझाने 3043
सरा@@ 3043
थरूर 3043
किसने 3043
सम्पर्क 3042
विद्यालयों 3041
उन्नयन 3040
गन्@@ 3040
वेरिएंट 3040
the 3040
मूलभूत 3039
बू 3039
जश्न 3039
कहकर 3039
रूपों 3036
तन@@ 3035
जैन 3035
टिकल 3034
विश्वसनीय 3033
$ 3033
मोटर्स 3033
रहमत 3033
निकल@@ 3033
चिंताओं 3032
50,000 3032
प्रतिष्ठा 3032
गिरा 3032
भागवत 3030
700 3029
दाय 3029
फ़र@@ 3029
शशि 3028
एमडी 3027
छत 3027
अत्याचार 3027
दिलीप 3026
महे@@ 3025
वक्तव्य 3024
प्रती@@ 3024
जायजा 3024
Z@@ 3023
देवता 3023
जाह्नवी 3022
हस्तांतरण 3019
फ़े@@ 3019
जॉर्ज 3019
सिया@@ 3018
सामर्थ्य 3018
सेज 3017
बसों 3017
कना@@ 3016
ज्योति 3015
कपड़ा 3014
दिल@@ 3014
लूट 3014
संतुलित 3013
नाबाद 3013
प्रस्तावों 3012
नज@@ 3012
ग्री@@ 3011
जूझ 3011
ंबा 3011
करवाई 3008
ध्@@ 3008
क़दम 3008
जनक 3004
चलना 3004
बंध 3003
to 3003
संक्षिप्त 3002
वेट 3002
करणों 2999
इरा@@ 2999
पश्चात् 2998
ग्रिड 2998
सृ@@ 2998
अंकित 2997
प्रबंध@@ 2996
क़रीब 2996
आंसू 2996
ऑफर 2995
डिस्@@ 2994
दिलाई 2993
राष्ट्रों 2992
मरा@@ 2992
चैम्पियनशिप 2992
बताना 2991
बढ़ाई 2990
सख्ती 2990
1,000 2990
अद्यतन 2989
टना 2989
सहे@@ 2989
व्यापी 2988
्यों 2987
II 2987
बुल@@ 2987
हल@@ 2987
उठ 2987
आज़@@ 2987
क्ली@@ 2986
पसन्द 2986
सिया 2985
फ़ी@@ 2985
बदौलत 2984
मिश्रित 2984
पतियों 2984
मूर्@@ 2984
देओल 2984
झुठ@@ 2983
डीआरडीओ 2983
खासतौर 2982
पुरम 2982
आईओ@@ 2981
बुकिंग 2981
परेड 2980
इक्विटी 2979
प्रजा@@ 2979
दुरुपयोग 2978
पॉलि@@ 2977
एटी@@ 2977
तस्@@ 2977
प्रोडक्शन 2977
वर्ष@@ 2976
130 2976
पाइ@@ 2976
वरि@@ 2974
मुख्यमंत्रियों 2974
तात्@@ 2973
आशीर्वाद 2973
एंटी 2972
सर्च 2971
निकोबार 2971
जिहाद 2971
ब्रो@@ 2969
पुर्@@ 2969
भागीदार 2969
कॉरपोरेशन 2969
बैठा 2969
आदत 2968
आत्मविश्वास 2968
जमीनी 2968
छुटकारा 2965
भ्रष्ट 2963
पोस्टमॉर्टम 2963
एसएस 2962
कोट 2961
चुन 2961
एकत्रित 2960
ल्ली 2960
क़ा 2960
चाल@@ 2959
हैंड@@ 2958
इस्लामाबाद 2958
रौशन 2957
बटन 2957
वाड्रा 2956
एसएमएस 2955
पढ़@@ 2955
अनुभवों 2954
P 2954
इनपुट 2953
छाया 2952
एनएच@@ 2948
बज@@ 2948
कर्नल 2948
जन्म@@ 2946
दरमियान 2946
सब्@@ 2945
उजागर 2943
धू@@ 2943
पैग़म्बरों 2943
सीएस@@ 2942
लरी 2942
छी@@ 2942
पीडीपी 2942
स्थाई 2941
घाटा 2940
एसआईटी 2940
यूँ 2937
नामा 2937
एसडी@@ 2936
कोशिकाओं 2936
ंका 2934
आया@@ 2933
N 2933
कर्स 2932
केयर 2932
प्रीत 2932
अकेला 2931
गां@@ 2930
हल्के 2930
काग@@ 2929
सुजुकी 2929
पॉलिसी 2928
विद 2928
किताबें 2928
बलि 2928
आपात 2927
परिश्रम 2927
सुख@@ 2927
ओम 2926
ज़िन्दा 2926
एसिड 2926
पर्दे 2925
औरत 2925
सुधार@@ 2924
यूट्यूब 2924
मक 2924
फुट 2924
मणि@@ 2923
शोधकर्ताओं 2923
क्यू 2922
वर्चुअल 2922
ड्यू@@ 2922
अभिषिक्त 2920
विडियो 2919
आयुर्वेद 2919
लंबाई 2918
क्का 2916
नस्@@ 2915
ख़्@@ 2914
तकलीफ 2913
पूज्य 2913
पांचवें 2912
बीस 2911
ग्राउंड 2911
बर्बाद 2911
हस्तियों 2911
काएं 2911
खुल 2911
लेख@@ 2910
उत्पत्ति 2909
हेलीकॉप्टर 2909
भंड@@ 2908
हर्ष 2908
अन्यथा 2907
जिसमे 2907
करोगे 2907
हं@@ 2907
जोड़@@ 2907
79 2906
नवी@@ 2906
अरबी 2905
मुक़ाबले 2903
युवराज 2903
आकर्षण 2901
खर@@ 2900
लाओ 2900
समर्थ 2897
उन्हों 2896
दुष्ट 2896
अपलोड 2895
टम 2895
एडमिरल 2895
शक्ति@@ 2894
हाज़िर 2894
जता@@ 2894
गौड़ा 2893
तेलुगु 2892
सफ़@@ 2892
मुखिया 2891
परिचय 2890
चिन्ह 2890
फिरऔन 2890
माला 2889
मैनेजर 2888
मुमकिन 2888
सटीक 2887
निश 2887
मंड@@ 2886
टिया 2886
मतों 2885
धिकार 2884
फोर्@@ 2883
हिल 2883
एपी 2882
दोहराया 2882
बनेगा 2882
नर्स 2881
नजदीकी 2880
प्रस्तु@@ 2878
लेश 2878
काली 2878
साम्हने 2878
पाय@@ 2878
चुप 2878
खाद्यान्न 2877
परिभाषा 2877
फल@@ 2877
पीटर 2877
जुटाने 2876
उड्डयन 2876
ताप 2876
सिन 2876
चिं@@ 2875
जीवा@@ 2875
राजेंद्र 2874
शिल्प 2873
G 2873
नवजोत 2873
बास्केट 2872
पाठ@@ 2872
एलईडी 2872
अंतरण 2871
ट्रॉ@@ 2871
सदियों 2870
सुसमाचार 2869
मक@@ 2868
प्रचलित 2867
देशमुख 2867
ह्यू@@ 2866
दुकानों 2865
रणदीप 2865
2002 2864
सितारे 2864
वियों 2863
खाई 2862
फुल 2861
क्ति@@ 2860
वृत्@@ 2860
मार्टिन 2860
क्रोध 2860
तीय 2858
जिंदा 2858
एमपी 2857
ताज 2857
स्को@@ 2856
पढ़ते 2856
इंटरनल 2855
कमाल 2854
पट्टी 2853
कमांड 2853
ूर 2853
हज 2853
देसाई 2853
आधे 2852
बेल 2852
चीज़ें 2852
पहचा@@ 2851
परंपरागत 2851
ठे 2851
गुल@@ 2851
मात 2851
कित 2850
कटि@@ 2850
अभिनव 2848
पूर्ण@@ 2847
९@@ 2847
ट्रेनें 2847
खेर 2847
गड़@@ 2847
बदमाशों 2846
मैग्@@ 2845
द्रविड़ 2845
पारि@@ 2844
अड्डों 2844
उड़ानों 2844
आजम 2844
ंगर 2843
प्रयोगशालाओं 2843
ख्वाह 2843
सौदा 2841
एनई@@ 2840
चूक 2840
जागरूक 2840
झे@@ 2840
लीक 2840
निदेशकों 2839
इंस्पेक्टर 2839
हटाया 2837
तिरु@@ 2837
सुर@@ 2836
खोले 2835
लानी 2835
दरी 2835
सीआई 2834
पुतिन 2834
रोज़ 2834
म्यू@@ 2833
धर्मों 2833
आसियान 2832
सुनता 2831
आक्रामक 2830
ट्री@@ 2829
केएल 2829
सर्विसेज 2828
मिनी 2828
पौधे 2828
t@@ 2827
लगाम 2827
गायब 2827
रजिस्ट्रेशन 2826
सरो@@ 2825
नेशन 2825
साकार 2824
स्टोक्स 2824
काना 2823
न्ना 2823
सूद 2823
दावों 2822
वायु@@ 2821
बेंच 2821
सीबीएसई 2821
रहे@@ 2821
लौटे 2820
चुनें 2819
भाष@@ 2818
त्व@@ 2818
विधा@@ 2818
चढ़@@ 2817
लस 2817
वाइस 2816
कोने 2814
एटीएम 2813
क्षा 2812
g@@ 2811
बीसी 2810
श्त 2810
शिक 2810
स्वभाव 2810
जुड़ 2809
कृत्रिम 2809
चलकर 2808
नियाँ 2805
निर्भरता 2804
कामगारों 2803
संभाल 2803
कमिश्नर 2803
विवे@@ 2802
सिवाय 2802
तिहाई 2801
साई 2801
अद@@ 2800
पारस्परिक 2800
पूछने 2800
क्वार्टर 2800
टीएमसी 2800
प्रिया 2800
कार्यभार 2799
ज़िला 2797
सूरज 2797
बेटियों 2797
फ़ो@@ 2795
थाईलैंड 2795
ब्ले@@ 2794
सक 2793
वाहक 2791
षा 2791
वृक्ष 2791
ब्यू@@ 2790
उपायुक्त 2790
कॉरिडोर 2789
कोल 2789
तलवार 2789
मिर्च 2788
रजनीकांत 2788
न्न 2786
जद 2786
मैक@@ 2786
डु 2785
इसरा@@ 2785
अग्र@@ 2784
सौरव 2784
ारण 2783
निर्णायक 2783
फलों 2782
खंडन 2782
गना 2782
सद 2782
कार्यान्वित 2781
भूख 2781
कन्नड़ 2781
झटके 2781
दरवाजे 2781
n 2779
कृपा 2778
दुष्@@ 2777
कुफ़्र 2777
संभाला 2776
मिलि@@ 2776
साहेब 2775
पंकज 2775
स्वचालित 2774
बड़@@ 2774
प्रका@@ 2773
होंडा 2773
त्या@@ 2772
लौटा 2771
गर्भ@@ 2771
कॉमेडी 2771
संतान 2770
लड़ेंगे 2770
बाग़ 2770
दिखाए 2769
टीन 2769
पो 2768
इंड@@ 2768
क्ल@@ 2768
बनाती 2768
एंट्री 2768
फेंक 2768
डिज़ाइन 2767
प्रकोष्ठ 2767
जोस 2767
आजकल 2767
प्रेम@@ 2766
तले 2765
बुर्@@ 2765
भंसाली 2765
लड़कों 2765
व्याख्यान 2764
पुरस्कारों 2764
मुआवजा 2764
शत्रु 2764
नाई 2764
प्रमाणित 2763
ंट्स 2763
अभिन्न 2761
नतीजों 2760
तरा 2760
d 2760
भाँति 2759
सानिया 2759
निकाले 2758
रोटी 2758
पशुओं 2758
मेयर 2757
गिराया 2756
अनुपम 2756
घटनाक्रम 2755
हब 2755
पूल 2755
संपदा 2754
सरी 2754
सेक्स 2754
गवाहों 2753
लम्बी 2752
पें@@ 2751
जोकि 2750
वार्ड 2749
वेब@@ 2748
सकेगी 2748
वास्तविकता 2748
पहने 2748
वर्त@@ 2747
सास 2747
राष्ट्रवादी 2747
म्य 2746
फुट@@ 2746
बेकार 2745
क्की 2745
सोनी 2745
गयीं 2744
छा 2744
षक 2743
भ्र@@ 2743
ँगा 2742
रासायनिक 2741
ष्टि 2740
ग़ौर 2740
डील 2739
तीस 2739
स्वर्गीय 2739
थियों 2739
करी@@ 2739
अपेक्षाकृत 2738
जुड़@@ 2738
क्तियों 2737
संरक्षक 2737
कोरोनावायरस 2737
ढूं@@ 2736
डेयरी 2735
ट्स@@ 2735
मजाक 2735
पूर्वानुमान 2734
बाला@@ 2734
एम्@@ 2733
शेखर 2733
फैलने 2732
चेतना 2732
हज़ार 2732
अनक़रीब 2731
जरुरत 2730
स्तानी 2729
धीरज 2729
मेजबान 2728
मंग@@ 2728
सीएल 2727
एशन 2727
साइकिल 2727
चाइ@@ 2727
ऋतिक 2727
बीए 2726
निस 2726
मलाइका 2726
पते 2725
क़सम 2725
मि 2724
फ़ा 2724
बचें 2724
लॉक 2723
पत 2723
फ़ॉ@@ 2722
यूपीए 2722
जहाजों 2720
नमूने 2719
कारी@@ 2719
उतनी 2718
कोयले 2717
तकनीकों 2716
वाल्@@ 2716
अनुशासन 2715
जर@@ 2715
अब्@@ 2714
करम 2714
डिवाइस 2713
पू 2713
यश@@ 2713
रैना 2713
पुलि@@ 2713
स्पि@@ 2711
बर्दाश्त 2711
K 2711
करतारपुर 2711
प्राप्@@ 2710
कवरेज 2710
साई@@ 2710
षों 2709
पलट 2709
जेसन 2709
डेन 2709
नारा 2709
आचरण 2707
गाँधी 2707
ब्ला@@ 2706
प्रिं@@ 2705
ऊंचे 2705
लां@@ 2705
लिखाः 2704
आरएस 2703
निवेशक 2701
आशा@@ 2701
क़ि@@ 2701
बर्फ 2701
बख्@@ 2700
सैनी 2700
बख्शने 2698
दया@@ 2698
अभूतपूर्व 2697
फोटोज 2696
e 2696
दर्जे 2695
बनाएं 2694
मारकर 2694
चैनलों 2693
श्रीवास्तव 2693
वाड़ 2693
फाइबर 2692
फीट 2692
t 2692
संन्यास 2692
सैयद 2692
नॉर्थ 2692
महमूद 2692
टिन 2691
बिलिटी 2690
एसएस@@ 2690
बुद्धिमान 2690
नोडल 2688
शासक 2688
दर्शाया 2687
मेंट्स 2687
कस्ट@@ 2687
सामरिक 2687
मेशन 2686
p 2686
तुझ 2686
सिंगल 2685
रेज 2683
जिम 2683
बायोपिक 2683
बोल@@ 2683
करू@@ 2682
प्राइ@@ 2682
ख़ान 2682
विशेष@@ 2681
दि 2681
आएं 2681
पड़ोसियों 2681
क़रार 2681
आयरलैंड 2680
सिंधिया 2680
ख्त 2679
मजदूरी 2678
एमसी@@ 2678
मलयालम 2678
नसी@@ 2678
फरहान 2678
्यू 2676
तेजस्वी 2676
सब्जियों 2675
००० 2675
थी@@ 2674
बैग 2674
षा@@ 2674
अक्@@ 2674
चाहा 2674
नीता 2674
वर्णित 2673
बैठ 2673
चढ़ 2673
यशायाह 2673
विराम 2672
मांगों 2671
एग्@@ 2671
उद्यान 2671
ौ 2670
ऑडियो 2669
गृ@@ 2668
डेवलपमेंट 2668
पहुँचे 2668
टेंट 2666
ऑर्डर 2666
वस्था 2666
2,000 2665
पाती 2664
चाहूंगा 2664
रोन 2664
सत्यापन 2663
बारगाह 2663
स्ड 2662
प्लांट 2662
साद 2661
इस्राएलियों 2661
2003 2659
गली 2659
इधर 2659
यहूदा 2659
विधि@@ 2658
चन्द्र@@ 2658
पिक्@@ 2658
मक्@@ 2657
पहुँच@@ 2657
ब्लड 2657
सिलसिला 2656
नकवी 2656
ष्टि@@ 2655
गमन 2655
तरल 2655
सिम 2654
खरीदा 2653
on 2653
जुटा@@ 2652
बरा 2652
कांस्टेबल 2652
हाई@@ 2651
बैठकें 2650
राइट 2650
एस्@@ 2650
अत्याधुनिक 2649
पक्षी 2649
विद्वान 2649
फर्स्ट 2648
निराशा 2648
स्टल 2648
मुख्यतः 2647
तट@@ 2647
हरकत 2647
रवि@@ 2647
सभ्यता 2645
भांति 2644
थाः 2644
मेज 2642
नीतिवचन 2642
श्य@@ 2641
स्तंभ 2641
नाजुक 2641
लड़का 2641
मछुआरों 2641
ढुलाई 2640
मरी@@ 2640
वोटों 2638
देशी 2637
सेल्@@ 2637
खान@@ 2637
स्टोरी 2636
ज़ू@@ 2636
आम@@ 2635
फर्ना@@ 2635
प्रवृत्ति 2633
पैदल 2633
ढो@@ 2632
ओपी 2631
कांफ्रेंस 2631
होगे 2631
झू@@ 2631
परिस्थिति 2630
लाद 2629
तला 2628
छू 2628
मूल्य@@ 2626
नना 2626
डार 2626
बाला 2626
कुमारस्वामी 2626
सीआई@@ 2625
टकराव 2625
श्रद्धालुओं 2625
सिसोदिया 2625
निकासी 2624
ंके 2624
अय्यर 2624
जिया 2624
मणि 2623
सचेत 2622
अपशिष्ट 2622
लिपि 2622
चर्@@ 2622
आस्था 2621
संपादक 2619
लश्कर 2619
याल 2619
काशी 2618
फ्लाइट 2618
चाहें 2618
सोचना 2618
फ्रा@@ 2617
कॉन 2617
विष्णु 2617
कोवि@@ 2616
परिचित 2616
र्य 2615
फेयर 2614
सेक्शन 2614
झूठा 2614
ओवरों 2613
नही@@ 2612
कू 2612
राउंड 2611
बैन 2611
चिल्@@ 2611
फ्री@@ 2610
प्रजा 2610
पैरवी 2609
आभारी 2608
झगड़ा 2608
लक्ष्मण 2608
बर्फबारी 2608
पूरक 2607
फास्ट 2607
तेज़ 2607
बेटों 2607
मानदंडों 2606
लौह 2606
सोसायटी 2606
महाराज 2606
१५ 2606
मत्स्य 2605
कहें 2605
प्रदीप 2604
धर्मी 2604
हिमालय 2604
प्रश्नों 2602
तन्@@ 2602
ताना@@ 2602
लील 2602
उद@@ 2601
फैन्स 2601
कैलाश 2600
न्यायपालिका 2600
ओसी 2599
स्ती 2598
रहेंगी 2597
सांप्रदायिक 2596
झूठी 2595
खोज@@ 2594
चेलों 2594
काल@@ 2593
घट@@ 2592
यं@@ 2592
राजकीय 2592
इस्ला@@ 2591
शाखाओं 2590
मिश्र 2590
योग@@ 2589
काया 2589
दर्शक 2589
मंडली 2588
डमी 2587
प्रत्या@@ 2586
दरा 2586
आधुनिकीकरण 2586
लिखते 2586
करो@@ 2585
मानों 2585
प्रधान@@ 2584
क्ति 2584
जं@@ 2584
चौके 2584
बाज़ार 2583
कपास 2583
समझे 2583
स्टाइल 2582
चुनौतियां 2581
फ़ोल्डर 2581
आईएल 2580
अवलोकन 2580
होली 2580
क्षा@@ 2579
च्च@@ 2579
ताः 2579
माय@@ 2578
तरण 2577
रिटा@@ 2577
144 2576
झ 2576
निर्धारिती 2576
परिकल्पना 2573
तापूर्ण 2573
पासवर्ड 2571
जिन@@ 2571
छः 2571
श्या@@ 2571
गाया 2570
मिटा@@ 2570
पक्का 2568
रने 2568
दीर्@@ 2567
सभ@@ 2565
म्यूजिक 2565
लेनी 2564
कागज 2563
इन्हीं 2563
छठे 2562
सज्@@ 2562
गौरी 2561
मोड़ 2560
2.0 2559
एजुकेशन 2559
सीओ@@ 2558
योज@@ 2558
CBI 2558
राशिद 2558
माँग@@ 2557
टिम 2557
बॉडी 2556
टीकाकरण 2554
V 2553
फिक 2553
,@@ 2552
स्पर्@@ 2552
क़त 2552
ताब 2552
मोर्चे 2551
काई 2551
स्ट्री@@ 2550
अत्या@@ 2550
मीरा 2550
प्रभावों 2549
स्ट्री 2549
इनाम 2549
रखेगा 2548
आर्यन 2548
पूछ 2548
फैक्@@ 2547
कार्या@@ 2547
कॉम्@@ 2547
मेमोरी 2547
लूत 2547
देखरेख 2546
प्रण@@ 2546
घेर 2546
आतंक 2546
क्षों 2545
देह 2545
खुलती 2545
अप्र@@ 2544
रवैया 2544
दुल 2544
यड 2543
J@@ 2543
मूवी 2542
एकीकरण 2541
वरी 2540
शरी@@ 2540
डरो 2540
लयों 2539
समझ@@ 2539
बनेंगे 2539
उज्@@ 2538
ट्राइ@@ 2538
सबकी 2538
एसयूवी 2538
ढ़ा 2538
उन्मूलन 2537
खुराना 2537
नगरों 2536
व्यवसा@@ 2534
वेशन 2533
कमज़ोर 2532
आशय 2531
२ः 2530
सम 2528
अजीब 2528
तूने 2527
पथराव 2527
सौभाग्य 2526
प्रेमी 2526
१४ 2526
बोर्@@ 2524
3:@@ 2524
मंत्र 2524
कोच्चि 2523
लची@@ 2522
डर्स 2522
मुकदमे 2522
इल्म 2522
सीमा@@ 2521
बाग@@ 2521
ख़ु@@ 2521
अधिवेशन 2521
मिर्जा 2521
लाभान्वित 2520
दिखायी 2520
क्षे@@ 2519
नते 2519
ुक 2519
रम@@ 2519
सूचनाओं 2518
वाया 2517
सीबी 2516
ष्ठ@@ 2516
जॉनसन 2516
मशीनों 2515
प्रभाव@@ 2514
एजेंट 2514
टैग 2514
उमेश 2514
हटकर 2512
कटरीना 2511
रॉबर्ट 2510
लड़ा 2510
कठिनाई 2509
स्वयं@@ 2508
in@@ 2508
बंगाली 2508
दबंग 2508
मध्यस्थता 2507
खू@@ 2507
जुड़ने 2506
पंचायती 2506
यंत्र 2506
नाना 2506
भयानक 2506
किताबों 2506
स्टार्टअप 2505
सत 2505
वीवी@@ 2505
दुकानें 2504
अनुसूची 2503
पोस्ट@@ 2503
फ्लै@@ 2503
गुनाहों 2503
केमि@@ 2502
पालने 2501
जात 2500
खी@@ 2500
बनती 2500
चारी 2500
गाड़ियों 2499
SC 2499
हमको 2499
यूएस 2498
पंचायतों 2498
डॉट 2498
ढूँ@@ 2498
विद्या@@ 2498
अप्रत्यक्ष 2497
रहकर 2497
प्रयोजन 2496
टता 2496
स्वीडन 2496
जेडीएस 2495
अध्यादेश 2494
राजू 2494
अर्ध@@ 2493
नींव 2493
च्@@ 2492
डिस्प्ले 2492
मला@@ 2492
चौक 2492
बेच 2491
बराबरी 2491
ध्वज 2491
दयावान 2491
स्क्रीनिंग 2490
y@@ 2489
खरे 2489
शेर 2488
३ः 2488
वस्तुएं 2486
ंदी 2485
लैब 2484
जातीय 2484
अफसोस 2484
इड 2483
कलकत्ता 2483
मुद्@@ 2482
अर्जी 2482
एलपीजी 2481
दिशानिर्देशों 2480
इंडस्ट्रीज 2480
फेडरेशन 2479
सेके@@ 2479
देवताओं 2478
औरंगाबाद 2478
एकदिवसीय 2477
निमंत्रण 2477
छक्के 2477
विशेषज्ञता 2476
देहरादून 2476
चंद्रबाबू 2476
सृष्टि 2475
वर्गीकरण 2474
सामान्यतः 2474
इरादे 2474
आपातकालीन 2474
c@@ 2474
शिवाजी 2473
बरा@@ 2473
मुस्लिमों 2472
प्रमुखों 2471
और@@ 2471
नां@@ 2470
हकदार 2470
अफसर 2470
निग@@ 2469
रुक 2469
सहवाग 2469
ंदन 2467
पांड्या 2467
थै@@ 2466
ब्रिगेड 2466
चोर 2466
पीओ 2465
आन 2465
दफ्तर 2465
टिकाऊ 2464
बॉम्बे 2462
नपुर 2461
बिग@@ 2460
ख्या@@ 2460
पाये 2460
कर्म@@ 2459
बनते 2459
शास्त्रीय 2459
लः 2459
समझौतों 2458
ड़िया 2458
एके 2458
दार@@ 2457
ग्स 2457
लहर 2456
वाह@@ 2455
थम 2455
हरभजन 2455
साझेदार 2454
महागठबंधन 2454
नशे 2454
पेमेंट 2453
स्ट्राइक 2453
समे@@ 2452
तरक्की 2452
बंदरगाहों 2451
विंडों 2451
यन@@ 2451
घातक 2451
जुटे 2451
रमन 2451
क्षि@@ 2450
गुरुग्राम 2450
दिखाएँ 2450
स्ट्रा@@ 2449
तला@@ 2449
आयोज@@ 2449
ेक 2449
धे@@ 2448
ेंगी 2448
समेकित 2447
सुनाया 2446
सदा@@ 2445
व्यर्थ 2445
नस 2445
एंड्रॉयड 2445
जीवन@@ 2444
चुनने 2444
उदय 2443
चन्द्र 2443
डम 2443
संलग्न 2442
मधुमेह 2442
सबकुछ 2442
ऑक्सीजन 2441
खोजने 2441
O 2441
मेर 2441
फिल्मकार 2441
शहीदों 2440
सुलैमान 2440
चंद्रशेखर 2439
रघु@@ 2438
पहाड़ों 2438
निकाली 2436
द्धि@@ 2435
स्टिंग 2435
यथा 2434
उच्चतर 2434
ग्रि@@ 2434
मेगा 2434
निरस्त 2432
नव 2432
बाह्य 2431
प्रेषित 2431
क्रॉ@@ 2431
तना 2431
डेरा 2431
वर्क 2429
टैंक 2429
पीजी 2428
वकीलों 2428
न्यायाधीशों 2428
पाएँगे 2428
प्रजातियों 2428
शाला 2427
रक्षक 2426
ज़े 2425
एमएस@@ 2424
जांच@@ 2424
स्पर्धा 2424
सः 2424
रामपुर 2424
तापूर्वक 2423
बदलना 2423
ठान 2421
एक्टिंग 2420
कक 2419
मचा@@ 2419
आरंभिक 2418
हकीकत 2418
मन्दिर 2417
येगा 2416
रते 2416
रोमा@@ 2416
अभिभावकों 2416
रेंस 2415
लॉन्@@ 2415
अब्राहम 2414
खतरों 2413
अक्ष@@ 2413
प्रेरितों 2413
परी@@ 2412
चिट्ठी 2412
राशन 2410
अंतराल 2409
उपक्रमों 2408
हीं 2408
पटनायक 2408
बजाज 2408
निष्ठा 2407
कश्यप 2407
दरें 2406
किराया 2406
कराता 2405
ष्ठ 2405
फेस 2405
स्वर 2405
कियां 2405
एफडीआई 2404
चिह्न 2403
ड्राइव 2403
खादी 2403
सुगम 2402
खंड@@ 2402
मेगा@@ 2402
जस@@ 2402
सभा@@ 2402
येदियुरप्पा 2402
पनाह 2402
करिश्मा 2401
पीएल 2399
डिजा@@ 2399
अलीगढ़ 2399
13.@@ 2398
बदलकर 2398
रोम 2398
जीवों 2398
अनुमोदित 2397
त्मकता 2397
मोटे 2396
हांगकांग 2396
रोमांचक 2396
चेन 2395
धर्मेंद्र 2395
दुर्भाग्यपूर्ण 2395
लेह 2395
विनियमन 2394
इंग 2394
डियो@@ 2394
अज@@ 2394
बोध 2394
पन्@@ 2393
माइक 2393
बरसा@@ 2393
निःशुल्क 2392
गोला@@ 2392
मांगे 2391
मेला 2391
बहुतेरे 2391
* 2390
उलट 2389
जवा@@ 2389
तंग 2389
सम्राट 2389
व्रत 2389
ठो@@ 2388
नरेश 2388
लेखों 2387
आईबी 2387
पक्षियों 2387
हरेक 2387
हां@@ 2387
दस्त@@ 2387
अवतार 2386
केंद्रशासित 2385
सुर 2385
ल्लाह 2385
डेमोक्रेटिक 2385
लाभकारी 2384
दह@@ 2383
□ 2383
आईएनएस 2382
हिन्दुस्तान 2382
तना@@ 2381
पड़ेगी 2381
नगालैंड 2381
वीय 2380
लए 2380
H 2380
गाजियाबाद 2379
डेवि@@ 2379
बदलते 2378
पदाधिकारी 2378
गर्इ 2377
नाइक 2377
एमएसपी 2375
वेल@@ 2375
अमेठी 2375
परिपक्@@ 2374
डीए@@ 2374
इब्राहीम 2373
कती 2373
विंदर 2373
धो 2372
मिन 2371
ट्रांसफर 2370
बनायी 2370
बेंग@@ 2370
फ़िल्@@ 2370
ज़त 2370
थोक 2369
उपहार 2369
कहानियों 2369
दखल 2369
प्रणा@@ 2368
प्रायोजित 2368
मिन@@ 2368
कम्युनि@@ 2367
पापा 2367
जोनस 2367
सुरक्षा@@ 2366
मत्@@ 2366
उच्च@@ 2363
ताल 2363
पोखरियाल 2363
डेबिट 2362
साँ@@ 2362
मौलाना 2361
अबतक 2360
१२ 2360
अहले 2360
मशीनरी 2359
विकल्पों 2358
महासभा 2358
पहि@@ 2358
कुशलता 2357
शिकायतें 2357
बैठने 2357
बाएं 2357
ज़बरदस्त 2357
टॉर्क 2357
रथ 2356
मू 2356
ूंगा 2355
News 2355
पुन@@ 2354
l 2354
रिश्तेदार 2354
तारा 2353
कॉर्पोरेट 2352
ल्डिंग 2352
्री 2352
औष@@ 2352
ग्लो@@ 2352
निदान 2352
केश 2352
ंदी@@ 2352
न्द्र@@ 2351
सस्ती 2351
प्रता@@ 2351
वारी 2350
पिक 2350
सर्जरी 2350
साक्षरता 2349
ग्रोवर 2349
काला@@ 2348
ठंड 2348
मसूद 2348
तूर 2347
डीजीपी 2347
पाठक 2347
जहा@@ 2346
निर्वा@@ 2346
दाख़िल 2346
झे 2345
खुलकर 2345
व्हाट्सएप 2345
क्रॉस 2344
उद्धार 2344
बिर@@ 2344
शेयर@@ 2343
उतार@@ 2343
सैमसंग 2343
अहमियत 2343
बेटियां 2343
मानती 2342
» 2342
भविष्य@@ 2341
तबाही 2341
बैनर 2341
रायपुर 2340
टीका 2340
बीएसपी 2340
जदयू 2340
ऑफ@@ 2339
दोगुनी 2339
प्रवि@@ 2338
सजदा 2338
प्री 2337
ंडे 2337
गह@@ 2336
२०@@ 2336
शु 2336
राहे 2336
युगल 2336
आज्ञा@@ 2336
लान 2335
यॉ@@ 2335
हुकूमत 2335
एजेंडा 2334
राष्ट्रमंडल 2334
सभापति 2334
हंस@@ 2334
गुं@@ 2333
लीकरण 2332
नैशनल 2329
मानहानि 2329
अवि@@ 2328
अब@@ 2328
वेन 2328
सील 2328
उर्फ 2328
दिखाना 2328
आईजी 2327
ारत 2327
त्यौहार 2327
रेल@@ 2327
वेद 2327
यंस 2326
अजहर 2326
अन्याय 2325
होश 2325
चलाए 2324
रना 2324
मिल्@@ 2323
अकाली 2323
वसा 2322
प्रशंसक 2322
सता@@ 2321
वसू@@ 2320
बढा@@ 2320
हमे 2320
उपरोक्त 2316
फैमिली 2316
जवाहर 2316
मुझ@@ 2316
उपयोगकर्ताओं 2315
हत 2315
रिपोर्टों 2314
अमीरात 2314
हिकमत 2314
ज्म 2313
मल्@@ 2313
पर्व@@ 2313
ग़ु@@ 2313
विद्यमान 2312
मृ@@ 2312
पिटाई 2312
लाश 2311
हौ@@ 2310
शन्स 2309
दिखे 2308
पुनर्गठन 2307
रैंक 2307
फ्रांसीसी 2307
दयालुता 2307
चित्रण 2306
फ़ी 2305
विधिक 2304
निम्@@ 2304
ेय 2304
वार्नर 2304
सुरजेवाला 2304
रिजिजू 2303
यमुना 2303
U 2303
ढांचागत 2302
फ़ाइ@@ 2302
बस्तियों 2302
फिंच 2301
गरी 2300
तबाह 2300
शुक्र 2300
अय्यूब 2300
लेटर 2299
त्त 2299
नील 2299
घटा@@ 2298
दमदार 2298
बीन 2298
वहन 2297
विमोचन 2297
ढि@@ 2297
हेड@@ 2296
झगड़े 2296
रूख 2296
ट्वि@@ 2295
पंथ 2295
उतरे 2295
काउं@@ 2294
सम्पन्न 2294
निया@@ 2294
क्ले@@ 2294
लाभों 2292
टोल 2292
पीसीबी 2292
मांगने 2292
कैपिटल 2291
पुस्तकालय 2291
डियम 2291
विं@@ 2291
भाषा@@ 2290
जर्नल 2289
कम्प्यूटर 2289
.0@@ 2288
कारोबारियों 2288
ट्यूब 2288
सिक्@@ 2287
ट्रैक्टर 2287
अपार 2287
अश्विनी 2287
हित@@ 2286
ण्य 2286
सिलेंडर 2286
नामी 2285
रोज@@ 2285
निर्दोष 2285
इशारा 2284
जानबूझकर 2284
कें 2284
घे@@ 2284
घृणा 2283
इंटी@@ 2282
विद्वानों 2281
मेंस 2281
पार्किंग 2281
1.5 2280
स्वतः 2280
अन्य@@ 2280
गवर्@@ 2279
संयंत्रों 2279
ब्रै@@ 2279
जवाबी 2279
प्रबल 2278
ब्यौरा 2278
थॉमस 2278
२० 2278
आरटी 2277
पांडेय 2277
डराने 2277
समि@@ 2276
वांछित 2276
युक्ति 2276
कॉर्पोरेशन 2276
गुरुवार 2276
बुनियाद 2275
आचार 2273
बेरोजगारी 2273
यु 2273
फरी@@ 2273
उन्नाव 2273
350 2272
ताप@@ 2272
रिक्त 2272
लख@@ 2272
दरबार 2271
बागी 2270
हाट 2270
मोमिनीन 2270
MP 2270
अनुकू@@ 2269
उठाकर 2269
प्या@@ 2269
जना@@ 2269
बेहिश्त 2269
इवेंट 2268
ंडि@@ 2268
पर्सनल 2268
ड्रे@@ 2268
हिज@@ 2268
याजक 2268
ल्यूशन 2267
राना 2267
खाओ 2267
पद्म 2267
१ः 2267
प्रयोजनों 2266
दुर्लभ 2266
गरम 2266
गुस्से 2266
कार्गो 2265
मौतों 2265
लियो@@ 2265
सितारों 2264
फ्रैं@@ 2264
विशेषताओं 2262
11,@@ 2262
कारकों 2261
दाद 2261
किसे 2260
मादा 2260
माधुरी 2260
लॉस 2259
पालिका 2259
प्रया@@ 2258
पिछ@@ 2258
सड़कें 2257
हॉट 2256
आरजेडी 2256
एएस 2255
आंक@@ 2255
प्रिंस 2255
पूछते 2255
x@@ 2254
चुनौतीपूर्ण 2254
जीव@@ 2253
मातृ@@ 2253
खुशखबरी 2253
गोले 2253
गंतव्य 2252
पुनर्विचार 2252
ड्रोन 2252
जत 2252
पुकार 2252
बॉर्डर 2251
इम@@ 2251
इंश्योरेंस 2250
लेंगी 2250
परेशानियों 2250
1:@@ 2249
दाताओं 2248
इनको 2248
कास्ट 2248
साह@@ 2248
आयु@@ 2248
पैट 2248
बार्@@ 2248
पीड़ा 2247
बक्@@ 2246
चैलेंजर्स 2246
रज@@ 2246
गृह@@ 2245
वर्गीकृत 2244
चढ़ाव 2244
विनिर्दिष्ट 2244
बढ़ना 2244
र्जी 2244
सुहाना 2244
आचार्य 2243
c 2242
टेलर 2241
इंड 2241
कुलपति 2241
काफिरों 2241
लेखकों 2241
विधान@@ 2241
एनआर@@ 2240
जैक 2240
नहरें 2240
गैर@@ 2239
शियल 2239
संघों 2239
रिलीज़ 2239
इज्@@ 2239
सोचता 2239
तकरीबन 2238
बयानों 2238
उठे 2238
असमर्थ 2237
संघ@@ 2237
छोर 2237
नेंगे 2237
दाय@@ 2236
प्रतियोगिताओं 2236
अमृता 2236
फैक्ट्री 2235
हार्ट 2235
y 2235
प्रोड्यूस 2235
सुल्तान 2235
बजाए 2234
नानक 2234
संयम 2233
व्ही@@ 2233
घोटाला 2233
दस्तावेज़ 2230
बली 2230
रहाणे 2230
ंसि@@ 2229
दै@@ 2229
दानी 2229
पेटेंट 2228
एटी 2227
दामों 2227
हैंडल 2227
वेदी 2227
सीडी 2226
नागालैंड 2226
४ः 2226
आज@@ 2225
क़ायम 2224
ठों 2224
स्टेप 2223
दमन 2223
प्रवासियों 2222
ड़ें 2221
तिर@@ 2221
एंडरसन 2220
राजनेता 2220
थीम 2219
सहन 2219
लम्बे 2218
तस@@ 2217
जवाबदेही 2216
गुणा 2216
डॉक्@@ 2216
g 2216
शीद 2216
भों 2215
हल्का 2215
लोकप्रियता 2215
आश्रम 2215
अपी@@ 2214
मसौदा 2214
ंदे 2214
टीके 2214
प्रतिभूति 2213
जक 2213
बियों 2213
माई 2212
रक्@@ 2212
मिस 2211
कोल@@ 2211
दाई 2210
अधी@@ 2210
ख़त्म 2210
ब्लू@@ 2209
लें@@ 2209
अटैक 2209
द्रव 2209
संपत्तियों 2208
टाल 2208
उत्सुक 2208
जनसभा 2208
इंद@@ 2207
पाबंदी 2206
ंगल 2206
विषा@@ 2206
उठता 2206
एनर्जी 2205
रायगढ़ 2205
ऊंचा 2204
झी 2204
भ्रम 2204
दिखता 2203
ूत 2203
तमा@@ 2203
प्रजनन 2203
1999 2202
कोल्@@ 2202
105 2201
विद्रोह 2201
बहिष्कार 2201
घुसपैठ 2201
माइक्रो 2200
आइ 2200
चक्रवात 2200
सत्या@@ 2200
प्रतिद्वंद्वी 2200
पिछला 2199
ल्टी 2199
ंकि 2199
आज़ाद 2199
धरना 2199
अपू@@ 2198
शॉट 2198
हरदीप 2198
णात्मक 2197
कैरियर 2197
खत 2196
कांग्रेसी 2195
शुमार 2194
खड़ 2194
निकाह 2194
गरिमा 2193
धूप 2193
काफ़िरों 2193
कते 2193
केदारनाथ 2193
तेज़ी 2192
द्वी@@ 2192
याई 2192
पर्स 2191
क्ट्स 2191
5:@@ 2191
नौकरियों 2190
दस@@ 2190
झलक 2189
पाद@@ 2188
आईएम 2187
अक@@ 2187
सिम@@ 2187
मोन 2187
नमेंट 2185
पटरी 2185
स्नैपड्रैगन 2185
जंगली 2185
बाज़ी 2185
प्रकाशितवाक्य 2185
ख़ुशी 2185
दिशानिर्देश 2184
प्रक्षेपण 2184
एहसान 2184
न्यूज़ 2182
फेड 2181
वीरेंद्र 2181
इजाज़त 2181
प्रोड@@ 2180
प्रतिबंधों 2179
जीएस@@ 2179
११ 2179
सार्थक 2177
कचरा 2177
उठाये 2177
तारी@@ 2176
अंत@@ 2176
सुझा@@ 2176
रेलगा@@ 2176
मॉड@@ 2175
डान 2175
मेघ@@ 2175
सेंगर 2175
रंगारंग 2175
वित्तपोषण 2174
कैम@@ 2174
मेडि@@ 2174
बटलर 2174
वृत्त 2173
धमाके 2173
रंगों 2172
पूंजीगत 2171
कच्चा 2171
पीपुल्स 2171
चक्रवाती 2171
आरपी 2170
लेवल 2170
टेन 2170
क्वे@@ 2169
ا@@ 2169
क़ानून 2168
रिमांड 2168
महारा@@ 2168
जिक 2167
फैन 2167
पैं@@ 2166
करु@@ 2166
ब्रू@@ 2166
साधनों 2165
विवेकानंद 2165
आरटीआई 2163
रोड@@ 2163
दाल 2163
आला 2163
रक्षामंत्री 2163
सूखे 2162
प्राइमरी 2162
टमेंट 2162
जिसपर 2162
पैरों 2162
मूल@@ 2161
कन@@ 2161
प्रथा 2161
सिब्बल 2161
ख़ुश@@ 2161
सातवें 2160
क़त्ल 2160
शिल्पा 2160
1/@@ 2160
धर@@ 2159
अध्या@@ 2159
दृढ़ता 2156
टाने 2155
प्रक्रिया@@ 2154
स्टूडियो 2154
ज़माने 2153
14.@@ 2152
पुस्तकें 2152
किला 2152
काश 2152
सीखना 2152
सपनों 2151
वारिस 2151
हममें 2151
मैनुअल 2150
शेन 2150
मपुर 2150
्स 2149
बागवानी 2148
कलेक्टर 2148
तीमुथियुस 2148
सेबी 2147
बिल्डिंग 2147
ब्लॉ@@ 2147
नवोन्मे@@ 2146
महाद्वीप 2146
नाराजगी 2146
पिछड़े 2145
नमा@@ 2145
यूएस@@ 2143
ओबीसी 2143
गोल्@@ 2143
बसे 2143
घटित 2142
समझाने 2142
बैंगलोर 2142
बुखार 2142
प्रतिबि@@ 2141
हस्त@@ 2141
तने 2141
लाइनों 2141
डेड 2140
चक्रवर्ती 2140
प्रदर्शनों 2140
कोशिका 2140
केंद्र@@ 2139
17.@@ 2139
परे@@ 2139
महत्वाकांक्षी 2138
शॉर्ट 2137
वादों 2137
शीला 2137
एह@@ 2137
निरीक्षक 2137
अह@@ 2137
एनबी@@ 2136
त्य@@ 2136
इमारतों 2136
महाजन 2136
ठंडा 2135
ट्टी 2134
लूका 2134
निफ्टी 2133
जामिया 2133
पुरस्कृत 2132
दोगुना 2132
न् 2132
रॉन 2132
वेल्स 2132
व्य 2131
10,@@ 2130
नियमन 2129
ड्रामा 2129
मोहित 2129
ध्य@@ 2128
पार्टियां 2128
नीतियां 2127
नेट@@ 2127
उपबंध 2127
रहीम 2127
दर्जन 2127
कैथोलिक 2127
हासन 2127
तलब 2126
अभियानों 2125
ड्रग्स 2125
आग@@ 2123
अमेरिकन 2123
दशमलव 2123
सू 2123
बाबुल 2123
तानों 2122
अल्प@@ 2122
बनेगी 2122
परो@@ 2122
प्रार्थ@@ 2122
पर्यवे@@ 2121
एण्ड 2121
यूएई 2121
मुरा@@ 2121
बढ़ोत्तरी 2120
सीमेंट 2120
क्षमाशील 2120
दरवाजा 2120
प्रयोग@@ 2119
नीज 2119
धरने 2119
हमलावरों 2119
शिंदे 2119
अप्@@ 2118
राघ@@ 2118
प्लेट 2118
कुल्@@ 2118
अफगान 2118
र्ट@@ 2117
कम्युनिस्ट 2116
कैदियों 2116
मधु 2116
मानें 2116
अवकाश 2115
बदली 2115
आदेशों 2115
दिखने 2115
तड़@@ 2115
सराय 2115
नोबेल 2114
मिया@@ 2113
मिली@@ 2113
होम@@ 2113
क़ुरआन 2113
मौतें 2113
सिल 2112
प्लेट@@ 2112
लियत 2112
तेज@@ 2112
एयरलाइंस 2112
फैले 2111
वाक्य 2111
तादाद 2111
दत्ता 2111
बन्दे 2111
जला 2111
आईआर@@ 2110
उपर्युक्त 2110
टाउन 2110
सेटअप 2110
आंख 2110
गुजराती 2109
बरतने 2109
पड़ते 2109
साइन 2109
ब्या@@ 2108
सुझावों 2108
कूद 2108
द्वीपों 2108
दस्ती 2108
डिजि@@ 2105
छोड़ी 2105
मछ@@ 2105
किशन 2105
पहुँचने 2104
जनी 2104
आरा@@ 2104
दृष्टि@@ 2103
यकों 2103
बनें 2103
म्भ 2102
अपकमिंग 2102
प्रतिभा@@ 2101
r@@ 2101
सिक 2101
सिंगर 2101
एबी 2100
स्वे@@ 2100
पैसों 2100
निक्स 2100
ँगी 2100
डबल 2099
निकी 2099
दुबे 2099
असिस्टेंट 2097
योजना@@ 2096
मेरठ 2096
उम@@ 2096
अभिनंदन 2096
निशंक 2096
तोड़ा 2095
रहम 2095
वर्षगांठ 2095
आईपीएस 2093
यौ@@ 2093
गाः 2093
राजनीति@@ 2093
जर्स 2092
आधी 2092
डेंट 2092
मकानों 2092
रियन 2092
आज़ादी 2092
प्रीति 2092
उत्तरदायी 2091
एसएसपी 2091
तरी@@ 2090
अस्वीकार 2090
लेक्शन 2090
जोड़ें 2090
कथन 2089
थन 2089
वैसी 2089
जमात 2089
शिलान्यास 2089
चाहि@@ 2088
डीएनए 2088
पृथक 2087
दर्शी 2087
सियासी 2087
फ्रेंच 2086
विस्तारित 2085
v@@ 2084
ट्रांसमिशन 2084
कुफ्र 2084
वेल्@@ 2083
वर्क@@ 2083
रहनेवाले 2083
हॉ 2083
नीरज 2082
टीए 2081
दिन@@ 2081
ऐंड 2081
उड़ा@@ 2081
आशुतोष 2081
बन्दगी 2081
बाक़ी 2081
संयोजक 2080
अदालतों 2080
जाइ@@ 2080
बाधाओं 2079
साढ़े 2079
2:@@ 2079
बुलाई 2079
चुप्पी 2079
बढ़ाते 2078
प्रगतिशील 2078
साइज 2078
कथा@@ 2078
अप्रिय 2078
पूर्@@ 2077
ज्ञ@@ 2077
अयस्क 2076
णे 2076
लगाये 2075
आगाह 2075
५ः 2074
बेदी 2074
प्रतिष्ठान 2073
डीएसपी 2073
पुनरुत्थान 2072
खरीफ 2071
स्पी@@ 2071
कृष्ण@@ 2071
कॉन्फ्रेंसिंग 2070
स्टा 2070
०@@ 2070
प्रद 2069
उपराज्यपाल 2069
सीख@@ 2069
वर्जन 2068
फलस्वरूप 2067
पहिया 2067
रोकना 2067
36@@ 2066
पिन 2066
एजेंसियां 2066
दबो@@ 2066
अकादमिक 2065
दोहरा 2065
दोष@@ 2065
चक्कर 2065
स्वैच्छिक 2064
पदा@@ 2064
शां@@ 2064
एसडीएम 2064
छुड़ा@@ 2064
डॉन 2064
ईए 2063
एमओ@@ 2062
पॉवर 2062
4:@@ 2062
रखिए 2062
ढ़े 2062
ारिश 2061
f 2061
पोषित 2060
पुत्री 2060
ऑप्शन 2059
कंटे@@ 2059
एसडी 2058
टीबी 2058
एप्पल 2058
ड्रा@@ 2057
लिप्त 2057
खासी 2057
गड़बड़ी 2057
चंद्रयान 2057
विवाहित 2057
मुल्क 2057
पूर्ववर्ती 2056
मशी@@ 2056
प्रतिभाशाली 2056
घी 2056
15.@@ 2055
एसोसि@@ 2055
शू 2055
काए 2055
मल्टी@@ 2054
याचिकाकर्ता 2054
सप्लाई 2053
उन्हे 2053
मादक 2053
१८@@ 2053
गामी 2052
थों 2051
‎@@ 2050
एलए 2049
रूचि 2049
पीएनबी 2049
पदाधिकारियों 2048
टिका 2048
सांसारिक 2048
फ़ोन 2048
गोला 2048
टिल 2048
अखंडता 2046
आठ@@ 2046
तैमूर 2046
विस्फोटक 2045
दाबाद 2044
मुजफ्फरपुर 2044
सूर्य@@ 2044
गुफा 2043
आईबी@@ 2042
सस्ता 2042
वीडियो@@ 2041
मः 2041
पढ़ी 2041
धिकारी 2041
सिलि@@ 2041
शाली 2041
अनंतपुर 2041
बड़ौदा 2040
गिनी 2040
डालर 2039
मॉड्यूल 2039
देहा@@ 2039
जिला@@ 2039
नाट@@ 2038
शोएब 2038
गियों 2037
कोरियाई 2037
कचरे 2036
समझाया 2036
तहरीर 2035
सुप्रीमो 2035
रिश्तेदारों 2034
छिपा 2034
ठहरा 2034
nic 2034
खै@@ 2034
सिद्दीकी 2034
जता 2033
चिन्हित 2032
बीसीएम 2032
अंबेडकर 2032
16.@@ 2031
मिता 2031
संग्राम 2031
चालकों 2030
टावर 2030
परंपराओं 2030
राजाओं 2030
परम्परा@@ 2029
प्रयत्न 2029
गुट 2029
बटो@@ 2029
तुम्हे 2029
चर्स 2028
नशील 2028
धरोहर 2028
गियरबॉक्स 2028
औरतें 2028
छ 2027
रिट 2027
बचना 2027
व्यं@@ 2027
घटाने 2026
मैप 2026
उद्यमी 2026
b 2026
सिडनी 2026
परत 2026
एंजे@@ 2026
उपाध्याय 2026
Name 2026
ज़ालिमों 2025
कुंबले 2025
रोमांटिक 2025
110 2024
क़ी@@ 2024
श्याम 2024
षित 2023
शियन 2023
मुन्@@ 2023
रॉयल्स 2023
निष्क्रिय 2022
एयरलाइन 2022
आँखों 2022
आवश्य@@ 2021
1961 2021
वाहि@@ 2021
तंज 2021
फैली 2020
बनीं 2020
चयन@@ 2020
इल्@@ 2020
कब्@@ 2020
नेताजी 2020
बीआई 2019
न्यायालयों 2019
शुभकाम@@ 2019
तत्वदर्शी 2019
भव 2018
हनुमान 2018
दीक्षांत 2018
अक्षर 2018
बहि@@ 2017
न्यास 2016
निः@@ 2016
असंभव 2016
अंग्रेज़ीः 2016
लाभ@@ 2015
पहनने 2015
दली@@ 2015
.@@ 2014
आस्ति 2014
मानसिकता 2014
एपी@@ 2013
संगम 2013
मिर्@@ 2012
हर्ष@@ 2012
क़ुबूल 2012
मौद्रिक 2011
वैन 2011
उन्नति 2011
ज़िम्मेदार 2011
बर्थडे 2011
छोड़े 2010
h@@ 2010
रवी@@ 2010
असामान्य 2009
जीवी 2008
स्वदेश 2008
बैच 2007
करन 2007
फंस 2007
गेम्स 2007
क्रिसमस 2007
गोलियां 2007
ल्ल@@ 2007
जेडीयू 2007
साय@@ 2006
ऐक्@@ 2006
पिच 2006
शर्मनाक 2006
अन्वेषण 2005
क्राइम 2005
तरा@@ 2005
प्रशिक्ष@@ 2004
किल 2004
हारून 2004
क्सिंग 2004
छीन 2004
प्राणी 2004
सियत 2004
पुस्तिका 2003
ईल 2003
विशेषाधिकार 2003
सम्पत्ति 2003
राजग 2003
घटी 2002
ऑक्साइड 2002
परिवर्तनों 2001
दाएं 2001
अधू@@ 2001
हटाए 2001
निर्भया 2001
देगें 2001
ख़ 2000
यूरो@@ 2000
सानी 2000
उस@@ 1999
लाभांश 1998
निस्@@ 1997
सरा 1997
नियोजित 1996
ंडो 1996
मुरली 1996
ज़ल 1996
मर्द 1996
परिवर्त@@ 1995
सनराइजर्स 1995
आसिफ 1995
समीप 1994
निपट@@ 1994
सिल्वर 1994
डिवीजन 1994
प्रदत्त 1993
तिया 1993
निरोधक 1993
एचडी 1992
बारह 1992
राजी 1992
संजू 1992
इंतज़ार 1992
आभूषण 1991
व्यवस्था@@ 1991
एस्टेट 1991
समय@@ 1990
समावेश 1990
सुलभ 1990
ईएम 1990
वल्ल@@ 1990
ुओं 1990
स्थापन 1989
नमूना 1989
पुख्ता 1989
गोद 1989
सीपीआई 1988
यूके 1988
उतरने 1988
हीर 1988
कैलेंडर 1987
क्ता 1987
छात्र@@ 1987
पोषक 1986
आदमियों 1986
हाथी 1986
सैम 1986
वैल्यू 1985
घंटा 1984
भेड़ 1984
बिगाड़ 1984
कायदा 1984
20,000 1983
आर्ट 1983
भुग@@ 1982
दिवा@@ 1982
रेफर 1982
केदार 1982
पहु@@ 1981
मेहमान 1981
एनएफ@@ 1980
दवा@@ 1980
सीजी@@ 1979
णता 1979
पटियाला 1979
नारियल 1979
गुरू 1979
काफ़िर 1979
थु@@ 1979
आमने 1978
जनगणना 1977
काजोल 1977
ग़लत 1977
रितेश 1977
फ़रिश्ते 1976
स्वार्थ 1975
लाठीचार्ज 1975
अक्षम 1974
ठु@@ 1974
सिंह@@ 1974
पायदान 1974
पाठ्यक्रमों 1972
जीत@@ 1970
कंप@@ 1969
चित्रित 1969
बताओ 1969
काउंटी 1969
र्ा@@ 1969
खानों 1969
समू@@ 1968
गर्ग 1968
पारिस्थितिकी 1968
सिद्@@ 1968
चित्रों 1968
चुनिंदा 1966
बेल@@ 1966
लीट 1966
अने@@ 1966
दलितों 1966
नैदानिक 1966
नोटों 1965
स्नातकोत्तर 1965
निचली 1965
वेबिनार 1965
म् 1964
ंख@@ 1964
फिकेशन 1964
ख़बरी 1964
जें 1963
कद@@ 1962
दोहरे 1961
सेले@@ 1961
ईश्वरीय 1961
कदापि 1961
बाद@@ 1961
3,000 1960
घट 1959
बाध्य 1959
चिप@@ 1959
फूट 1959
बदमाश 1959
डऩे 1959
कैलिफोर्निया 1957
ंबर 1957
महाराजा 1957
प्रतिवर्ष 1956
म्म@@ 1956
लिंग@@ 1956
पना@@ 1956
उछाल 1955
रिटी 1955
पल्ली 1955
कहर 1955
कहेगा 1954
उम्@@ 1954
भूपेंद्र 1953
परसतिश 1953
बहुजन 1953
निका 1953
प्रशि@@ 1952
निरा@@ 1952
नायर 1952
औप@@ 1951
वारि@@ 1951
कूट@@ 1950
माकपा 1950
हत्याकांड 1950
180 1949
णु@@ 1949
पचास 1949
यूरिया 1949
एमएल 1948
आंखें 1948
पीएफ@@ 1947
प्रश्@@ 1947
खरी@@ 1947
स्वायत्त 1946
विजयी 1946
वेणुगोपाल 1946
ड्राइविंग 1946
लूर 1945
बेल्जियम 1945
अयोग्य 1945
अन्तिम 1945
अर्ज़ 1945
आरो@@ 1944
दुः@@ 1944
प्रज्ञा 1944
उपभोग 1943
वक़्त 1943
सवारी 1943
हामिद 1943
गवर्नेंस 1942
सुविधाजनक 1942
रक्षण 1942
यिक 1942
मैसेज 1942
राजे 1942
महासंघ 1942
दक 1941
दक्षिण@@ 1941
वारा 1941
शिविरों 1941
तरीक़े 1941
इब्@@ 1941
टैगोर 1941
अर्थव्यवस्थाओं 1940
आलू 1940
पायनियर 1940
हराने 1940
नरों 1939
128 1939
हरसंभव 1939
उभरते 1938
गला 1938
वसीम 1937
इकोनॉ@@ 1936
देंगी 1936
भावनात्मक 1936
पीडि़त 1936
वस्तु@@ 1935
लिका 1935
रसूलों 1935
तुओं 1934
ग्रेटर 1934
मित्तल 1934
बच्च@@ 1934
रच@@ 1933
बीएसएनएल 1933
रोहतक 1933
रीमेक 1933
आकांक्षाओं 1932
m 1932
रीन 1932
हेमंत 1932
दायी 1931
सम्भव 1931
वित्तमंत्री 1931
बर्खास्त 1931
जयंत 1931
हरों 1931
एमआई 1930
उत्तरा@@ 1930
कुश@@ 1930
काटने 1930
मस्ती 1930
अमे@@ 1929
स्वाद 1929
सरकशी 1929
महाभारत 1929
चरम 1928
कोण 1928
क्वॉ@@ 1928
रिश्वत 1928
रुद्दीन 1928
नशी@@ 1927
वासन 1927
सिंग@@ 1927
चंद्रमा 1927
प्रदर्शनकारी 1927
शित 1926
जेड 1926
बैठकर 1926
प्रान्त 1926
कुरिन्थियों 1926
तीर्थ@@ 1926
आयत 1925
पिंक 1925
भारद्वाज 1925
कराची 1925
सम्बन्धित 1924
करदाताओं 1924
जना 1924
नज़दीक 1923
तुल्य 1922
ंगी@@ 1922
वॉट 1922
पाट 1922
जानकारियां 1922
भोज 1922
ग्राफी 1922
द्यो@@ 1921
प्रेरक 1921
लूंगा 1921
रोचक 1920
प्रतिष्ठानों 1920
पशुपालन 1920
च्छा 1920
टेलि@@ 1920
अनौपचारिक 1919
जबरन 1919
सदनों 1919
भारत@@ 1918
वायर@@ 1918
बड़ 1917
इंद्र@@ 1917
0,000 1916
नुमा 1916
अंध@@ 1916
सहानुभूति 1916
गाड़ियां 1916
जैकी 1916
सिखाने 1916
इब्राहिम 1916
रिकवरी 1915
लाती 1915
क्रांतिकारी 1915
मित्रा 1915
विहार 1915
22@@ 1914
बला 1914
पेड़ों 1914
बनाएंगे 1914
गीतों 1914
समु@@ 1913
सुरंग 1913
डीएमके 1913
लियाँ 1912
ओमान 1912
रत्@@ 1912
डुअल 1912
लिहाजा 1911
क्रूज 1911
आए@@ 1911
वला 1910
पीट 1910
मथुरा 1910
किराए 1909
कोर्@@ 1909
शिनाख्त 1909
क्वीन 1909
तीर्थ 1908
अग्नि 1908
तिया@@ 1907
हेनरी 1907
साइना 1907
कैंप 1906
प्यारे 1906
मसला 1906
विका@@ 1905
ल्ड@@ 1905
्रो@@ 1905
मेक्सिको 1904
फरी 1904
प्राचीनों 1904
ऋषभ 1904
वाटर 1903
र्ण 1902
चुनी 1902
चूर 1902
आमाल 1902
गलियारे 1901
बिगड़ 1901
चंदा 1901
कलापों 1900
इतर 1900
अपनाई 1900
18.@@ 1900
लाभदायक 1900
मसा@@ 1900
पेय 1899
रोध 1899
लेज 1899
हानिकारक 1899
6:@@ 1899
चौटाला 1899
रेजि@@ 1898
ट्रोल 1898
फैसलों 1898
मतगणना 1898
सुरेंद्र 1898
घटाकर 1897
कैश 1897
सर्वो@@ 1897
हानी 1897
लैंड@@ 1897
मित्रता 1897
लाम 1897
घुस 1896
ड्रेस 1896
नर्मदा 1896
प्रभाग 1895
अंडे 1895
बुला 1895
बाहम 1895
चर्चित 1895
हौसला 1895
रक्त@@ 1894
j@@ 1894
निर्मा@@ 1893
डीएम 1893
आपत्तिजनक 1893
दीपावली 1893
बिपिन 1893
ंसिंग 1892
सामंजस्य 1892
व्यायाम 1892
वाक़ि@@ 1892
रोक@@ 1891
समकालीन 1891
गोपनीयता 1891
बिस्तर 1891
घटकों 1890
गुप्@@ 1890
सावरकर 1890
श्रे@@ 1889
सुलझा@@ 1889
मंत्र@@ 1889
सुगमता 1888
आवागमन 1888
तारा@@ 1888
टें@@ 1886
एशियन 1886
विक्की 1886
प्रतिरोध 1886
आकस्मिक 1885
प्रभुत्वशाली 1885
पदभार 1884
आसमानों 1884
डिलीवरी 1883
खर 1883
लौटा@@ 1883
जाय 1883
आसार 1883
ललित 1883
मुश्किलें 1883
फरीदाबाद 1881
डरता 1881
खड़गे 1881
मंद 1880
एफपी 1880
मता 1880
पीपीपी 1880
वित 1879
अनावरण 1879
सरे 1879
१३ 1879
जेशन 1878
नॉन 1878
उपाधि 1878
गाय@@ 1878
अमेजन 1878
हत्य@@ 1878
तरी 1877
लक्षणों 1877
बादशाह 1877
20.@@ 1876
प्रदाता 1876
सौं@@ 1876
आहत 1876
स्ति@@ 1875
चौकी 1875
खुदकुशी 1875
सवा 1875
बॉन्ड 1873
मानदंड 1873
परिषद् 1873
कोले@@ 1873
ल्टर 1873
ईमानवालों 1873
वंश@@ 1873
सुशासन 1873
मैसूर 1872
गेटिव 1872
प्राधिकारी 1871
हुंडई 1871
श्रीकांत 1871
जयललिता 1871
सीने 1871
राजकोषीय 1870
आश्रय 1870
गुरू@@ 1870
द्धा@@ 1870
पवि@@ 1870
सलीम 1869
नम्बर 1868
प्त 1868
जियो@@ 1868
द्धार 1867
ज़ाम 1867
ऊं 1867
एलसी 1866
उदार@@ 1866
श्वेता 1866
पवित्रा 1866
त्मा 1866
ीक 1865
कना 1865
ऊँ@@ 1865
द्रमुक 1865
पहलवान 1865
असे@@ 1864
ंतों 1864
सौरभ 1864
राल 1863
आयुर्विज्ञान 1863
चाह 1863
रीकरण 1862
प्रौ@@ 1862
खरीदारी 1862
भूस्खलन 1862
हफ्तों 1862
सहभागिता 1861
2030 1861
घूमने 1861
केशव 1861
धूम्रपान 1861
द्वार@@ 1860
बालक 1860
असदुद्दीन 1860
सीआर 1859
प्रशासक 1859
मल्टी 1859
मॉल 1859
कतर 1859
चोटिल 1859
दिव@@ 1858
कराते 1858
यक़ीन 1858
पुजारा 1858
परिसरों 1857
गेशन 1857
मृदा 1857
लट@@ 1857
नौजवान 1857
पूछो 1857
चतु@@ 1856
महत्त्व 1856
एडम 1856
रोष 1856
फाइनेंस 1855
स्क्रिप्ट 1855
जहन्नम 1855
गावस्कर 1855
शुभ@@ 1854
बारूद 1854
स्पिन 1854
हेल्पलाइन 1853
घेराबंदी 1853
नमन 1853
क्रम@@ 1852
रिपोर्@@ 1852
वेंद्र 1852
नियंत्रक 1851
ऑपरेटिंग 1851
कीर्@@ 1851
सोवियत 1851
किन्@@ 1850
जीवंत 1850
घराने 1850
ज़रूर@@ 1849
ंड्स 1848
डिप्लोमा 1848
ख्तेयार 1848
ठिकानों 1848
प्रजाति 1848
डेवल@@ 1847
शियम 1847
चैट 1847
अंग्रेजों 1847
गैरकानूनी 1847
राबी 1846
रावल 1846
हँसी 1846
टिप्पणियों 1845
साप्ताहिक 1845
पैटर्न 1845
ठहराए 1845
एमए 1844
एंगी 1844
सिक@@ 1844
विश्ले@@ 1843
एमएम 1843
विख्यात 1843
पटकथा 1843
रोमन 1843
पोजीशन 1842
ट्रायल 1842
यहो@@ 1842
मिथ@@ 1841
संवे@@ 1841
रसोई 1841
पख@@ 1840
चारि@@ 1840
बर्ट 1840
ंदगी 1840
वाक़िफ 1840
पोरेट 1839
गिर्द 1839
रामायण 1839
पीजीआई 1839
फेस्टिवल 1838
साहित्यिक 1838
मंडलीय 1838
गुड 1838
विस 1838
बुजुर्ग 1838
अफवाह 1838
छठी 1837
संगीतकार 1837
सीमावर्ती 1837
शर्म 1837
खाया 1837
भ्रा@@ 1836
er 1836
अर्थशास्त्र 1835
भक्तों 1835
फज़ल 1835
नारा@@ 1835
मला 1835
होस्ट 1834
लॉट 1834
हटने 1834
गतिरोध 1834
सिंध 1834
पेशे 1834
युजवेंद्र 1834
एनए@@ 1833
कीट 1833
दुर्घटनाओं 1833
गांधीजी 1833
मदन 1833
मजेदार 1833
मुशर्रफ 1833
मौर्य 1833
हाफिज 1832
नवजात 1832
समूचे 1831
लोकल 1831
सुराग 1831
आरसी@@ 1829
एजेंडे 1829
रिपोर्ट्स 1829
डाई 1828
मान्य@@ 1828
याना 1828
सुसाइड 1828
मार्केटिंग 1827
स् 1827
काव 1827
साइटों 1827
ख़ुश 1826
कुश्ती 1826
फते@@ 1826
चालित 1825
सुल@@ 1825
सीपी 1824
सार्वभौमिक 1824
स्क्वा@@ 1824
झंडी 1824
महाविद्यालय 1823
समन्वित 1823
महंगा 1823
आत्मघाती 1823
कदर 1823
आरडी 1822
विभागीय 1822
विवादास्पद 1822
ईपीएफओ 1822
दहशत 1822
चार्जशीट 1822
केट@@ 1821
निकालकर 1821
शांति@@ 1821
10वीं 1821
ग्लास 1821
बिजी 1821
आरोपितों 1821
वीएसएम 1821
सना@@ 1821
सोनू 1820
ब्रु@@ 1820
हल्@@ 1819
उपदेश 1819
सिंघ@@ 1818
घा 1818
कृतियों 1816
डूब 1816
भावुक 1816
मठ 1815
फ्रेंड 1815
दरख्@@ 1814
पढ़ना 1814
नाथ@@ 1814
01.@@ 1813
कुलम 1813
मनप्रीत 1813
एनएम 1813
घने 1812
कमजोरी 1811
डिया@@ 1811
कमिंस 1811
स्तियों 1810
160 1810
com 1810
बरसात 1810
वामपंथी 1810
मोमिन 1810
मंशा 1809
एसई@@ 1808
तीव्रता 1808
नाव 1808
राज़ी 1808
दादी 1808
छात्रवृत्ति 1807
सेतु 1807
सीखते 1807
सोलर 1806
मैरी 1806
क़ादिर 1806
बराक 1806
नासा 1806
बर्ताव 1805
काय@@ 1804
रवींद्र 1804
अंडर@@ 1803
ज्य@@ 1803
वाचा 1803
बडी 1802
बेसब्री 1802
घटना@@ 1801
टेस्टिंग 1801
पिया 1801
लीस 1801
हड़कंप 1801
सूर्@@ 1801
राष्ट्री@@ 1799
चलाते 1799
पार्थिव 1799
कांड 1799
गुंजाइश 1798
प्रशस्त 1798
मूला 1798
लियोन 1798
तनी 1798
चाचा 1798
किस्मत 1798
इकाइयां 1797
एक्सपो 1797
अनन्त 1797
एएनआई 1797
टेंशन 1797
प्रमाण@@ 1796
ताब@@ 1796
सराहनीय 1795
मण@@ 1794
अस्प@@ 1794
बहार 1794
कट्@@ 1793
ल्क 1793
नियल 1793
कियारा 1793
तम@@ 1792
बेड 1792
किस@@ 1792
शेर@@ 1792
एके@@ 1792
अनमोल 1792
एंटरटेनमेंट 1792
जयराम 1792
आॅ@@ 1792
गर्ल 1792
प्शन 1791
कारा@@ 1791
मनाई 1791
ंटि@@ 1790
जलाने 1790
क़ियामत 1790
प्रतिभूतियों 1789
इंजीनिय@@ 1789
खरी 1789
इश@@ 1789
,999 1789
किस्तान 1789
कुदरत 1789
प्रत्याशियों 1789
डोभाल 1789
धु 1788
गांधीनगर 1787
ब्रह्म@@ 1787
पत्य 1787
कोरो@@ 1787
उड़ा 1787
एनटीपीसी 1787
छिपे 1787
गार@@ 1786
धनी 1786
ील 1786
रेशम 1786
स्टैंड 1785
नेहा 1785
पत्र@@ 1784
अधीनस्थ 1784
दुर्भाग्य 1784
ग्रेट 1783
डेल 1783
मॉर्@@ 1783
तिहाड़ 1783
मजा 1783
उभरती 1782
19.@@ 1782
विश्वास@@ 1782
नोटिफिकेशन 1782
बंबई 1782
फ्लैश 1782
न्द@@ 1781
मनु 1781
बूझ 1781
सरपरस्त 1781
अध्यापक 1781
एग्जाम 1781
क्षाओं 1780
ओगे 1780
इकबाल 1780
फूलों 1780
12,@@ 1778
रवि 1778
हलफ@@ 1778
फौ@@ 1778
विशेषताएं 1777
ेद 1777
मैन्यु@@ 1777
प्रतिज्ञा 1777
मांड 1777
सारा@@ 1776
w@@ 1776
एनसीसी 1776
करुणा 1776
ठहरे 1776
साध@@ 1775
निकली 1775
साधते 1775
सामान्य@@ 1774
आन्@@ 1774
चट@@ 1774
प्रमाणन 1773
प्रविष्टि 1773
कटाई 1773
एयरो@@ 1773
आल@@ 1773
इज@@ 1773
प्लेटफार्म 1772
जिनपिंग 1772
38@@ 1771
विश्राम 1771
समीकरण 1770
अहसास 1770
बांस 1770
आख़ेरत 1770
मंज़ू@@ 1770
बहुपक्षीय 1769
मालिकों 1769
देवे@@ 1769
लड़कियां 1769
उड़ानें 1769
पद्मावती 1769
मैट 1768
कठिनाइयों 1768
अरु@@ 1768
शासी 1768
शरणार्थियों 1768
थॉ@@ 1768
अहम@@ 1768
ज्ञा 1768
प्रतिफल 1767
औसतन 1767
डाउन 1767
वासों 1767
नॉल 1767
करूं 1767
सुन्दर 1766
गुल 1766
अद्वितीय 1765
मयंक 1765
एलेक्स 1765
अभियोजन 1765
हिना 1765
हास 1764
योग्य@@ 1764
लिफ्ट 1764
प्रोटे@@ 1764
विलियमसन 1764
रित 1763
ट्रिब्यू@@ 1763
माओ@@ 1763
GB 1763
वाड़ी 1763
संकाय 1762
वकालत 1762
लगाएं 1762
विलियम 1762
तब्दील 1762
कर्फ्यू 1762
माप 1761
लेक 1761
पंप 1761
सकर 1761
श्रो@@ 1761
अफसरों 1761
पूनम 1761
सजग 1760
डालना 1760
स्वप्न 1760
प्रमोद 1760
मैक्स 1760
नौवहन 1760
रणीय 1759
बाजवा 1759
CAA 1759
एनजीओ 1758
परिणीति 1758
गति@@ 1757
ंकर 1757
सुनो 1757
कान्@@ 1756
जनहित 1756
कॉपी 1756
कमेंट 1755
दस्त 1754
तकलीफ़ 1754
रतन 1754
शिष्टमंडल 1754
१६ 1753
त्रियों 1753
रविंद्र 1753
बनाएगा 1752
अतुल 1752
पूछना 1751
निकलते 1751
पुनः@@ 1750
परम 1750
उत्तराधिकारी 1750
नं 1749
भूति 1749
द्द@@ 1749
इलेक्ट्रो@@ 1748
मिट 1748
बेह@@ 1748
्याह 1748
चार्ट 1747
फिल 1747
नर्सिंग 1747
जनहार 1747
कॉक 1746
निशाने 1746
नहर 1746
तिब्बत 1746
जया 1746
गिरिराज 1746
आरओ 1745
प्रोफाइल 1745
ख़ौफ 1745
नरे@@ 1744
जौ@@ 1744
नकली 1744
हड़@@ 1744
कोचिंग 1744
न्दर 1744
छोड़ना 1744
बहुमूल्य 1743
हृ@@ 1743
थिएटर 1743
धूल 1743
निर्गम 1742
कंधे 1742
कुर@@ 1742
सरस्वती 1742
जापुर 1742
हेल 1742
टीचर 1742
करनेवाली 1742
एग्री@@ 1741
व्यास 1741
डब्ल्यूएचओ 1741
सिगरेट 1741
मोल 1741
एल्बम 1741
उच्चायुक्त 1741
कल्चर 1739
ब्राउ@@ 1739
डाक्टरों 1739
अपमानजनक 1739
रोमियों 1739
१९८@@ 1739
पीटा 1739
यी@@ 1738
जीरो 1738
आदि@@ 1738
धाम 1738
एयरवेज 1738
चीज़े 1738
u 1738
ज्यू@@ 1737
ारोपण 1737
उच्चस्तरीय 1737
नीदरलैंड 1737
सुंद@@ 1737
चाकू 1737
किरदारों 1737
हिंद@@ 1737
जन्नत 1737
फ्रांसि@@ 1737
जीवनसाथी 1737
भीम 1736
संगोष्ठी 1736
रिहाई 1736
सोनाली 1736
इट 1735
इकट्ठे 1735
पार्षद 1735
बूथ 1735
दिखाती 1735
विक्रय 1734
त्ति 1734
घेरे 1734
इंग्लिश 1734
बाल्@@ 1734
पांच@@ 1733
एनटी@@ 1733
कतें 1733
मरा 1733
कैदी 1733
घुटने 1733
सत्रों 1732
लॉजि@@ 1732
घास 1732
इसराईल 1732
गोवि@@ 1732
विद्रो@@ 1732
अलबत्ता 1731
शुरूआती 1731
नगरपालिका 1731
ंगु@@ 1731
किब 1731
रेस्ट 1730
आवेदक 1730
is 1730
कोचर 1730
दीवारों 1730
धारा@@ 1729
चश्@@ 1729
वन्य 1729
हाद 1729
क़िस्म 1729
लाएगा 1729
नवाजुद्दीन 1729
लिखना 1729
सद्भाव 1728
डाक्टर 1728
किर्@@ 1728
सम्बद्ध 1727
विक्रेताओं 1727
लड़ते 1727
स्कूटर 1727
दर्शाती 1726
ईयों 1726
स्कॉ@@ 1726
ताला@@ 1726
फ्लिपकार्ट 1726
टकों 1726
गलतियों 1725
पर्यावरणीय 1725
फिरौ@@ 1725
हवा@@ 1725
सिपाही 1725
ओएस 1724
दिशा@@ 1723
शीट 1723
स्टडी 1723
चढ़ा 1723
झी@@ 1723
स्वयंसेवक 1723
पेंशन@@ 1722
लयी 1722
मेनन 1722
पूंजी@@ 1721
नियमा@@ 1721
1,0@@ 1721
सस्ते 1721
भास्कर 1721
चाई 1721
रहूंगा 1721
नाले 1721
जेंडर 1720
लोहे 1720
अमन 1720
लीज 1719
पूर्णता 1719
अनदेखी 1719
श्रीराम 1719
भाग्यशाली 1719
जिं@@ 1719
मैक्@@ 1719
दौलत 1719
क्सि@@ 1718
सुखद 1718
येगी 1718
उन्होनें 1718
रविचंद्रन 1718
31.@@ 1717
तृतीय 1717
बेच@@ 1717
इंटेलिजेंस 1717
रहू@@ 1717
मण्ड@@ 1716
परिवार@@ 1716
कौल 1716
ंद्रा 1716
1990 1715
उम्मीदें 1715
इच्छा@@ 1715
निकलता 1715
कन्हैया 1715
जीना 1715
अली@@ 1714
ग्वालियर 1714
फॉर@@ 1713
लाभार्थी 1713
लीं 1713
राजमार्गों 1713
यश 1713
एजे@@ 1712
स्कै@@ 1712
IS@@ 1712
भाग्य 1712
मुख्यातिथि 1712
शाऊल 1712
निस्तान 1712
बरदार 1712
जोड़ना 1711
आजीवन 1711
त्यों 1711
स्नान 1711
सं 1710
पेशेवरों 1710
वेश 1710
मिटा 1710
सुविधा@@ 1709
नतम 1709
मिड@@ 1709
संगति 1709
वण 1709
हुनर 1709
अज़ी@@ 1709
घं@@ 1709
ऑं@@ 1709
बदतर 1708
टॉक 1708
पंड्या 1708
मैं@@ 1707
पाली 1707
ज़बान 1707
प्रथाओं 1706
ड़ियां 1706
लिश 1706
आपातकाल 1706
हरीश 1706
ग्रंथ 1706
गढ़वाल 1706
III 1705
एप्लीकेशन 1705
अग्रसर 1705
कंड@@ 1705
अफरीदी 1705
मरी 1705
शमन 1704
हैरी 1704
हवाओं 1704
आईसीएमआर 1703
सता 1703
विल 1702
अन्ततः 1702
हज़ारों 1702
मनाते 1702
काः 1701
क्रिकेटरों 1701
मिलीं 1701
डीन 1701
हसीना 1701
दृढ़@@ 1700
शर्तें 1700
बाउ@@ 1700
परेश 1700
लोकपाल 1699
मूल्यवान 1699
खेतों 1699
उपर 1699
चमत्कार 1699
जॉनी 1699
निशानियों 1699
बंट@@ 1698
2.5 1698
फाय@@ 1698
दपुर 1698
सँ@@ 1698
गार्डन 1698
वैधानिक 1697
विदों 1697
चार्जिंग 1697
तह 1697
टीडीपी 1697
शालाएं 1696
शिकस्त 1696
पैक 1695
कैप 1694
त्रता 1694
मेल@@ 1693
सीता 1693
बीएचपी 1693
खं@@ 1692
पड़ोस 1692
स्किन 1692
एलान 1692
संग्र@@ 1691
व्याप्त 1691
रैं@@ 1691
मस 1691
गैंगरेप 1691
क्रियाओं 1690
ज़कात 1690
टीओ 1689
वयस्क 1689
शॉ 1689
सौंपने 1688
यादगार 1688
शिक्षाओं 1688
यूरो 1687
संदर्भित 1686
कैप्@@ 1686
मंचों 1686
किग्रा 1685
ध्व@@ 1684
अमी@@ 1684
ड़े@@ 1684
कीन 1684
अभ्यर्थी 1684
महा 1684
खातिर 1684
इस्राएली 1684
पक्षीय 1683
चलाना 1683
जजों 1683
ओली 1683
ग्लेन 1683
क्सन 1682
जेब 1682
हलाल 1681
पुडुचेरी 1681
हिस्@@ 1680
किर@@ 1680
अर्चना 1680
ल्य 1679
रिसा@@ 1679
डेनमार्क 1679
भै@@ 1679
संक्र@@ 1678
प्ति 1678
प्रवीण 1678
सूर@@ 1678
एससी@@ 1677
टरिंग 1677
डीपी 1677
दिव्यांग 1677
केबल 1677
जेने@@ 1676
ताएँ 1675
900 1675
घनिष्ठ 1675
इनकम 1675
मस@@ 1675
टेज 1675
अवतरित 1675
अध्यापकों 1675
बाग़ों 1675
सौंपे 1674
कृत्य 1674
स्त्र@@ 1674
तियार 1674
बीम@@ 1674
उभर 1673
उड़ीसा 1673
लुधियाना 1673
विवा@@ 1673
गर्दन 1673
प्रोग्रा@@ 1672
स्टार्क 1672
गिन 1672
चिह्नित 1671
सिद्धा@@ 1671
अपवाद 1671
ओरि@@ 1671
नम्रता 1671
स्क्र@@ 1670
डोमेन 1670
पार्टनर 1670
पाइप 1670
फोसिस 1670
भगो@@ 1670
नीति@@ 1669
सूच@@ 1669
ट्रा 1669
कुर 1669
बवाल 1669
परिवेश 1668
मद 1668
आंधी 1668
बुरा@@ 1668
वरना 1668
ध्रु@@ 1668
स्की@@ 1667
एससीओ 1667
टिक@@ 1666
स्टेंट 1666
सिद्धि 1666
मुख़@@ 1666
करोड 1665
नैतिकता 1665
पन्न 1665
मुश्किलों 1665
अंगों 1665
ष्कृत 1664
फारूक 1664
टैक्सी 1664
किक 1663
हारों 1663
मोटर@@ 1663
फ़रिश्तों 1662
योजक 1661
भौ@@ 1661
ाराम 1661
स्टार्स 1661
संब@@ 1660
पैके@@ 1660
णित 1660
पुकारा 1660
अत 1659
शत 1659
समस्या@@ 1659
राजकोट 1659
अप्रत्याशित 1658
आइडिया 1658
a@@ 1657
ंडरों 1657
ारे@@ 1657
पीढ़ियों 1657
लेबल 1656
4,000 1656
यिका 1656
खल@@ 1656
पढ़कर 1656
आंग@@ 1656
देशीय 1655
पोरेशन 1655
ग्रैंड 1655
उपरांत 1654
आईआरसीटीसी 1654
डीएफ 1654
चढ़कर 1654
ज्या@@ 1654
तेहैं@@ 1654
राज़ 1654
श्वर@@ 1654
जोसेफ 1653
मम्मी 1653
हिंदुत्व 1653
कार्यवाहक 1653
आनन 1653
चुरी 1653
200@@ 1652
प्रस@@ 1652
सें 1652
किताब@@ 1652
बंटवारे 1652
धौ@@ 1652
जीते@@ 1652
निर्णयों 1651
इसहा@@ 1651
सहा@@ 1650
शिपिंग 1650
प्रोड्यूसर 1650
पारा 1650
रॉक 1650
बृ@@ 1649
आयामी 1649
स्पॉ@@ 1649
एड 1649
Y@@ 1649
यूक्रेन 1649
बालिका 1649
वरीयता 1648
समझकर 1648
कपड़ों 1648
होगें 1648
मंत्री@@ 1648
नेहवाल 1648
आएँ 1647
हैसियत 1646
बख्श 1646
जासूसी 1646
उतरी 1646
सोचिए 1646
स्तुति 1646
सेल@@ 1645
खरा 1645
पार्ट@@ 1645
घोर 1645
वाक@@ 1645
मल्लिकार्जुन 1645
वाम 1645
संतोषजनक 1644
यास 1644
गोविंद 1644
गोरि@@ 1644
किरा@@ 1643
आलम 1643
रॉकेट 1643
तदनुसार 1642
मालि@@ 1642
णीय 1642
वीसी 1642
आर्टिकल 1642
ढे 1642
हत्या@@ 1642
ंडेंट 1641
जनादेश 1641
प्रख्यात 1641
वरों 1641
सेरे@@ 1641
ST 1641
कार्यबल 1639
सूचनाएं 1639
ड्डी 1639
नानी 1639
जलि 1639
लजी 1639
एनपी@@ 1638
एमजी 1638
एरिया 1638
दम@@ 1638
World 1638
फिल्म@@ 1638
रोमांस 1638
गायिका 1637
इंडिगो 1637
लाः 1636
तारों 1636
मुहर 1636
कोंक@@ 1635
टीआरएस 1635
एकजुटता 1635
फानन 1635
समीर 1635
ऍ@@ 1635
विदा 1635
भागीदारों 1634
भय@@ 1634
भूमि@@ 1634
असीम 1634
खड़@@ 1634
सद्@@ 1634
विल्@@ 1634
आख़ि@@ 1634
वज़ह 1634
खेद 1634
सकने 1633
शंघाई 1633
जंगलों 1633
जीतना 1633
क़ों 1633
एमटी@@ 1632
टीई 1632
स्के@@ 1632
आंदो@@ 1632
जुर्@@ 1631
यीं 1631
छापे 1631
निशाने@@ 1631
जुड़ाव 1630
सामग्रियों 1630
क़े 1630
खैर 1630
बीजिंग 1630
तापसी 1630
एली@@ 1630
तफ@@ 1630
चरि@@ 1629
गंगा@@ 1629
तपुर 1629
डेटाबेस 1628
सूरी 1628
अरे 1628
वास्तुकला 1628
अंशदान 1627
पुट 1627
विक्र@@ 1627
डीडी@@ 1627
नाया 1627
o@@ 1627
गर्मियों 1627
नल्ड 1627
सम्बन्धी 1626
आयाम 1626
लिप@@ 1626
स्किल 1626
ऑलराउंडर 1626
इन्सान 1626
मैक्सवेल 1626
आदिल 1626
पीआर 1625
फिया 1625
चेता@@ 1625
नवाब 1625
वोडाफोन 1625
विज@@ 1624
नेपाली 1624
चौंकाने 1624
तली 1624
चिकित्सा@@ 1624
पत्रकारिता 1624
प्रचारक 1624
क़ाबू 1624
पहिले 1623
ढ़ि@@ 1623
णिक 1622
सान@@ 1622
झार@@ 1622
कण 1622
बीती 1622
गंवा 1622
ब्रायन 1622
तम्@@ 1622
रीज 1621
रें@@ 1621
डेढ़ 1621
100@@ 1621
योन 1621
वॉर्नर 1621
टनी 1621
ल्डर 1621
स्ति 1620
बांटने 1620
जमाने 1620
योगा@@ 1619
दांव 1619
स्वर्गदूत 1619
पीएचडी 1618
सेकंड 1618
देसी 1618
पीडि़@@ 1618
माधव 1618
शहद 1618
विन्यास 1617
स्थानांतरण 1617
रायबरेली 1617
आउटपुट 1616
लाइब्रेरी 1616
ईशा 1616
संविदा 1615
आईजी@@ 1615
लाइफ@@ 1615
जन्मभूमि 1615
निवेदन 1615
नुक़सान 1615
फिल्मी 1615
नामे 1614
विधियों 1614
समी 1614
तिन 1614
ॊ@@ 1614
दीर्घ@@ 1613
्रि@@ 1613
पला@@ 1613
कॉलिंग 1613
बांड 1612
केन्द्र@@ 1612
कमा 1612
जमी@@ 1612
दुर@@ 1612
व्युत्@@ 1611
1998 1611
प्रोजे@@ 1611
चलें 1611
राबाद 1611
रिएबल 1610
चलिए 1610
५० 1610
एनकाउंटर 1610
इब्रानी 1610
क्लस्टर 1609
ठुकरा 1609
वनस्पति 1608
सिन्@@ 1608
मिठा@@ 1608
सामी 1608
हाईवे 1608
कार्ति 1608
किन@@ 1608
न्ग 1608
नेअमत 1608
सड@@ 1608
वक्ता 1608
नार्@@ 1607
सके@@ 1607
ढाका 1607
एड्स 1607
टंडन 1607
जफर 1607
स्विट्जरलैंड 1606
चावला 1606
नवरात्रि 1606
कमि@@ 1605
रिफंड 1605
तालि@@ 1605
ड्रग 1605
VI@@ 1604
त्तों 1604
पुनरा@@ 1604
खोलकर 1604
सेशन 1604
ारियाँ 1604
चांद 1604
एकाद@@ 1604
प्रवास 1603
ड्राइ@@ 1603
रिन 1603
ख़ैर 1603
रिपब्लिकन 1603
ंद्रे 1603
स्टारर 1603
प्रतिस्पर्@@ 1602
हैरानी 1602
जगन्नाथ 1602
मधुर 1602
21.@@ 1601
भाषी 1601
कथ@@ 1601
हाशि@@ 1601
कष्ट 1601
अजमेर 1601
लैंडिंग 1601
बीवी 1601
लड़े 1601
राइडर्स 1601
रेस्@@ 1601
राग 1601
वरन 1600
निको@@ 1600
नामजद 1600
अरूण 1600
आपूर्ति@@ 1599
गतिशील 1599
108 1599
विजे@@ 1599
काबि@@ 1599
ंकन 1598
मुख्य@@ 1598
ष्ण@@ 1598
स्पेक्ट्रम 1597
कल्प@@ 1597
वॉच 1597
बितर 1597
खासा 1597
हादसों 1597
जगन 1597
माओं 1597
दिव्य 1597
पालक 1596
नियु@@ 1596
गिरा@@ 1596
सील@@ 1596
तंबाकू 1595
ब्ध 1595
जोंग 1595
पठान 1595
भवनों 1594
450 1594
दंड@@ 1594
जहाजरानी 1594
जहाज़ 1594
बंसल 1594
दर्शा@@ 1593
जरुरी 1593
गणि@@ 1593
दाहिने 1593
क़ी 1593
आईसीयू 1593
चांसलर 1593
रिक्शा 1593
पुनर्निर्माण 1592
द् 1592
बॉय@@ 1592
तटरक्षक 1592
टः 1592
कुक 1592
कुणाल 1592
महानिदेशालय 1592
एनि@@ 1591
उर्वरकों 1591
तबीयत 1591
क्रियान्वित 1590
उजा@@ 1590
सक्सेना 1590
सर्टिफिकेट 1589
ख़री@@ 1589
मुआवजे 1589
धमाल 1589
माइक्रोएसडी 1589
चक्र@@ 1588
खरीदी 1588
दां@@ 1588
वक्फ 1588
यूजीसी 1588
बोल्ड 1588
जोड़कर 1587
1947 1587
सूट 1587
बदलावों 1586
टमाटर 1586
स्टोन 1586
एनजी@@ 1586
हावी 1586
सर्व 1586
CM 1586
34@@ 1585
विफलता 1585
एलडी 1585
ंचा@@ 1585
कियाः 1585
याचिकाओं 1585
फड़@@ 1584
हंसी 1584
चोटी 1584
सैन 1584
फुटबाल 1584
मुश्@@ 1583
कूट 1583
प्रेशर 1583
रचा 1583
ंजी@@ 1582
कीमती 1582
णुओं 1582
अकेली 1582
कर्नूलु 1582
भ्रमण 1582
उल्लिखित 1581
अभ्यर्थियों 1581
किशो@@ 1581
201@@ 1580
कड@@ 1580
१७ 1580
ंचल 1580
दिलजीत 1580
संप्रभुता 1580
प्रत्यक्ष@@ 1579
६ः 1579
ंशियल 1578
फली 1578
मंड 1578
विस्@@ 1578
मैग@@ 1578
वह@@ 1577
v 1577
राउ@@ 1577
कर्तव्यों 1577
तितर 1577
वता 1576
रियां 1576
फिल्म्स 1576
अगरचे 1576
इमाम 1576
कानी 1576
कोशिशों 1576
ज्ञान@@ 1575
वाट 1575
स्टैंडर्ड 1575
विद्युतीकरण 1575
निकालना 1575
मदी@@ 1575
रपुर 1575
कारबार 1575
सुरे@@ 1575
३० 1574
यूनेस्को 1574
कान@@ 1574
दरिया 1574
राधिका 1574
टसन 1574
नेटर 1573
पहचाना 1573
नौका 1573
पैरा 1572
मॉनसून 1572
नियो 1572
नती 1572
मसलन 1572
दंगों 1572
W 1572
गुणवत्तापूर्ण 1571
शिफ्ट 1571
गन्ना 1571
माउंट 1571
मंजिल 1571
सोर्@@ 1570
संक@@ 1570
वक्ताओं 1570
जटि@@ 1569
ग्रीन@@ 1569
प्टर 1569
सम्बंधित 1569
सम्बोधित 1569
वैरिएंट 1569
चैलेंज 1569
मुद्रा@@ 1568
पेड 1568
दृश्यों 1568
डाक@@ 1568
पीएमओ 1568
पराजित 1568
पत्तियां 1567
जबलपुर 1567
इस्रा@@ 1567
रूपांतरण 1566
ंप 1566
कौन@@ 1566
सिक्योरिटी 1566
बढ़ाता 1565
बोलना 1565
पक्की 1565
ढी@@ 1565
फरिश्ते 1565
प्रयो@@ 1564
क्ताओं 1564
वि 1564
बेचा 1564
१८ 1564
ॆ 1564
शियां 1563
सुचारू 1563
लांग 1563
जुटा 1563
खंगा@@ 1563
संवेदनशीलता 1562
डब्ल्यूडी 1562
बारीक 1562
अथॉरिटी 1562
The 1562
अंश@@ 1561
विज़न 1561
शुदा 1561
ब्रांच 1561
लानत 1561
हरिद्वार 1561
क्सो 1561
उत्तरप्रदेश 1560
कंटेनर 1560
घरवालों 1560
गिस्तान 1560
रियाय@@ 1559
एलपी 1559
पश्चा@@ 1559
ंध@@ 1559
आत्मिक 1559
नौकरियां 1559
उदयपुर 1558
AAP 1558
सेक्@@ 1558
शायर 1558
वगैरह 1558
आरबी 1557
बांटा 1557
वेग 1557
याचि@@ 1557
चिकित्सीय 1557
सूचक 1556
पहा@@ 1556
बॉबी 1556
13,@@ 1555
एना@@ 1555
द्रो@@ 1555
अनुपस्थिति 1554
इंडेक्स 1554
वर्द्धन 1554
संचालक 1554
पृष्ठ@@ 1554
नवाजा 1554
जगदीश 1554
स्सी 1554
इंतज़ाम 1554
करारा 1554
ट्टा 1553
बनाएगी 1553
दहेज 1553
ीकृत 1552
क्वालिटी 1552
स्वाय@@ 1552
जाँ@@ 1552
वोल्@@ 1552
चोरों 1552
फत 1552
जल्दबाजी 1551
लड़ा@@ 1551
तुषार 1551
किशोरी 1551
विश्वसनीयता 1550
जरूर@@ 1550
on@@ 1550
मनोवैज्ञानिक 1550
देशभक्ति 1550
08.@@ 1549
डीएम@@ 1549
लड@@ 1549
रहस्य 1549
जाति@@ 1549
ड़ो 1549
मेमोरियल 1548
लाएं 1548
वारंट 1548
ँगे 1548
प्लेयर 1548
राष्ट्रवाद 1548
छात्रा@@ 1548
गर्भ 1548
स्तीन 1548
बिता 1548
नरम 1547
मक़@@ 1547
एनए 1546
सहकारिता 1546
फेल 1546
st@@ 1546
बुलाने 1546
बल्ले 1545
हलाक 1545
निर्यातकों 1544
सुधीर 1544
समारोहों 1544
नजरअंदाज 1544
चमक 1544
पॉप 1544
प्वाइंट 1543
आयरन 1543
अवय@@ 1543
अज़@@ 1543
बर्लिन 1543
प्रारम्भ 1542
अंतः@@ 1542
वाए 1542
an@@ 1542
चटर्जी 1542
अफवाहों 1542
नाः 1542
॰@@ 1542
सर्दियों 1541
बल्स 1540
दोहरी 1540
पहुँ@@ 1540
भरें 1540
परम्परा 1540
गिक 1540
खंडों 1539
परोक्ष 1539
सीआईएल 1539
बीबी 1539
सर्जिकल 1539
स्टेज 1539
जनजातियों 1539
ग्रेजुएट 1539
मिलनी 1539
गर्लफ्रेंड 1539
स्पै@@ 1539
शौच 1539
आत्@@ 1539
टीपी 1538
दिलाता 1538
मृतका 1538
रिकॉर्@@ 1537
स्तं@@ 1537
वाही 1537
नम@@ 1537
व्स 1536
बैक@@ 1536
बिन्दु 1536
लार्@@ 1536
स्कर 1536
रहिए 1536
बजा@@ 1536
मेनका 1536
बंधक 1535
कल्स 1535
श्वरी 1535
an 1535
प्रभास 1535
पैथी 1535
हवाईअड्डे 1535
किसके 1535
अनुप@@ 1534
ग्यार@@ 1534
दुर्व्यवहार 1534
इका@@ 1533
यथास्थिति 1533
ङ@@ 1533
गोल्डन 1533
ढाई 1533
हस्तशिल्प 1533
नन्@@ 1533
स्ट्रो@@ 1533
रेगा 1533
उपबंधों 1532
दरा@@ 1532
स्टो 1532
म्ब 1532
चकित 1532
विजयन 1532
कुत्ते 1532
09.@@ 1531
खिड़की 1531
नजर@@ 1531
फ्लि@@ 1531
बाघ 1531
पात्रता 1530
र्थियों 1530
कहानियां 1530
विगत 1529
गिरकर 1529
मिलान 1529
पंजी@@ 1529
कप@@ 1529
रिवा@@ 1529
उपेक्षा 1529
ंजलि 1529
जपा 1529
शक्तियां 1528
सर्वसम्मति 1528
किंगडम 1528
चड्ढा 1528
पांचवीं 1528
काबुल 1528
पोलैंड 1528
विशाखापत्तनम 1528
ऊंचा@@ 1527
5000 1527
खींच 1527
साम्@@ 1526
बँ@@ 1526
मुन@@ 1526
कुंभ 1526
प्राथमिकताओं 1525
बित 1525
ज्योतिरादित्य 1525
विरोधियों 1525
भयंकर 1525
दोज़ख़ 1525
लाह 1525
रोज़गार 1524
जलमार्ग 1524
नस्ल 1524
बटालियन 1524
1980 1523
अंपायर 1523
पत्नियों 1523
घोषणा@@ 1522
एएम 1522
प्राइम 1522
वीरता 1522
मांड@@ 1522
पाकीज़ा 1522
परा 1522
कारावास 1522
प्रिय@@ 1521
मौखिक 1521
हम्@@ 1521
आंध्रप्रदेश 1521
प्रतिपक्ष 1520
सब्जी 1520
बोनी 1520
क्या@@ 1520
गीर 1520
पेडनेकर 1520
Q@@ 1520
कृष्णन 1519
इंटर 1519
आईएसआई 1519
तंत्रिका 1519
उमा 1519
नियाम@@ 1518
वाइड 1518
ट्रो 1518
एथलीट 1518
ताहिर 1518
गेंद@@ 1518
स्पोर्ट 1518
मुश@@ 1517
बहनें 1517
दालों 1516
कनेक्ट 1516
प्ट 1516
होल्डर 1516
मिनि@@ 1516
सीआईआई 1516
बहाली 1515
सिफारिशें 1515
सराहा 1515
नृ@@ 1515
जिलाधिकारी 1515
उत्पादित 1515
ताकतवर 1515
लार्ड 1515
04.@@ 1514
त्सव 1514
मकर 1514
BCCI 1514
हवीं 1514
गतिशीलता 1513
गुरुद्वारा 1513
अनन्या 1513
इब्रानियों 1513
मनन 1513
निविदा 1512
तुरन्त 1512
मुनाफा 1512
छाप 1512
पेशा@@ 1512
रोकते 1512
साहसिक 1512
देखती 1511
बछ@@ 1511
शृंखला 1510
सीडेंट 1510
महानिरीक्षक 1510
RBI 1510
GST 1510
काउंटर 1509
कताएं 1509
चव्हाण 1509
वक 1508
ग्रह@@ 1508
केन्या 1508
कारें 1508
दांत 1508
अस्थ@@ 1507
लेग 1507
तरों 1507
हाउस@@ 1506
सांकेतिक 1506
अभिलेख 1506
मानवाधिकारों 1506
ंव 1506
बत्@@ 1506
ट्रांसपोर्ट 1506
ब्राह्मण 1506
संकलन 1505
इसमे 1505
कावट 1505
कीर्ति 1505
पिछड़ा 1505
शीतकालीन 1505
उतारने 1505
सुलेमान 1505
चमोली 1505
कंप्यू@@ 1504
आश्र@@ 1504
बीएम@@ 1504
रखनी 1504
आइस@@ 1504
गानों 1504
सिंधू 1504
नंदा 1504
जायें 1504
रबी 1503
ट्रिक्स 1503
पीटी 1502
शार्@@ 1502
सबूतों 1502
टाइन 1502
14,@@ 1501
षकों 1501
विक्रेता 1501
हिं@@ 1501
खिलाडि़यों 1501
दंपति 1501
तमं@@ 1500
कहलाता 1500
घोड़े 1500
अर्धशतक 1500
बदनाम 1500
झांसी 1500
स्टुअर्ट 1500
उगा@@ 1499
मैके@@ 1499
पीसीएल 1499
फ्लैट 1498
मग़@@ 1498
अमरनाथ 1498
गौर@@ 1498
बोबडे 1498
प्रशं@@ 1498
टिकटों 1497
यार्ड 1497
दिक्कतों 1497
विलास 1497
रिपोर्टिंग 1496
ऑडि@@ 1496
उपयोक्ता 1496
सिंहासन 1496
दिखे@@ 1496
जिया@@ 1496
दुल्@@ 1496
वेयर 1495
पैड 1495
सुदूर 1495
फ्रेम 1495
स्लो@@ 1495
पोर्टफोलियो 1494
1996 1494
द्दी 1493
बतायी 1493
कटो@@ 1493
फ्रेंचाइजी 1493
हंस 1493
हाफ 1493
खजू@@ 1493
णन 1492
राह@@ 1492
ंची 1492
एबीवीपी 1492
परम@@ 1492
राजभवन 1492
मानकर 1492
स्टी 1491
140 1491
सैट 1491
पूर्ववर्ष 1491
कारतूस 1491
सिस्ट@@ 1490
फार्मा 1490
हस्तांतरित 1489
कृतज्ञता 1489
जुनून 1489
ड्रन 1489
कुबूल 1489
संरचनात्मक 1488
कराएगा 1488
l@@ 1488
कोश 1488
मेडिसिन 1488
for 1488
विचाराधीन 1487
07.@@ 1487
असं@@ 1487
मुख्यधारा 1487
चिन्ता 1487
हैक 1487
तकलीफ@@ 1486
भतीजे 1486
स्ते 1486
दर्शाते 1485
प्रतिक्रिया@@ 1485
वक्@@ 1485
पुर्तगाल 1485
ख़ि@@ 1485
अंगू@@ 1485
हेली@@ 1485
सप्ता@@ 1484
मांगें 1484
सोरेन 1484
सेवकाई 1484
750 1483
रोधक 1483
फिंग 1483
हथकरघा 1483
उग्र@@ 1483
आज्ञाकारी 1483
शिवकुमार 1483
al@@ 1483
लीडर 1482
मोटी 1482
बैंग@@ 1482
वान@@ 1482
फरमाया 1482
माही 1480
एप्@@ 1480
परीक्षणों 1480
उपलब्धियां 1480
सोल 1480
पांव 1480
सगाई 1480
चैम्पियन 1480
लानेवालो 1480
परक 1479
वैधता 1479
दण्ड 1479
ट्रिपल 1479
अंदरूनी 1479
कसा 1479
कारगिल 1479
एआई@@ 1478
इन्स 1478
कैच 1478
पहुँची 1478
एहद 1478
इलाका 1478
मोर 1477
छाई 1477
डालता 1477
इज 1477
बसें 1477
कतई 1477
नैनो 1477
शर्ट 1477
वॉशिंगटन 1477
सेवानिवृत्ति 1476
15,@@ 1476
मसलों 1476
अंधे@@ 1476
150वीं 1476
सांख्यिकीय 1475
माइक्रोसॉफ्ट 1475
संघर्ष@@ 1475
सते 1475
संहार 1475
नक्सलियों 1475
मुख्तार 1475
स्तन@@ 1475
सावंत 1475
सीना 1475
ऋणों 1474
लुटे@@ 1474
23.@@ 1473
प्रोटो@@ 1473
अगुआई 1473
घिरा 1473
शाहीन 1473
चौबे 1473
भरोसे 1472
http 1472
उम्मीदों 1472
अमेरि@@ 1472
टेंगे 1472
फ्रेमवर्क 1471
आगंतु@@ 1471
प्रैक्@@ 1471
ंको 1471
रहा@@ 1471
मृत्यु@@ 1471
प्रदाताओं 1470
प्रौद्योगि@@ 1470
वेरी 1470
इंग@@ 1470
गैलेक्सी 1470
अविश्वास 1470
आकां@@ 1470
बघेल 1469
धर्मनिरपेक्ष 1469
30.@@ 1468
मनरेगा 1468
क्रमा@@ 1468
ऑटोमोबाइल 1468
सेफ 1468
पात्रा 1468
पत्तियों 1468
फॉलो 1468
यूपी@@ 1468
पौराणिक 1468
करारी 1468
नं@@ 1467
हाजिर 1467
लैक्@@ 1467
1992 1467
त्यागी 1467
प्रेरणा@@ 1467
पांड@@ 1467
अरा@@ 1467
आदर्शों 1467
पैलेस 1467
अदिलाबादु 1467
ऑस्कर 1467
रुझान 1466
मिका 1466
ब्लैक@@ 1466
पलटवार 1466
आईए 1465
वास@@ 1465
बनारस 1465
प्रहरीदुर्ग 1465
धन्य 1465
परामर्@@ 1464
पना 1464
कता@@ 1463
सन्देह 1463
पानीपत 1463
आधार@@ 1462
कराधान 1462
अनुप्रयोगों 1462
क्लीन 1462
बेहश्त 1462
महापौर 1462
ड्राफ्ट 1461
तर्कसंगत 1461
104 1461
चाइना 1461
बहू 1461
मार्ग@@ 1460
मिशनरी 1460
ईन 1460
सैनिटाइ@@ 1459
बंदूक 1459
नाबार्ड 1458
06.@@ 1458
कमाने 1458
बिक 1458
1950 1458
दर्ज़ 1458
एएस@@ 1457
आनेवाले 1457
गाम 1457
दय@@ 1457
वृत्ता@@ 1457
विधवा 1457
k 1457
आक्रोश 1457
लाइसे@@ 1456
हार्डवेयर 1456
बिज@@ 1456
गज@@ 1456
ऊँ 1456
धक्का 1456
22.@@ 1455
पियन 1455
अनु 1455
एचआईवी 1455
बेहतरी 1454
चने 1454
क्टरों 1454
महिला@@ 1454
रेस्तरां 1454
माने@@ 1454
बाबरी 1454
छावनी 1454
पट्टे 1453
एफआई 1453
माध्यमों 1453
सीरीज़ 1453
्री@@ 1453
विमान@@ 1453
ऊँची 1453
or 1453
एसएम@@ 1452
उपयोगिता 1452
आल 1452
भयावह 1452
दुश्मनों 1452
पूजन 1452
बरस 1452
गुरदासपुर 1452
श्रद्धालु 1452
बनाओ 1452
विनष्ट 1452
भौतिकी 1452
दार्शनिक 1452
समेंट 1451
देनेवाला 1451
मुह@@ 1451
लाठी 1451
पहुंचीं 1451
बिगड़@@ 1450
हाला@@ 1450
इसे@@ 1450
ंघ@@ 1450
तब्बू 1450
जादूगर 1450
मौकों 1449
प्रसंग 1449
ऊँचे 1449
डीएसटी 1449
जॉय 1449
बनाएँ 1449
बेर 1448
शासकीय 1448
इलेक्ट्रि@@ 1448
लनी 1448
u@@ 1448
सफल@@ 1448
मुक्के@@ 1448
शोरूम 1448
आस@@ 1447
भीत 1447
जवानी 1447
आईफोन 1447
करेंः 1447
बाबर 1447
वांग 1447
दायित्वों 1446
तर्@@ 1446
योद्धा 1446
भटक 1446
शर्मि@@ 1446
तोहफा 1446
गोपनीय 1445
पीपीई 1445
रवीश 1445
डिजाइनर 1445
दामाद 1445
पचा@@ 1445
अर्जेंटीना 1445
03.@@ 1444
लापन 1444
अर्ध 1444
गाइ@@ 1444
जाम@@ 1444
नाइजीरिया 1444
नज़रिया 1444
Cup 1444
रामदेव 1444
वीएस 1443
सरी@@ 1443
1962 1443
स्की 1443
तालाब 1443
फ़िरऔन 1443
इलेक्ट्रा@@ 1442
काइ@@ 1442
सौंदर्य 1442
लड़ना 1442
बिताने 1442
दाना 1442
अनियमि@@ 1441
जीवनी 1441
US 1441
समयबद्ध 1440
वृद्ध 1440
नकल 1440
सौहार्द 1440
अनंतनाग 1440
जिन्ना 1440
हिरा 1440
al 1440
तद@@ 1439
अम्बेडकर 1439
वोल्टेज 1439
एंगल 1439
मर्या@@ 1439
अनावश्यक 1438
सिल्@@ 1438
इकल@@ 1438
आनु@@ 1437
दूरस्थ 1437
वर्स 1437
1997 1437
तलाशने 1437
भट्टाचार्य 1437
आरोप@@ 1437
गिरफ्त 1437
शरणार्थी 1437
मिलाया 1437
सरपंच 1437
नेल 1437
लक्षद्वीप 1437
फाल 1436
आमंत्रण 1436
ग्लै@@ 1436
भड़क 1436
टोनी 1436
णः 1435
किरेन 1435
सुब्रमण्यम 1435
बुझाने 1435
काल्पनिक 1435
अभियुक्त 1435
चंद@@ 1435
प्रिंसिपल 1434
सहारे 1434
रामपाल 1434
कैंडि@@ 1433
ICC 1433
राठौड़ 1433
अहं@@ 1433
ऊँगा 1433
ककर 1433
इंफ्रास्ट्रक्चर 1432
रचना@@ 1432
कत@@ 1432
दवाएं 1432
दूँगा 1432
तमन्ना 1432
21वीं 1432
म्स@@ 1432
अंकुश 1431
ईटी 1431
ठाणे 1431
प्रचंड 1431
ऋष@@ 1431
एनपीआर 1431
चढ़ाई 1431
हार्य 1430
विविध@@ 1430
बादी 1430
सर्दी 1430
पटल 1430
ंटल 1430
यॉर्क 1430
फ़त 1430
कुरि@@ 1430
प्रार@@ 1429
ट्रिलियन 1429
टर्न@@ 1429
रहस्य@@ 1429
हिप 1429
लग्@@ 1428
टेक्नो@@ 1428
सोर्स 1428
60@@ 1428
टियां 1428
राइफल 1428
तिर 1428
सरकश 1428
स्नेह 1428
अपनाना 1427
मियां 1427
प्रतिरक्षा 1427
फँ@@ 1427
खंडपीठ 1427
लौटना 1427
त्ता@@ 1427
सेमिनार 1426
ऊर्@@ 1426
बदलती 1426
समुद्र@@ 1426
आश्चर्यजनक 1426
निश्@@ 1426
एचएस 1426
ज़िंदा 1426
ग्राफर 1426
ओएनजीसी 1426
सवाब 1426
मर्रा 1426
टीआई 1425
म्बर 1425
तलाक़ 1425
गोपी@@ 1425
हटाना 1424
मानव@@ 1424
हिंदु@@ 1424
नगरीय 1423
संक्रामक 1423
अभ्या@@ 1423
विला@@ 1423
शब्द@@ 1423
करूँ 1423
मदर@@ 1423
एक्सेस 1422
शिल्प@@ 1422
पावन 1422
कक्षाओं 1422
रास्त 1422
रिवर्स 1421
काले@@ 1421
निशा@@ 1421
म्मा 1421
मलबे 1421
ज्ड 1420
निराशाजनक 1420
भाज@@ 1420
उठाई 1420
शिरो@@ 1420
आरोग्य 1420
श्वेत 1420
फाइन@@ 1419
फार्मास्@@ 1419
or@@ 1419
समिट 1419
क्लिंटन 1419
ar 1419
फाइने@@ 1418
तारीखों 1418
मैने@@ 1418
आला@@ 1418
कुर्सी 1418
जिये 1418
टिप्पणियां 1417
संयोग 1417
सूखा 1417
धनुष 1417
एनएल 1417
किया@@ 1416
घन 1416
सक्रियता 1415
विज्ञापनों 1415
पीस 1415
टैक्@@ 1415
पद्म@@ 1415
क़ुदरत 1415
पठानकोट 1415
चॉ@@ 1415
सीमाएं 1414
सावधा@@ 1414
भेड़ों 1414
धर्मेन्द्र 1414
उठकर 1414
प्रोसे@@ 1413
सर्वि@@ 1413
ड्यूल 1413
जोड़ता 1413
फिनलैंड 1413
सत्ताधारी 1413
मुं@@ 1413
ईशान 1413
कारीगरों 1413
नीकरण 1412
24.@@ 1412
उत्साह@@ 1412
कार्यक्षेत्र 1412
प्लेस 1412
बिट 1412
तत्व@@ 1412
सला 1412
दिग्@@ 1412
बैठी 1412
रॉय@@ 1412
न्नी 1412
27.@@ 1411
धरा 1411
दोहन 1411
हीरा 1411
टैं@@ 1411
फ़ैसले 1411
स्त्रियाँ 1411
शालाओं 1410
उठने 1410
मौनी 1410
डील@@ 1409
वेस्टमेंट 1409
पीएसयू 1409
ख़राब 1409
फिली@@ 1409
ख्वाजा 1409
भावनाएं 1409
हरि 1409
प्रतिभागी 1408
जानेवाले 1408
परिपूर्ण 1408
रियो@@ 1408
एप्लिकेशन 1407
28.@@ 1407
पत्रिकाओं 1407
रिफाइनरी 1407
नरी 1407
१९ 1407
ऑन@@ 1406
ब्री@@ 1406
खुशहाली 1406
बीबीसी 1406
वान् 1406
श्रेयस 1406
कीपर 1406
सहाय 1405
ल्फ 1405
देशा@@ 1405
पन्नू 1405
झुठला 1405
भूमिगत 1404
दिखेंगे 1404
काबिल 1404
डरे 1404
समन 1404
गिरफ़्तार 1404
गाँ@@ 1403
कार्यकारिणी 1403
य्य@@ 1403
पोम्पि@@ 1403
मुजाहि@@ 1403
शिवपाल 1403
पूर्णतः 1402
न्ड 1402
चट्टान 1402
धूम 1402
मानु@@ 1402
संके@@ 1401
विशि@@ 1401
चिंताजनक 1401
ंबली 1401
एंबुलेंस 1401
पिताजी 1401
टीजर 1401
सेटिंग 1401
दान@@ 1400
विलंब 1400
सत्यापित 1400
बांग्ला 1400
एनएच 1400
कटा 1400
ग्रीष्@@ 1399
फिलीपींस 1399
फिंगरप्रिंट 1399
खिलाडिय़ों 1399
चतुर्वेदी 1398
भत्ता 1398
दुग्ध 1398
ध्वस्त 1398
नौकर@@ 1398
समाहित 1397
संदेशों 1397
औषधीय 1397
डं@@ 1397
भव@@ 1397
गुलाबी 1397
कनेक्@@ 1396
सरसों 1396
कुलर 1396
स्टाइ@@ 1396
निगमों 1395
नामांकित 1395
सॉलि@@ 1395
श्ती 1395
बाध्य@@ 1394
थर्मल 1394
उखा@@ 1394
यिर्मयाह 1394
सेल्स 1393
वालो 1393
मुताबिक़ 1393
मुकु@@ 1393
पाओगे 1393
अभिभावक 1393
बुजुर्गों 1393
अश्लील 1393
जाद 1393
काँ@@ 1392
पिघ@@ 1392
योगे@@ 1392
राजेन्द्र 1392
संपाद@@ 1392
48@@ 1391
अच्छ@@ 1391
ताज़ा 1391
कारखाने 1391
फीफा 1391
जुर्म 1391
रक@@ 1390
हिन्दुओं 1390
मुलाक़ात 1390
लाएँ 1390
ईएस 1389
स्रा@@ 1389
विनि@@ 1388
सीओ 1388
कल्याणकारी 1388
एक्सिस 1388
वंशी 1388
कोहरे 1388
ठहराते 1388
गर्भा@@ 1388
वचन@@ 1387
नित 1387
आईएसएफ 1387
टोक्यो 1387
इत्ते@@ 1387
ज्योति@@ 1387
अचल 1386
त्याग@@ 1386
पाइपलाइन 1386
फ्लू 1386
पीड़@@ 1386
es 1386
en@@ 1386
सूबे 1386
रिटेल 1385
निरंतरता 1385
कम्पनियों 1385
बायो 1385
जूट 1385
आर्थ@@ 1385
पतन 1385
दुर्घटनाग्रस्त 1385
अभिनेताओं 1385
संतुष्टि 1384
दुरुस्त 1384
रिकॉर्डिंग 1384
क़ौ@@ 1384
संवेदनाएं 1384
जंक्शन 1384
शोभा 1384
मौजिज़े 1384
विस्त@@ 1383
एवाई 1383
बान्@@ 1383
तकनी@@ 1383
वास्तु@@ 1383
अपनाए 1382
ढील 1382
स्या@@ 1382
भेजकर 1382
COVID 1382
याद@@ 1382
FIR 1382
हमी 1382
थलग 1382
जोखि@@ 1381
सप्@@ 1381
मांजरेकर 1381
बीत 1380
घोषणापत्र 1380
लगीं 1380
मैथ्यू 1380
नजीर 1380
ओमी 1380
ंं 1380
कीकरण 1379
अध्ययनों 1379
काफिर 1379
ख़ू@@ 1379
रखाव 1378
जिंद@@ 1378
लार 1378
छापा 1378
हाद@@ 1378
तिका 1378
ऋण@@ 1377
f@@ 1377
ताक 1377
मनु@@ 1377
डिटे@@ 1377
पाला 1377
मेकर 1376
साझी 1376
बाहुबली 1376
लिकाओं 1376
बलूचिस्तान 1376
मिलन 1376
बद्धता 1375
05.@@ 1375
2025 1375
अस्थिर 1374
उद्धृत 1374
टीएस 1374
यांत्रिकी 1374
1993 1374
एला 1374
सब्जियां 1374
कबड्डी 1374
ेगें 1374
अमर@@ 1374
बल्ले@@ 1374
धारित 1373
अपे@@ 1373
वर्धित 1373
निष@@ 1373
कली@@ 1373
भेजना 1373
महीना 1373
निकलकर 1373
रियलिटी 1373
लड़ी 1372
कोठ@@ 1372
कोलंबिया 1371
कीटना@@ 1371
एनएसजी 1371
उड़ 1371
ज्वा@@ 1370
शिता 1370
चूँकि 1370
पीपीएसी 1370
शेड्यूल 1370
लोस 1370
ंटी 1370
ग्न 1370
हड्डी 1370
भाई@@ 1370
जहर 1370
डांसर 1370
क्य 1369
बिंदुओं 1369
न्तों 1369
इफि@@ 1369
एपिसोड 1369
जेएन@@ 1369
अत्याचारी 1369
आविष्कार 1369
आलोचकों 1369
सेन्@@ 1368
अप्स 1368
सुथ@@ 1368
वीके 1368
असंवैधानिक 1368
वॉर 1368
विज 1368
ग्रै@@ 1367
कूटनीतिक 1367
मोचन 1366
मॉरीशस 1366
रिव्यू 1366
निभाती 1366
आकाशवाणी 1366
एक्सप्रे@@ 1366
उपल@@ 1366
ठंडे 1366
दीस 1366
वाक़@@ 1366
अफ़@@ 1366
बत@@ 1366
एफटी 1365
आवृ@@ 1365
राइड 1365
उम्रकैद 1365
समैन 1364
साजिद 1364
नाई@@ 1364
बग@@ 1364
शीलता 1363
पंचवर्षीय 1363
जर्सी 1363
हिन्दु@@ 1363
ग़ 1363
तोड़फोड़ 1363
दर्जनों 1363
वाहा 1363
25.@@ 1362
रेखा@@ 1362
मैटिक 1362
बाय@@ 1362
अधिकरण 1362
स्तों 1362
कोमल 1362
कैल्शियम 1362
कमो@@ 1361
गन@@ 1361
कुलभूषण 1361
राजा@@ 1361
छाए 1361
us 1361
चम्@@ 1361
बशर्ते 1360
सैद्धांतिक 1360
25,000 1360
कराकर 1360
प्रांतीय 1360
सु 1360
ख्वाहिश 1360
मंडप 1360
आंबेडकर 1360
नैनीताल 1359
इर@@ 1359
डिपार्टमेंट 1359
तख्@@ 1359
फौज 1359
नम्र 1359
तटों 1359
26.@@ 1358
निष्कर्@@ 1358
सरे@@ 1358
इमरजेंसी 1358
संप्र@@ 1358
सेक्रेटरी 1358
मार्श 1358
प्लेक्स 1357
धं@@ 1357
गुर्@@ 1357
ख्वा@@ 1357
उतने 1357
मुगल 1357
उम्दा 1357
कच्छ 1357
ूं 1357
लेम 1356
रॉस 1356
मुल्@@ 1356
सर्जन 1356
१९७@@ 1356
इत्@@ 1356
उग्रवाद 1356
नकारी 1355
डेस्कटॉप 1355
झोंक 1355
ट्राई 1355
सूजन 1355
उत्तरदायित्व 1354
रियायत 1354
डियन 1354
भरत 1354
वय@@ 1354
क्षाएं 1354
तिलक 1354
बर्तन 1354
पीडी 1353
प्रस्ता@@ 1353
हैप्पी 1353
हाना 1353
सार्क 1352
धिकृत 1352
ख्य@@ 1352
ईस 1352
लनों 1352
पैदावार 1352
नजात 1352
बहने 1352
भविष्यवक्ता 1352
ओलम्पिक 1352
लक्@@ 1352
इतिहासकार 1352
वसुंधरा 1352
हेमा 1351
बगल 1351
ताइवान 1351
रिसेप्शन 1351
क्षणों 1350
ट्रैक्ट 1350
कैश@@ 1350
इण्@@ 1350
कव@@ 1350
ट्यूट 1350
घनत्व 1350
गिरि 1350
निर्मल 1350
निष्पा@@ 1349
इलेक्ट्रॉ@@ 1349
सले 1349
टोयोटा 1349
काबा 1349
स्कॉटलैंड 1349
बुला@@ 1349
नेगी 1349
at 1349
अभिनीत 1349
1,4@@ 1348
उत्पादकों 1348
मज@@ 1348
विंडो@@ 1348
मैन@@ 1348
टलर 1348
बरबाद 1348
चुनावः 1348
साड़ी 1348
संकेतों 1347
ंज@@ 1347
आयातित 1347
परीक्षाएं 1347
अवशेष 1347
पुकारते 1347
प्रकाशना 1347
कॉन्ग्रेस 1347
करायी 1346
एचओ 1346
स्मा@@ 1346
ॉन 1346
डेल्@@ 1346
दृष्टा@@ 1346
तबाद@@ 1346
लैण्ड 1345
दूरदर्शन 1345
पोर 1345
आर्य 1345
रोहि@@ 1345
क्विंटल 1345
फोटोग्राफी 1345
बालाकोट 1345
सिद्धान्त 1344
अवमानना 1344
मेटिक 1344
कटा@@ 1344
अजीज 1344
आइसोलेशन 1344
साझी@@ 1344
सुनना 1344
मिड 1343
प्राणियों 1343
SBI 1343
पादरी 1343
मून 1343
संदिग्धों 1343
इंसाफ 1343
चार्ल्स 1343
एआर 1342
सर्वा@@ 1342
ढूंढ@@ 1342
गम्भीर 1342
रामविलास 1342
कैमरों 1342
पिस्टल 1342
अगर@@ 1341
170 1341
भाटिया 1341
बाह 1341
प्य@@ 1341
महाप्रबंधक 1340
चिंतन 1340
आपदाओं 1340
यमन 1340
जनल 1340
एमबी@@ 1340
ज्यादती 1340
पोते 1340
झंडा 1340
दायरा 1339
इको@@ 1339
इनोवेशन 1339
बडे 1339
गेट्स 1339
am@@ 1339
उंग@@ 1339
रिचर्ड 1339
भिन्नता 1338
ऑडिट 1338
फॉलो@@ 1338
उत्थान 1338
ीम 1338
वफादारी 1338
दानिय्येल 1338
निन 1338
1970 1337
1995 1337
काएँ 1337
ब्ल@@ 1337
वेंटिलेटर 1337
सुमन 1337
सीएफ@@ 1336
ंगि@@ 1336
खाएं 1336
विकार 1336
तैयबा 1336
अख@@ 1336
लक्ष@@ 1335
माणिक 1335
विलियम्स 1335
पहुंचाना 1335
बिड़ला 1335
क़ै@@ 1335
लॉन्ड्रिंग 1335
ऎ@@ 1335
चुअल 1334
डीबीटी 1334
विधायी 1334
कन्या 1334
इल@@ 1334
करूँगा 1334
तेहैं 1334
सुनाने 1334
डि़@@ 1334
होम्यो@@ 1334
रन@@ 1334
माइश 1333
बोल्ट 1333
देखोगे 1333
जॉब 1332
सस 1332
मंथन 1332
कोय@@ 1332
चमक@@ 1332
झेल 1332
र्ो 1332
नियन 1332
ज़रु@@ 1332
अंतरि@@ 1331
कॉलम 1331
कतार 1331
श्रा@@ 1331
शेखावत 1331
रक्तचाप 1331
बेयर@@ 1331
अनुयायियों 1331
ललए 1331
छिपी 1331
साहा 1331
मैत्रीपूर्ण 1331
सरफराज 1331
चालान 1330
हेल@@ 1330
नॉर्@@ 1330
h 1330
रेपो 1329
निर्वहन 1329
मंगे@@ 1329
पद्धतियों 1328
फ्ले@@ 1328
प्रयागराज 1328
जाज 1328
डरने 1328
सिखों 1328
प्रोफेशनल 1327
रेंट 1327
त्त@@ 1327
सेवी 1327
175 1326
डि 1326
मोस 1326
रिज 1326
शासकों 1326
करुणा@@ 1326
जीएस 1325
क्सी 1325
ष्टा@@ 1325
समायोजित 1324
प्रोसेसिंग 1324
किराये 1324
उबर 1324
गारों 1324
अन्ना 1324
हारे 1324
पाओ 1324
बढाने 1323
मिलों 1323
अपरा@@ 1323
रक्षा@@ 1323
पेंटिंग 1323
रणजी 1323
दिखाकर 1323
निकोलस 1323
खुराक 1323
दाब 1323
छलांग 1322
मुंहतोड़ 1322
टेकर 1322
पुंछ 1322
उस्मान 1322
पाटी@@ 1322
संस्थाएं 1321
प्रू@@ 1321
लगाव 1321
ग्रन्@@ 1321
मार्कस 1321
अल्मोड़ा 1320
शिष्य 1320
अा@@ 1320
00,000 1319
कमांडिंग 1319
निए 1319
r 1318
वैष्ण@@ 1318
नक@@ 1317
पत्थरों 1317
सिय@@ 1317
चुकाने 1316
नियो@@ 1316
मुक़@@ 1316
वेडिंग 1316
स्तू@@ 1316
गोस्वामी 1316
डब्ल्यूसी 1316
अथक 1315
फिक्की 1315
स्टूडेंट 1315
नाका@@ 1315
कलंक 1315
https 1314
1956 1314
टैरिफ 1314
डेट्स 1314
टार@@ 1314
तौभी 1314
म्मे 1314
एआईएमआईएम 1314
शुष्क 1314
शादीशुदा 1314
यूआई 1313
स्तन 1313
बहुल 1313
एनएस 1313
निर्देशिका 1313
विज्ञानी 1313
लाइड 1312
दुचेरी 1312
एंव 1312
स्य 1312
खौ@@ 1312
रज 1312
कपल 1312
थोरा@@ 1312
तरे 1312
मोटा@@ 1312
` 1312
तांत्रिक 1312
आदिवासियों 1312
अभ@@ 1311
1991 1311
फॉर्मेट 1311
लड़ेगी 1311
भुला 1311
भं@@ 1311
उद्देश@@ 1310
30,000 1310
क्षेत्रफल 1310
तुम्@@ 1310
हरे@@ 1310
प्रगट 1310
आगाज 1310
आईसीटी 1309
यंग 1309
वेंशन 1309
इज़@@ 1309
केसः 1309
दावेदार 1308
शौचालयों 1308
शत्रुघ्न 1308
डालो 1308
ईः 1308
शकर 1308
्व@@ 1307
परिसंघ 1307
जूते 1307
राजभाषा 1306
रुख़ 1306
साया 1306
आँखें 1306
नौजवानों 1306
कोशिशें 1306
हावड़ा 1306
प्रेषण 1305
सद्भावना 1305
भेजे@@ 1305
मालिनी 1305
प्लेइंग 1305
शोपियां 1305
ईं@@ 1305
डेंगू 1305
सोनोवाल 1305
संक्षेप 1304
चिकित्सकीय 1304
निटी 1304
वैं@@ 1304
पहना 1304
तानी 1304
कलाप 1303
एव 1303
लेड 1303
मुकुल 1303
वनों 1303
क्रीम 1303
एचए@@ 1302
In@@ 1302
रश्मि 1302
केवी@@ 1302
हीत 1301
32@@ 1301
ऑपरेटर 1301
पां@@ 1301
क्के 1301
पापों 1301
अय@@ 1301
खुला@@ 1300
नेश 1300
हस्तियां 1300
फ़्रा@@ 1300
समझदार 1300
मच्छ@@ 1300
परिप्रेक्ष्य 1299
39@@ 1299
भरोसेमंद 1299
डिफ़ॉल्ट 1299
वनी 1299
राजे@@ 1299
विक्टोरिया 1299
एएम@@ 1298
पीसीआर 1298
शप 1298
सनसनी 1298
साहि@@ 1298
लालच 1298
स्विच 1297
एसएससी 1297
कारि@@ 1297
प्रगाढ़ 1297
मौन 1297
राख 1297
ل@@ 1297
पियो 1297
डमैन 1297
श्ले@@ 1297
माउ@@ 1297
बुले@@ 1296
रिलेशनशिप 1296
तर्ज 1296
मैत्री 1296
दिव्यांगजनों 1296
ब्रॉड 1296
पुरूषों 1296
खिल 1296
उत्त@@ 1295
असुरक्षित 1295
फुल्@@ 1295
ठहर@@ 1295
फ़ंक्शन 1295
संस्कृतियों 1295
शिय@@ 1295
बक@@ 1295
एहतिया@@ 1294
पोज 1294
नकार 1294
सीएनजी 1294
अस्थाना 1294
सीएस 1293
निकटतम 1293
बदलें 1293
नैनो@@ 1293
ख़बरदार 1293
एनएसएस 1293
मगध 1293
मंडलों 1292
कल्प 1292
ओम@@ 1292
ग्रं@@ 1292
खदे@@ 1292
मेश्वर 1292
चेले 1292
एबी@@ 1291
गनी 1291
प्रच@@ 1291
राठौर 1291
भोजपुरी 1291
बीपी 1290
रेख 1290
संपादित 1290
किं@@ 1290
अनोखी 1290
भाईचारे 1290
ऑब्@@ 1290
केक 1290
सिनेमा@@ 1290
संबंध@@ 1289
ध्य 1289
अन्तर्राष्ट्रीय 1289
आईटीसी 1289
सबमिट 1289
ओबे@@ 1289
रः 1289
डिविलियर्स 1289
बुवाई 1288
क्तियां 1288
चाहेगा 1288
मोशन 1288
तनु@@ 1288
पोरा 1288
संशोधनों 1287
एनपीएस 1287
नमी 1287
वांस 1287
वास्त@@ 1287
शुक्ल 1287
आलो@@ 1287
कोशिका@@ 1287
राजनेताओं 1287
मंडा@@ 1287
NH@@ 1287
मज़ा@@ 1287
यूनिवर्@@ 1286
खालिद 1286
अग्निशमन 1286
निष्ठ 1285
खुलने 1285
पांचों 1285
650 1285
पर्वतीय 1285
दुर्ग 1285
पड@@ 1284
पीय 1284
लव@@ 1284
लुत्फ 1284
लाओं 1283
अगु@@ 1283
हेलिकॉप्टर 1283
नारी 1283
डिजी@@ 1282
काया@@ 1282
कदा@@ 1282
आद 1282
नोई 1282
सीएसआर 1281
फ्रॉ@@ 1281
परफॉर्@@ 1281
बांध@@ 1281
डरा 1281
अत@@ 1281
टास्क 1280
गिंग 1280
यान@@ 1280
रेंगे 1280
पमेंट 1279
रिक्@@ 1279
मक्खी 1279
इश्@@ 1279
कोविन्द 1279
अर्थशास्त्री 1278
निराधार 1278
पाम 1278
india 1278
नाहक़ 1278
उड़ाया 1278
ससु@@ 1278
एलएमटी 1278
बन्धन 1277
कार्र@@ 1277
लैपटॉप 1277
ar@@ 1277
आईएमडी 1277
ठप 1277
ताकतों 1277
स्वरा 1277
पीड@@ 1277
जीपुर 1277
म्बर@@ 1277
राने 1277
भर्@@ 1276
16,@@ 1276
हता 1276
त्तम 1276
जॉर्डन 1276
काफि@@ 1276
हैऔर 1276
टुकड़ों 1276
माफ़ 1276
पीते 1276
एएसआई 1276
नीला@@ 1275
अल्प 1275
साख 1275
जाल@@ 1275
एंटर@@ 1275
लिए@@ 1275
कॉन्फ़ि@@ 1275
विश्वासी 1275
थुन 1275
ल्म 1275
पीपी@@ 1274
प्रारू@@ 1274
तीखी 1274
वर्ण@@ 1274
साइंसेज 1274
कश्@@ 1274
डेली 1274
बहती 1274
लगाता 1273
होनेवाली 1273
Home 1273
अदरक 1273
आड़े 1273
एडिशन 1273
रियाई 1273
कड़ 1272
बापू 1272
श्रृ@@ 1272
भेजें 1272
सत्@@ 1272
अलं@@ 1272
कराती 1271
ंगेः 1271
फटकार 1271
स्त्रों 1271
फिरते 1271
सेगमेंट 1270
आघात 1270
निर्बाध 1270
कर्ण 1270
स्तीनी 1270
महावीर 1270
धड़क 1270
एंड्रयू 1270
लैंडर 1269
न्योता 1269
क्वाली@@ 1269
थानों 1269
वैदिक 1269
सामयिक 1268
टेलीकॉम 1268
पॉली@@ 1268
वैवाहिक 1268
परेशा@@ 1268
खने 1267
बेल्ट 1267
श्चि@@ 1267
अलवर 1267
२५ 1267
मासूम 1267
बहरीन 1266
पंचा@@ 1266
नोड 1266
दिखती 1266
वादन 1266
म्या@@ 1266
स्त्र 1266
शुक्रगु@@ 1266
राधा@@ 1266
स्कू@@ 1266
जीपीएस 1266
क्रमिक 1265
समया@@ 1265
z 1265
ट्रेंट 1265
कम्प@@ 1264
इंजीनियरों 1264
झंडे 1264
धोखे 1263
मिसाइ@@ 1263
लूस 1263
सम्मेलनों 1262
लेपन 1262
बेसिक 1262
छुट्@@ 1262
हॉट@@ 1262
जाबाद 1262
लंबन 1262
पछता@@ 1262
आस्ट्रेलियाई 1262
हला@@ 1262
षणों 1261
प्राधिकार 1261
सूक्ष्@@ 1261
रक 1261
नेटवर्किंग 1261
रोके 1261
पुरातत्व 1261
टीएम 1260
सुसज्जित 1260
इक@@ 1260
द्रा@@ 1260
सिव 1260
इच्छाओं 1260
याज@@ 1260
सेलि@@ 1260
हवेली 1259
स्टीन 1259
धुंध 1259
तसवीर 1259
अँ@@ 1258
शस्त्र 1258
ढे@@ 1258
ब्योरा 1257
चैं@@ 1257
फ्रा 1257
दरवा@@ 1257
ब्लास्ट 1257
रती 1257
वोटर 1257
बब्बर 1257
अनुमानों 1256
बढ़ाए 1256
एजें@@ 1256
मसौदे 1256
पेश@@ 1256
मुहिम 1256
संगणित 1256
पेटीएम 1256
लज्@@ 1256
क्वालकॉम 1256
मूर्ति@@ 1256
गुहार 1256
पूज@@ 1256
दोसांझ 1256
शाखा@@ 1255
क्षतिपूर्ति 1255
भूतपूर्व 1255
टर्न 1255
मोहलत 1255
जोनास 1255
बरेली 1254
टाया 1254
स्वाधीनता 1254
ED 1254
नीले 1254
श्रीनिवास 1254
सुसंगत 1253
त्यो@@ 1253
एनएचएआई 1253
ब्रह्मास्त्र 1253
कोतवाली 1253
हारने 1253
अड़@@ 1252
मुकद@@ 1252
निभाएंगे 1252
तीर 1252
चोकसी 1252
पकड़कर 1252
हिफाज़त 1252
एहकाम 1252
शुद्धता 1251
टार 1251
पारे@@ 1251
फातिमा 1251
खुर्@@ 1251
सीनेट 1251
दयाल 1251
कौशिक 1251
लेन@@ 1250
ंब 1250
पत्तन 1250
चालीस 1250
बुलेट 1250
डसे 1250
स्त्रो@@ 1249
दबा 1249
मोदी@@ 1249
अन्तर्@@ 1248
अनुकरण 1248
रवैये 1248
प्रहार 1248
करनाल 1248
कानों 1248
बहादुरी 1248
पहचानने 1247
नदार 1247
निपटारा 1247
मेसी 1247
भोग 1247
चाहो 1247
माली 1247
बेकिस्तान 1247
स्र@@ 1247
देनेवाले 1247
हुओं 1247
ट्रैकिंग 1246
सुलह 1246
म्यूजियम 1246
समझी 1245
संरचनाओं 1245
क्री 1245
वना 1245
दीनदयाल 1245
ोली 1245
गजे@@ 1245
रोज़े 1245
चेतन 1245
प्रत्यर्पण 1245
सिक्का 1244
उभरी 1244
चाँद 1244
थर 1244
हेरा@@ 1244
जागरण 1244
पॉजि@@ 1243
विनिवेश 1243
15,000 1243
हरी@@ 1243
रुके 1243
पोप 1243
गायन 1243
संचयी 1242
शकों 1242
निकलती 1242
प्तता 1241
व्यवस्थाओं 1241
ऑफि@@ 1241
पहुंचना 1241
स्वास्थ्य@@ 1241
जिद 1241
as@@ 1241
पाएँ 1241
समूद 1241
दूँ 1241
साक्ष@@ 1240
बिठा@@ 1240
बाड़ी 1240
अहिंसा 1240
डकै@@ 1240
तारे 1240
अर्जन 1239
सिक्के 1239
बखूबी 1239
भूमिकाएं 1239
विज्ञा@@ 1239
गिराने 1239
चुपके 1239
खेलेंगे 1239
पश्@@ 1238
सरों 1238
भेजता 1238
पूर्णिमा 1238
विकला@@ 1238
दुष्यंत 1238
पीडिया 1238
तून 1238
शत्रुओं 1238
आईएन@@ 1237
र्ड्स 1237
ia 1237
नक्सली 1237
सस्पेंड 1237
बृहस्पतिवार 1237
गाली 1237
संकेतक 1236
1,5@@ 1236
ितों 1236
समझदारी 1236
कैंपस 1236
ठिकाने 1236
टोन 1236
प्रचारकों 1236
सबर्ग 1236
पॉपुलर 1236
हकी@@ 1236
झुंड 1236
सिफ़@@ 1235
64@@ 1235
ंडरी 1235
खाद 1235
फोटोः 1235
बिनती 1235
जीकरण 1234
सीबीडीटी 1234
हैरिस 1234
दिला 1234
लेडी 1234
यात्राओं 1234
कजा@@ 1233
खाए 1233
पीना 1233
अंधेरे 1233
सुन्नी 1233
७ः 1233
कोटक 1232
नजरिया 1232
घाव 1232
मण 1232
आबे 1232
तीर्थयात्रियों 1232
देशियों 1232
ृ 1232
जेक्शन 1231
जेनरे@@ 1231
नट@@ 1231
नक़@@ 1231
तथाकथित 1231
चंद्रचूड़ 1231
प्लै@@ 1230
NRC 1230
बाती 1230
जहाँ@@ 1230
खुदाई 1230
बैक्टीरिया 1230
फीसद 1230
उतारी 1230
वस्तुतः 1229
हाउसिंग 1229
निर्यातक 1229
ंजी 1229
उर्जा 1229
्रा 1229
जॉर्@@ 1229
अनिश्चितता 1228
शिष्ट 1228
समानांतर 1228
धिकारियों 1228
सांग@@ 1228
रियम 1228
नाता 1228
अपर्@@ 1228
प्रवा@@ 1227
२२ 1227
थक 1227
परिपत्र 1226
कॉमन 1226
ैंस 1226
तिरुवनंतपुरम 1226
नींबू 1226
तौरेत 1226
जैकलीन 1226
हक़ी@@ 1226
उलझ@@ 1226
अनुक्रम 1225
टायर 1225
ग्ले@@ 1225
धूमल 1225
धार्मिकता 1225
विदर्भ 1225
बची 1224
एचसी 1224
पीपी 1224
रंजीत 1224
क्रैश 1224
दाँ@@ 1224
इताअत 1224
पेस्ट 1224
स्मि@@ 1223
प्रदर्श@@ 1223
लैटिन 1223
चुंबकीय 1223
क्ष्य 1223
आलोच@@ 1223
वाईएसआर 1223
पक्के 1223
बनो 1223
बचाओ 1223
ढाँ@@ 1222
डीओ@@ 1222
ब्राउन 1222
सेफ्टी 1222
दूषित 1222
रोह@@ 1222
दड़ 1222
समझो 1222
आक@@ 1221
पठ@@ 1221
च्यू@@ 1221
मार्गदर्शक 1221
मूवमेंट 1221
विश्वासयोग्य 1221
अशुद्ध 1221
कथाओं 1221
लौटकर 1221
ग़ै@@ 1221
भरपाई 1220
बास 1220
जरूरतमंद 1220
सैटेलाइट 1220
नक्शे 1220
हिसार 1220
िा@@ 1220
प्रायोगिक 1219
जीएसटी@@ 1219
गठजोड़ 1219
सांत्वना 1219
ठेस 1219
साधना 1219
हाय 1219
प्रचुर 1218
तफरी 1218
खुल्ला 1218
न्या 1218
जाऊंगा 1218
हारा 1218
परिस्थितियां 1217
निभाता 1217
102 1217
विशाखा@@ 1217
नली 1217
पर्सन 1217
कॉलोनी 1217
पल्स 1217
सुपरहिट 1217
घमंड 1217
अजिंक्य 1217
जीवनशैली 1217
न्यूटन 1217
बेथ 1217
इबरत 1217
अरेस्ट 1217
तनावपूर्ण 1216
नायें 1216
डायरेक्शन 1216
मिग 1216
करूंगी 1216
धूमधाम 1216
एलवी 1216
नात 1216
उपवास 1216
अभियं@@ 1216
बेवकू@@ 1216
288 1216
निरूप@@ 1215
संपर्@@ 1215
विधा 1215
जबर्@@ 1215
नासिक 1215
लोकार्पण 1215
सूत्र@@ 1215
आईएफएफआई 1215
केवीआईसी 1215
सीएम@@ 1214
नवीकरण 1214
टैब 1214
संभ@@ 1214
अभिप्रेत 1214
मजबू@@ 1214
रचनाओं 1214
कैडर 1214
पर्या@@ 1213
क्रय 1213
खरीदे 1213
श्रेष्ठ@@ 1213
सज@@ 1213
छत्रपति 1213
बगा@@ 1213
कल्पित 1212
डिस्काउंट 1212
छात्रावास 1212
हवाई@@ 1212
घूम 1212
ल्ले 1212
अभय 1212
ट्रेडिंग 1211
समायोजन 1211
सीमांत 1211
त्सा@@ 1211
उज्ज्वल 1211
गुड़गांव 1211
गीगा@@ 1211
क्राफ्ट 1211
संगी 1211
कर्मों 1211
नेतन्याहू 1211
संचरण 1210
संस्थापित 1210
बारीकी 1210
लाइन@@ 1210
उद्धरण 1210
शीत 1210
संपादन 1210
क्वालीफाई 1210
फारसी 1210
लीवुड 1210
उबर@@ 1209
दंगे 1209
त्रासदी 1209
बॉय 1209
शियाई 1209
क़्त 1209
मुबारक 1209
पिस्तौल 1209
हव्वा 1209
एथलेटिक्स 1209
मता@@ 1208
1989 1208
फ़ै@@ 1208
अन्त@@ 1208
श्य 1208
एकतरफा 1208
अराज@@ 1208
गिरीश 1208
पकर 1208
चतुर्थी 1208
व्यभिचार 1208
जेनि@@ 1208
साबु@@ 1208
बादः 1208
राधाकृष्णन 1208
राशि@@ 1207
शिंग 1207
फैक्टरी 1207
रिकी 1207
विजयवर्गीय 1207
परमिट 1207
रोमी 1207
प्रधाना@@ 1207
टूरिज्म 1207
जील 1207
उड 1206
फैलाव 1206
उद्योग@@ 1206
समन्व@@ 1206
सिम्@@ 1206
नाईक 1206
मेहुल 1206
म्भिक 1205
घृ@@ 1205
दीव 1205
साम्रा@@ 1205
यहू@@ 1205
आवेदकों 1204
सीज 1204
विकलांग 1204
अलगाववादी 1204
बग़ैर 1204
जावडेकर 1204
वापिस 1203
अखबारों 1203
उदाहरणों 1203
अग्@@ 1203
बुश 1203
भिड़ंत 1203
फेज 1203
नाइजेशन 1202
नंब@@ 1202
आइये 1202
गंध 1202
फ्रि@@ 1201
तीर्ण 1201
नियोक्ता 1201
कुवैत 1201
जामा 1201
मलि@@ 1201
नह@@ 1201
कैरी 1200
साझेदारों 1200
होटलों 1200
वग़ैरह 1200
कहूंगा 1200
तेजस 1200
अधर्म 1200
परिसंपत्तियों 1199
पेरि@@ 1199
सुंदरता 1199
योद्धाओं 1199
अंग्रेज 1199
वाजिब 1199
शिकागो 1199
धमाका 1198
कोणीय 1198
हिर 1198
आनंद@@ 1198
साझीदार 1198
भती@@ 1198
पहन 1198
मेहरबानी 1198
मॉनि@@ 1197
फर्नी@@ 1197
कसौ@@ 1197
छिड़@@ 1197
प्राय@@ 1197
जम 1196
ंगता 1196
विकिरण 1196
फान 1196
बसा 1196
टुकड़ा 1196
तोड़कर 1196
व्यवसायों 1195
थ्र@@ 1195
बदलता 1195
हुयी 1195
दशह@@ 1195
मिस्टर 1195
प्रसव 1195
विश्वकप 1195
बस@@ 1195
एंटनी 1195
कैपिटल्स 1195
खले 1195
एसबी@@ 1194
जाली 1194
शिकायतकर्ता 1194
230 1194
पृथ@@ 1194
पागल 1194
हरिया@@ 1194
सेक्सी 1194
घिरे 1194
फट 1194
आरके 1194
कैप्शन 1194
1500 1193
टीसीएस 1193
स्कि@@ 1193
सबब 1193
भेजते 1193
ï@@ 1193
लेटेस्ट 1193
बंदू@@ 1193
लोगे 1193
क़समें 1193
वू@@ 1192
संचा@@ 1192
अभिभाषण 1192
कमे@@ 1192
ताज्जुब 1192
छुट्टियां 1192
मूलतः 1191
सौहार्@@ 1191
मलेरिया 1191
दिक्@@ 1191
अफ़्री@@ 1191
कट्टर@@ 1191
ज़िम्मे@@ 1191
आरसीबी 1191
आईआई@@ 1190
मतभेदों 1190
पुरु@@ 1190
स्य@@ 1190
मसी@@ 1190
लेखिका 1190
रातों 1190
डायबिटीज 1190
थियेटर 1190
सटे 1190
डि़यों 1190
29.@@ 1189
हाइब्रिड 1189
अटकल@@ 1189
एकसाथ 1189
तालीम 1189
सफा@@ 1189
घेरा 1189
वंदे 1189
अन्जाम 1189
ारू@@ 1189
1,6@@ 1188
लॉगिन 1188
प्रेसिडेंट 1188
याओं 1188
क्लिप 1188
एलियों 1188
तिरू@@ 1188
मॉडलों 1187
1994 1187
वेरि@@ 1187
दिली 1187
ड्रॉ 1187
sc 1187
जिम्मेद@@ 1186
चौकसी 1186
फैं@@ 1186
फिक्स 1186
मिटाने 1186
नने 1186
किता 1186
1971 1186
अटॉर्नी 1186
व्यू@@ 1186
भड़काने 1186
मुशरेकीन 1186
असमानता 1185
लगायी 1185
राष्ट्रव्यापी 1185
क्रू 1185
उठते 1185
नशीलता 1184
म्र 1184
हास्य 1184
बेबी 1184
सिंघवी 1184
कीः 1184
मेट्रो@@ 1184
अकाल 1183
कात 1183
मध@@ 1183
मांसपेशियों 1183
पारियों 1183
जीपी 1182
ठहरने 1182
हैंड 1182
फ्रेंसिंग 1182
वर्ण 1182
गलियारा 1182
दू 1182
बें@@ 1182
रेलगाड़ी 1182
ताजमहल 1182
अंतर्निहित 1181
वाड़े 1181
20,@@ 1181
49@@ 1181
जरु@@ 1181
धारणाओं 1181
निरपेक्ष 1181
पाएगी 1181
इंगित 1181
काऊ 1181
दीक़ 1181
छपाक 1181
पोलियो 1181
कस्बे 1181
पत्ति 1180
सामानों 1180
शिष्ट@@ 1180
सिल@@ 1180
दरवाज़े 1180
बहाने 1180
फ्रास्ट्रक्चर 1179
स्टैं@@ 1179
मैदानी 1179
मंगोलिया 1179
खाकर 1179
२१ 1179
२४ 1179
फेंकने 1179
गुर्जर 1178
मानस 1178
शशांक 1178
सिद्ध@@ 1178
कब्र 1178
बीकानेर 1177
सुमित 1177
अनुभाग 1177
प्रशासकों 1177
पहुँचाने 1177
ारिका 1177
ध्रुव 1177
आकाश@@ 1177
कट्टरपंथी 1177
अनिवार्@@ 1176
पुनर्जीवित 1176
शल 1176
एलबी 1176
विरोधाभा@@ 1176
कवायद 1176
अविश्वसनीय 1176
उठाएं 1176
साथि@@ 1176
नेह@@ 1176
Boss 1176
आबंटन 1175
अग्नि@@ 1175
गाइड 1175
जमशे@@ 1175
सातवीं 1175
ड़ता 1175
रेत 1175
प्रातः 1175
जीवि@@ 1175
कमिटी 1175
मनीषा 1175
पारा@@ 1175
6,000 1174
रोज़@@ 1174
चारियों 1174
क्त@@ 1174
दाने 1174
सुलझा 1174
तिल 1174
वाज 1174
केला 1174
विपत्ति 1174
दिवाला 1173
महफूज़ 1173
गिलानी 1173
जेश 1173
साध्वी 1173
परिष@@ 1173
बीएसई 1172
हस्ताक्षरित 1172
वेंचर 1172
महत्व@@ 1172
आराम@@ 1172
लुप्त 1172
ढ़ा@@ 1172
बिलासपुर 1172
पूरब 1172
क़ब्ल 1172
तुच्छ 1172
जवाबदेह 1171
महंगी 1171
अनोखा 1171
बागेश्वर 1171
सवाई 1171
फ्लॉ@@ 1171
अभिने@@ 1171
िए 1171
अरूणाचल 1171
दफा 1171
ढा 1170
१०@@ 1170
मख़@@ 1170
लोकेश 1170
सुनाते 1170
चिट 1170
णियों 1169
भत्ते 1169
सात्मक 1169
प्रतियोगी 1169
इमार@@ 1169
लीवर 1169
रचने 1169
भाईयों 1169
मुजफ्फरनगर 1169
खिये 1169
पीओ@@ 1168
निपटा 1168
सागर@@ 1168
स्टीवन 1168
जानलेवा 1168
हमीरपुर 1168
मुंडे 1168
बंदर 1168
गाह 1168
एसए@@ 1167
एनएम@@ 1167
डाटाबेस 1167
पर्यवेक्षक 1167
महानगर 1167
दिता 1167
भरकर 1167
पीडीएफ 1167
फेंका 1167
नाफर@@ 1167
जिम्बाब्वे 1167
इंटरफेस 1166
एडवाइ@@ 1166
इने@@ 1166
ठ्@@ 1166
शौक 1166
देशद्रोह 1166
सीरियल 1166
विश्लेषकों 1165
पीएमसी 1165
बेरोजगार 1165
व्यक्ति@@ 1165
रशिप 1165
आन्दोलन 1165
त्योहारों 1165
एथलीटों 1165
जह@@ 1165
रजा 1165
हनी@@ 1165
Bigg 1165
मौजि@@ 1165
ब्लूटूथ 1165
आरती 1164
ब्लॉग 1164
1984 1164
दवाइ@@ 1164
धारियों 1163
संस्था@@ 1163
उभरा 1163
लुभा@@ 1163
ताराम 1163
डीके 1163
कुपोषण 1163
सेंजर 1163
ढ़ने 1163
प्रबन्ध 1162
निकट@@ 1162
2024 1162
स्ट्रीम 1162
जेक्ट 1162
पढ़े@@ 1162
value 1162
कैट@@ 1162
शख्@@ 1162
उठाएंगे 1162
लट 1161
मूर्ख 1161
नाईं 1161
क्वारंटाइन 1161
बांग्लादेशी 1161
ईमानवाले 1161
पण@@ 1160
किस्त 1160
मेटा@@ 1160
हराई 1160
करवाकर 1160
चिली 1160
ंटन 1160
ड़ित 1160
बियन 1160
डालेगा 1160
प्र 1159
घटन 1159
कोषा@@ 1159
खेल@@ 1159
चरिंग 1159
प्रभुत्व 1159
ऑक्स@@ 1159
बेटियाँ 1159
तसबीह 1159
स्ताना 1159
निवार@@ 1158
पदोन्नति 1158
कम्प्यू@@ 1158
इनो@@ 1158
हिन्@@ 1158
पाचन 1158
302 1158
फैसल 1158
IN@@ 1158
पहाड़ियों 1158
टिया@@ 1158
परवेज 1158
शॉपिंग 1157
ढूंढने 1157
चर्या 1157
टिस्ट 1157
बॉलिवुड 1157
दूं 1157
न्यायाधिकरण 1156
उग्र 1156
दराज 1156
मेड 1156
र्ग@@ 1156
बिताया 1156
अपमानित 1156
ढेरों 1156
कुफ्फार 1156
चेन्न@@ 1155
निरन्तर 1155
कमी@@ 1155
विशा@@ 1155
केसी 1155
गड्@@ 1155
परवरिश 1155
भाड़ 1155
ंदना 1155
स्कोप 1154
प्रायद्वीप 1154
हिच@@ 1154
चट्टा@@ 1154
भाइ@@ 1154
शिवा@@ 1154
रेंद्र 1154
चरणबद्ध 1153
कार्टू@@ 1153
ौती 1153
ध्दि 1153
प्रस्थान 1153
क्रूर 1153
इतालवी 1153
कामगार 1152
अधिकारिक 1152
क्षता 1152
वले 1152
इंस्टि@@ 1151
लॉजिकल 1151
तनत 1151
पेट्रो@@ 1151
आति@@ 1151
अवज्ञा 1151
मर्डर 1151
रेख@@ 1150
कराये 1150
3000 1150
दबद@@ 1150
खुल्लम 1150
पति@@ 1150
न्यूयार्क 1150
हाइड्रे@@ 1150
उड़ाने 1150
रोहन 1150
ज्वाला@@ 1150
क्षेप 1149
जें@@ 1149
बर्थ 1149
रिचर्डसन 1149
तक़@@ 1149
जाएँगें 1149
पार्श्@@ 1148
1,7@@ 1148
बृह@@ 1148
कृषक 1148
ताने 1148
बूती 1148
ताल्लुक 1148
नीः 1148
फिल्मफेयर 1148
अपो@@ 1148
संगठ@@ 1147
स्थितियां 1147
रुकता 1147
निश्चि@@ 1147
होनेवाले 1147
मारि@@ 1147
पाउंड 1147
तत्त्व 1147
मज़दूरी 1147
महंगे 1147
ख़िला@@ 1147
केन्द्रशासित 1147
निजता 1146
मोनो@@ 1146
क़ु@@ 1146
मिलाने 1146
इयां 1146
एयरक्राफ्ट 1146
परिधान 1146
गुजरने 1146
वैगन 1146
बेड़े 1146
मरज़ी 1146
सैर 1146
अभियुक्तों 1146
सुन्@@ 1146
अज्र 1146
निसान 1146
गम@@ 1145
ऊँचाई 1145
वियर 1145
कमज़ो@@ 1145
ऋतु 1145
तफ्तीश 1145
अकार@@ 1145
कियाँ 1145
पद्मावत 1145
मित्त 1145
गर्मजोशी 1145
फ्लाइ@@ 1145
एकाउंट 1144
चौथाई 1144
मोती 1144
द्योगि@@ 1144
हार्ड 1144
चाहू@@ 1144
काबिज 1144
विश्वस्@@ 1143
मले@@ 1143
किसकी 1143
च्छा@@ 1143
IND 1143
वाक 1143
वर्तक 1142
तनों 1142
मेधा@@ 1142
बुढ़ा@@ 1142
व्हील 1142
भ्रू@@ 1142
कार्बो@@ 1142
गुनाह@@ 1142
परहेज़गारों 1142
पाठकों 1142
मीना@@ 1142
नरमी 1141
मूर्त 1141
मने 1141
रेक 1141
यूएन 1141
नरसिम्@@ 1141
मातृ 1141
रीढ़ 1141
जस 1141
मुक्केबाजी 1141
यामी 1141
नेत्र 1141
सबरीमाला 1141
डिय@@ 1140
1988 1140
मानचित्र 1140
पैकेट 1140
दिव्यांग@@ 1140
तृत्व 1140
दाखिला 1140
सरीही 1140
स्ट्रॉल 1140
सिद्धारमैया 1140
आकांक्षा 1139
आयो@@ 1139
स्कॉट 1139
वात 1139
मोइ@@ 1139
वीरभद्र 1139
वाक़िफ़ 1139
शिम@@ 1139
श्रीलंकाई 1139
आवेदनों 1138
फेक्ट 1138
हाने 1138
1986 1138
ओपनर 1138
एसएम 1137
अपर्याप्त 1137
व्याख्या@@ 1137
काठमांड@@ 1137
आंकी 1137
वैट 1137
मीडिया@@ 1137
सउ@@ 1137
मुरली@@ 1137
नाटकीय 1137
आईटीआई 1137
मुला@@ 1137
मेश 1137
ग्रैंड@@ 1137
आईसीएआर 1137
ऩ@@ 1137
आसाराम 1137
18,@@ 1136
टिंग्स 1136
करवाना 1136
रोबोट 1136
रिए@@ 1136
प्रचालन 1136
सीसीआई 1136
मेंट्री 1136
समाज@@ 1136
मूर्तियों 1136
त्या 1136
ऑप्टिकल 1136
रखनेवाले 1136
मिमी 1136
नवान्वेषण 1136
बचाए 1136
किंग@@ 1135
बताएं 1135
पाएं 1135
निब@@ 1135
क़ब्@@ 1135
ation 1135
स्टालिन 1135
अनुयायी 1135
लिनी 1135
श्वसन 1135
धानों 1134
1,9@@ 1134
प्रमुख@@ 1134
इजराइल 1134
नफ़@@ 1134
हथ@@ 1134
सवा@@ 1134
मेहर 1134
बती 1134
दस्ते 1134
विक@@ 1133
माई@@ 1133
कलेट 1133
स्पद 1133
थाइ@@ 1133
केशंस 1133
पावर@@ 1133
फॉक्स 1133
केके 1133
समझें 1133
उतारे 1133
कोट@@ 1133
कनी 1133
अशरफ 1133
प्रतिब@@ 1132
प्राय 1132
फाइड 1132
गुटों 1132
विकास@@ 1132
नीर 1132
रखनेवालों 1132
पुजारी 1132
भुज 1131
अक्षरों 1131
सुरक्षाकर्मियों 1131
as 1130
ओसा@@ 1130
कुलकर्णी 1130
ंदा@@ 1130
फकार 1130
निजात 1130
शब्दा@@ 1129
आनेवाली 1129
भाषणों 1129
अपोजिट 1129
ंदु@@ 1129
कैमि@@ 1129
न्यौता 1129
द्दा@@ 1129
अरशद 1129
बसु 1129
हिन्द 1129
भूपेश 1129
स्टीफन 1129
New 1129
शोधकर्ता 1129
सुखबीर 1129
लर्निंग 1128
70@@ 1128
छठा 1128
अलगा@@ 1128
बुलाए 1128
मैक्सिको 1128
क्लार्क 1128
पराली 1128
कविताओं 1128
चेतेश्वर 1128
दार्@@ 1128
अर्द्ध@@ 1127
तव@@ 1127
शमूएल 1127
्यता 1126
कैरे@@ 1126
असहमति 1126
वई 1126
बाली 1126
NW 1126
ट्रेस 1126
चार्टर्ड 1125
वीकरण 1125
शुल्@@ 1125
बांद्रा 1125
प्राइस 1125
राक 1125
कीर्ण 1125
ओस 1125
पांचवां 1125
लगेंगे 1125
मेहमानों 1125
ईआर 1124
112 1124
यर्ड 1124
गर्भावस्था 1124
मेलबर्न 1124
सूस 1124
अरबों 1124
वादक 1124
वाकिफ 1124
सुपुर्द 1123
मिता@@ 1123
256 1123
एश्@@ 1123
विधे@@ 1123
इर्द 1123
ोगे 1123
रावण 1123
गुरमीत 1123
जीएम 1122
आवे@@ 1122
पंख 1122
कम्यू@@ 1121
वेने@@ 1121
अन्न 1121
सवे 1121
आठवें 1121
साहू 1121
मिनिस्टर 1121
ध्या 1121
प्रदूषित 1121
घटा 1120
रोकता 1120
वैचारिक 1120
अंदाज़ 1120
फोरेंसिक 1120
उपनगरीय 1120
धर्मशाला 1120
बोलता 1120
मजलिस 1120
टुक@@ 1120
जालंधर 1120
अभयार@@ 1120
थकान 1120
जीः 1120
बोपन्ना 1120
कार्यप्रणाली 1119
जिम्मेदारियों 1119
कोटि 1119
नेटिक 1119
नोम 1119
करणीय 1118
जस्टि@@ 1118
le@@ 1118
मोहाली 1118
रमा@@ 1118
बीएमसी 1118
महामंत्री 1118
डीएस@@ 1117
चय 1117
नवीनीकरण 1117
असफलता 1117
ग्रता 1117
दुश्@@ 1117
फ़िल्मों 1117
नीतू 1117
शिंगटनः 1117
बजरंग 1117
फेड@@ 1116
विषय@@ 1116
126 1116
आर्किटेक्@@ 1116
साल्@@ 1116
सीवर 1116
उन्हो@@ 1116
ओपनिंग 1116
राजौरी 1116
बताइए 1116
कस्बों 1116
1948 1116
तारें 1116
प्लानिंग 1115
एलएन@@ 1115
रैलियों 1115
बैठते 1115
नाफ़र@@ 1115
वन्यजीव 1115
बोडिया 1115
पंच 1114
वेद@@ 1114
पड़ा@@ 1114
धरन 1114
बनवाया 1114
खली@@ 1114
आरएल 1113
दर्शाने 1113
मसाला 1113
सम्भावना 1113
सीपीएसई 1113
रघुराम 1113
उठी 1113
षड्यंत्र 1113
दामन 1113
बैर 1113
जोरों 1113
टीय 1112
फ़ायदा 1112
पारम्परिक 1112
नंद@@ 1112
शम@@ 1112
जड़ा 1112
ग्रेनेड 1112
डिस्चार्ज 1112
माप@@ 1111
पीजी@@ 1111
कक्षों 1111
एत@@ 1111
स्ट्रिया 1111
बेसिन 1111
सहारनपुर 1111
तसवी@@ 1111
प्रज्@@ 1111
सरदारों 1110
यूरे@@ 1110
सीएन@@ 1109
संचित 1109
खरीदारों 1109
सुल्@@ 1109
चलेगी 1109
पोशाक 1109
जहरी@@ 1109
चैंपियंस 1109
उज्जैन 1109
योजित 1108
टाइल 1108
ख्य 1108
ऊँचा 1108
निरं@@ 1108
खला 1108
घुसपै@@ 1108
खोलें 1108
कश्मीरियों 1108
सवीं 1108
उप्र 1108
बोनस 1107
सशक्तीकरण 1107
उभार@@ 1107
विनाश@@ 1107
रोहिंग्या 1107
फोड़ 1107
साइं@@ 1107
पृथ्वीराज 1107
मोह 1107
पहुंचते 1106
चर्चाओं 1106
निन्दा 1106
पशु@@ 1106
जोल 1106
1960 1106
अतिथियों 1106
ब्रॉडबैंड 1106
संप्रग 1106
44@@ 1105
प्रदर्@@ 1105
खार 1105
प्राची@@ 1105
व्लादिमीर 1105
JNU 1105
मंगल 1105
परहेज़गारी 1105
हल्दी 1105
अंबाला 1105
पुत्रों 1105
45@@ 1104
अनुशंसा 1104
यूआईडीएआई 1104
अरि@@ 1104
भिजवा@@ 1104
बालन 1104
डीसीपी 1104
नॉट 1104
आरएफ 1103
चुकता 1103
अनुशं@@ 1103
य्या 1103
तिज 1103
बिगा@@ 1103
सेलिब्रे@@ 1103
धमाकेदार 1103
धारावाहिक 1103
सफदरजंग 1103
सहभा@@ 1102
एमसीजी 1102
उद्यमशीलता 1102
गौरवान्वित 1102
स्वामी@@ 1102
लर्स 1102
वसीयत 1102
अदिति 1102
कुशा@@ 1102
जीप 1102
डियर 1102
गाई 1101
श्रृंख@@ 1101
रोनाल्@@ 1101
खारी 1101
निंद@@ 1101
दाविद 1101
नदियां 1101
मैनचेस्टर 1101
टिकल्स 1100
दुबारा 1100
विद्यु@@ 1100
मिले@@ 1100
रंदा@@ 1100
जिम्मा 1100
मास्टर्स 1100
मसीहा 1100
मुंडा 1100
प्रेशन 1099
माथुर 1099
चौड़ाई 1099
आनुवंशिक 1099
शुभार@@ 1098
विकि@@ 1098
फेमस 1098
गोदावरी 1098
कश्मीरः 1098
सड़@@ 1098
बाइन 1098
उच्चायोग 1098
फेरबदल 1098
होइए 1098
कुछ@@ 1097
रोग@@ 1097
बोतल 1097
ल्लत 1097
कोचों 1097
दंगल 1097
निष्कासित 1097
दबिश 1097
आभासी 1096
जनित 1096
व्यतीत 1096
कली 1096
मर्सि@@ 1096
नारायण@@ 1096
पाँव 1096
झल@@ 1096
फिजिकल 1095
कांगड़ा 1095
इशांत 1095
ग्रंथों 1095
खां 1095
मोमिनों 1095
अनिश्चि@@ 1094
कार्यस्थल 1094
अनुसंधान@@ 1094
मिस्@@ 1094
info 1094
जाट 1094
हरसिमरत 1094
सुर्खियां 1094
खूबसूरती 1094
याक़ूब 1094
निषेध 1093
भाषाएं 1093
फतेह@@ 1093
हड्डियों 1093
एम्बु@@ 1093
अनूप 1093
सिखा 1093
गिरजा@@ 1093
प्यारी 1093
विहित 1092
उठाएगा 1092
आईओसी 1092
कैब 1092
अनगिनत 1092
यूथ 1092
१९४@@ 1092
अब्दु@@ 1092
चौकी@@ 1092
आशि@@ 1092
रिमोट 1091
समाधानों 1091
तत्पर 1091
मानद 1091
जलस्तर 1091
बढ़ेंगे 1091
शिशुओं 1091
लोहिया 1091
कॉप्@@ 1091
J 1091
वेंक@@ 1090
भीतरी 1090
उत्तेज@@ 1090
बंधों 1090
श्रीनि@@ 1090
दस्@@ 1090
वायनाड 1090
सोमनाथ 1090
▪ 1090
पायलटों 1090
हिलेरी 1090
निहाल 1090
दागे 1090
हण 1090
लात 1090
ूल 1089
पट्टनम 1089
खोई 1089
आक्@@ 1089
बंगलादेश 1089
नवदीप 1089
लुरु 1089
दलीय 1089
हेगड़े 1089
श्रेणीः@@ 1089
स्कैन 1088
यांग 1088
मास्ट@@ 1088
भीम@@ 1088
पोंटिंग 1088
पीओके 1088
केकेआर 1088
दादाओं 1088
ओडि@@ 1088
जाये@@ 1088
मेंटल 1088
संर@@ 1087
निगाह 1087
यापन 1087
लुढ़@@ 1087
बेस्ड 1087
तहरीक 1087
उपग्रहों 1087
फानी 1087
सिटर 1087
डरर 1087
रबा@@ 1087
टेप 1087
नडाल 1087
फंडिंग 1086
ग्रोथ 1086
पूर्वजों 1086
अँग्रेज़ी 1086
कठ@@ 1086
नु 1086
1.2 1085
देन@@ 1085
षि@@ 1085
म्पा 1085
एहतियात 1085
लुईस 1085
जत्@@ 1085
असंतोष 1084
काब@@ 1084
जायज़ 1084
बुज़ुर्ग 1084
ऊतक 1084
निजा@@ 1084
→ 1084
बोइंग 1084
इंस्टी@@ 1083
सघन 1083
पलायन 1083
Y 1083
टैंकर 1083
अंदाजा 1083
उद्दीन 1083
आईटीबीपी 1083
पत्ते 1083
पेक्ष 1082
अदाय@@ 1082
दिष्ट 1082
रेटर 1082
उत्पा@@ 1082
महर्षि 1082
परहेज 1082
नगर@@ 1082
मनोबल 1082
पाटनी 1082
कृतज्ञ 1082
जाकिर 1082
पात्रों 1082
अवसाद 1082
आफ@@ 1081
सात@@ 1081
लॉजिस्टिक्स 1081
र्पण 1081
सुनामी 1081
सिंड्रोम 1081
विय@@ 1081
थेरेपी 1081
एविएशन 1081
फूँ@@ 1080
बलि@@ 1080
रमा 1080
ऩे 1080
Google 1080
चेयर@@ 1080
लोहा 1079
पुर्तगा@@ 1079
डीजी 1079
qu@@ 1079
पाबन्दी 1079
भां@@ 1078
आर्टिफिशियल 1078
ड़ियाँ 1078
छे 1078
शारदा 1078
बहा 1078
पोतों 1078
पनडुब्बी 1078
मापद@@ 1077
लय@@ 1077
शनरी 1077
ड्रा 1077
करेगें 1077
हँ@@ 1077
दरगाह 1077
माताओं 1077
मानवजाति 1077
एटीएस 1077
रैपिड 1077
आबाद 1077
एलन 1077
संधू 1077
पेन@@ 1077
हाय@@ 1076
17,@@ 1076
तरजी@@ 1076
निर्देश@@ 1076
114 1076
गिरे 1076
नवी 1076
क्यूटिव 1076
समझती 1076
सालेह 1076
यार@@ 1076
दाह 1076
सायना 1076
स्वी 1076
दूरदराज 1075
बचाना 1075
सिग्नल 1075
लटका 1075
चैतन्य 1075
बाकू 1075
देल 1075
१५@@ 1075
प्रपत्र 1074
अनैतिक 1074
बडा 1074
वालिया 1074
शिर्क 1074
दिरा 1074
बाव@@ 1073
एफआई@@ 1073
हलचल 1073
तार्किक 1073
जोड़ते 1073
रखेगी 1073
बन्ध 1073
आंगनवाड़ी 1073
कैटे@@ 1073
केर@@ 1073
थ्रि@@ 1073
रामचंद्र 1073
जलकर 1073
परहेज़गार 1073
डिब्बों 1073
राष्ट्रपिता 1073
सेनानी 1073
घटने 1072
सम्मुख 1072
40,000 1072
मुक़ा@@ 1072
दर्भ 1071
स्म@@ 1071
ओला@@ 1071
उम्मीदवारी 1071
डिब्बे 1071
10:@@ 1071
कन्या@@ 1071
तिलहन 1070
कोलंब@@ 1070
ष्टा 1070
पशुधन 1070
फ़रमा@@ 1070
बेचे 1069
आतिथ्य 1069
अतिक्रमण 1069
स्टेबल 1069
दिखी 1069
ड़ी@@ 1069
अशांति 1069
जीरा 1069
डूबने 1069
शुगर 1069
डिनर 1069
ट्रकों 1069
सरोवर 1069
ऑप्@@ 1068
तंजा@@ 1068
नवो@@ 1068
खनि@@ 1068
प्रॉपर्@@ 1068
स्फो@@ 1068
कणों 1068
क्यूबे@@ 1068
रवीन्द्रनाथ 1068
द्रव्य@@ 1068
सत्यपाल 1068
ग्रेजु@@ 1068
एनालि@@ 1067
जरी@@ 1067
प्लेन 1067
वारों 1067
ट्रू@@ 1067
देशक 1067
उद्योगपति 1067
भ्यास 1067
ईशांत 1067
वीर@@ 1067
चलाता 1067
हत्यारों 1067
भावना@@ 1066
अवरुद्ध 1066
क्राइ@@ 1066
लयन 1066
मॉरि@@ 1066
बीएच@@ 1066
ध्यान@@ 1066
de 1066
हज़@@ 1066
दही 1066
प्पी 1066
परीक्षा@@ 1066
केविन 1066
पुष्ट 1065
ङ्@@ 1065
रि 1065
मार्ट 1065
स्कों 1065
सहिष्णुता 1065
गेस्ट 1065
संतप्त 1065
\@@ 1065
अफ़ग़ा@@ 1065
मस्जिदों 1064
घर@@ 1064
ष्टमी 1064
ii 1063
आकृति 1063
बातिल 1063
ic@@ 1063
ष्यों 1063
मनाली 1063
खटख@@ 1063
तल्@@ 1063
रौशनी 1063
भागे 1063
तबा 1062
डिफे@@ 1062
आशीषें 1062
करियों 1062
धीर 1062
हिम@@ 1062
कक्कड़ 1062
अफ़सोस 1062
मिलें 1062
02.@@ 1061
फ़ाय@@ 1061
पाँ@@ 1061
नॉर्वे 1061
खदान 1061
आईएनएक्स 1061
शासनकाल 1061
रोज़ा 1061
सोयाबीन 1060
पुण@@ 1060
जेज 1060
जल्@@ 1060
उमंग 1060
फेम 1060
पार्ट 1060
शबाना 1060
प्लाज्@@ 1060
आसन 1060
बुलंद@@ 1060
आर्चर 1060
राजन@@ 1060
मरो@@ 1060
109 1059
साल@@ 1059
डीज़ 1059
गाथा 1059
आहूजा 1059
त्रुटिः 1059
रिडा 1059
संगीत@@ 1059
तुलसी 1059
पहचाने 1058
ट्वीटर 1058
बीवियों 1058
श्रीमान 1058
भविष्यद्व@@ 1058
फेफड़ों 1058
प्रक्षे@@ 1057
नती@@ 1057
कालि@@ 1057
पहुंचाई 1057
भूजल 1057
कठु@@ 1057
प्रतिद्वं@@ 1057
बैल 1057
बैट@@ 1057
नीलम 1057
जन्मे 1057
झेलनी 1057
जोगी 1057
द्विवेदी 1057
115 1056
यूनी@@ 1056
स्टॉल 1056
जली 1056
रूए 1056
स्वर्गदूतों 1056
मुसी@@ 1056
12:@@ 1056
जेईई 1056
नुक@@ 1055
हेम@@ 1055
आब@@ 1055
भरना 1055
मिलेंगी 1055
साहसी 1055
एनडीएमए 1055
स्मारकों 1055
1,8@@ 1054
मोटिव 1054
बिस्तरों 1054
इमो@@ 1054
रियाद 1054
आनन्दित 1054
राइफल्स 1054
उपन्या@@ 1054
महो@@ 1054
दायि@@ 1053
चौड़ा 1053
राखी 1053
लिंपिक 1053
देवा 1053
वेन्यू 1053
पाकि@@ 1053
बत्रा 1053
बिरा@@ 1053
खेलो 1053
प्रदू@@ 1052
नील@@ 1052
महाराष्@@ 1052
स्क्री@@ 1052
लक्ष्मी@@ 1052
बूल 1052
सीओए 1052
am 1051
कैरो@@ 1051
रंगमंच 1051
पत्थर@@ 1051
नेंट 1050
ad@@ 1050
बिल@@ 1049
ब्रॉ@@ 1049
0.5 1048
आईआर 1048
कप्@@ 1048
रिफ 1048
दावे@@ 1047
गीत@@ 1047
ँगें 1047
ष्य@@ 1047
स्वर्@@ 1046
मैथ@@ 1046
CO@@ 1044
महत्@@ 1043
रकार 1043
धड़@@ 1043
प्रश@@ 1042
फन 1042
साव@@ 1041
दस्तावे@@ 1041
1,3@@ 1041
re@@ 1041
es@@ 1040
ंत्रिक 1039
इस्ती@@ 1039
लियम 1038
ेंद्र 1037
ic 1037
सक्रि@@ 1036
ंसिल 1035
सिने@@ 1035
चर्चा@@ 1034
दृश्य@@ 1034
er@@ 1034
बंधित 1032
जियम 1032
चेंज 1031
1951 1030
तकर्ता 1029
डनी 1029
ग्वा@@ 1028
19,@@ 1027
तुर्@@ 1027
MO@@ 1027
दारियों 1026
135 1026
आतं@@ 1026
इसी@@ 1025
प्रै@@ 1025
शत्रु@@ 1025
अजी@@ 1024
ईई 1024
इंग्@@ 1024
ंचित 1024
124 1023
गांधी@@ 1023
Khan 1023
z@@ 1022
75@@ 1021
ध्र 1020
वाद@@ 1019
101 1019
प्रोफे@@ 1019
उपे@@ 1019
ारियों 1018
लोकन 1018
तीकरण 1016
असि@@ 1016
at@@ 1015
जिम्@@ 1014
माण 1013
लहाल 1013
गुस्@@ 1012
दियां 1010
सित@@ 1009
प्रभु@@ 1009
en 1008
पद्@@ 1007
64.@@ 1006
ताल@@ 1006
376 1006
रीना 1006
पठा@@ 1006
ब्राह्@@ 1005
एमआर 1002
आशं@@ 1002
्र 1001
झड़@@ 1001
सर्वे@@ 999
145 999
मुर@@ 999
वच@@ 999
टीना 998
एडमि@@ 998
RSS 998
up@@ 998
ब्यौ@@ 997
शस 997
ंने 997
साहित्य@@ 997
पुनरु@@ 996
प्रमो@@ 996
लिम 996
अनुष्@@ 996
बाधा@@ 995
डायरे@@ 995
UP 995
CA@@ 995
डेमोक्रे@@ 994
क्यो 994
प्रोत्सा@@ 992
21@@ 991
मनी@@ 991
गरों 991
दाओं 990
नियर 990
बास्@@ 990
दिव्या@@ 990
उत्सु@@ 989
विभा@@ 989
जूद 987
निर्दे@@ 986
धनों 986
स्टू@@ 986
मानत 986
इले@@ 986
क्तों 986
तरस 986
यूसु@@ 986
लिमि@@ 985
धियां 985
मिकों 985
यूए@@ 985
टली 985
बाजों 985
122 984
स्ट्रॉ@@ 984
प्रकाश@@ 983
विस्फो@@ 983
सच्@@ 982
In 982
नाल 982
ing 981
ग्र 980
IM@@ 980
फिट@@ 980
182 979
नीपत 979
तेश 978
मिकता 978
ri@@ 978
खाद्या@@ 977
ैर 977
सैम@@ 977
पूर 976
तिहा@@ 976
ज़रि@@ 975
हंगा@@ 974
शिला@@ 973
106 972
व्हाट्स@@ 972
हड्@@ 972
1972 971
शेल 971
जैक@@ 971
फाउ@@ 971
स्मार्ट@@ 970
पार्टमेंट 970
107 969
IP@@ 969
चेरी 969
गैंग@@ 969
क्वारं@@ 969
इंडीज 968
बीटी 967
शेय@@ 967
IC@@ 967
दुनिया@@ 967
णी@@ 966
इनर 966
117 964
प्पल 964
क्षम@@ 963
रूर 963
Read 962
1987 960
ज़बर@@ 960
कूल 959
मंगल@@ 959
ac@@ 958
नेटवर्@@ 955
निषे@@ 955
आयुर्@@ 955
क्वार्@@ 954
स्ना@@ 954
स्म 953
मति 952
किलो@@ 952
श्व@@ 952
वित्@@ 951
धता 951
गठ@@ 951
पाउ@@ 951
वैश्@@ 950
दूतों 950
लूम 950
360 949
कच्च@@ 949
ंछ 949
it@@ 947
ग्रेस 947
तरफा 946
तित 944
जिम्मे@@ 944
रणों 943
झट@@ 942
ञ@@ 942
खिड़@@ 941
तरि@@ 940
इलेक्@@ 940
सम्बन्@@ 940
चिद@@ 940
थान 939
यात 939
मैया 938
घुस@@ 938
घाटन 937
भट्@@ 936
त्रु@@ 934
थि 934
दिमा@@ 934
तिब्@@ 934
w 933
कारिता 932
33@@ 931
सॉफ्ट 930
सिग्@@ 928
उपलब्@@ 928
बला@@ 928
लिहा@@ 928
सचे@@ 927
लॉक@@ 926
अंग्रे@@ 925
8,000 925
जेंस 924
एथ@@ 924
नजी@@ 924
मंत्रा@@ 924
वर्तन 923
2,0@@ 923
गांठ 923
लियो 923
; 922
47@@ 922
कठि@@ 922
190 922
शीर्ष@@ 920
118 918
कने@@ 918
क्रै@@ 918
चालन 917
वाता@@ 917
ap@@ 917
क़ू@@ 917
राज़@@ 916
103 915
बले 915
रेंसिक 914
तमंद 914
डकर 913
सत्ता@@ 913
क्रमों 912
संसा@@ 911
शार@@ 911
द्रोह 911
घोटा@@ 911
24,@@ 910
2,9@@ 909
शिल्@@ 909
नेर 909
ot 909
स्वै@@ 908
प्राथमि@@ 908
गिरि@@ 908
220 907
आधि@@ 906
1952 905
क्वी@@ 905
नाइटेड 905
गरि@@ 905
आश्चर्य@@ 905
एएन@@ 904
फेफ@@ 903
जेडी 903
ग्रहों 902
कांग@@ 902
हरण 901
90@@ 901
नोट@@ 901
ठी@@ 900
115@@ 900
चतुर्@@ 900
प्रचार@@ 899
तुम@@ 899
65@@ 898
अथ@@ 898
م@@ 898
र्फ 898
जपेयी 897
विरा@@ 896
माद 896
गिरफ्@@ 894
ंतरित 893
गिरो@@ 893
सोम@@ 893
व्यू 892
तमिल@@ 891
विच@@ 890
धमा@@ 890
समर्थ@@ 889
यं 889
उभर@@ 888
उच्चा@@ 888
नाडु 888
ंडो@@ 888
हाव@@ 888
ौफ 888
9,000 888
जवा 887
46@@ 885
मनों 885
क्रो 885
प्रतियोगि@@ 885
कस्@@ 885
न्तर 884
याचिका@@ 884
NCP 884
दाश्त 883
is@@ 881
el@@ 881
बीह 881
अलगाव@@ 881
उत्सा@@ 880
कृत@@ 880
116 878
1985 878
ंडन 878
दाहि@@ 878
शम 877
म्पि@@ 877
गेश्वर 877
23,@@ 876
श्रद्धा@@ 876
कड़ों 875
आवि@@ 875
त्कार 875
मुकाब@@ 874
स्पोर्@@ 874
सलाह@@ 873
तव्य 873
One@@ 873
पंथी 873
174 872
कले@@ 872
तरित 871
128GB 871
संरच@@ 870
3.5 870
गाहों 870
रिज़@@ 870
णियां 869
67@@ 868
फिन@@ 867
132 867
ईश्वर@@ 865
DEO 865
7,000 864
क्चर 864
षि 863
4.5 862
ईमान@@ 862
कॉले@@ 862
Singh 862
एंड्रॉ@@ 861
हारिक 860
टेनमेंट 860
न्दा 860
शीघ@@ 859
िकी 859
मस्जि@@ 859
ुति 858
SMS 858
डीयू 858
च्छिक 857
कामका@@ 857
पोर्ट@@ 856
चैम्पि@@ 856
जबर@@ 856
ग्रो@@ 855
सुब्र@@ 855
om@@ 855
पारिस्थि@@ 854
7.5 853
‎ 853
ر@@ 853
स्ट्राइ@@ 853
TV 853
त्म 852
121 851
Modi 851
तारी 851
वमेंट 850
मुख्या@@ 850
पिक्सल 850
बरें 849
2,7@@ 848
वार्ष@@ 848
मर्स 848
कपा 848
एब 848
et 847
ec@@ 846
शब्@@ 846
फेर@@ 846
छेड़@@ 845
mAh 845
युव@@ 843
रिश्@@ 842
माल्@@ 841
म्रता 840
राउंडर 840
सामा@@ 839
एचडी@@ 839
याम 839
Ind 838
111 837
org 837
अय्य@@ 837
चाँ@@ 837
शताब्@@ 837
000@@ 836
किर 836
धान@@ 835
स्टार@@ 835
प्रदायिक 835
स्क@@ 835
लेक्स 834
1957 834
Re@@ 833
फेंक@@ 833
1965 832
महत्वाकां@@ 832
मपंथी 832
हिद 832
सस्पे@@ 830
पत्रि@@ 829
टकरा@@ 829
1949 826
योजन 826
टियाँ 826
वर्ग@@ 826
ol@@ 826
post 826
क़ात 825
र्ना@@ 823
अन्तर@@ 822
1976 822
सुले@@ 822
ग़ैर 822
रीब 822
अनो@@ 822
54.@@ 821
िता 820
हिया 820
प्रतिनि@@ 819
id@@ 819
1200 819
म्र@@ 818
मुक्@@ 818
1983 817
बोट 817
द्या@@ 817
क्टो@@ 816
240 815
अंदा@@ 815
Comment 815
वेशी 814
प्रशा@@ 814
तोह@@ 813
बुझा@@ 813
यद 812
स्ने@@ 810
भित 810
th@@ 809
tion 809
जहन्नु@@ 807
भद्र 807
सेमी@@ 806
ून 806
वारे 806
चिट्@@ 806
2,6@@ 805
दुर्भाग्य@@ 805
णाल 804
un@@ 804
शोध@@ 802
पूर्वो@@ 802
खियों 802
Delhi 802
कारो@@ 801
119 801
लैंग@@ 801
हाउ@@ 801
0.1 800
एसो@@ 800
1975 800
टाला 799
वीपी 798
पीएन@@ 796
चिह्@@ 794
क्कर 794
लायंस 794
र्द 794
ब्रॉड@@ 793
टीकरण 792
शीत@@ 792
चारे 790
ï 790
बारी@@ 789
तथ@@ 788
प्रतिनिधि@@ 788
वाओं 788
69@@ 786
Z 786
मूर 786
पराज@@ 786
ID 786
मुक 785
समे 785
संस्थाप@@ 784
प्रयोगों 784
नास 783
Video 783
माबू@@ 782
di@@ 781
1930 779
जाव@@ 778
गड@@ 778
परिणा@@ 777
1.0 777
डीओ 777
~ 777
ैल 777
संवेद@@ 776
420 776
हरें 776
ha@@ 776
घन@@ 775
139 775
तैय@@ 774
इतिहा@@ 774
सम्बो@@ 774
विभाज@@ 773
et@@ 772
आसि@@ 772
तेंदु@@ 772
320 770
तुल 770
ag@@ 770
T20 770
वारदा@@ 770
हने 769
कंग@@ 769
नेंस 768
स्वच्छ@@ 768
ख्वाहि@@ 768
तोड़@@ 768
Al@@ 766
टूरि@@ 766
वीएम 765
डसन 765
153 764
क्ष्@@ 763
परी 763
पृ@@ 761
64GB 761
शिला 760
▫ 760
able 760
डियो 759
घोष@@ 759
1982 759
थर्@@ 759
॥ 758
हिम 758
लाव 758
निम्न@@ 757
निकों 757
आध्यात्@@ 757
क़ीन 757
1955 756
हमी@@ 756
113 755
ak@@ 755
99.@@ 754
ट्वी@@ 754
कांग्रे@@ 754
1914 754
1977 753
लब 752
क्कड़ 752
कैलि@@ 751
स्तियां 750
25,@@ 750
लाइंस 750
2,5@@ 749
26,@@ 749
एसई 748
क्रमण 748
ॅ 748
पैदा@@ 748
ine 748
प्रतिभू@@ 747
खें 747
44.@@ 747
स्त्रि@@ 747
लिखा@@ 747
II@@ 745
32.@@ 745
हिता 745
राष्@@ 745
ध्याय 745
55@@ 744
स्क्रि@@ 744
ारित 744
ताइ@@ 744
दिल्ली@@ 744
ch@@ 744
ंबु@@ 744
उल्लेख@@ 743
अमरी@@ 743
न्ति 743
कतों 743
आपत्@@ 742
2023 740
त्तरी 740
ृत 740
कश 740
शिर@@ 740
कठो@@ 739
ारिज 739
1973 738
स्ट्रेशन 738
देही 738
उज्ज्@@ 738
स्टार्ट@@ 737
ite 737
33.@@ 736
मद्दे@@ 736
ंडिंग 736
टिप्प@@ 736
शें 736
गू 736
मकता 735
4GB 735
सामं@@ 735
पों@@ 735
जरि@@ 734
भेज@@ 734
hi 734
☻@@ 734
कताओं 733
12,000 733
58@@ 732
SA@@ 732
लीप 732
स्थाप@@ 731
ंत@@ 730
तव्यों 730
अके@@ 730
ro@@ 730
शुक्र@@ 730
दती 730
ट्रल 729
भेद@@ 729
ड्रो@@ 729
क्रिके@@ 729
नाराय@@ 728
हाजि@@ 728
अभ्य@@ 727
शख़्@@ 726
550 725
ti@@ 725
1981 724
मछुआ@@ 724
ख्यात 724
Ó 724
पदा 723
2,4@@ 722
सटी@@ 722
भिड़@@ 722
रिंदर 722
सचि@@ 721
1979 721
energy 721
गलिय@@ 720
सुप्री@@ 720
mo@@ 720
ब्रिगे@@ 720
ौता 720
त्ल 720
66.@@ 719
स्था 719
फ्रेंस 719
ers 719
1974 719
दश@@ 718
50.@@ 718
ॊ 718
मुबार@@ 718
59@@ 717
123 717
चंडी@@ 717
्रास 716
अनं@@ 716
न्वित 716
थाम 716
टवेयर 716
ूक 716
प्रभुता 716
पंजा@@ 716
वांछ@@ 715
176 715
1.3 714
अज़ा@@ 714
समस्@@ 713
खालि@@ 713
बटा@@ 712
बने@@ 712
AN@@ 712
वॉर्@@ 712
कृष्@@ 711
3,4@@ 710
1946 710
रद्@@ 709
नसन 709
जंग@@ 709
न्द्रनाथ 709
कसी 709
वेली 709
47.@@ 708
असहम@@ 708
सुग@@ 707
सौंद@@ 707
च्छ 707
एसएमई 706
57@@ 706
1,500 706
प्रासं@@ 706
कानू@@ 706
कॉलो@@ 705
READ 705
37,@@ 704
वश्यक 703
रीज़ 703
op@@ 703
डेन@@ 703
weather 703
2.2 702
AT@@ 702
सकों 702
€ 702
यनों 701
ac 701
कपि@@ 700
वित्त@@ 698
डीआई 698
रोजग@@ 698
1978 697
नियंत्र@@ 696
रुझा@@ 696
पर्य@@ 696
ध्र@@ 696
णवीस 696
हैदरा@@ 696
सुर्@@ 696
अरो@@ 696
MI 696
गोर 696
165 696
हानि@@ 695
us@@ 695
कुश 695
अका@@ 694
ॉप 694
28,@@ 693
द्धि 692
कशी 692
म्बई 692
ग्रा 692
गु 691
सूची@@ 690
38.@@ 690
दित्य 690
यंत्रों 690
जोत 690
310 690
बधा@@ 690
खट@@ 690
1.1 689
46.@@ 689
फार 688
ओलं@@ 688
ज्यो@@ 688
0.4 687
छत्तीस@@ 687
variable 686
bi@@ 685
ग्ध 685
प्रतिद्व@@ 685
ab@@ 685
2,8@@ 684
व्र@@ 684
de@@ 684
रार 684
रसा@@ 684
im@@ 683
काय 683
डाउन@@ 682
ODI 682
रदार 682
56@@ 681
35.@@ 680
त्वों 680
सहम@@ 679
120@@ 679
निर्ण@@ 678
जब्@@ 678
सबुक 677
गतिविधि@@ 676
166 676
ङ 676
RS 676
कच@@ 675
و@@ 675
270 675
48.@@ 674
151 674
Test 674
गुजरा@@ 674
नवान्@@ 674
NE@@ 674
Pro 673
दाखि@@ 673
27,@@ 672
द्धा 672
चुना@@ 672
ँच 672
दिर 672
श्यो@@ 671
142 671
ेश 670
टमा@@ 670
धारणा@@ 669
दस्ता@@ 669
155 669
IIT 669
चुंब@@ 669
दिना@@ 668
° 667
138 667
मजा@@ 667
CBSE 666
Indian 666
4000 665
तीश 665
ंसर 664
कुफ्@@ 664
चंद्रन 664
धरी 663
घाय@@ 663
पश्चि@@ 663
दुका@@ 663
NIA 663
131 662
लखन@@ 662
ग्री 661
it 660
समाजवा@@ 660
IP 659
um 659
स्टैंड@@ 658
RE@@ 658
टल्स 658
संत@@ 658
ऑल@@ 657
स्नैप@@ 656
En@@ 656
पोख@@ 656
oc@@ 655
श्मा 654
रुद्ध 654
चय@@ 654
65.@@ 653
4.0 653
ड्डा 653
SI@@ 653
377 653
यूवी 652
चेन्@@ 651
304 651
रिले@@ 651
सिक्यो@@ 650
साजि@@ 650
डेकर 650
li@@ 650
Kapoor 649
0.3 647
224 647
हाली 647
मतें 647
ज़िल 647
ul@@ 647
Vari@@ 647
कन्न@@ 646
हुक्@@ 646
लाभा@@ 645
जीरिया 645
हाबाद 645
पाठ्य@@ 645
टिविटी 644
1800 644
खद 644
ate 644
CP@@ 644
थाई 644
1.8 643
45.@@ 643
रजनी@@ 643
विलिय@@ 643
3,0@@ 642
जख्@@ 642
2,500 641
°@@ 641
3,7@@ 640
2500 640
गुनी 639
147 639
केन्@@ 639
बंगा@@ 639
पेंद्र 639
सव 639
1.4 638
6000 638
स्ट्रक्चर 638
बहादु@@ 638
आइसो@@ 637
चट्@@ 637
ps 637
आर्कि@@ 637
1.6 636
उल्लं@@ 636
ललिता 636
वरी@@ 635
49.@@ 635
1963 635
137 635
कल्याण@@ 635
6.5 634
MeToo 633
साब 633
कमजो@@ 632
सिपा@@ 632
तव्य@@ 631
280 631
ta 631
ंदो@@ 631
1967 631
CRPF 631
3.0 630
29,@@ 630
संलग@@ 630
ौल 630
सक्@@ 630
National 630
बर्न 630
ड्रै@@ 630
मद्@@ 629
पि 628
न्याया@@ 628
र्व 627
55.@@ 627
DC 627
1945 627
वस्त 626
पनों 626
मंजू@@ 626
शास्त्र@@ 626
नीयता 625
3,9@@ 625
SA 625
स्वप्@@ 625
Live 625
न्यो@@ 625
\ 624
0.2 624
1969 624
Fir@@ 624
सेवानि@@ 623
66@@ 623
68@@ 623
98@@ 623
os@@ 623
डिय़@@ 623
वर्गीय 623
भाल 623
FI@@ 623
त्ते 622
फ्टवेयर 621
्युनि@@ 621
सार्@@ 620
पास@@ 620
यत्न 620
पुस्@@ 619
se@@ 619
वाहों 618
ex@@ 618
हेलि@@ 618
NDA 617
मानजनक 617
आदर्@@ 617
predic@@ 616
विद्@@ 616
195@@ 615
by 615
63.@@ 614
आश्@@ 614
260 614
DA 614
Q 614
र्च 613
इंत@@ 613
आसमा@@ 613
av@@ 613
परंपरा@@ 612
पीछ@@ 612
संदर्@@ 611
il@@ 611
ن@@ 611
रसो@@ 611
37.@@ 609
मही@@ 609
वपूर्ण 609
औ 609
PNB 609
le 609
धै@@ 609
vi@@ 608
ैं 608
143 608
77@@ 608
136 608
203 608
1920 608
RA@@ 608
36.@@ 606
67.@@ 606
कारिक 606
IV 605
आभा@@ 605
बिंद@@ 605
1940 605
St@@ 605
age 605
ne@@ 605
225 604
ब्रह्मा@@ 604
ंचर 603
नीदर@@ 603
भागी@@ 603
धू 603
अफगा@@ 603
अपेक्षा@@ 602
एसि@@ 601
सून 601
mm 601
बूझकर 600
सेक्रे@@ 600
ढ़ियों 600
this 600
अफ्री@@ 600
मैनु@@ 599
गज 599
जमेंट 598
354 598
ढू@@ 598
जिकल 597
क़ुर@@ 597
तिल@@ 596
स्तु@@ 596
एसआर 595
तर्क@@ 595
1968 595
60.@@ 594
154 594
अदाल@@ 594
· 593
ाओं 592
ts 592
4,9@@ 591
161 591
अनै@@ 591
हिए 591
NT@@ 591
1942 591
न्व@@ 590
जीविका 590
शिका@@ 590
हिस्से@@ 589
पब्लि@@ 589
243 589
उद्य@@ 588
ष्टाचार 588
188 587
सुब्रमण्य@@ 587
1966 587
se 587
हथि@@ 587
60,000 587
स्ती@@ 587
ed@@ 586
बेव@@ 586
वेंट 585
ुता 584
2,3@@ 583
वाकि@@ 583
ML 583
30,@@ 582
52.@@ 582
सार्वभौ@@ 582
दीकी 582
सैनि@@ 582
श्रेणी@@ 581
व्यावसा@@ 580
मुख्@@ 578
डिब्@@ 578
पंक@@ 578
1964 577
स्टिक्स 577
घु 577
34.@@ 576
53.@@ 576
127 576
न्नता 576
electr@@ 576
5.0 575
210 575
वसु@@ 575
मंगो@@ 575
148 574
FC 574
पन्ना 574
Ar@@ 574
NAME 574
Nm 573
LED 573
जिल 572
BC 572
हमे@@ 572
1958 572
EC 571
506 571
जीसी 570
08@@ 570
न्यु@@ 570
कांग 570
149 570
जरिया 569
आक्रो@@ 569
षड@@ 569
र्ग 569
DS 568
PA@@ 568
Des@@ 568
हिष्णुता 568
To 568
IRCTC 568
MS@@ 568
em@@ 567
ळ@@ 567
MS 566
स्पेक्@@ 566
गारी 566
र्थक 566
मीत 566
टिवि@@ 566
2.4 565
बन्दी 565
अंद@@ 565
तरिक 564
40,@@ 564
कुमार@@ 564
बैक्टी@@ 564
मांसपे@@ 564
जरलैंड 563
ST@@ 563
ोड़ 562
SP 562
An@@ 562
Con@@ 562
सुचार@@ 561
सरण 561
साक्षा@@ 561
वाणि@@ 561
अवॉ@@ 561
0.6 560
gm 560
मुता@@ 560
दख@@ 560
35,@@ 559
तुर@@ 559
OS 559
42.@@ 558
38,@@ 558
चौं@@ 558
छुट@@ 557
tr@@ 557
लंब@@ 556
खिए 556
पार्ष@@ 556
SE@@ 556
HT@@ 556
iii 555
ग्रु@@ 555
रव 555
CA 555
Mo@@ 555
ज़िर 555
ख्या 555
गट 554
32GB 554
फ्रां@@ 554
टि 553
पद्ध@@ 553
164 553
ter 553
होंने 553
चि 552
ب@@ 552
with 552
तिहासिक 552
ي@@ 552
ष्य 551
मेन@@ 551
AN 551
नर्म@@ 551
PS 550
दूता@@ 550
डिट 549
162 549
307 549
रवै@@ 548
ur@@ 548
निष्का@@ 548
1857 547
निरी@@ 546
UN 546
256GB 546
स्मृ@@ 546
Pakistan 546
युस 546
VI 545
129 545
4G 545
दफ्@@ 545
पदो@@ 544
ig@@ 544
युक्तों 544
Cricket 544
मुजफ्@@ 544
74.@@ 543
चरण@@ 543
CE@@ 543
धुरी 542
ant 542
निर्या@@ 541
डिज़ा@@ 541
co 541
1.7 540
201 540
हस्ता@@ 540
इलेक्ट्र@@ 540
ज्र 540
भाग्य@@ 540
ur 540
ंकित 539
उपभो@@ 539
भारती@@ 539
Bank 539
पंचाय@@ 538
भूत@@ 537
ak 536
1959 536
शाला@@ 535
क्रेन 535
पनडुब्@@ 535
महबू@@ 535
मुम@@ 535
185 534
एंड्र@@ 534
लकॉम 533
band 533
IT 533
be 532
ब्बर 532
Ch@@ 532
IT@@ 532
ed 532
ंगाई 532
संग्रहा@@ 531
कोशि@@ 531
भाष 531
टिफिकेशन 530
भिक 530
कसा@@ 530
Mar@@ 530
अधिकां@@ 529
1919 529
मिश्@@ 528
tic 528
छाड़ 528
WHO 528
स्वतं@@ 527
तिकता 527
मुंब@@ 527
ET 526
पर्स@@ 526
शि 525
146 525
me 525
आवेद@@ 524
134 524
133 524
si@@ 524
1939 524
NZ 524
इब@@ 524
cov@@ 524
सुपुर्@@ 523
62.@@ 523
नेवालो 523
NO@@ 523
म्मी 523
प्रेसि@@ 522
शिका 521
ra 521
ब्यो@@ 520
ICICI 520
यरी 519
टूर्ना@@ 519
PO@@ 519
199 518
action 518
नीतिक 517
AS@@ 517
इस्ते@@ 517
380 516
मूल्यां@@ 515
मुठ@@ 515
उद्या@@ 515
system 515
ष्णु 515
बपतिस्@@ 515
प्रयोज@@ 514
61.@@ 514
275 514
ताजी 514
ance 514
RC 514
कल्या@@ 514
tor 512
ad 512
1954 512
तोष 512
3,6@@ 511
गुणवत्ता@@ 511
पक्@@ 511
80,000 510
जुन 510
जनन 510
जेंसी 509
फिलीपी@@ 508
वाणिज्य@@ 508
गिरफ़्@@ 508
चिंता@@ 507
आउ@@ 507
ics 507
कॉर@@ 506
जिस@@ 506
ent 506
डेंट्स 506
तीत 505
एशि@@ 505
सकारा@@ 505
Qu@@ 505
फट@@ 505
नून 505
Day 505
temperature 505
ाधिकार 504
इकट्@@ 504
bsp 504
س@@ 504
स्नै@@ 503
रूद्ध 503
बलू@@ 502
बिला@@ 502
PM@@ 502
up 502
लभ 501
घ्न 501
डिवी@@ 501
54@@ 500
ढांच@@ 500
एपि@@ 500
सच@@ 500
CSK 500
data 500
एवि@@ 500
001 499
वरण 499
बारा 498
TMC 498
500@@ 497
सेट@@ 496
हस्ताक्ष@@ 496
AL@@ 496
to@@ 496
space 496
ख्ते@@ 496
सीम 495
Bi@@ 495
योगियों 494
ूद 494
BS@@ 494
2015-16 493
त्यौ@@ 493
आधुनि@@ 493
त्री@@ 492
र्नी 492
el 492
hats@@ 492
one 492
Ex@@ 492
ंत्र@@ 491
परिणाम@@ 490
स्थता 490
तेल@@ 490
नाड 490
ai@@ 490
ai 490
धीय 490
co@@ 489
नलों 489
प्रशास@@ 489
अब्रा@@ 489
इंडोने@@ 488
पुस्तका@@ 487
कवरी 487
• 487
खलन 486
मिर 486
वानों 486
फ्तार 486
सिग@@ 486
उदय@@ 485
IB@@ 485
ity 485
ph@@ 485
माध्य@@ 484
NC@@ 484
West 484
पिका 484
ons 483
जादू@@ 483
त्रि 482
सीय 480
व्याव@@ 480
bhp 480
IS 480
case 480
मेहर@@ 480
पदार्थ@@ 479
उम्र@@ 479
स्पर 479
म्बे 478
आशी@@ 478
AI 478
HC 478
रसन 477
क्टे@@ 477
रप्पा 477
मानद@@ 476
इजा@@ 476
लादेश 476
सदस्@@ 476
My@@ 476
बात@@ 476
बांग्ला@@ 476
AIMIM 476
र्ष 475
तब्@@ 475
टेलाइट 475
ताल्@@ 475
11,000 474
रियाल 474
AP@@ 474
ब्लै@@ 474
सबरी@@ 474
पर्यावर@@ 473
समृ@@ 473
त्ती@@ 473
Of 473
os 473
indi@@ 472
सूचकां@@ 471
अटै@@ 471
जपे@@ 471
च्छेद 470
देश्य 470
craft 470
ANI 470
MLA 470
अस्ति@@ 469
संभव@@ 469
खिक 469
England 469
बूझ@@ 469
TP 469
do@@ 468
RCB 468
विचारा@@ 467
भागीय 467
AP 467
मछु@@ 466
प्रोड्यू@@ 466
199@@ 465
द्धता 465
सकार 464
सम्मति 464
डेमो@@ 464
विरो@@ 463
जाहि@@ 463
INX 463
काता 462
हन्ना 462
IF@@ 461
गोष्ठी 461
2017-18 460
design 460
वाय 459
International 459
सिलसि@@ 459
जारा 459
sp@@ 459
बाग़@@ 458
मलया@@ 458
मण्य@@ 457
वः 457
Pre@@ 457
चैंपि@@ 457
खट्@@ 457
ISIS 457
ma 457
Times 456
पके 456
Jio 456
तस्वी@@ 456
चुनौ@@ 455
ढु@@ 455
RJD 455
ISRO 455
technology 455
रिचर्@@ 454
तंत्रि@@ 454
पात@@ 453
भुत 453
ep@@ 452
मण्@@ 452
स्टु@@ 452
ir@@ 452
सार्व@@ 451
ent@@ 450
ंति 450
SO@@ 450
ग्य@@ 449
टिश 449
नफ@@ 449
ञ 448
NCR 448
धुं@@ 447
aj@@ 447
PR@@ 447
प्रवी@@ 446
har@@ 446
CB@@ 445
गुना@@ 444
water 444
मग@@ 444
डेक्स 442
UN@@ 442
me@@ 442
DM@@ 442
Technology 442
रिली@@ 442
र्डर 441
बाह@@ 441
वारा@@ 441
रिफाइन@@ 441
मुआव@@ 441
De@@ 441
प्रभ@@ 440
а@@ 440
त्न 439
शने 439
शांक 439
AIIMS 439
8GB 438
परमाण@@ 438
अरू@@ 438
AR 438
ans@@ 437
BMW 437
name 437
Mi 437
AT 437
man 436
जीलैंड 436
CC@@ 435
स्तर@@ 434
शुरु@@ 434
विप@@ 434
विकल्@@ 434
um@@ 434
इक्वि@@ 433
उदाह@@ 433
मोड़ा 433
किय@@ 433
د@@ 433
सीतार@@ 433
मारियों 432
नाल्@@ 432
con@@ 432
ताव 432
पुरू@@ 431
Redmi 431
more 431
ग्राह@@ 430
डोने@@ 430
त्रित 430
कब@@ 430
gl@@ 430
are 430
pl@@ 430
5G 429
दून 429
core 428
la 428
PA 428
जगी 427
योगि@@ 426
MC@@ 426
दूसर@@ 426
2016-17 425
न्वयन 425
विवि@@ 425
बेल्@@ 425
ंसलर 425
मार्के@@ 424
रसू@@ 424
Un@@ 424
कित्@@ 424
विश्रा@@ 424
हिक 423
बौद्ध@@ 423
स्ट्रेलि@@ 423
2019-20 422
चाप 422
माया@@ 422
सामर्थ@@ 422
CEO 422
त्रुटि@@ 421
प्रतिष्ठा@@ 421
150@@ 421
ज्य 421
Police 421
th 421
पुनरुत्@@ 421
WhatsApp 421
cription 420
यानों 419
pp@@ 419
ology 419
हॉस्पि@@ 418
ka 418
Asia 418
HD 418
पकों 417
माबाद 416
UI 416
विनो@@ 416
ya 416
रखा@@ 416
ड्रैगन 416
बाहु@@ 416
आकर्@@ 415
AI@@ 415
यामत 415
निष्क्रि@@ 414
व्हा@@ 414
SR@@ 414
मार्टम 414
हीम 414
परिव@@ 413
अख्@@ 413
Sports 413
अत्य@@ 412
मस्ति@@ 412
बुज़ु@@ 412
WE 412
प्वा@@ 411
Election 411
UP@@ 411
be@@ 411
उछा@@ 411
जवाब@@ 410
फस@@ 409
tors 409
मास्@@ 408
ical 408
field 408
BSF 408
sh@@ 407
Sh@@ 407
ability 407
od@@ 406
मिनल 406
धनु@@ 406
har 406
UC@@ 406
iv 405
प्रां@@ 405
Now 405
HDFC 405
ैन 405
DE@@ 405
NA@@ 405
वैक्@@ 404
TC 404
Ad@@ 404
PS@@ 404
श्वे@@ 403
डिय़ों 403
राजपू@@ 403
हथिय@@ 402
RR 402
া@@ 402
Up@@ 402
दुर्घटना@@ 401
pur 400
व्यभि@@ 400
UIDAI 400
Sharma 400
विकेट@@ 400
ख्ता 399
6GB 399
अभिन@@ 399
SS@@ 399
SIT 398
cc 397
पस@@ 397
क्रांति@@ 397
अवै@@ 397
स्फीति 396
शनि@@ 396
लेंडर 396
भाषित 396
all 396
OD@@ 396
स्वामि@@ 395
कुरिन्@@ 395
ABS 395
au@@ 394
Gandhi 394
सिंगा@@ 393
ut@@ 393
दीक 393
ys 393
सदस्य@@ 392
लर्@@ 392
XI 392
चेस्टर 392
आधु@@ 391
बूत 391
RO@@ 391
संतो@@ 391
ang@@ 391
Air 391
ंगाबाद 391
तथा@@ 391
दूरों 391
लिब 390
शबा@@ 390
Vo@@ 390
EC@@ 389
Australia 389
og@@ 389
वन्य@@ 389
do 388
Im@@ 388
र्जा 388
चैलें@@ 387
Sp@@ 387
Pro@@ 387
ंतरण 386
sem@@ 386
μ@@ 386
iPhone 386
जिए 385
South 384
मंत 384
धिकारों 383
सम्मि@@ 383
मसन 383
००@@ 383
अनुसं@@ 382
LO@@ 382
Cl@@ 381
and@@ 381
यियों 381
हूर 381
अर्था@@ 380
हिफा@@ 380
पूर्णि@@ 380
संतु@@ 379
इच्छ@@ 379
ारस 379
श्न 379
व्लादि@@ 379
bi 378
ha 378
3GB 377
ie 377
दील 377
And 377
डायबि@@ 377
रभ 376
इंस्टा@@ 376
ष्कार 376
द्योगिक 376
Vivo 376
BS 376
SSC 376
ओप@@ 375
aw@@ 375
ala 375
स्विट्@@ 375
Di@@ 375
IN 375
2014-15 374
स्रो@@ 374
रिकॉ@@ 374
SS 374
वसी@@ 374
विशे@@ 374
लाह@@ 374
रिसे@@ 374
शासन@@ 373
मित्@@ 373
KKR 373
गड़े 373
AM@@ 373
ke 372
PF 370
गंभी@@ 370
from 370
िम 370
For 369
परं@@ 369
IV@@ 368
says 368
IA@@ 368
रज़ 368
पायर 368
धार्@@ 368
LTE 368
घाती 367
More 367
Th@@ 367
नाश@@ 366
सिफ@@ 366
उन्न@@ 366
type 366
गोरख@@ 366
उत्पाद@@ 365
not 365
PTI 365
BSP 365
High@@ 365
जयं@@ 365
CD 365
ER@@ 365
निराशा@@ 364
lo@@ 364
नाबालि@@ 364
पहर 364
टान 364
ऐश्वर्@@ 364
कृतिक 363
न्दु 363
Se@@ 363
DVD 363
हमला@@ 362
str@@ 361
उम्मी@@ 361
वकों 361
ations 360
वेंटि@@ 360
NS@@ 360
Narendra 360
विटा@@ 360
ens@@ 360
ay@@ 360
CO2 360
अकाद@@ 359
id 359
On 359
उस्@@ 359
om 359
जाइश 358
HIV 358
प्रथा@@ 357
डब्ल@@ 357
दक्षि@@ 357
te@@ 357
प्रको@@ 357
कैल्@@ 357
AR@@ 357
ˈ@@ 357
é@@ 357
फड@@ 356
रश्@@ 356
ari 356
son 356
hi@@ 356
लंब 355
j 355
US@@ 355
2nd 355
box 355
res 355
state 355
उद्ध@@ 354
शिकाय@@ 354
NA 354
ts@@ 354
मुसल@@ 354
ra@@ 353
खूब@@ 353
ren@@ 353
AC@@ 353
बेडकर 353
TS 353
आह्@@ 352
architecture 352
AC 352
नेश्वर 352
कुमा@@ 352
उपरा@@ 352
सानों 351
खूबी 351
ana 351
◆ 351
ov@@ 351
गरी@@ 350
ललि@@ 350
net 350
ative 350
मुज@@ 350
पार्थ@@ 349
ati@@ 349
रूनी 349
com@@ 348
रेली 348
ter@@ 348
ی@@ 348
्न 347
साझे@@ 347
ح@@ 347
Tr@@ 347
ैव 347
मेज@@ 346
Realme 346
iconduc@@ 346
TR@@ 346
CJI 346
विलियर्स 346
2018-19 345
ci@@ 345
3rd 345
BSNL 345
मजिस्ट्रे@@ 345
उंड 344
Xiaomi 344
Congress 343
माण@@ 342
end@@ 342
ist@@ 342
han 342
वैल@@ 341
ेल 341
Co@@ 341
सब्सि@@ 340
क्षिप्त 340
ंबू 340
थेरे@@ 340
खुद@@ 340
Previous 339
phase 339
IC 339
पैग़म्ब@@ 339
condition 339
ME@@ 338
नजदी@@ 338
आका@@ 338
सपे@@ 337
नकारा@@ 337
Wedding 337
फ़िर@@ 337
रिजर्@@ 336
ann@@ 336
CCTV 336
Photo 336
line 335
ड्ड@@ 335
हार्ड@@ 335
Man@@ 335
É@@ 335
आनुवं@@ 335
श्योरेंस 334
बेसब@@ 334
TDP 334
पियां 334
RT@@ 334
सम्रा@@ 333
ت@@ 333
अमृत@@ 333
धारि@@ 332
artic@@ 332
app 332
PL@@ 332
लीकेशन 331
Team 331
भोज@@ 330
Le@@ 329
सांझ 329
magnetic 329
खब@@ 329
Match 328
नेअ@@ 328
Mag@@ 328
ة 328
प्रगा@@ 328
हौल 328
कृप@@ 328
ग्य 327
अंड@@ 327
q@@ 327
स्वास्थ@@ 326
no@@ 326
st 326
क्वार@@ 325
ide 325
भरता 325
per 325
अदि@@ 325
Plus 324
Rahul 324
ch 324
Deepika 324
निदेश@@ 323
te 323
Global 323
ence 323
RC@@ 322
ligh@@ 322
पुरस्@@ 322
बराम@@ 322
²@@ 322
ing@@ 321
ma@@ 321
Am@@ 321
TB 321
Minister 320
q 320
UK 320
DA@@ 320
Inter@@ 320
1st 320
कुरै@@ 319
par@@ 319
forecast 318
о@@ 318
atta 318
ष्टीकरण 317
तिम 317
ain@@ 317
म्यां@@ 317
म्मे@@ 316
man@@ 316
HO@@ 316
्राष्ट्र@@ 316
फैस@@ 315
time 315
च्चे 315
NI@@ 315
per@@ 314
he@@ 314
reg@@ 314
सोचि@@ 314
ver@@ 314
mail 314
पेशे@@ 313
डमि@@ 313
SP@@ 313
जारों 313
Apple 313
Par@@ 313
दोज़@@ 313
स्फी@@ 312
ष्ट्र@@ 311
सकर्@@ 311
mi 311
समें 311
दब@@ 311
NG 311
JDU 311
Photos 311
Court 311
als 311
सियस 311
out 311
DR@@ 311
BI 311
र्ष@@ 310
धिया 310
नीन 310
ن 310
iOS 310
FT@@ 310
NG@@ 310
जरू@@ 310
form 310
TE@@ 310
PC 310
न्नति 310
कश्मी@@ 309
ER 309
Virat 309
सिफारि@@ 309
CS@@ 309
बारियों 309
भाविक 309
स्खलन 309
ع@@ 308
For@@ 308
सांस्@@ 308
दीदा 307
URL 307
IL 307
पत्त@@ 307
आड@@ 307
MT 307
Indies 307
कार्ट 306
सकीय 306
values 306
SCO 306
लीम 306
MC 306
my@@ 305
काठ@@ 305
PC@@ 304
eg@@ 304
App 304
BH@@ 304
पिड 303
John 303
ator 303
mod@@ 303
शनी 302
Dis@@ 302
FA 302
Act 302
क्टेयर 302
उम्मीद@@ 301
ud@@ 301
पुस्त@@ 301
University 301
ery 301
गम्भी@@ 301
Ma@@ 301
मिश्र@@ 301
लक्ष्@@ 300
Budget 300
UPSC 300
शद 300
pr@@ 300
conduc@@ 300
लिकेशन 299
नाल्ड 299
3D 299
भेदों 299
मैत्री@@ 299
ME 299
carbon 299
परहे@@ 299
Next 299
Today 299
गुमरा@@ 298
ंगर@@ 298
Star 298
Vs 298
IAS 298
पंड@@ 297
तेश्वर 297
sector 297
ND 297
UR@@ 297
Rs 297
राजी@@ 297
class 297
कमल@@ 297
GS 297
CC 297
Kohli 296
mar@@ 296
HE@@ 296
val@@ 296
मासू@@ 296
Shah 295
लुत्@@ 295
हफ्@@ 295
We@@ 295
Microsoft 295
Per@@ 295
USB 294
Windows 294
पट्ट@@ 293
az@@ 293
Trump 293
Chro@@ 293
BO@@ 292
Ranveer 292
Com@@ 292
2020-21 291
इंजी@@ 291
tive 291
India@@ 291
टीका@@ 291
connectivity 290
Health 290
पब्@@ 290
hab@@ 290
बेरोजग@@ 290
घरेल@@ 289
एथले@@ 289
UV@@ 289
मुखि@@ 289
जरे@@ 289
IPS 289
United 288
Result 288
Si@@ 288
Card 287
ow@@ 287
क्षम 286
एआईएम@@ 286
बेंगलु@@ 286
all@@ 286
मुआ@@ 286
Mumbai 286
खियां 286
sil@@ 286
ah@@ 286
एजु@@ 285
pe@@ 285
title 285
model 285
function 285
dr@@ 285
ge@@ 285
बिनेट 285
पीयू@@ 284
ंभ 284
NP@@ 284
GS@@ 284
NDRF 284
и@@ 284
बर्खा@@ 283
प्रचु@@ 283
dis@@ 283
car@@ 283
डिप्लो@@ 283
YSR 283
ash@@ 283
IM 283
world 283
pm 283
क्षमा@@ 282
ast@@ 282
संवाद@@ 281
over 281
आत्मह@@ 281
ISI 281
AB@@ 281
पेय@@ 280
मुना 280
NPR 280
NSA 280
मदनी 280
BE@@ 279
ay 279
ari@@ 278
आशु@@ 278
pre@@ 278
लियर 277
Institute 277
cor@@ 277
rec@@ 277
innovation 277
allo@@ 277
शिक@@ 277
उपयोग@@ 276
अद्@@ 276
स्पति 276
Vir@@ 276
शाक 276
San@@ 276
♪ 275
धूम@@ 275
डुचेरी 275
Pay 275
निदेशा@@ 274
मंग 274
Interior 274
करियां 274
test 274
वाकां@@ 274
अद्य@@ 273
power 273
North 273
label 273
br@@ 273
कॉप्टर 273
अनुभ@@ 272
संतोष@@ 272
जगदी@@ 272
ir 272
One 272
च्च 272
fi@@ 272
ell@@ 272
sub@@ 271
हाइट 271
PP@@ 271
लेरी 271
icon 271
Ali 271
ob@@ 271
China 271
हुल 270
मुक़र्र@@ 270
Padukone 270
PE@@ 270
SC@@ 269
ness 269
SL@@ 269
बाब्वे 269
मेर@@ 268
AM 268
IO@@ 268
Bharat 268
la@@ 268
item 268
level 268
राब 268
President 268
प्ता@@ 268
ani 267
BD 267
र्म@@ 267
ber 267
चक्रवा@@ 266
सोना@@ 266
Playing 266
ج@@ 266
Ne@@ 266
Ser@@ 266
SE 265
महम@@ 265
TA 265
Tax 265
্@@ 265
< 264
नरेगा 264
सामंज@@ 264
केआर 264
IAF 264
Coronavirus 264
ड्ढा 264
way 264
पत्थ@@ 264
भया@@ 264
SD 264
गिता 263
मोबाइ@@ 263
जद@@ 263
ks 263
IA 263
Sam@@ 263
ऽ@@ 262
षड्य@@ 262
साली 262
NEET 262
vi 261
हक@@ 261
FATF 261
हाटी 261
Op@@ 261
ans 260
DNA 260
चीत 260
DI@@ 260
Innovation 260
स्वर्ग@@ 260
Bihar 260
विवेकान@@ 260
α 259
na 259
As@@ 259
work 259
af@@ 259
ot@@ 258
त्वपूर्ण 258
Open 258
आयर@@ 258
re 258
ating 258
सहानु@@ 258
‌ 257
उत्कृ@@ 257
आपूर्@@ 257
विद्य@@ 257
; 257
pro@@ 257
pi@@ 257
ब्रिड 256
धानी 256
Kabaddi 256
सफे@@ 256
नाबा@@ 256
SL 256
ष् 256
आनन्@@ 256
टलैंड 256
CP 255
LE@@ 255
ंडई 255
मृत@@ 255
CR@@ 255
×@@ 255
आजा@@ 255
रुस्त 255
सेव@@ 255
सच्च@@ 255
विज्ञ@@ 254
ly 254
development 254
Business 254
Be@@ 254
नामां@@ 253
अँग्रे@@ 253
po@@ 253
RRB 253
Gu@@ 252
Time 252
Facebook 252
शर्ते 251
स्ट्रेलिया 251
ट्र 251
पसं@@ 251
T20I 251
काल्@@ 251
tic@@ 251
ताज@@ 251
Pl@@ 251
il 251
प्रदर्शन@@ 251
ND@@ 251
gn@@ 251
del@@ 251
सायनिक 251
आत 250
ill@@ 250
YS 250
ou@@ 250
ABVP 250
शुरू@@ 249
ary 249
concentration 249
bl@@ 249
Prob@@ 249
ICJ 249
Covid 249
DM 249
IB 249
धर्मे@@ 249
ice 248
Char@@ 248
MG 248
dia 248
Tata 248
ATM 248
making 248
Media 248
est 248
Online 248
IG@@ 248
group 248
Gov 248
^ 247
Africa 247
Po@@ 247
ICMR 247
Bollywood 247
Diwali 247
ah 247
लुओं 246
р@@ 246
Car@@ 246
As 246
तबा@@ 246
उर्वर@@ 246
IPC 246
techn@@ 245
option 245
ft 245
☻ 245
तुम्ह@@ 245
Research 245
land 245
·@@ 245
sha@@ 245
हिरा@@ 245
Punjab 244
tional 244
CW@@ 244
VC 244
LA 244
इंस 243
सत्तार@@ 243
cr@@ 243
High 243
EVM 243
चीज़@@ 243
Kumar 243
2013-14 242
ri 242
TO@@ 242
GDP 242
भाँ@@ 242
ंति@@ 242
Ter@@ 242
Development 242
साझ@@ 241
ब्य@@ 241
फायदे@@ 241
ends 241
ES 241
Priyanka 241
198@@ 240
बदला@@ 240
व्ला@@ 240
su@@ 240
inter@@ 240
Sc@@ 240
IR@@ 240
Women 240
दार्श@@ 240
Chopra 240
भागियों 239
new@@ 239
online 239
UAE 239
AD@@ 239
Mon@@ 239
tivity 239
-19 238
प्राव@@ 238
ट्रम 238
काउंट 238
So@@ 238
IMF 238
set 238
ms 238
mon@@ 238
Har@@ 238
YS@@ 238
air 238
मेमो@@ 237
अधिक@@ 237
res@@ 237
Solar 237
gr@@ 237
− 237
Case 237
न्तु 236
HA@@ 236
उद्यो@@ 236
rate 236
CR 236
मामू@@ 235
will 235
AK 235
मोमि@@ 235
ه@@ 235
RI 235
दिरों 235
SI 235
फलता 235
FIFA 235
लद्दा@@ 235
ang 235
ौदा 234
ق@@ 234
निमंत्र@@ 234
use 234
module 234
मेह 234
PMC 234
date 234
ach@@ 233
ism 233
Pradesh 233
WF 233
du 233
ong 233
रोमांच@@ 233
Br@@ 233
Sony 233
DO@@ 233
ر 233
ik@@ 233
चस्@@ 233
ting 232
Su@@ 232
с@@ 232
end 232
पैर@@ 231
min@@ 231
hal@@ 231
л@@ 231
No 231
FS@@ 231
With 231
Final 231
मुँ@@ 231
Trans@@ 231
li 231
कलं@@ 230
रीश 230
गोली@@ 230
जिस्ट्रे@@ 230
ated 229
MA 229
ina 229
UPI 229
तिकी 229
iz@@ 229
£@@ 229
Games 229
पाठी 229
fin@@ 228
Is 228
गराज 228
तेलंगा@@ 228
जाह्@@ 228
ess@@ 228
uc@@ 228
RTI 228
वनंतपुरम 228
फ्रेंचाइ@@ 228
atic 228
चौड़@@ 227
First 227
Li@@ 227
ium 227
der 226
ane 226
gu@@ 226
छान@@ 226
बॉलि@@ 226
í@@ 226
नागरि@@ 225
Twitter 225
कैपि@@ 225
इमर@@ 225
पेड@@ 225
EPFO 225
Sha@@ 225
ens 225
ath@@ 225
चयी 224
सश@@ 224
PoK 224
ti 224
साहे@@ 224
Ti@@ 224
number 224
Commission 224
जिते@@ 224
Me@@ 223
यालय 223
ল@@ 223
ecosystem 223
ric@@ 223
माम 222
State 222
ib@@ 222
ton 222
sc@@ 222
ous 222
आखि@@ 222
छ्@@ 221
bo@@ 221
new 221
king 221
चिस्तान 221
hy@@ 221
ong@@ 221
ki 221
विक्टो@@ 220
ax@@ 220
Gujarat 220
oo@@ 220
ओल 220
रख्@@ 220
प्रेर@@ 219
पड़ो@@ 219
umb@@ 219
दर्द@@ 219
ors 219
ara 219
वर्द्@@ 218
रिजल्@@ 218
Sri 218
सपुर 218
Bar@@ 218
भट्टा@@ 218
Min@@ 218
नेड 217
Assembly 217
no 217
Sar@@ 217
PG 217
DMK 217
Ste@@ 217
ru@@ 217
uk@@ 217
ue 216
ion@@ 216
ॢ@@ 216
dioxide 216
धोखाध@@ 215
फोर्निया 215
MP@@ 215
मदद@@ 215
धिकरण 215
Amazon 215
Ac@@ 215
Asian 215
has 215
आहू@@ 215
results 215
धरो@@ 215
د 214
sic 214
Data 214
YouTube 214
MSME 214
its 214
सऊ@@ 214
bu@@ 214
SUV 214
house 213
health 213
आध्या@@ 213
सज्जित 212
चूड़ 212
LG 212
East 212
Salman 212
उपयोगि@@ 211
ne 211
पॉपु@@ 211
बामा 211
ty 211
कोत@@ 211
ATE 210
Go@@ 210
तरीन 210
ds 209
change 209
सिर्@@ 209
GH@@ 209
लेक्सी 209
ā@@ 209
NASA 209
RA 208
ding 208
tu@@ 208
रिच@@ 208
than 208
गित 207
ev@@ 207
™@@ 207
view 207
ple 207
Zealand 207
ali 206
आन्दो@@ 206
35A 206
हरलाल 206
Rajasthan 206
LD 206
Tri@@ 206
Review 206
MB@@ 206
Ver@@ 206
Hu@@ 206
HD@@ 206
्यां@@ 205
तहरी@@ 205
ve 205
ف@@ 205
ID@@ 205
ौरी 205
हासि@@ 205
द्रवि@@ 205
VS 205
CT@@ 205
बेहि@@ 204
ce 204
mp@@ 204
DGP 204
थिए@@ 204
शही@@ 204
network 204
तियात 204
â@@ 204
ack 204
ताछ 203
उच्@@ 203
पितों 203
Ra@@ 203
high 203
Group 203
Step 203
ization 202
off 202
ash 202
est@@ 202
current 202
Government 202
menu 202
दिल्@@ 202
Highlights 202
बुध@@ 202
ler 202
| 201
Lanka 201
जासू@@ 201
दासपुर 201
the@@ 201
AA 201
Sonam 201
Lo@@ 201
Paytm 201
β 201
MB 200
ँकि 200
social 200
वरु@@ 200
া 200
ip@@ 200
Cha@@ 200
ख़े@@ 200
istic 200
समझौ@@ 199
थाई@@ 199
पारस्@@ 199
Prime 199
Mov@@ 199
फ्टी 199
Tag 199
CH@@ 199
DG@@ 199
JEE 199
क्षति@@ 198
मानित 198
ement 198
side 198
dates 198
► 198
PU@@ 198
WS 198
ted 198
PF@@ 198
‍ 197
н@@ 197
Met@@ 197
DRDO 197
pol@@ 197
Digital 197
शिवि@@ 197
eng@@ 197
लेफ्@@ 197
नियमि@@ 196
इंटेलि@@ 196
New@@ 196
डिप्@@ 196
Rec@@ 196
Science 196
फेस्टि@@ 196
टिफि@@ 195
ंग्रे@@ 195
ies 195
CL@@ 195
ual 195
TRS 195
NSG 195
ळ 195
खुल्@@ 195
ates 195
oo 195
197@@ 194
सोसाइ@@ 194
संशो@@ 194
List 194
ological 194
Bo@@ 194
तृ 194
196@@ 193
е@@ 193
CII 193
रेस्तरा@@ 193
कलक@@ 193
ज़िन्@@ 193
ker 193
ern@@ 193
vol@@ 193
du@@ 193
cl@@ 193
ression 193
sen@@ 193
रिजि@@ 192
tt@@ 192
ment 192
बैडमि@@ 192
waste 192
ृंख@@ 191
छत्र@@ 191
Launched 191
Fi 191
global 191
Office 191
od 191
कैथो@@ 191
IMD 191
hol@@ 191
check 190
Pan@@ 190
बई 190
ecture 190
ব@@ 190
श्वर्@@ 190
ॉफ 190
Policy 190
पाकी@@ 190
iver 190
ख्ती 189
Ro@@ 189
board 189
ian 189
district 189
Donald 189
io 189
asp@@ 189
Note 189
AS 188
infrastructure 188
ect 188
ंत्र 188
ca 188
संसद@@ 188
video 188
der@@ 188
raj@@ 188
शिंग@@ 188
इत्या@@ 188
ational 188
सोसाय@@ 187
Report 187
Compl@@ 187
दीपा@@ 187
Social 187
Infrastructure 187
first 187
domain 187
NB@@ 187
Kashmir 187
Royal 187
alloy 187
ants 187
Log@@ 187
PAN 186
ram 186
Power 186
ni 186
tro@@ 186
Or@@ 186
FT 186
bit 186
int@@ 186
variables 186
media 185
iv@@ 185
SH@@ 185
पहल@@ 185
गोप@@ 185
Pres@@ 185
यरूश@@ 185
You 185
ode 185
that 185
dec@@ 185
वाप@@ 184
ο@@ 184
Make 184
DR 184
वगै@@ 184
ally 184
Archit@@ 184
How 184
ش@@ 184
Dre@@ 184
Maruti 184
ab 183
ages 183
ant@@ 183
सुष@@ 183
Mobile 183
सैद्धा@@ 182
Honda 182
we@@ 182
गुड़@@ 182
धन्य@@ 182
NS 182
राइफ@@ 182
Hon@@ 182
gas 182
gh@@ 182
बर्थ@@ 182
PN@@ 182
TM 182
lin@@ 181
El@@ 181
Price 181
states 181
bul@@ 181
climate 181
ering 181
к@@ 181
ə@@ 181
नवाड़ी 181
भग 181
Ren@@ 180
ass 180
पैग़@@ 180
structure 180
तेलु@@ 180
परवरदि@@ 180
Sur@@ 180
Res@@ 180
tri@@ 180
कोरोना@@ 179
अड्@@ 179
कर्णी 179
aren@@ 179
Series 179
our 179
Seva 179
glass 179
two 179
র@@ 179
NDTV 179
unit 179
चिकित्@@ 178
Also 178
Stre@@ 178
ज्ञता 178
day 178
§ 178
× 178
ol 178
AD 178
Mur@@ 178
material 178
wi@@ 178
पटिया@@ 178
पीड़न 177
ς 177
इब्रा@@ 177
ments 177
cc@@ 177
आतंक@@ 177
م 177
ি@@ 177
Most 177
RO 177
mission 177
card 177
वैज्ञा@@ 177
हेज 176
ंगत 176
सरपर@@ 176
ale 176
ley 176
Mal@@ 176
प्रेत 175
aming 175
ster 175
sion 175
Amit 175
Ni@@ 175
सत्तारू@@ 175
against 175
Do@@ 175
्रिकर 175
Launch 175
KYC 175
TE 175
वर्गी@@ 174
ंतिक 174
ick@@ 174
INS 174
FDI 174
Summit 174
्राष्ट्रीय 173
शिना@@ 173
ho@@ 173
SW@@ 173
तालों 173
ard 173
crafts 173
dic@@ 173
System 173
लुस 173
economy 173
पादु@@ 173
अयो@@ 173
MSP 173
MA@@ 173
GT@@ 173
सांख्यि@@ 172
Kar@@ 172
ass@@ 172
ta@@ 172
ó@@ 172
America 172
Energy 172
RT 172
CL 172
cha@@ 172
ber@@ 171
security 171
आगा@@ 171
नारे@@ 171
AMU 171
रीदी 171
Supreme 171
ial 171
Board 171
Service 171
ک@@ 171
भुव@@ 171
Pr@@ 171
business 171
मिनार 171
समारो@@ 171
पोजी@@ 170
तीव्र@@ 170
Ob@@ 170
ut 170
kar 170
OF 170
दाऊ@@ 170
सामु@@ 170
CO 170
ड़ 169
विमर्@@ 169
He@@ 169
cricket 169
α@@ 169
CPI 169
ে@@ 169
rastructure 169
Council 169
Space 169
Post 169
1B 169
digital 169
फ़ार 169
Instagram 169
Col@@ 168
ome 168
DD@@ 168
न्नू 168
sk@@ 168
da 168
war 168
Te@@ 168
fl@@ 168
Ge@@ 168
Mahindra 168
Fr@@ 168
les 167
acy 167
सोवि@@ 167
ind@@ 167
Sector 167
Kal@@ 167
plot 167
news 167
ins 167
des@@ 166
she@@ 166
que 166
Pal@@ 166
over@@ 166
मोट 166
DC@@ 166
विनी 166
ast 166
अनुमो@@ 165
बाध 165
ials 165
❑ 165
ड्रोम 165
aya 165
he 165
environment 165
solar 165
Skill 165
Web 165
LIC 165
इंडस्ट्री@@ 164
सामू@@ 164
Airtel 164
Sk@@ 164
नोए@@ 164
Rel@@ 164
FS 164
व्वा 164
rail@@ 164
za 164
Ran@@ 164
LoC 164
ni@@ 164
EX@@ 164
परिक 163
alism 163
atest 163
bank 163
Indi@@ 163
City 163
विस्ता@@ 163
RAM 163
Galaxy 163
file 163
ular 163
OBC 163
tions 163
आईआरसी@@ 162
The@@ 162
ॐ 162
Hyundai 162
ك@@ 162
fication 162
कंप 162
management 162
so@@ 162
hypo@@ 162
Hy@@ 162
ree 162
Ram 162
Bangladesh 162
Nick 162
ve@@ 162
NT 162
particles 162
court 162
नमू@@ 161
Div@@ 161
Bre@@ 161
micro@@ 161
record 161
अथॉ@@ 161
ae 161
non 161
ents 161
Tal@@ 161
anti@@ 161
View 161
my 160
code 160
छत्ती@@ 160
ste@@ 160
sw@@ 160
study 160
ase 160
Army 160
ul 160
red 160
ff@@ 160
ain 160
PMO 160
Sal@@ 160
थिये@@ 160
Web@@ 160
Gr@@ 160
त्राओं 159
शिशु@@ 159
English 159
ρ@@ 159
ist 159
ik 159
UGC 159
Att@@ 159
Kes@@ 159
विंद 159
list 159
All 159
AL 159
रंगार@@ 158
people 158
CAG 158
Man 158
sol@@ 158
tree 158
सराह@@ 158
LE 158
Vol@@ 158
Date 158
elements 158
बुजुर्@@ 158
Cam@@ 158
गोष्@@ 157
ore@@ 157
Fi@@ 157
persons 157
ICU 157
BBC 157
open 157
ied 157
book 157
वैधा@@ 157
मियत 157
Cr@@ 156
sing@@ 156
न्नु@@ 156
ise 156
object 156
ub@@ 156
FA@@ 156
States 156
Pat@@ 156
tical 156
समुदा@@ 156
मुंह@@ 156
शयों 155
कमिंग 155
iti@@ 155
सम्मे@@ 155
Hi@@ 155
AG@@ 155
Bal@@ 155
AIADMK 155
TikTok 155
CE 155
ack@@ 155
ग्रैं@@ 155
Jonas 155
Ap@@ 155
्यूटर 154
Governance 154
San 154
police 154
Watch 154
RF 154
after 154
Dhoni 154
ators 154
Chief 154
Vi@@ 154
Anushka 154
Results 154
Rev@@ 154
ge 154
Central 154
un 154
training 154
col@@ 154
act 153
ner 153
জ@@ 153
Sch@@ 153
thesis 153
Na@@ 153
don@@ 153
Prav@@ 153
सोनो@@ 153
पिस 153
RE 153
fer@@ 153
डेब@@ 153
nan@@ 153
Ram@@ 153
Sub@@ 153
Em@@ 152
air@@ 152
ज्जु@@ 152
बैक्@@ 152
♫ 152
ection 152
डीटी 151
Good 151
Yadav 151
back 151
ath 151
Nan@@ 151
els 151
General 151
process 151
लाइब्रे@@ 151
ings 151
ke@@ 151
¶ 151
effect 151
क्तिकरण 150
portal 150
Centre 150
au 150
Fe@@ 150
Bu@@ 150
2G 150
लश्@@ 150
cell@@ 150
ess 150
you 150
ro 150
काफ़ि@@ 150
analysis 150
ry 150
NCB 149
Happy 149
ff 149
ome@@ 149
Hindustan 149
PV 149
Ministry 149
Says 149
कोच्च@@ 148
River 148
bar 148
ata 148
Aadhaar 148
COVID19 148
ː@@ 148
Trophy 148
mor@@ 148
Mis@@ 148
PO 148
Rece@@ 148
बिंदु@@ 147
असदु@@ 147
TVS 147
gap 147
table 147
MH@@ 147
स्मिक 147
Sa@@ 147
ency 147
Bengal 147
LAC 147
Mi@@ 147
कोलं@@ 147
DL 147
वश्य@@ 146
pi 146
Fl@@ 146
श्नर 146
Nok@@ 146
hon@@ 146
Exam 146
ret@@ 146
प्रिंसि@@ 146
ora 146
ion 146
BR@@ 146
treatment 146
डिली@@ 145
CWC 145
potential 145
SU@@ 145
ন@@ 145
bb@@ 145
command 145
ography 145
Birthday 145
EU 145
ick 145
My 145
CNG 145
रिडोर 144
election 144
ada 144
pe 144
ی 144
uri 144
ater@@ 144
ental 144
section 144
अखि@@ 144
т@@ 144
ital 144
एय@@ 143
ine@@ 143
½ 143
Elections 143
series 143
Mac@@ 143
ba 143
Samsung 143
Pol@@ 143
ids 143
ros@@ 143
SO 143
bri@@ 143
BMC 143
शता@@ 143
ंगू 143
BSE 143
ail 143
घाई 143
Ab@@ 142
intr@@ 142
Ben@@ 142
square 142
SR 142
CM@@ 142
sample 142
La@@ 142
GE 142
TI 142
ɪ@@ 142
ank@@ 142
tics 142
Kerala 142
of@@ 141
जगन्@@ 141
अर्जें@@ 141
श्रीलं@@ 141
less 141
PCB 141
mat 141
Def@@ 141
दीन@@ 141
¨@@ 141
Wi@@ 141
her 141
At 141
लिमों 141
मेघा@@ 141
Pak 141
तकली@@ 141
eas@@ 141
Suzuki 141
ओलम्@@ 141
Education 141
research 141
ix@@ 140
तर्गत 140
कोष@@ 140
LL@@ 140
 140
EF 140
ه 140
Fac@@ 140
Network 140
POCSO 140
युरप्पा 140
á@@ 140
TRA@@ 140
era 140
Daily 140
2012-13 139
ATS 139
MT@@ 139
def@@ 139
odi 139
Dem@@ 139
Tourism 139
CI 139
Water 139
ब्बल 139
LS 139
force 139
ali@@ 139
face 139
ow 139
vision 139
ili@@ 139
वाजि@@ 139
Eng@@ 139
anc@@ 139
bar@@ 138
adi@@ 138
Ban@@ 138
CN@@ 138
wk 138
रिश्ते@@ 138
तार्@@ 138
project 138
interior 138
wa 138
policy 138
हामि@@ 138
ell 138
quality 138
DI 138
Ms 138
House 138
ML@@ 138
ö@@ 138
₹@@ 138
ES@@ 138
ॄ@@ 137
help 137
ini 137
People 137
law 137
Ph@@ 137
Fo@@ 137
outcome 137
CISF 137
building 137
user 137
tw@@ 137
ose 137
वीस 136
fr@@ 136
MD 136
Security 136
amb@@ 136
Building 136
ug@@ 136
ination 136
hel@@ 136
Comp@@ 136
у@@ 136
в@@ 136
एजेंसि@@ 135
ato 135
तिश 135
Vis@@ 135
सनराइ@@ 135
ets 135
HAL 135
ap 135
VA 135
Whats@@ 135
इंस्पे@@ 135
low 135
Mission 135
ंडेय 135
कपड़@@ 135
CG@@ 134
7th 134
head 134
•@@ 134
जुद्दीन 134
km 134
ere 134
Football 134
source 134
Job@@ 134
मृत्य@@ 134
[...]
