the 7467462
. 7176983
, 6410841
of 4348565
and 3745591
to 3172008
in 2948975
" 2300355
a 2131754
is 1730247
The 1378642
for 1282091
that 1075648
on 1012725
has 849213
was 814869
be 796571
with 792592
( 765930
) 765789
are 726999
will 718826
by 707116
have 694290
as 677903
said 633261
from 613353
at 571888
this 548580
it 546837
not 546672
: 539109
India 524932
also 480461
I 473326
been 458884
an 451576
his 438776
you 427297
he 403725
He 392922
were 386392
's 352269
their 346067
Minister 345916
or 329470
had 319907
' 309453
all 308385
they 308315
? 299308
which 297731
who 288697
- 283132
them 276152
we 254744
people 247246
It 237829
This 233323
We 231724
one 229584
In 227291
can 227151
its 219808
Indian 218524
police 210990
A 208447
but 199343
Singh 192652
other 191259
about 190662
against 188740
our 186578
government 185365
BJP 180167
time 177286
him 176975
out 175728
two 175435
would 172911
up 170789
after 168442
there 168433
over 168389
Modi 166811
your 166654
no 166647
her 162011
do 161309
s 161150
case 157315
Delhi 155677
first 154998
-@@ 153235
Congress 152597
under 152577
/ 147467
state 145684
being 144437
any 142665
country 141684
so 140615
more 139154
should 136922
And 135567
Prime 134297
new 133563
into 132876
when 132542
made 131597
us 131006
Shri 130238
what 129383
But 127385
these 126104
such 125425
film 123559
They 123041
my 120131
like 118520
during 118319
those 117620
only 116647
if 115699
Police 113325
per 112987
then 111121
between 111065
Chief 110745
There 110215
un@@ 109070
some 108934
Government 108136
B@@ 107553
very 107329
D@@ 107142
S@@ 107082
than 106558
in@@ 105941
President 104927
God 104398
day 104025
ing 102916
through 102515
Pakistan 102311
me 102231
& 102075
State 101707
% 99769
am 98444
Allah 97815
L@@ 97775
work 97076
K@@ 96578
re@@ 96359
! 95037
P@@ 94147
Pradesh 93852
take 92992
es 92930
Rs 92815
er 92685
A@@ 92329
many 91375
world 90587
Ministry 90199
while 90194
M@@ 89364
taken 88975
Narendra 88812
i 88747
R@@ 88355
ers 88168
So 88085
T@@ 87932
three 87599
well 86827
F@@ 85789
1 85663
life 85396
Khan 85251
New 85206
accused 84957
did 84462
d@@ 83483
shall 83015
C@@ 82064
G@@ 81538
National 81528
s@@ 81367
You 81342
good 81254
b@@ 81085
p@@ 80846
here 80481
Gandhi 80359
k@@ 80086
make 79679
ed 79469
she 78801
Union 78572
t@@ 78382
before 78156
t 77881
incident 77304
get 76674
What 76556
Kumar 76137
party 76127
crore 76063
meeting 75971
However 75840
district 75781
y@@ 75696
where 75477
may 75146
come 75103
family 75005
2 74761
including 74484
number 74443
present 74279
al 74165
could 73986
H@@ 73968
ation 73753
both 73211
most 72943
last 72891
year 72652
given 71956
E@@ 71895
way 71634
N@@ 71403
today 71030
years 70899
part 70378
e@@ 70263
o 69839
chief 69793
J@@ 69050
e 68423
need 68230
man 67966
m@@ 67940
minister 67769
know 67479
As 67360
place 67253
US 66192
W@@ 66183
al@@ 65310
PM 65243
among 65201
All 65094
water 65052
l@@ 65027
On 64962
en@@ 64273
even 64102
help 64051
g@@ 64033
each 63697
She 63429
n@@ 63313
If 63203
ar@@ 63126
team 63005
how 62918
development 62907
registered 62778
women 62632
His 62480
used 62429
set 62357
an@@ 61941
say 61555
ar 61126
Kashmir 61015
Lord 60453
injured 60421
down 60246
3 60127
former 59910
court 59865
i@@ 59824
because 59552
social 59335
ated 59134
able 59030
children 58862
just 58765
media 58699
Sabha 58570
V@@ 58182
For 58166
various 58074
c@@ 58056
Mumbai 57799
see 57600
same 57235
back 57169
due 56993
leader 56089
every 55917
held 55762
arrested 55721
took 55604
r@@ 55598
Bank 55525
cases 55296
ate 55267
10 55251
sent 55104
spot 55029
y 55015
too 54834
going 54722
information 54637
matter 54517
occasion 54072
w@@ 54008
v@@ 53958
f@@ 53841
Sharma 53777
[ 53682
] 53682
Court 53556
students 53510
Kapoor 53419
go 53401
After 52967
others 52916
says 52854
use 52842
son 52551
dis@@ 52451
hospital 52289
Shah 52166
right 52133
called 51909
must 51811
th@@ 51783
power 51740
countries 51735
ad@@ 51486
different 51157
told 51074
members 50999
Rahul 50903
lakh 50640
started 50593
order 50552
important 50551
as@@ 50500
ating 50350
't 50337
O@@ 50073
cent 50032
does 49812
want 49627
security 49433
am@@ 49397
days 49360
When 49301
action 49197
support 49188
u 49174
added 49139
further 48687
5 48660
No 48637
give 48332
area 48254
president 48254
seen 48246
four 48120
issue 47990
body 47832
public 47620
second 47564
ts 47561
on@@ 47227
o@@ 47193
st@@ 47047
own 47004
u@@ 46880
... 46707
along 46696
great 46654
er@@ 46571
health 46488
several 46482
much 46223
done 46208
across 46158
ted 46008
leaders 45992
ting 45958
next 45923
death 45906
now 45827
ab@@ 45759
h@@ 45748
States 45629
killed 45438
system 45264
Maharashtra 45237
de@@ 45202
U@@ 45163
away 45130
How 45052
Secretary 44980
4 44854
another 44821
yet 44451
off 44394
Central 44383
things 44323
Jehovah 44149
I@@ 44125
areas 44123
land 44108
long 44082
These 43911
situation 43872
won 43859
j@@ 43849
role 43846
end 43575
Act 43543
came 43473
home 43473
name 43470
men 43436
become 43375
age 43355
found 43347
around 43331
ag@@ 43237
farmers 43167
states 43066
en 42904
Punjab 42902
asked 42893
official 42811
persons 42469
es@@ 42256
Jammu 42249
led 42239
decision 42151
never 42091
at@@ 41980
World 41965
based 41750
upon 41743
later 41704
Development 41358
a@@ 41288
city 41171
high 41036
far 40943
el@@ 40708
national 40577
Lok 40377
best 40282
West 40168
political 40050
m 40038
In@@ 40022
officials 39920
is@@ 39887
im@@ 39780
sector 39654
ti@@ 39496
ent 39448
ha@@ 39348
Day 39331
period 39315
five 39275
available 39233
One 39154
already 39149
To 39122
soon 39118
or@@ 39110
making 39020
elections 38944
Gujarat 38914
O 38807
video 38667
together 38583
provide 38482
General 38369
it@@ 38360
person 38352
known 38240
level 38135
.@@ 38131
attack 37995
got 37797
China 37751
That 37712
total 37704
ant 37690
few 37654
z@@ 37345
e-@@ 37068
law 36958
At 36842
wife 36803
working 36786
love 36773
visit 36678
reached 36651
without 36590
report 36555
Jesus 36488
6 36477
services 36470
month 36450
form 36332
20 36283
Ram 36234
house 36167
special 36117
South 36094
Home 36006
Bihar 35996
investigation 35915
k 35876
Indias 35805
Our 35711
village 35495
died 35494
ly 35480
company 35463
towards 35283
senior 35276
seats 35187
statement 35164
ch@@ 35089
be@@ 35058
better 34987
15 34964
regard 34960
Department 34925
fire 34923
le@@ 34881
think 34851
informed 34833
b 34807
issues 34793
put 34636
ap@@ 34614
reported 34569
S 34564
process 34493
times 34487
since 34450
still 34420
12 34356
Haryana 34185
received 34118
again 34084
Party 33962
Uttar 33960
ro@@ 33944
Affairs 33926
believe 33787
lot 33774
4@@ 33746
large 33664
di@@ 33618
education 33333
major 33304
cannot 33283
n 33277
currently 33248
lead 33233
According 33178
d 33149
7 33071
let 33034
growth 33026
issued 33011
father 32952
earth 32940
series 32925
woman 32923
ia 32922
3@@ 32823
show 32765
change 32724
Rajasthan 32651
taking 32645
always 32617
th 32591
Bollywood 32571
8 32566
however 32538
movie 32510
Its 32348
Re@@ 32344
ations 32343
C 32305
international 32275
less 32218
Y@@ 32126
2019 32089
saying 31966
cricket 31954
increase 31947
money 31842
actor 31718
R 31698
P 31673
Z@@ 31641
play 31632
following 31615
include 31524
ur@@ 31508
Bengal 31488
nation 31450
2018 31415
M 31367
ul@@ 31356
top 31330
food 31243
An@@ 31224
local 31154
business 31151
look 30977
Then 30949
Why 30912
group 30887
People 30878
Centre 30867
event 30845
ak@@ 30816
ine 30799
launched 30797
service 30709
sh@@ 30693
news 30689
My 30604
match 30570
Test 30499
p 30440
Yadav 30330
king 30320
2020 30315
project 30302
announced 30207
side 30185
why 30105
als 30074
5@@ 30060
ya 30033
7@@ 30012
100 30009
Health 29972
ic@@ 29866
bring 29865
ter 29828
shared 29811
MP 29766
Supreme 29685
provided 29651
ates 29522
University 29428
account 29380
ac@@ 29338
economic 29317
em@@ 29239
50 29235
human 29142
il@@ 29137
brought 29110
av@@ 29065
went 29060
Amit 29044
future 29016
within 29011
l 28954
Commission 28931
ad 28872
efforts 28786
B 28754
During 28675
ex@@ 28659
Assembly 28630
price 28596
third 28553
li@@ 28483
treatment 28447
Both 28416
Army 28389
market 28360
dont 28359
With 28358
ensure 28345
Kohli 28297
g 28290
candidates 28285
comes 28252
financial 28244
ra 28226
filed 28156
ri@@ 28154
con@@ 28091
view 28081
Con@@ 28066
ance 28023
keep 27931
High 27897
doing 27891
Committee 27890
ans 27889
United 27889
11 27859
war 27850
ally 27834
region 27796
ani 27790
9 27786
ana 27778
post 27740
scheme 27724
ol@@ 27707
hand 27686
2017 27677
International 27615
full 27611
sp@@ 27592
field 27519
ic 27517
entire 27503
An 27472
left 27472
released 27434
election 27414
le 27406
CBI 27384
Australia 27383
complaint 27381
30 27340
decided 27284
directed 27276
Al@@ 27217
Finance 27159
using 27145
played 27139
free 27133
continue 27078
projects 27059
having 27035
win 27024
find 27006
rate 26964
Karnataka 26963
global 26949
mother 26944
Justice 26911
industry 26872
member 26823
Director 26811
meet 26806
T 26804
Air 26793
related 26790
data 26747
L 26710
runs 26679
h 26675
gave 26584
Bible 26504
qu@@ 26495
small 26470
earlier 26465
us@@ 26460
8@@ 26443
means 26427
programme 26400
ous 26388
6@@ 26370
face 26365
old 26328
control 26277
school 26212
road 26202
written 26176
policy 26053
live 26005
workers 25994
production 25976
K 25973
list 25965
office 25944
possible 25920
CM 25894
2@@ 25875
ye 25859
interest 25767
big 25758
Sh@@ 25757
Board 25693
25 25680
coming 25669
cause 25647
clear 25583
Tamil 25581
open 25555
Two 25513
daughter 25449
dead 25448
technology 25397
D 25386
op@@ 25337
Rs.@@ 25255
officers 25243
till 25221
peace 25219
he@@ 25189
parties 25148
cost 25100
became 25099
Trump 25087
date 25049
ment 25030
Ali 25002
se@@ 24930
building 24847
million 24793
ings 24763
Parliament 24727
Par@@ 24724
pl@@ 24710
result 24688
might 24660
COVID-19 24635
parts 24629
needs 24581
Council 24558
energy 24547
basis 24534
accident 24529
tion 24450
recently 24449
true 24429
Madhya 24409
etc 24408
um@@ 24381
14 24371
private 24355
De@@ 24305
medical 24255
ones 24250
pro@@ 24237
created 24212
nor 24167
Ar@@ 24158
Defence 24090
et@@ 24084
ity 24068
19@@ 24015
captain 24012
air 24006
hi@@ 23977
North 23974
truth 23836
Some 23827
final 23792
activities 23771
par@@ 23738
ah 23698
om@@ 23681
oil 23626
lives 23621
question 23620
whom 23614
x 23544
knowledge 23524
society 23506
getting 23489
places 23463
While 23457
example 23454
bl@@ 23409
week 23398
Do 23393
se 23380
Dr 23370
ever 23346
bank 23293
strong 23217
six 23183
Gods 23123
13 23105
problems 23086
forces 23074
community 23068
E 23065
Kerala 22977
Is 22968
ist 22965
fight 22943
condition 22926
Andhra 22922
ed@@ 22849
ors 22844
address 22843
Many 22834
expected 22825
near 22794
lost 22784
pur 22779
Hindi 22742
temple 22723
hi 22708
amount 22686
24 22627
foreign 22596
increased 22580
Virat 22564
quality 22536
stars 22505
respect 22501
districts 22475
capital 22460
stated 22446
general 22438
head 22436
ir@@ 22395
claimed 22353
problem 22349
higher 22343
thing 22341
England 22333
id@@ 22318
prices 22313
Man@@ 22294
likely 22249
book 22225
young 22223
call 22214
up@@ 22187
est 22179
heart 22175
line 22167
expressed 22114
training 22098
child 22067
share 22054
sub@@ 21987
alleged 21985
Former 21983
attended 21976
unto 21936
himself 21900
close 21877
something 21876
tions 21861
percent 21829
Cabinet 21796
start 21786
nothing 21782
months 21781
ec@@ 21773
end@@ 21745
co@@ 21719
os@@ 21718
companies 21714
9@@ 21705
ur 21690
trade 21675
Meanwhile 21668
Mar@@ 21633
really 21609
ha 21585
station 21574
Ch@@ 21522
point 21518
act 21486
aw@@ 21475
tax 21468
history 21460
18 21404
run 21391
economy 21364
N 21354
largest 21342
red 21327
management 21326
Vice 21321
happy 21318
faith 21302
Jehovahs 21294
don 21278
Salman 21278
parents 21262
current 21245
behind 21237
connection 21229
research 21185
past 21171
phone 21162
Rs. 21156
study 21155
films 21154
cooperation 21151
el 21095
ne@@ 21095
capacity 21080
Who 21046
works 21041
themselves 20999
mind 20996
mis@@ 20993
position 20953
central 20935
fear 20920
poor 20909
16 20908
17 20895
test 20892
light 20886
ai@@ 20877
over@@ 20874
main 20871
night 20866
wrote 20854
words 20769
youth 20762
for@@ 20738
remain 20709
Bharat 20702
happened 20698
Institute 20629
section 20596
common 20534
reports 20505
bi@@ 20500
read 20494
key 20481
car 20458
details 20453
ents 20436
forward 20399
Sena 20363
ing@@ 20354
per@@ 20339
ma 20299
kind 20257
return 20243
benefit 20234
ds 20215
least 20206
ji 20202
Mo@@ 20167
c 20156
required 20130
according 20128
language 20115
Public 20095
Bangladesh 20059
though 20056
once 20050
storage 19984
front 19944
whole 19942
reason 19834
2016 19831
conducted 19831
no@@ 19826
ering 19819
results 19814
Un@@ 19805
rec@@ 19790
Him 19768
and@@ 19738
ent@@ 19712
met 19701
girl 19671
often 19661
pay 19643
above 19592
anything 19545
F 19534
hold 19493
$ 19489
Railways 19486
hit 19468
tr@@ 19466
District 19439
husband 19436
um 19428
course 19421
force 19421
release 19415
understand 19411
products 19400
violence 19399
40 19395
Also 19391
Sri 19387
Ministers 19381
officer 19380
declared 19375
feel 19374
18@@ 19350
Ram@@ 19335
ch 19255
ons 19251
infrastructure 19244
investment 19196
teams 19196
serious 19134
developed 19124
move 19114
whether 19058
construction 19057
active 19047
admitted 19007
fl@@ 18998
pe@@ 18973
income 18962
'@@ 18953
friends 18944
Education 18914
value 18902
House 18900
personnel 18894
Hindu 18892
man@@ 18886
fact 18870
19 18866
Twitter 18862
positive 18860
ish 18823
progress 18775
terms 18744
care 18744
previous 18727
ks 18679
players 18678
ou@@ 18677
May 18674
playing 18638
Ad@@ 18620
immediately 18618
game 18618
identified 18607
allowed 18601
affected 18590
East 18559
single 18557
deal 18554
brother 18542
Technology 18536
certain 18533
driver 18524
create 18522
non-@@ 18516
har 18511
Mr 18478
si@@ 18476
la@@ 18456
Sha@@ 18451
committee 18451
early 18450
online 18429
ut@@ 18415
Africa 18399
Sanjay 18379
March 18363
Shiv 18345
assembly 18334
Am@@ 18330
U 18330
message 18296
Raj@@ 18283
ness 18281
cities 18264
Pro@@ 18259
raised 18253
br@@ 18253
Priyanka 18231
res 18166
ala 18158
turn 18151
ways 18147
seat 18145
Hyderabad 18086
steps 18084
candidate 18069
et 18060
story 18060
seven 18056
ary 18041
living 18040
Nadu 18036
relationship 18008
named 18005
charge 18002
success 17983
citizens 17981
Cup 17975
sources 17934
murder 17904
plan 17883
de 17880
Muslim 17876
points 17868
indeed 17847
sha@@ 17845
oc@@ 17839
banks 17830
paid 17822
Your 17821
demand 17815
began 17812
included 17808
GST 17804
term 17798
hope 17781
features 17775
rushed 17768
ka 17750
population 17731
Israel 17718
ang@@ 17708
institutions 17695
families 17679
har@@ 17677
Har@@ 17662
recovered 17655
upcoming 17624
little 17611
ite 17601
experience 17589
Patel 17576
especially 17554
Sar@@ 17547
town 17530
G 17505
website 17489
Se@@ 17489
April 17481
mon@@ 17407
followed 17392
ants 17370
Dr. 17356
director 17327
responsibility 17288
trying 17274
necessary 17253
te@@ 17232
until 17231
Rohit 17230
patients 17222
ay 17220
passed 17186
word 17186
esh 17184
str@@ 17151
opportunity 17147
Rajya 17143
21 17135
spread 17126
huge 17122
letter 17118
f 17118
rights 17114
lo@@ 17114
appointed 17111
politics 17094
low 17089
personal 17081
board 17064
hard 17057
2015 17048
measures 17036
ence 17031
res@@ 17026
Chairman 17020
St@@ 17007
Now 16986
Sam@@ 16981
ful 16978
ys 16973
Su@@ 16946
leave 16895
Governor 16894
gr@@ 16874
me@@ 16859
providing 16836
bodies 16833
ties 16817
Of 16813
r 16810
od@@ 16808
ator 16782
22 16773
Ex@@ 16762
Th@@ 16762
loss 16759
gold 16736
MLA 16736
car@@ 16727
fully 16715
wrong 16709
regarding 16704
Cha@@ 16693
Most 16687
IPL 16681
approved 16660
su@@ 16655
spirit 16640
involved 16638
Research 16630
Assam 16623
km 16622
heavy 16621
2014 16619
produced 16601
tic 16595
job 16590
June 16571
class 16569
hands 16560
ak 16539
Railway 16532
Those 16527
rural 16523
polls 16520
camera 16488
tweeted 16484
facilities 16450
located 16446
recent 16437
religious 16433
ai 16421
ren@@ 16420
ud@@ 16407
application 16398
Force 16373
ators 16307
z 16285
considered 16245
kar 16237
reach 16236
ay@@ 16229
Kejriwal 16222
religion 16204
ies 16198
rest 16185
secretary 16177
ative 16143
Ra@@ 16120
schools 16112
Prasad 16098
leading 16093
performance 16075
except 16075
response 16025
outside 16009
either 16005
Hospital 16005
governments 16003
function 15990
a-@@ 15961
ask 15959
ready 15953
UP 15947
Earlier 15943
movement 15941
border 15904
out@@ 15899
-- 15897
highest 15874
includes 15866
record 15857
century 15854
probe 15853
vehicles 15848
gone 15834
follow 15816
campaign 15810
wanted 15770
Group 15751
ty 15748
ve 15745
completed 15737
els 15735
roles 15703
stand 15694
Constitution 15688
Besides 15683
Security 15671
culture 15648
Bill 15645
operation 15636
V 15624
ali 15624
Indians 15604
giving 15600
ahead 15592
ob@@ 15588
concerned 15581
committed 15569
blood 15560
October 15549
groups 15542
effect 15537
actress 15530
war@@ 15490
worked 15482
ra@@ 15479
ling 15478
sl@@ 15472
Corporation 15459
November 15437
needed 15432
s. 15410
department 15405
ground 15397
mar@@ 15396
anyone 15387
thought 15376
looking 15370
December 15367
ens 15363
English 15363
focus 15337
ati@@ 15334
similar 15331
Chennai 15330
presented 15326
ability 15317
pre@@ 15310
revealed 15307
employees 15302
whose 15285
real 15263
En@@ 15255
relations 15254
Cricket 15251
lodged 15249
difficult 15239
og@@ 15239
conference 15231
MLAs 15228
card 15224
wickets 15212
mobile 15201
administration 15195
ara 15192
conditions 15190
na 15189
re 15188
ev@@ 15178
Bi@@ 15166
implementation 15165
questions 15162
Deputy 15161
ari 15154
opportunities 15150
bo@@ 15148
Muslims 15147
therefore 15143
successful 15136
employment 15119
Rajnath 15117
train 15109
supply 15093
military 15072
Asia 15063
Scheme 15054
com@@ 15042
operations 15038
September 15021
ter@@ 15020
Medical 15018
formed 14985
cultural 14983
built 14968
cor@@ 14963
ge 14925
ep@@ 14913
ism 14881
joined 14876
search 14869
SP 14868
session 14867
try 14865
Chinese 14863
purpose 14858
ministry 14841
defence 14832
sed 14812
ow@@ 14800
ver@@ 14787
makes 14779
to@@ 14771
cr@@ 14754
Information 14740
60 14739
By 14710
environment 14704
British 14666
July 14664
Co@@ 14658
doctors 14657
os 14654
viral 14651
step 14647
improve 14643
season 14642
complete 14628
safety 14623
mo@@ 14602
ats 14602
saw 14596
launch 14595
po@@ 14591
Women 14591
ri 14589
Nath 14586
ministers 14581
changes 14570
thou 14569
addition 14568
ath 14550
ath@@ 14549
space 14538
tell 14538
0@@ 14536
Special 14530
takes 14526
authorities 14513
talk 14510
Mission 14504
gh@@ 14494
ard 14489
quite 14485
1.@@ 14468
terrorism 14453
Under 14376
houses 14375
Y 14374
domestic 14367
Foreign 14366
Science 14356
Kolkata 14337
Speaking 14327
ding 14325
passengers 14292
American 14248
ir 14232
Pakistani 14227
surely 14213
David 14213
ig@@ 14210
carried 14185
cl@@ 14178
Bal@@ 14177
prime 14170
examination 14161
the@@ 14122
Following 14114
Jharkhand 14111
x@@ 14103
Three 14088
Kar@@ 14087
investigating 14072
site 14058
ical 14056
itself 14051
opposition 14042
ments 14038
signed 14031
Commissioner 14030
ely 14023
January 14017
Bar@@ 14016
ann@@ 14014
500 14000
Instagram 13989
all@@ 13983
Services 13976
fast 13968
Paul 13937
everyone 13936
established 13923
birth 13905
deep 13903
Ma@@ 13902
il 13897
ses 13884
han 13881
Raj 13880
kept 13879
additional 13858
under@@ 13850
worship 13836
stop 13813
IC@@ 13801
thy 13763
TV 13763
underway 13756
offer 13749
der 13749
turned 13734
access 13725
late 13712
constituency 13711
leadership 13710
fall 13707
everything 13705
discussed 13703
hours 13701
Christian 13682
file 13681
evil 13674
tive 13667
compared 13666
ill@@ 13664
X@@ 13655
23 13653
les 13642
gets 13640
lower 13625
married 13590
assistance 13581
Let 13551
freedom 13545
published 13535
potential 13533
direction 13533
ship 13530
morning 13527
schemes 13524
popular 13519
organised 13518
wants 13518
terrorists 13518
Even 13487
strength 13479
School 13475
Road 13468
natural 13467
changed 13466
star 13449
status 13447
rise 13447
presence 13445
talks 13438
Bachchan 13437
ari@@ 13402
inter@@ 13391
Senior 13377
Mal@@ 13357
Management 13347
sought 13347
Agriculture 13341
effective 13339
protest 13328
disease 13327
August 13326
26 13318
nations 13307
ph@@ 13304
gives 13288
manner 13284
au@@ 13275
ry 13264
28 13256
promote 13250
continued 13238
river 13232
speak 13230
SC 13229
Dhoni 13226
att@@ 13225
rain 13224
bus 13206
importance 13204
caused 13202
sides 13200
Service 13194
short 13194
evidence 13186
alliance 13184
Since 13168
charges 13165
ying 13156
gl@@ 13150
Anil 13144
increasing 13122
Say 13120
stay 13107
Naidu 13102
impact 13093
happen 13085
ery 13082
vehicle 13075
picture 13071
dr@@ 13054
legal 13046
J 13033
cha@@ 13026
billion 13016
Odisha 12997
FIR 12991
ality 12989
pressure 12987
bad 12968
bilateral 12964
ast@@ 12960
Later 12956
stage 12953
Their 12949
Russia 12946
phase 12921
tri@@ 12918
IN@@ 12912
alone 12904
born 12891
brothers 12881
200 12880
fi@@ 12879
funds 12856
Chopra 12854
significant 12852
source 12852
1@@ 12836
Several 12836
ess@@ 12831
award 12830
credit 12797
agriculture 12783
Chhattisgarh 12777
Kingdom 12773
Japan 12772
bench 12765
ball 12751
hal@@ 12750
ended 12746
music 12745
didnt 12741
Goa 12734
mentioned 12732
responsible 12726
handed 12705
ta 12682
Not 12678
shot 12672
answer 12667
Water 12667
ci@@ 12657
prepared 12653
Telangana 12649
model 12636
sure 12631
laws 12629
Q@@ 12622
agency 12619
hearing 12609
BCCI 12607
ches 12606
rich 12601
H 12600
ash@@ 12600
terror 12598
As@@ 12595
Vijay 12591
College 12567
ics 12564
programmes 12560
sons 12552
10@@ 12545
ten 12544
challenges 12540
heard 12532
From 12530
dec@@ 12518
Article 12517
resources 12505
Di@@ 12503
review 12499
joint 12499
demanded 12495
victory 12483
af@@ 12480
e. 12465
deceased 12462
tu@@ 12459
facing 12458
relief 12452
critical 12443
victim 12441
staff 12430
serve 12417
NCP 12397
below 12395
justice 12393
greater 12390
worth 12388
rules 12382
eight 12381
seized 12381
speed 12375
gas 12372
names 12365
easy 12364
Election 12359
risk 12351
Christians 12346
knows 12337
learn 12329
particular 12325
confirmed 12319
sel@@ 12317
injuries 12310
27 12308
punishment 12306
existing 12297
ational 12295
bu@@ 12292
conduct 12288
press 12288
eyes 12274
ars 12260
initiative 12257
tried 12255
half 12243
proposed 12240
ked 12239
ru@@ 12229
31 12222
room 12216
nature 12203
RBI 12198
ceremony 12195
spokesperson 12195
daily 12188
ge@@ 12187
participated 12185
Welfare 12185
ps 12172
mark 12168
enter 12167
roads 12165
Apart 12157
centre 12151
arrest 12148
Sonia 12147
2013 12138
Akshay 12132
majority 12126
recorded 12112
John 12110
benefits 12090
target 12086
denied 12085
du@@ 12079
Afghanistan 12072
Students 12066
Sa@@ 12065
16@@ 12061
la 12059
marriage 12047
anti-@@ 12045
systems 12041
vision 12032
ita 12031
offered 12025
Uttarakhand 12015
inside 11983
thee 11979
Zealand 11975
biggest 11964
Dis@@ 11961
ages 11955
Ltd 11936
trust 11935
growing 11923
villages 11922
coronavirus 11919
payment 11916
San@@ 11905
Be@@ 11904
heavens 11900
provisions 11890
First 11875
Civil 11874
safe 11862
Other 11860
Her 11851
jail 11849
plays 11842
provides 11836
35 11835
Ab@@ 11829
Bha@@ 11826
Iran 11823
material 11819
NC@@ 11819
save 11816
fans 11812
Lanka 11805
referred 11803
Arvind 11802
Section 11794
range 11794
modern 11794
seeking 11792
Conference 11791
Republic 11788
90 11786
elected 11784
hand@@ 11783
moved 11782
sports 11781
failed 11777
ke 11777
allow 11769
matches 11768
build 11762
Book 11759
ah@@ 11759
urged 11750
Nepal 11732
path 11726
shows 11722
claim 11714
thousand 11714
Sinha 11709
Association 11704
closed 11704
Janata 11700
IS@@ 11699
democracy 11696
ms 11695
approach 11689
CO@@ 11685
Rao 11675
goods 11673
travel 11669
80 11668
ess 11660
lies 11641
ED 11637
Office 11635
crores 11633
subject 11631
equal 11621
attention 11620
art 11619
Power 11610
ble 11599
February 11593
digital 11592
Governments 11592
spiritual 11572
rule 11571
friend 11568
70 11566
gu@@ 11566
ise 11565
id 11562
Ajay 11558
Indeed 11555
ology 11554
def@@ 11550
pictures 11545
thus 11544
average 11543
challenge 11543
railway 11541
science 11540
individual 11516
sc@@ 11514
we@@ 11513
IT 11506
matters 11498
sk@@ 11495
fourth 11491
join 11481
network 11480
Himachal 11468
felt 11457
platform 11449
2.@@ 11447
accounts 11434
Such 11433
suicide 11433
ends 11432
20@@ 11427
receive 11426
ore 11395
Deepika 11395
sing 11393
aircraft 11388
stations 11386
initiatives 11383
External 11378
0 11368
consider 11366
duty 11364
strengthen 11358
certainly 11353
Food 11346
neither 11337
Rukh 11330
seek 11316
Thus 11313
speech 11305
sur@@ 11298
pandemic 11293
Economic 11293
Pre@@ 11291
trains 11289
almost 11283
air@@ 11281
ement 11280
Tr@@ 11278
type 11277
teachers 11273
generation 11270
reasons 11260
notice 11240
visited 11238
Pr@@ 11229
property 11229
allegations 11229
sw@@ 11228
Witnesses 11228
ago 11223
opened 11219
besides 11213
enough 11213
placed 11211
fin@@ 11207
Donald 11203
believed 11187
develop 11186
actually 11184
attend 11182
army 11182
Sur@@ 11180
spoke 11174
note 11173
events 11163
inv@@ 11163
festival 11162
rates 11157
Mr. 11157
rally 11131
Officer 11121
Im 11120
Im@@ 11111
Industry 11110
agreement 11098
opening 11096
co-@@ 11096
career 11095
numbers 11092
plans 11091
unit 11089
receiving 11086
ian 11084
ched 11083
deployed 11080
ist@@ 11080
j 11076
ant@@ 11075
soldiers 11073
urban 11069
crime 11065
Thats 11065
custody 11053
ised 11049
ded 11047
meetings 11045
rape 11040
clean 11030
PTI 11024
signs 11023
2012 11014
London 11012
cut 11009
29 10995
do@@ 10994
remained 10973
confidence 10969
selected 10962
Today 10960
books 10957
player 10957
corruption 10946
page 10925
check 10897
judge 10895
category 10888
organized 10881
Read 10877
moment 10870
approval 10868
setting 10865
units 10860
goes 10850
sense 10849
contest 10845
Moses 10842
More 10840
ret@@ 10839
direct 10834
agencies 10828
hearts 10827
levels 10822
remember 10817
min@@ 10812
contribution 10809
Yogi 10809
Com@@ 10794
bar@@ 10793
_ 10760
sectors 10759
Limited 10757
extended 10755
eth 10744
ass@@ 10743
om 10738
az@@ 10736
accepted 10732
agreed 10730
shown 10724
respectively 10722
song 10718
City 10710
ern@@ 10710
send 10707
girls 10703
Imran 10700
ell@@ 10699
apply 10689
exercise 10688
oo@@ 10680
cur@@ 10674
ists 10672
ening 10670
bill 10669
t-@@ 10664
so@@ 10661
Sports 10660
reply 10660
rejected 10657
3.@@ 10653
Muhammad 10651
ular 10645
vs 10642
attacks 10637
BSP 10636
Gupta 10630
black 10629
helped 10626
Here 10626
traffic 10622
ial 10620
uses 10617
mission 10608
celebrated 10608
ind@@ 10596
produce 10593
Asian 10590
Kal@@ 10590
normal 10586
ances 10560
ously 10546
ered 10540
shooting 10530
er-@@ 10528
Car@@ 10521
15@@ 10517
vote 10509
era 10505
student 10504
physical 10502
Pat@@ 10498
round 10493
ODI 10492
y-@@ 10467
sea 10453
aid 10449
Best 10443
inder 10443
cast 10440
iv@@ 10436
achieve 10430
ins 10422
Will 10416
ICC 10415
Mon@@ 10409
ure 10402
Facebook 10402
Law 10399
uk@@ 10396
forth 10391
ending 10386
coach 10380
17@@ 10376
tics 10362
votes 10357
diesel 10355
returned 10351
remains 10350
Krishna 10350
extremely 10346
maintain 10343
deaths 10342
partnership 10340
completely 10340
facility 10339
civil 10333
latest 10332
exchange 10328
mat@@ 10323
specific 10322
tw@@ 10320
sign 10320
Amitabh 10319
whatever 10316
Ashok 10305
essential 10297
Ne@@ 10295
ordered 10294
st 10290
UN 10285
ain 10277
markets 10265
internal 10262
stone 10262
Tata 10255
wish 10246
lockdown 10234
Br@@ 10234
Mad@@ 10231
Yes 10226
UK 10219
Gu@@ 10217
Family 10212
sister 10192
petition 10188
via 10179
accept 10177
Pan@@ 10173
Banerjee 10160
effort 10159
someone 10154
manufacturing 10150
directly 10147
ul 10146
scored 10136
Reserve 10134
Award 10133
keeping 10128
CA@@ 10125
ot@@ 10125
particularly 10123
discussion 10123
reduce 10120
wise 10120
concern 10116
associated 10115
fled 10110
cash 10105
des@@ 10098
sections 10080
Authority 10080
die 10080
innings 10077
ie 10075
Le@@ 10069
Jaitley 10066
Arun 10064
airport 10063
Therefore 10062
carry 10058
ain@@ 10056
running 10044
ade 10042
couple 10040
regular 10035
hospitals 10035
hear 10033
fine 10030
Actor 10020
fac@@ 10019
ho@@ 10013
ama 10013
France 10010
maximum 10005
v 9996
ste@@ 9994
developing 9993
Sal@@ 9990
terrorist 9985
AT@@ 9984
photo 9979
Eastern 9978
aj@@ 9971
Sub@@ 9970
testing 9970
proposal 9959
ns 9957
Arjun 9956
served 9954
Energy 9954
creation 9951
cover 9937
Christ 9937
ice 9897
implemented 9892
pr@@ 9890
comp@@ 9890
ened 9886
chaired 9877
ters 9876
75 9863
holding 9856
crisis 9849
base 9848
initiated 9829
Farmers 9826
inquiry 9825
trans@@ 9823
healthy 9822
protect 9818
ali@@ 9818
aries 9817
introduced 9817
believers 9817
Control 9810
idea 9810
del@@ 9808
Mukherjee 9808
plant 9796
12@@ 9791
forms 9791
acy 9789
self 9784
Germany 9781
fe@@ 9779
ban 9777
ab 9776
winning 9776
ov@@ 9774
ines 9772
are@@ 9769
temperature 9766
posted 9760
languages 9755
Chandigarh 9747
cre@@ 9746
CEO 9740
degree 9739
separate 9735
Kareena 9735
loan 9734
II 9733
plea 9731
ash 9723
provision 9716
soul 9714
ati 9712
sts 9707
tweet 9705
Fund 9702
Pradhan 9700
pol@@ 9699
Commerce 9699
regional 9694
nearly 9685
Tourism 9675
evening 9672
Nar@@ 9670
understanding 9666
Nagar 9658
AAP 9656
users 9651
throughout 9641
authority 9641
learning 9640
Anushka 9640
ders 9637
annual 9631
Mah@@ 9629
ba 9627
SA@@ 9622
mean 9622
allegedly 9618
Additional 9609
Prakash 9599
5.@@ 9598
ently 9598
reg@@ 9594
Transport 9593
7.@@ 9583
anda 9582
character 9582
Cl@@ 9581
Ac@@ 9568
firm 9563
32 9562
victims 9561
Per@@ 9553
tournament 9551
arrived 9548
Kovind 9547
cap@@ 9537
Adityanath 9535
Tax 9525
emb@@ 9521
Another 9520
protection 9512
0.@@ 9508
ls 9508
Qu@@ 9501
calls 9500
King 9494
strike 9493
decisions 9484
Ganga 9484
Sachin 9476
pur@@ 9475
're 9465
wal 9454
Sunil 9454
transport 9442
instead 9428
journey 9419
becomes 9418
vi@@ 9414
atic 9410
dies 9405
welfare 9397
ose 9397
aware 9387
45 9384
screen 9381
submitted 9380
Mishra 9376
8.@@ 9371
PM@@ 9371
AN@@ 9367
avoid 9357
basic 9352
ongoing 9340
laid 9335
cant 9331
guidelines 9329
For@@ 9329
Social 9327
wide 9325
ale 9324
Me@@ 9324
headed 9324
ging 9316
ang 9315
ning 9312
Manmohan 9310
speaking 9309
6.@@ 9303
Bhatt 9300
sec@@ 9299
Mahatma 9298
north 9296
Ranveer 9291
chairman 9286
El@@ 9279
ished 9278
q@@ 9277
pass 9270
table 9267
continues 9266
Project 9264
MS 9255
seriously 9253
iting 9251
technical 9248
Where 9248
eat 9236
uc@@ 9229
south 9220
form@@ 9209
proper 9209
wh@@ 9201
Bharatiya 9196
un 9195
values 9194
13@@ 9181
invited 9181
awareness 9180
hu@@ 9178
sharing 9176
Policy 9175
actors 9172
priority 9163
ching 9156
Reddy 9152
Urban 9149
> 9148
orders 9143
ships 9142
discuss 9139
hath 9139
batsman 9139
competition 9131
appeared 9123
14@@ 9122
Pawar 9118
sion 9110
refused 9102
ear@@ 9095
Opposition 9093
dev@@ 9089
primary 9085
Pl@@ 9078
supported 9073
ach@@ 9054
Lal 9047
Bengaluru 9044
design 9040
despite 9033
structure 9031
IP@@ 9031
ban@@ 9026
request 9017
noted 9015
posts 9011
00 9007
Team 9003
ward 9001
acc@@ 8998
Kapil 8998
suspended 8980
ited 8969
rather 8968
America 8962
suffered 8961
ile 8961
claims 8952
shares 8951
petrol 8950
re-@@ 8946
iti@@ 8941
Rural 8937
beginning 8934
appropriate 8933
inf@@ 8932
commitment 8930
estimated 8925
granted 8925
RSS 8925
Bhavan 8924
33 8923
feature 8923
watch 8921
IT@@ 8916
lines 8915
dedicated 8907
Joint 8903
activity 8900
2011 8896
Bo@@ 8896
fighting 8896
proud 8895
te 8891
guidance 8890
Fire 8890
centres 8885
ill 8874
industrial 8865
inaugurated 8862
Global 8860
300 8860
witness 8858
happiness 8856
mer@@ 8854
ays 8852
voice 8851
Char@@ 8847
participation 8845
budget 8843
Go@@ 8841
Gur@@ 8840
inc@@ 8833
Thakur 8833
documents 8829
Sp@@ 8826
scale 8809
Karan 8808
Dev@@ 8788
W 8783
wishes 8781
ast 8776
Rajiv 8771
tourism 8766
wi@@ 8761
jobs 8761
ina 8761
ising 8759
fresh 8758
none 8756
Amendment 8755
ruling 8755
Only 8755
servants 8755
ped 8738
unique 8738
partner 8737
minimum 8735
Gr@@ 8734
Pur@@ 8733
acting 8732
addressed 8731
ancient 8727
creating 8719
entered 8711
RE@@ 8707
truck 8703
Shi@@ 8702
ail@@ 8701
exp@@ 8699
ium 8684
practice 8681
System 8676
deeds 8675
rel@@ 8670
bul@@ 8668
Nitish 8665
ke@@ 8654
thinking 8641
shi@@ 8640
looked 8638
gen@@ 8635
Film 8635
trial 8634
bs 8632
Navy 8631
Programme 8627
carrying 8623
Over 8623
Yojana 8622
marks 8621
tic@@ 8619
Indies 8617
reporters 8606
acts 8604
honour 8602
beyond 8600
League 8600
Among 8594
4.@@ 8586
appeal 8583
imp@@ 8581
awarded 8576
amb@@ 8574
immediate 8571
Ahmedabad 8571
raise 8570
est@@ 8568
ber 8566
Further 8562
finance 8562
sin 8558
else 8557
representatives 8556
Vi@@ 8553
der@@ 8552
370 8548
Dr.@@ 8543
debut 8542
fell 8536
Yoga 8536
isation 8532
ST@@ 8528
knew 8527
Open 8516
European 8515
link 8514
Pune 8508
ically 8503
36 8501
X 8500
ce 8500
Make 8499
Anand 8496
pan@@ 8494
Roy 8494
program 8493
false 8488
mercy 8484
communication 8482
RA@@ 8472
image 8465
alism 8462
kg 8462
w 8459
About 8458
ental 8457
holy 8456
interview 8455
prevent 8454
Col@@ 8449
beautiful 8447
weight 8446
faced 8444
Korea 8443
behalf 8441
enti@@ 8434
9.@@ 8421
wedding 8420
bail 8418
virus 8409
shifted 8405
corresponding 8403
goal 8399
app 8399
traditional 8399
flow 8396
sol@@ 8394
Candidates 8390
Dhawan 8389
ber@@ 8384
rains 8383
green 8381
Ak@@ 8374
MoU 8372
in-@@ 8371
commercial 8367
appear 8357
criminal 8357
organisation 8354
Li@@ 8351
tor@@ 8350
planning 8342
Mohan 8340
1st 8337
monitoring 8329
assured 8328
individuals 8327
cont@@ 8320
incidents 8320
ti 8317
limited 8314
sive 8305
ute 8305
ze 8303
Gadkari 8302
dispute 8300
1,@@ 8297
ram 8297
severe 8296
Are 8294
rescue 8293
Dar@@ 8293
policies 8289
Kha@@ 8289
'm 8289
talking 8288
sitting 8278
treated 8277
suffering 8270
ft 8269
French 8269
contact 8267
encounter 8263
customers 8262
addressing 8258
tour 8254
exam 8254
worlds 8250
article 8239
helps 8235
adi@@ 8233
aya 8226
battle 8222
Every 8220
participate 8215
aim 8214
postmortem 8213
mental 8212
congregation 8202
wa 8200
eg@@ 8198
wicket 8195
Padukone 8191
becoming 8190
described 8188
cricketer 8187
foundation 8181
Ap@@ 8180
famous 8175
arrangements 8171
pollution 8164
independent 8158
eng@@ 8157
actions 8156
Islamic 8154
multiple 8153
views 8151
York 8150
rupees 8148
standards 8143
covered 8143
size 8143
Mor@@ 8136
solution 8131
CP@@ 8130
fund 8125
box 8124
fication 8120
holds 8119
offers 8113
flight 8102
anniversary 8099
Financial 8095
ner 8091
Alia 8089
our@@ 8088
simple 8087
ST 8086
objective 8082
Thackeray 8080
nine 8078
SE@@ 8073
promise 8068
requested 8063
milk 8058
product 8055
bit 8055
connected 8053
Yet 8052
Lucknow 8051
female 8051
scheduled 8048
ish@@ 8048
electricity 8047
hel@@ 8047
bas@@ 8046
Rai 8045
ran 8039
dic@@ 8037
int@@ 8036
tered 8032
Four 8032
reward 8030
Youth 8030
sale 8029
aging 8028
writing 8028
desire 8027
med 8025
ring 8022
Sector 8016
Mantri 8009
door 8008
Pal@@ 8007
ping 8005
Nitin 8005
remaining 8004
relevant 8001
Tal@@ 7999
Nehru 7994
und@@ 7992
promoting 7989
ion 7988
o-@@ 7979
engine 7978
difference 7964
standing 7963
sisters 7961
observed 7959
ect 7953
Inter@@ 7949
India-@@ 7949
ual 7946
doubt 7941
games 7939
verdict 7936
respective 7928
sexual 7924
showed 7923
interests 7920
version 7915
promised 7912
all-@@ 7910
Petroleum 7910
advised 7907
Google 7906
Games 7906
balance 7895
ada 7895
reality 7895
-based 7894
birthday 7891
mor@@ 7890
ank@@ 7888
practices 7882
ets 7880
ately 7878
sha 7870
Nav@@ 7870
ass 7865
Ro@@ 7865
silver 7864
2010 7862
endra 7857
bur@@ 7854
34 7849
ster 7842
ham@@ 7839
Have 7831
Because 7824
loans 7806
Mamata 7804
assets 7800
ably 7799
ena 7798
Ban@@ 7796
+ 7796
skipper 7795
write 7794
rem@@ 7791
threat 7785
ious 7780
achieved 7778
stopped 7778
climate 7777
powerful 7774
Budget 7771
begin 7764
coal 7761
mod@@ 7760
ee 7760
CCTV 7756
prayer 7747
happening 7745
Covid-19 7740
permission 7737
accompanied 7735
rainfall 7733
iz@@ 7733
negative 7729
Tendulkar 7727
Ahmed 7726
studies 7725
affairs 7724
enable 7723
gar@@ 7722
transfer 7719
track 7719
command 7719
ick@@ 7718
Human 7717
agricultural 7713
super@@ 7713
ains 7712
managed 7710
ized 7710
ini 7709
usually 7707
bringing 7704
Ranbir 7702
pat@@ 7695
je@@ 7689
Srinagar 7688
abroad 7687
37 7687
sti@@ 7687
River 7687
break 7686
fied 7679
reduced 7677
fr@@ 7677
mankind 7676
friendly 7674
damage 7673
bat 7672
weather 7669
on-@@ 7667
Children 7667
DC 7663
Business 7662
stands 7661
ik@@ 7657
add 7655
Mur@@ 7650
college 7645
doesnt 7639
alized 7633
stri@@ 7631
Pandey 7630
hol@@ 7629
serving 7625
He@@ 7624
patient 7623
paper 7622
ation@@ 7611
Russian 7611
Super 7608
atory 7605
plants 7605
MPs 7601
righteous 7597
prov@@ 7595
Be 7594
Bri@@ 7591
engaged 7590
al-@@ 7587
equipment 7584
Europe 7582
items 7580
24@@ 7579
anc@@ 7577
Mohammad 7577
educational 7575
delegation 7575
feet 7573
Goyal 7570
removed 7569
umb@@ 7565
discussions 7563
nuclear 7562
bed 7560
original 7558
Ran@@ 7558
Ayodhya 7556
Sw@@ 7555
stakeholders 7553
chi@@ 7550
ged 7544
ths 7540
dem@@ 7539
II@@ 7538
tested 7536
score 7535
Hindus 7535
boost 7533
protests 7531
university 7526
Jitendra 7523
double 7519
hy@@ 7514
ight 7513
notification 7506
didn 7506
spent 7500
nagar 7500
ites 7497
ple 7493
Suresh 7493
white 7490
Telugu 7489
stock 7486
hur@@ 7484
self-@@ 7483
IM@@ 7481
Manohar 7476
poll 7475
drive 7472
attacked 7465
bri@@ 7461
hon@@ 7451
fields 7450
Trade 7448
Man 7445
ma@@ 7442
Saudi 7442
host 7441
sen@@ 7438
Pranab 7433
OF 7428
0-@@ 7427
beat 7423
Ko@@ 7421
ire 7419
ton 7418
loved 7412
Messenger 7412
weeks 7409
ures 7407
resolution 7403
fuel 7403
connectivity 7403
distribution 7400
user 7399
Plan 7397
killing 7397
GB 7388
nearby 7385
kill 7385
ker 7383
War 7374
relating 7373
enhance 7367
rising 7367
Addressing 7366
destroyed 7365
entry 7362
Lo@@ 7359
option 7357
tests 7357
Shar@@ 7357
hurt 7356
fee 7355
homes 7355
ture 7354
400 7349
moving 7348
demands 7347
powers 7341
ements 7339
tree 7339
banking 7338
congratulated 7337
text 7335
ot 7331
insurance 7324
Mohammed 7323
scientific 7321
Ramesh 7321
ong@@ 7317
Patna 7317
industries 7315
waste 7313
bear 7311
attempt 7308
garh 7308
UTs 7307
content 7306
Rec@@ 7303
Bangalore 7302
cancer 7301
000 7298
abad 7292
options 7290
comments 7286
ata 7286
boy 7286
rap@@ 7282
han@@ 7280
experts 7277
Manoj 7276
aj 7265
ens@@ 7263
enjoy 7262
lack 7256
scientists 7251
comm@@ 7250
News 7246
ams 7245
Tri@@ 7244
Chidambaram 7241
imposed 7238
smartphone 7238
Sitharaman 7237
aspects 7235
ane 7230
mal@@ 7228
constituted 7217
arms 7215
tonnes 7211
Principal 7211
CC@@ 7210
grant 7209
applications 7207
technologies 7207
Aamir 7207
Te@@ 7203
< 7202
Po@@ 7201
yourself 7197
partners 7192
44 7188
Awards 7188
overall 7184
registration 7184
grow 7183
Bas@@ 7181
S. 7180
residents 7179
ram@@ 7179
Nations 7178
strategic 7175
col@@ 7170
vis@@ 7169
lakhs 7165
joy 7164
Express 7161
ow 7160
30@@ 7159
da 7156
illegal 7155
Rashtrapati 7155
massive 7148
Chouhan 7144
Abraham 7141
Industries 7138
favour 7131
anti@@ 7129
stood 7128
Aadhaar 7128
fair 7124
Islam 7124
Company 7120
ideas 7109
facilitate 7108
multi@@ 7106
historic 7106
her@@ 7105
ind 7102
ong 7099
faces 7098
standard 7097
squad 7097
Western 7093
NRC 7091
ily 7089
app@@ 7087
decide 7086
Australian 7086
pain 7086
Shahid 7085
fixed 7081
guilty 7081
organization 7078
tion@@ 7075
Joshi 7075
ender 7072
skills 7067
ek@@ 7067
task 7066
Rajput 7062
ities 7057
announcement 7056
forced 7056
diseases 7053
jit 7052
computer 7051
Peter 7051
judicial 7050
strategy 7049
Is@@ 7049
Mil@@ 7044
ric@@ 7043
off@@ 7041
hat@@ 7034
reforms 7031
ail 7029
Code 7029
title 7029
concerns 7027
defeat 7026
solar 7023
resolve 7020
planned 7019
ishing 7015
ization 7007
Last 7005
aria 7005
videos 7004
Sushant 7003
thousands 6998
wealth 6995
spend 6993
Res@@ 6988
awards 6988
apex 6988
Kh@@ 6988
ide 6985
improving 6978
communities 6978
fellow 6978
collaboration 6972
residence 6972
Jag@@ 6971
highly 6969
remarks 6969
sometimes 6969
spoken 6965
Five 6962
touch 6961
daughters 6956
overs 6954
Kam@@ 6954
Chandra 6953
rivers 6951
RJD 6945
opinion 6944
char@@ 6944
comment 6941
CAA 6941
cabinet 6941
recovery 6938
tors 6934
window 6930
Member 6930
ty@@ 6930
falls 6929
tional 6928
of@@ 6926
NDA 6926
hom@@ 6924
governance 6923
Actress 6923
German 6920
yesterday 6920
circumstances 6918
lie 6917
welcome 6914
Sol@@ 6910
JD 6910
display 6905
Gang@@ 6904
govt 6903
eds 6902
designed 6897
scene 6897
dream 6896
ned 6878
sions 6875
Manipur 6875
Environment 6874
longer 6872
ley 6871
tur@@ 6870
changing 6867
Do@@ 6864
mode 6856
Post 6853
hundred 6851
row 6850
65 6849
begun 6849
thr@@ 6846
go@@ 6845
ensuring 6844
NI@@ 6843
route 6843
offering 6842
strengthening 6841
animals 6841
tt@@ 6839
divided 6838
television 6838
union 6837
broke 6837
Vardhan 6837
looks 6834
waiting 6830
limit 6829
pri@@ 6815
az 6815
mutual 6812
trading 6806
sustained 6803
dy 6797
DA@@ 6796
polling 6795
conc@@ 6788
Can 6787
formation 6784
Sharif 6782
departments 6772
Swaraj 6771
seems 6769
ami 6768
HA@@ 6764
suggested 6763
passing 6763
ours 6757
down@@ 6755
improved 6754
Mun@@ 6752
Out 6751
bal@@ 6750
colleges 6749
Dont 6748
NA@@ 6739
Kamal 6738
medal 6738
Hence 6735
Us 6735
ap 6731
Ps 6729
bridge 6729
meaning 6726
net 6725
conf@@ 6724
chance 6723
Ajit 6722
charged 6721
requirements 6720
influence 6720
d-@@ 6719
hor@@ 6719
48 6716
pen@@ 6716
organisations 6716
missing 6716
Kings 6715
compl@@ 6713
trac@@ 6707
Gas 6706
detained 6704
colour 6692
SBI 6691
Although 6689
occurred 6688
innovation 6687
heaven 6687
mi 6687
ten@@ 6686
Cs 6685
ame 6682
division 6681
forest 6675
ta@@ 6667
Temple 6667
ological 6661
Saif 6658
Verma 6656
Ladakh 6656
James 6655
bre@@ 6649
00@@ 6648
audience 6648
stand@@ 6642
tha 6638
doctor 6638
ake 6635
syn@@ 6634
li 6630
delivery 6629
ils 6626
prove 6626
contesting 6625
42 6621
encourage 6621
Maha@@ 6621
sets 6617
performed 6615
injury 6615
38 6610
availability 6609
distance 6603
can@@ 6602
Life 6601
ans@@ 6599
firing 6599
revenue 6598
Due 6596
Everyone 6594
ey 6593
55 6592
Or 6589
atmosphere 6585
bar 6585
Washington 6584
Des@@ 6579
post-mortem 6579
declined 6578
internet 6578
statements 6577
Jan@@ 6577
Surely 6576
sustainable 6575
clearly 6574
COVID 6573
skill 6571
sold 6570
delivered 6567
photos 6566
i.e. 6564
happens 6564
medi@@ 6559
Satan 6557
por@@ 6553
panel 6552
core 6545
Similarly 6543
IS 6537
Speaker 6535
tly 6533
busy 6533
successfully 6532
Yahweh 6525
Sun@@ 6522
opposed 6522
Fadnavis 6519
10.@@ 6518
minor 6518
uddin 6515
Please 6514
survey 6511
apart 6508
countrys 6508
anger 6505
Foundation 6503
constructed 6500
Action 6496
writer 6495
ory 6493
4,@@ 6493
skin 6492
tical 6490
Steel 6489
lin@@ 6486
ve@@ 6486
association 6485
east 6484
Region 6483
aims 6480
50@@ 6477
steel 6476
linked 6474
deb@@ 6470
appreciated 6465
uring 6464
offices 6463
Before 6463
regions 6461
Vir@@ 6457
selection 6456
ack 6455
bound 6453
apur 6451
identity 6450
exc@@ 6447
undertaken 6446
Internet 6446
style 6446
2-@@ 6443
Father 6443
CRPF 6442
identify 6441
establish 6440
types 6437
professional 6434
processing 6433
Training 6432
itation 6431
band 6430
tomorrow 6430
proved 6422
Nag@@ 6418
Word 6417
owned 6416
Staff 6413
unity 6411
ja 6410
adequate 6409
99 6405
secure 6404
debate 6401
2009 6399
Station 6399
ard@@ 6398
Ter@@ 6397
complex 6395
faithful 6395
Bl@@ 6393
Indira 6392
race 6392
therein 6391
ree 6389
teaching 6389
Devi 6389
peoples 6387
head@@ 6385
back@@ 6385
ves 6383
infection 6382
taught 6380
pending 6377
quoted 6377
ran@@ 6377
Wh@@ 6375
Kan@@ 6371
Dal 6371
speci@@ 6369
ards 6369
val@@ 6369
ows 6368
Chand@@ 6368
ecting 6367
expenditure 6364
Sad@@ 6364
damaged 6362
assessment 6361
prominent 6361
JNU 6361
Govt 6359
lived 6359
aining 6358
Op@@ 6357
apostle 6357
myself 6354
investors 6352
Sou@@ 6351
Gold 6350
showing 6347
Smith 6346
amongst 6345
No@@ 6332
Airport 6330
Summit 6328
cold 6328
extend 6325
ined 6325
Singapore 6322
Abhishek 6318
adopted 6317
th-@@ 6316
DA 6315
ip@@ 6314
25@@ 6312
gain 6309
advice 6306
guide 6305
tra 6304
remove 6300
Kuldeep 6300
Oil 6293
measure 6292
crops 6290
Ju@@ 6290
troops 6288
We@@ 6287
drinking 6287
collection 6285
institution 6283
submit 6283
Em@@ 6280
truly 6267
deputy 6265
crude 6264
za 6262
comprising 6261
ok@@ 6260
Digital 6259
Bhopal 6257
Tan@@ 6257
ize 6256
ex-@@ 6254
drug 6253
es. 6251
fifth 6246
namely 6243
confident 6242
asking 6239
export 6238
aged 6234
Ge@@ 6227
150 6225
Katrina 6224
ush@@ 6223
fathers 6223
port 6222
sm@@ 6221
supporting 6214
pres@@ 6205
detailed 6205
contribute 6205
ila 6203
principles 6200
visiting 6193
Space 6193
che@@ 6192
dance 6189
wa@@ 6188
Sharad 6186
ne 6182
operating 6178
War@@ 6175
rear 6175
electric 6174
BJPs 6170
kids 6169
ND@@ 6168
index 6166
sound 6165
Canada 6157
ming 6156
Jaipur 6156
calling 6156
toward 6155
ket 6147
43 6144
ES 6139
error 6138
finally 6138
angels 6138
Jam@@ 6137
perform 6135
All-@@ 6133
choice 6132
ourselves 6132
ler 6131
Sim@@ 6128
camp 6127
batting 6126
Verily 6124
Nirmala 6116
ruled 6114
device 6110
NE@@ 6109
feeling 6105
easily 6101
've 6101
jan 6100
pu@@ 6095
tradition 6094
Each 6089
emergency 6087
ki 6087
grief 6087
songs 6087
Well 6086
militants 6081
hat 6076
Parliamentary 6073
records 6072
wisdom 6070
executive 6068
files 6066
western 6066
Min@@ 6065
adding 6065
wara 6063
Malik 6061
literature 6059
weapons 6058
reportedly 6055
courts 6054
Sara 6053
prayers 6051
stories 6050
undergoing 6046
IPC 6046
defeated 6044
pre-@@ 6040
Az@@ 6035
Varanasi 6034
elling 6033
Industrial 6025
Take 6025
toll 6024
healthcare 6020
que 6018
investments 6017
resignation 6015
Heavy 6014
location 6011
Just 6010
surface 6008
balls 6008
Highways 6007
Hon@@ 6005
SI@@ 6000
seeing 6000
Once 5998
Child 5997
species 5996
LORD 5995
Ash@@ 5995
47 5991
Mis@@ 5987
wait 5987
MC@@ 5986
She@@ 5984
caught 5983
strongly 5982
ext@@ 5977
gre@@ 5974
drugs 5971
Theres 5970
counsel 5968
ination 5966
concerning 5966
ency 5957
transferred 5951
Natural 5950
spokesman 5949
causes 5947
11.@@ 5945
flights 5945
Au@@ 5943
@ 5939
verily 5939
cars 5937
headquarters 5937
two-@@ 5931
i-@@ 5931
citizen 5931
leaving 5930
Smt 5925
ive 5925
pray 5924
listen 5923
Boss 5919
alised 5917
wor@@ 5917
middle 5917
belongs 5917
lets 5914
please 5914
RAM 5912
stable 5911
questioned 5911
listed 5907
poverty 5907
recommendations 5903
26@@ 5902
humans 5902
heads 5899
trees 5897
inspired 5892
draw 5891
tension 5888
struggle 5888
FC 5887
returns 5885
ingly 5885
Devendra 5884
bbl 5881
Si@@ 5881
participants 5880
code 5877
EC 5877
engineering 5873
teacher 5873
youths 5869
Arunachal 5868
witnessed 5867
armed 5867
Cor@@ 5864
gathering 5864
Shetty 5863
Kaur 5862
ela 5858
cards 5856
Reliance 5856
AI 5854
purposes 5854
producer 5852
K. 5851
conducting 5850
sub-@@ 5849
situated 5849
solutions 5848
ences 5848
alongside 5847
rac@@ 5846
Indi@@ 5845
sufficient 5841
Mahendra 5839
exports 5838
oned 5837
eligible 5834
ables 5834
Bureau 5834
sal@@ 5831
constituencies 5831
drink 5829
passenger 5827
Ravi 5827
sacrifice 5826
guided 5825
relatives 5823
Prophet 5821
Samajwadi 5819
reservoirs 5817
Ob@@ 5816
PC 5815
cour@@ 5808
Shivraj 5808
cell 5807
raising 5806
Royal 5806
voters 5806
dra@@ 5804
ury 5803
labour 5799
memory 5799
AR@@ 5798
pped 5795
broad@@ 5794
2017-18 5792
context 5792
Dutt 5791
tribal 5790
follows 5789
rep@@ 5784
Executive 5778
prosperity 5777
pos@@ 5776
stressed 5776
crowd 5776
ff 5775
cu@@ 5774
booked 5773
2008 5768
ue 5768
theme 5767
crucial 5766
Park 5765
portal 5764
Though 5764
blast 5763
scam 5762
lose 5759
wards 5758
welcomed 5756
See 5756
greatest 5754
tor 5752
length 5752
arg@@ 5752
Show 5752
reading 5749
promotion 5748
Members 5747
figure 5747
ER@@ 5746
5-@@ 5744
Currently 5742
eye 5740
independence 5739
Modis 5737
hour 5735
operational 5733
adi 5733
White 5731
Bombay 5729
gathered 5729
200@@ 5727
Varun 5725
installed 5723
gi@@ 5723
generally 5721
fruits 5721
millions 5721
brings 5720
2nd 5712
2000 5704
Independent 5704
ick 5702
eve 5702
12.@@ 5701
non 5699
buy 5699
phones 5698
recommended 5696
dated 5695
elements 5695
heritage 5694
mainly 5693
believes 5693
dialogue 5691
Time 5690
Forest 5690
starting 5683
Good 5682
Bigg 5677
ut 5675
Diwali 5675
strict 5674
larger 5673
simply 5672
41 5671
Tiwari 5671
Sardar 5670
controversy 5668
profit 5667
Rem@@ 5666
perhaps 5666
multi-@@ 5665
Pulwama 5662
tro@@ 5660
west 5660
warning 5659
corporate 5658
maintained 5658
channel 5658
eastern 5658
Kaif 5654
fur@@ 5653
fa@@ 5653
MT 5653
medium 5652
ub@@ 5652
agree 5646
esh@@ 5643
Ba@@ 5640
THE 5639
helping 5639
aram 5639
outstanding 5637
wind 5635
Olympic 5635
39 5633
lawyer 5632
express 5631
sky 5629
Azad 5627
centuries 5626
unknown 5623
Mat@@ 5622
Media 5622
leaves 5621
territory 5618
lu@@ 5618
Sec@@ 5617
walk 5615
rail 5614
Bur@@ 5612
procurement 5610
warm 5610
Bab@@ 5607
sight 5606
MS@@ 5603
my@@ 5603
Tripura 5600
Jo@@ 5597
villagers 5597
purchase 5594
Nor@@ 5593
# 5593
appointment 5592
wan 5592
although 5591
ore@@ 5589
Society 5588
Mand@@ 5586
IAF 5586
Mu@@ 5586
possession 5583
transactions 5578
cat@@ 5578
stress 5577
Meeting 5577
Rawat 5577
vital 5574
male 5573
advantage 5570
Income 5568
chosen 5568
arm@@ 5568
Around 5567
Sea 5566
Shiv@@ 5562
determined 5557
decades 5556
locations 5555
Ev@@ 5555
Metro 5555
advance 5552
degrees 5549
Red 5548
praise 5543
ush 5542
investigations 5542
tation 5537
properties 5535
appealed 5535
contract 5533
admit 5527
software 5523
fil@@ 5523
Forces 5523
block 5522
27@@ 5520
Cooperation 5520
Earth 5520
parliamentary 5518
specified 5517
ises 5516
sugar 5516
ff@@ 5515
| 5508
feels 5508
fore@@ 5507
US@@ 5507
complaints 5505
animal 5504
Shankar 5500
pace 5499
beneficiaries 5498
alization 5496
lay 5491
crop 5489
challenging 5489
caste 5489
notified 5485
La@@ 5482
leg@@ 5481
amm@@ 5480
oath 5478
god 5478
Engineering 5477
run@@ 5474
wont 5473
closely 5471
judgment 5469
Citizenship 5466
distributed 5464
akes 5463
author 5460
water@@ 5459
ME@@ 5458
28@@ 5456
Academy 5456
followers 5456
plus 5455
ment@@ 5454
ticket 5454
Sciences 5453
CE@@ 5451
Rashtriya 5444
quickly 5443
interesting 5440
organizations 5439
Agreement 5438
ni@@ 5438
regularly 5437
P. 5437
Shah@@ 5435
filled 5431
alert 5430
extent 5429
new@@ 5429
The@@ 5428
ris@@ 5427
oun@@ 5424
Photo 5424
CA 5423
advanced 5419
Officers 5418
igh@@ 5418
farm 5415
Mag@@ 5415
TMC 5415
Year 5414
mal 5414
electronic 5412
any@@ 5412
Jerusalem 5410
deliver 5408
fo@@ 5402
demanding 5402
Sup@@ 5401
Vis@@ 5400
doesn 5396
cas@@ 5395
tal@@ 5395
Total 5391
Festival 5390
forget 5388
Crore 5387
ians 5387
affect 5386
framework 5384
hal 5383
courage 5382
ven@@ 5381
pi@@ 5380
ges 5378
proof 5378
mass 5377
goals 5376
ected 5375
sup@@ 5375
clause 5373
Div@@ 5372
ef@@ 5369
peaceful 5369
File 5368
categories 5367
Bad@@ 5366
entation 5365
reference 5364
spe@@ 5364
compensation 5363
Hel@@ 5361
vo@@ 5361
examples 5360
ented 5359
toss 5358
49 5357
soil 5354
ock 5354
administrative 5353
ell 5352
rupee 5349
Organisation 5348
DE@@ 5345
AL@@ 5340
Das 5340
Municipal 5340
s-@@ 5339
contains 5339
Allahabad 5334
seed 5331
wins 5331
Rajesh 5331
suppl@@ 5330
ease 5329
Joseph 5328
CB@@ 5327
wing 5324
Price 5323
Recently 5322
ANI 5322
consideration 5321
alist 5321
ection 5320
aming 5318
movies 5317
spec@@ 5315
filing 5314
DS 5313
Aviation 5313
thank 5312
Division 5311
yan@@ 5309
fought 5305
learned 5303
expect 5299
harmony 5298
Investigation 5297
Nobody 5295
At@@ 5293
explained 5292
plane 5292
cells 5291
ni 5291
Nawaz 5291
handle 5289
thoughts 5288
ony 5286
selling 5284
saved 5283
moral 5282
GDP 5281
fish 5281
Mc@@ 5280
proceedings 5277
ham 5277
av 5276
85 5275
cancelled 5274
PO@@ 5273
heat 5273
there@@ 5272
2022 5272
Captain 5269
prepare 5267
perfect 5267
litre 5265
Report 5263
eness 5262
itors 5260
95 5260
den@@ 5260
PS 5259
Or@@ 5258
participating 5258
ine@@ 5254
Major 5253
factors 5252
ums 5252
iy@@ 5251
Trans@@ 5249
aff@@ 5247
BS@@ 5246
hear@@ 5246
functioning 5244
ome@@ 5242
protesters 5242
im 5240
vi 5239
Hu@@ 5239
cle@@ 5238
facts 5238
ug@@ 5236
notes 5233
ace 5233
Comp@@ 5232
Sushma 5232
Monday 5229
Capital 5227
sem@@ 5226
investigated 5225
antly 5223
tre@@ 5222
blessings 5220
AC@@ 5219
Abdullah 5219
journalist 5217
policemen 5216
} 5215
academic 5214
intelligence 5213
whereas 5212
ly@@ 5212
land@@ 5212
effects 5211
52 5209
ung 5207
begins 5207
Deepak 5205
external 5202
Federation 5199
permanent 5195
sanctioned 5194
MC 5194
Atal 5193
unless 5192
pointed 5192
flood 5192
rit@@ 5192
Friday 5188
ID 5186
Arabia 5184
brand 5183
rin@@ 5183
one-@@ 5178
comprehensive 5173
historical 5172
Rafale 5168
improvement 5166
Watch 5166
Despite 5164
younger 5164
anta 5163
Bhushan 5162
Dev 5162
bowling 5162
ora 5159
35@@ 5157
Change 5153
4-@@ 5152
EC@@ 5151
upto 5150
atives 5149
appears 5148
aan 5148
Sonam 5148
costs 5146
Mahindra 5144
Adam 5144
currency 5143
housing 5142
Housing 5141
sted 5137
initial 5136
rose 5135
interested 5134
reaching 5134
Regional 5133
resident 5132
trained 5132
deny 5131
Japanese 5130
but@@ 5127
Johar 5127
ids 5126
men@@ 5126
leads 5125
Ms 5123
iron 5123
materials 5123
3,@@ 5122
ports 5118
excellent 5117
div@@ 5116
choose 5116
efficient 5115
Press 5115
sales 5113
establishment 5113
temples 5113
Gautam 5113
opposite 5112
founder 5111
Chris 5111
Class 5110
Times 5110
Harsh 5109
completion 5107
Lalu 5107
boys 5104
Skill 5102
aimed 5101
attitude 5101
trav@@ 5101
5,@@ 5100
sad 5100
loo@@ 5097
thi@@ 5096
eshwar 5095
Ranjan 5094
storm 5094
failure 5093
sex 5092
,000 5090
Sanskrit 5090
Manish 5089
guest 5088
iness 5086
dismissed 5082
stat@@ 5081
twice 5081
promises 5079
baby 5079
Labour 5077
ature 5076
reli@@ 5075
highlighted 5075
analy@@ 5074
banned 5074
Dhan@@ 5072
Naval 5072
Tha@@ 5070
requirement 5069
Disaster 5069
51 5068
Independence 5068
Akhilesh 5068
fake 5067
Jews 5066
debt 5065
thanked 5065
sort 5064
Akhtar 5063
household 5062
So@@ 5061
warned 5061
prof@@ 5060
sensitive 5056
Sum@@ 5056
Ganguly 5056
1-@@ 5055
soci@@ 5055
6-@@ 5053
cal@@ 5053
gn@@ 5053
emerged 5052
democratic 5050
celebrations 5049
'll 5048
Piyush 5047
Valley 5047
Puri 5046
sign@@ 5045
celebrate 5044
Up@@ 5040
greetings 5040
tough 5039
belief 5037
thats 5037
reviewed 5035
46 5031
connect 5031
ound 5030
sa 5028
Ed@@ 5028
Nir@@ 5026
ust 5026
ions 5024
explo@@ 5021
branch 5019
ained 5019
method 5016
Did 5015
ISRO 5012
40@@ 5011
sleep 5009
Banks 5007
probably 5006
summit 5004
Dec@@ 5002
Sikkim 5002
tourists 5002
where@@ 5000
PA@@ 4999
classes 4999
grateful 4995
fy 4994
pe 4994
farmer 4993
NO@@ 4991
Pakistans 4990
wal@@ 4987
recognised 4986
lying 4986
existence 4986
Resources 4985
definitely 4985
commission 4984
ser@@ 4983
possibility 4979
q 4976
high-@@ 4975
Sab@@ 4974
ros@@ 4973
ails 4969
mi@@ 4969
belonging 4967
Ben@@ 4964
Ambani 4964
earned 4962
Ministries 4961
honoured 4958
implement 4957
whoever 4957
fulfilled 4956
Gar@@ 4956
Soon 4956
Directorate 4954
rent 4953
ashed 4952
norms 4951
AS@@ 4950
Assistant 4949
Ay@@ 4947
aying 4945
3rd 4945
Don 4944
WhatsApp 4943
Keep 4940
dev 4939
numerous 4938
dangerous 4938
RO@@ 4935
ories 4935
Friends 4934
yourselves 4934
universities 4929
hun@@ 4927
tim@@ 4926
MO@@ 4926
meant 4926
winners 4926
kers 4923
premises 4922
represented 4922
Bhar@@ 4921
read@@ 4920
collected 4920
picked 4919
56 4919
provisional 4919
RS 4916
Javadekar 4916
slogans 4916
fit 4914
singer 4909
Tur@@ 4908
sit 4907
powered 4906
eting 4903
conflict 4903
ach 4901
Vish@@ 4901
document 4899
Great 4899
DR@@ 4898
Gul@@ 4898
Ke@@ 4897
bat@@ 4896
competitive 4893
29@@ 4892
loving 4892
enemy 4890
willing 4888
sun 4888
three-@@ 4886
ayed 4886
consumers 4882
require 4880
bid 4880
Mary 4880
Nam@@ 4879
dom@@ 4878
Sidhu 4878
principal 4877
yan 4875
pac@@ 4874
resulted 4873
Culture 4873
judges 4871
Indore 4869
Ambedkar 4869
Bharti 4869
quarter 4868
vol@@ 4868
tru@@ 4868
{ 4868
efficiency 4861
ech@@ 4861
correct 4860
ol 4858
instructions 4857
ese 4856
tain 4855
experienced 4855
IAS 4854
Mizoram 4852
t. 4851
suggestions 4851
Mang@@ 4851
resolved 4848
seem 4847
Ag@@ 4846
2007 4845
Agency 4845
Sang@@ 4844
gate 4843
Noida 4840
Jay@@ 4838
tou@@ 4837
Legislative 4833
edition 4832
trouble 4830
contain 4829
respond 4829
hair 4829
widely 4828
pivotal 4828
sa@@ 4828
covering 4826
Like 4824
African 4823
Mahesh 4823
pride 4822
citizenship 4820
Ver@@ 4818
Uddhav 4818
Abdul 4818
applied 4817
ier 4815
straight 4811
kinds 4811
clash 4811
agenda 4810
ners 4810
kets 4809
Kur@@ 4809
isnt 4809
forever 4808
Protection 4804
AI@@ 4803
Port 4803
VI@@ 4800
Bh@@ 4799
courses 4798
Honble 4797
Sunday 4797
harm 4796
don@@ 4795
prescribed 4793
IL 4793
Click 4792
Private 4791
elled 4790
ank 4790
afraid 4789
sub-section 4787
Ste@@ 4787
Fe@@ 4786
oning 4784
positions 4782
Sat@@ 4782
6,@@ 4781
Mukesh 4779
Centres 4778
thi 4776
eh@@ 4774
USA 4770
Av@@ 4768
jointly 4767
Matthew 4767
chain 4766
ous@@ 4765
dig@@ 4764
deeply 4757
messages 4755
rou@@ 4752
Kangana 4749
integrated 4747
requires 4747
capable 4747
NT@@ 4746
ack@@ 4746
resigned 4746
stability 4745
devices 4744
reduction 4743
HC 4742
equity 4741
expression 4740
ide@@ 4740
suffer 4737
concept 4736
rice 4734
visible 4730
Thereafter 4728
medicines 4728
AIIMS 4726
guard 4725
54 4724
peri@@ 4722
Tests 4720
64 4719
wasnt 4719
sell 4718
Meh@@ 4718
voting 4716
driving 4715
inst@@ 4714
hari 4714
directions 4713
3-@@ 4712
2,@@ 4709
format 4707
edi@@ 4707
mir@@ 4707
subsequently 4705
secret 4704
broken 4702
Stadium 4702
2016-17 4701
Je@@ 4701
buildings 4700
Moreover 4700
gener@@ 4698
eff@@ 4695
acted 4694
mechanism 4689
shops 4688
models 4685
Based 4682
wall 4682
Maj@@ 4681
focused 4679
Head 4679
belong 4679
PS@@ 4678
tives 4678
payments 4677
Infrastructure 4675
IIT 4674
finished 4674
swe@@ 4670
Fi@@ 4669
sites 4668
Sen@@ 4667
Pand@@ 4664
dollar 4663
province 4663
plic@@ 4662
Olympics 4662
2018-19 4661
DG@@ 4661
samples 4661
fighter 4661
bowler 4660
ika 4660
st-@@ 4659
cinema 4659
travelling 4654
ep 4653
Rakesh 4652
Coal 4652
Arora 4652
Quran 4648
innovative 4646
Bel@@ 4646
accordance 4640
Meghalaya 4640
interaction 4639
Android 4638
Aditya 4637
conservation 4636
pal 4635
Sikh 4635
channels 4634
inflation 4632
Indo-@@ 4631
ere 4630
Vikas 4629
Corporate 4628
Far@@ 4628
lock 4626
Investment 4624
constantly 4624
real@@ 4622
maintenance 4622
gan@@ 4621
S.@@ 4620
gri@@ 4616
concluded 4611
Chi@@ 4610
Ud@@ 4609
oll@@ 4609
marketing 4608
variety 4599
mag@@ 4598
wood 4597
pleasure 4595
alive 4595
hundreds 4595
fruit 4593
functions 4591
devotees 4590
schedule 4589
Gehlot 4588
Bor@@ 4585
owner 4585
Sindhu 4585
Amarinder 4584
thereafter 4583
spotted 4582
disciples 4581
allows 4580
thereby 4578
differences 4578
Nagaland 4577
figures 4575
trailer 4574
recognized 4573
avail 4572
kar@@ 4568
machine 4568
zone 4568
Bengali 4568
tal 4566
bor@@ 4565
Jawaharlal 4564
Trust 4562
Ph@@ 4562
au 4561
achievement 4560
friendship 4560
beneficial 4558
medicine 4558
72 4557
Survey 4557
consumption 4556
weak 4556
Du@@ 4552
gun@@ 4551
copy 4550
analysis 4549
Mark 4544
prison 4543
250 4542
rence 4540
causing 4540
torment 4539
Which 4538
Mi@@ 4537
Sk@@ 4537
Dinesh 4536
Ti@@ 4535
print 4535
Chaudhary 4535
witnesses 4535
bro@@ 4534
teach 4534
Consumer 4533
,9@@ 4532
istic 4530
year-old 4530
reducing 4529
alls 4529
drama 4529
vegetables 4524
Pass@@ 4524
vaccine 4523
platforms 4522
disaster 4522
Indonesia 4522
register 4521
sins 4521
Pa@@ 4521
Dh@@ 4520
wherein 4519
si 4517
condemned 4517
kingdom 4517
Green 4516
ues 4513
putting 4511
approached 4509
Egypt 4505
import 4503
mostly 4503
Myanmar 4502
cross 4501
Kul@@ 4501
football 4501
Bul@@ 4500
mine 4500
Pacific 4498
2006 4496
eding 4494
eless 4494
Cam@@ 4493
opens 4493
uni@@ 4492
dates 4488
constant 4488
Pe@@ 4488
ession 4487
doers 4486
integrity 4485
Patil 4485
qualified 4484
older 4484
ple@@ 4483
floor 4481
makers 4478
enhanced 4477
tells 4477
moon 4476
ices 4475
expansion 4473
Brazil 4473
drawn 4472
approximately 4472
CPI 4470
assault 4469
Resource 4467
micro@@ 4467
escape 4466
IC 4465
Maruti 4465
owing 4464
Italy 4464
searching 4463
involving 4462
lands 4462
comprises 4461
Al 4461
sil@@ 4461
ron 4459
danger 4459
burden 4458
mu@@ 4457
Line 4457
talent 4457
pilot 4456
herself 4455
mp@@ 4454
grand 4452
implementing 4450
producing 4449
reserved 4449
Ji 4449
ond@@ 4448
anti 4448
FI@@ 4447
ever@@ 4447
experiences 4447
disbelieve 4447
tourist 4445
presently 4444
mining 4443
draft 4442
northern 4442
cro@@ 4441
learnt 4439
Asked 4439
condolences 4439
useful 4438
Dha@@ 4438
certificate 4437
regime 4436
threatened 4433
worthy 4431
ounded 4431
tab@@ 4429
Att@@ 4429
ailing 4429
wives 4429
cameras 4429
stones 4428
Merciful 4428
constitution 4426
ll 4426
campus 4425
tan@@ 4424
5th 4424
duties 4423
Kanpur 4423
bel@@ 4423
Rules 4422
ads 4422
gods 4422
ER 4421
sun@@ 4421
applicable 4419
cul@@ 4418
Tar@@ 4418
Insurance 4417
em 4417
answered 4417
Advani 4416
absconding 4415
tribute 4414
ective 4411
instance 4410
titled 4410
tically 4410
Superintendent 4410
kings 4408
Bil@@ 4407
Mak@@ 4407
replied 4407
losses 4406
tioned 4406
worshi@@ 4405
Raja 4404
SO@@ 4403
destination 4403
Right 4401
Premier 4401
emerging 4400
processes 4399
til@@ 4399
talked 4398
Armed 4396
ired 4395
show@@ 4395
knowing 4395
Rail 4394
Nadda 4394
prec@@ 4393
On@@ 4392
gift 4392
63 4391
sin@@ 4391
principle 4388
imports 4383
worldwide 4383
ok 4383
amid 4382
suff@@ 4382
Command 4380
Sandeep 4380
vice 4379
law@@ 4378
stake 4377
fol@@ 4375
dry 4375
unable 4375
governor 4375
seeks 4374
sn@@ 4374
hotel 4374
Pad@@ 4373
Shri@@ 4373
Hal@@ 4372
port@@ 4367
finals 4367
gains 4366
IO@@ 4366
Corona 4365
performing 4361
obtained 4361
Devgn 4361
Son 4361
emp@@ 4357
600 4357
SA 4356
tual 4356
achievements 4356
controlled 4356
68 4355
preparations 4354
Tir@@ 4352
sor@@ 4351
inj@@ 4350
van@@ 4350
advocate 4350
MSME 4349
infl@@ 4349
pp@@ 4348
exist 4348
Pol@@ 4344
turns 4343
Credit 4342
ector 4342
Pri@@ 4341
thereof 4339
highway 4338
forgive 4336
NH@@ 4335
five-@@ 4335
Talking 4334
va 4333
Scheduled 4332
RC 4331
penalty 4330
8-@@ 4329
co 4329
transmission 4328
plastic 4327
Tomar 4327
expanded 4326
relation 4325
IA@@ 4325
load 4324
consumer 4322
delay 4322
Administration 4322
shape 4322
day@@ 4321
raj 4320
Del@@ 4319
contributed 4318
ool 4318
ck@@ 4315
sentence 4314
Steve 4314
missile 4313
trend 4312
List 4308
wake 4307
Exchange 4306
IF@@ 4305
hot 4305
southern 4304
approves 4301
starts 4301
IN 4299
odi@@ 4298
environmental 4298
maintaining 4296
novel 4296
Swachh 4296
Planning 4295
feelings 4295
cer@@ 4293
mention 4291
zing 4291
meets 4290
ew@@ 4290
di 4290
oom 4289
procedure 4288
aji 4288
minutes 4287
d. 4283
alists 4283
prin@@ 4280
67 4279
Selection 4279
Haz@@ 4279
post@@ 4274
01 4272
mail 4272
ounds 4272
Tom 4272
conversation 4272
58 4269
stronger 4269
ula 4269
increases 4267
59 4267
-up 4266
RC@@ 4266
dered 4265
God@@ 4263
fired 4263
reservation 4262
NS@@ 4260
qui@@ 4259
Fl@@ 4258
Mehta 4257
wicked 4257
Def@@ 4256
izing 4256
preaching 4255
vast 4254
origin 4253
od 4252
medals 4252
Tiger 4251
iled 4250
Gl@@ 4249
Me 4247
Mas@@ 4246
Pharaoh 4246
Elections 4246
effectively 4245
enting 4244
web 4244
thanks 4241
Val@@ 4240
disbelievers 4240
mouth 4239
Employment 4238
targeted 4235
wearing 4234
council 4233
2005 4231
Can@@ 4231
grown 4230
BI 4229
66 4226
hu 4226
Coun@@ 4225
grace 4225
restrictions 4224
Sud@@ 4222
conspiracy 4221
fle@@ 4219
posi@@ 4219
retired 4218
NIA 4218
mountains 4218
bowlers 4217
rat 4216
respon@@ 4215
fundamental 4215
Pres@@ 4214
mighty 4214
destroy 4213
encouraged 4211
Nagpur 4211
buses 4211
Rev@@ 4209
inal 4208
difficulties 4208
smart 4208
sessions 4204
Agarwal 4204
astray 4204
coalition 4203
engagement 4202
shut 4202
kha 4202
Son@@ 4200
visits 4199
Ham@@ 4199
* 4198
generations 4198
starred 4197
download 4196
loc@@ 4195
panchayat 4195
poet 4193
Mobile 4192
Climate 4192
considering 4191
owed 4189
ased 4188
ODIs 4187
if@@ 4185
62 4183
floods 4183
Iraq 4183
ography 4183
des 4183
Ds 4181
pension 4181
Small 4181
UPA 4181
Aaron 4180
funding 4178
ju@@ 4178
Go 4177
AP@@ 4176
lac@@ 4176
work@@ 4175
sev@@ 4174
sheet 4173
ion@@ 4173
Malaysia 4173
sixth 4172
Hussain 4170
ICICI 4169
elders 4169
Ass@@ 4168
ible 4166
clim@@ 4165
gram 4164
Professor 4163
dly 4163
ced 4162
violation 4162
quit 4162
USD 4161
tom@@ 4161
Her@@ 4161
dre@@ 4161
beauty 4161
timely 4160
mandatory 4160
termed 4160
mishap 4160
ailed 4159
tis 4159
rer 4158
mol@@ 4158
package 4157
Obama 4157
pot@@ 4156
ith 4156
methods 4155
symptoms 4154
proc@@ 4153
rid@@ 4153
ared 4153
papers 4152
Smart 4152
star@@ 4152
Som@@ 4152
eventually 4151
Along 4150
watching 4150
Mayawati 4146
Shukla 4146
humanity 4143
Peace 4143
aring 4142
emic 4139
Swami 4139
acqu@@ 4138
wonderful 4138
actual 4137
portion 4136
Lak@@ 4136
occur 4136
had@@ 4136
Lu@@ 4135
glory 4133
spreading 4132
ries 4132
constitutional 4131
Greek 4130
itable 4127
Gov@@ 4125
Charge 4125
RRB 4124
immense 4123
nam@@ 4121
unbelievers 4120
Mir@@ 4119
zed 4116
pressed 4116
sou@@ 4116
revised 4115
53 4115
Local 4114
letters 4113
tar@@ 4112
RT@@ 4111
pping 4111
fying 4110
allocation 4110
boo@@ 4110
Wal@@ 4110
folk 4110
demise 4107
affordable 4104
Med@@ 4103
coverage 4101
Work 4101
painful 4100
Annual 4097
defined 4097
extension 4095
continuing 4094
forgiveness 4093
uri 4092
inclusive 4091
.The 4090
U.S. 4090
NDRF 4090
Ru@@ 4085
ects 4084
towns 4084
emotional 4084
Democratic 4083
fielded 4081
57 4080
discharged 4079
cop@@ 4078
Happy 4078
Pandya 4078
has@@ 4077
households 4076
Aayog 4076
ote 4074
Rab@@ 4074
hab@@ 4072
batt@@ 4072
jo@@ 4071
io 4070
Subsequently 4069
M. 4069
Ren@@ 4069
ading 4067
A. 4067
Center 4067
Memorial 4066
agar 4066
ees 4065
10,000 4064
consultation 4063
borders 4062
dealing 4061
hs 4061
ces 4061
UN@@ 4061
integral 4058
totally 4058
limits 4057
Any 4057
HDFC 4057
Managing 4056
an-@@ 4055
iding 4054
Pun@@ 4052
C. 4051
anywhere 4051
Sahib 4051
SS 4050
Second 4050
carbon 4050
absolutely 4050
duc@@ 4047
chemical 4045
master 4044
batsmen 4044
driven 4042
articles 4042
Thursday 4042
characters 4041
alia 4040
05 4040
Bhutan 4040
passes 4040
fill 4038
yed 4037
Hardik 4037
associate 4036
Black 4032
birds 4032
s.@@ 4031
solve 4031
Dr@@ 4030
overseas 4029
sum 4029
explain 4029
Tuesday 4029
rapid 4028
gg@@ 4027
aling 4026
Ur@@ 4026
preet 4026
nation@@ 4025
discipline 4024
prot@@ 4024
pleased 4024
counter 4023
Mitchell 4022
sensor 4021
coastal 4021
77 4019
essing 4017
remote 4017
.0@@ 4017
ther@@ 4017
Forum 4017
disp@@ 4016
keeps 4015
ound@@ 4014
Tel@@ 4012
ref@@ 4011
ky 4011
Saturday 4011
enemies 4011
extra 4010
Index 4009
Use 4008
domin@@ 4005
accidents 4005
AYUSH 4005
struc@@ 4003
otherwise 4003
harassment 4003
Jadhav 4003
Name 4002
Were 4002
prior 4001
Coll@@ 4001
ik 4001
ears 4001
Irani 3999
formal 3998
violent 3998
Under@@ 3997
PC@@ 3996
Vajpayee 3996
Ashwin 3996
Love 3995
91 3994
recruitment 3992
Rights 3992
attached 3992
divine 3992
Khanna 3992
roll 3991
dropped 3990
mil@@ 3990
SH@@ 3989
teen 3989
farming 3989
pic@@ 3989
Coronavirus 3989
BC 3988
BSF 3988
equ@@ 3987
resource 3987
businesses 3986
achieving 3983
IG@@ 3982
isolated 3981
NITI 3981
appearance 3980
servant 3980
Through 3977
Nick 3977
dest@@ 3976
nobody 3976
zz@@ 3975
Mer@@ 3974
Agra 3974
short@@ 3973
rank 3972
tickets 3972
bha@@ 3971
cred@@ 3970
settled 3970
manager 3969
worst 3969
significantly 3968
hum@@ 3968
wheat 3967
Bhag@@ 3967
eration 3966
captured 3966
obey 3966
post-@@ 3964
83 3964
fre@@ 3964
initially 3962
dro@@ 3961
drop 3961
invest 3960
graduate 3960
UT 3960
command@@ 3960
Paris 3959
Judge 3959
Warner 3957
returning 3955
Guru 3955
Nation 3954
mortem 3954
Vol@@ 3953
nar@@ 3953
Jonas 3953
researchers 3952
Michael 3951
supporters 3951
Sil@@ 3951
inda 3949
understood 3948
asserted 3947
Na@@ 3947
absence 3945
ax@@ 3945
Panchayat 3945
hara 3945
Does 3944
7,@@ 3943
Sing@@ 3942
low@@ 3940
lic@@ 3939
Bumrah 3939
alternative 3936
breaking 3936
Taliban 3936
pure 3935
newly 3934
posed 3934
chil@@ 3934
dh@@ 3933
equality 3933
previously 3932
blessed 3932
institute 3931
wala 3931
newspaper 3930
satisfaction 3927
paying 3925
anga 3924
fun 3923
shoot 3921
park 3921
Sheikh 3921
Leader 3920
covenant 3919
missions 3918
coun@@ 3918
nab 3918
angry 3917
aver@@ 3915
TC 3914
Check 3912
itor 3910
subjects 3910
four-@@ 3909
cel@@ 3907
ink@@ 3906
Card 3905
falling 3905
transportation 3904
venture 3903
Border 3903
nominated 3901
foot@@ 3901
Ser@@ 3901
coordination 3900
78 3898
SIT 3898
inspiration 3898
BRICS 3897
anna 3896
decline 3895
SP@@ 3895
Rs@@ 3894
74 3893
righteousness 3893
coaches 3893
statue 3891
Gen@@ 3890
closer 3888
conferred 3886
radi@@ 3886
sum@@ 3885
aspect 3885
Star 3884
flag 3884
800 3883
asks 3883
images 3882
-led 3881
coast 3881
Personnel 3880
gam@@ 3879
fraud 3878
abe@@ 3878
Subhash 3878
Suzuki 3877
attending 3876
ified 3875
AP 3875
XI 3875
ON 3874
MW 3874
Lo 3874
customer 3873
71 3870
Step 3869
bal 3869
Mother 3868
satellite 3868
Gre@@ 3867
destruction 3867
commanded 3867
sli@@ 3866
ashes 3866
them. 3866
locals 3865
struck 3865
programs 3863
Production 3863
ome 3862
bes 3861
labourers 3859
Sy@@ 3858
RI 3857
alities 3857
Fin@@ 3855
grounds 3855
significance 3853
fan 3852
Innovation 3851
Cr@@ 3851
pal@@ 3851
Prevention 3850
Jai 3850
Cre@@ 3847
enhancing 3845
Sensex 3845
Free 3844
IANS 3844
Ahmad 3844
lab@@ 3843
cycl@@ 3842
auction 3842
brain 3841
81 3840
smaller 3840
hosted 3839
Fac@@ 3835
joining 3835
AM 3835
Jan 3835
foot 3834
ro 3833
links 3833
Safety 3832
yes 3831
arm 3831
Fo@@ 3830
wished 3830
wear 3830
bing 3829
Lok@@ 3828
sport 3826
generate 3825
glad 3825
31st 3824
suitable 3824
Shak@@ 3824
www.@@ 3823
losing 3823
primarily 3822
transparency 3822
wave 3821
nath 3821
borrow@@ 3819
break@@ 3819
pun@@ 3819
suspected 3819
dar 3819
Shami 3819
responded 3818
ger 3816
Companies 3815
consecutive 3815
uting 3814
Wednesday 3814
recognition 3813
generated 3813
ith@@ 3813
footage 3812
Str@@ 3811
cal 3811
questioning 3810
bike 3810
ton@@ 3809
stayed 3808
Britain 3808
Whether 3808
continuous 3807
Trophy 3807
promo@@ 3804
replaced 3803
raw 3801
inter-@@ 3800
represent 3800
SC@@ 3799
eth@@ 3799
hir 3799
All@@ 3798
dia 3797
sending 3796
61 3795
rapidly 3795
entrepreneurs 3795
sle@@ 3795
factory 3795
excited 3794
verses 3793
square 3792
burning 3792
row@@ 3791
ancy 3791
anth 3791
Fa@@ 3789
expand 3788
Kannada 3788
worse 3788
sees 3787
fications 3784
consists 3784
Agricultural 3784
assist 3784
featured 3784
combat 3782
Technical 3780
Departments 3780
suit 3779
piece 3778
blue 3777
select 3776
Working 3775
assigned 3775
SS@@ 3774
App@@ 3773
irrigation 3772
mer 3771
dreams 3771
84 3770
rest@@ 3770
GS@@ 3770
Ive 3770
phases 3768
4th 3768
Kat@@ 3767
Ravindra 3765
ase 3764
hil 3764
emphasized 3764
Dubai 3762
pose 3760
Ja@@ 3760
Out@@ 3758
1,000 3758
ander 3758
electoral 3757
Inspector 3757
reform 3756
enjoyed 3756
Sonakshi 3756
Pi@@ 3754
wid@@ 3753
inn@@ 3751
tea 3751
rs 3750
merely 3750
Shraddha 3750
Turkey 3748
Vadra 3748
mand@@ 3747
ight@@ 3745
med@@ 3744
73 3743
forming 3742
worried 3742
My@@ 3741
challenged 3741
continuously 3739
rooms 3739
Bre@@ 3738
sanitation 3738
regulations 3736
argument 3736
Secretariat 3735
5,000 3734
E-@@ 3733
Set@@ 3731
solid 3731
Ranaut 3731
dignitaries 3730
aked 3729
eating 3729
taste 3729
37@@ 3728
eded 3727
Vidy@@ 3726
hard@@ 3724
crew 3724
LED 3723
womens 3723
conveyed 3722
heed 3722
aves 3720
retail 3719
New@@ 3719
Shiva 3719
marked 3716
enders 3716
Malhotra 3716
Nat@@ 3715
kh@@ 3715
cattle 3715
Baba 3715
AM@@ 3714
Dan@@ 3714
bil@@ 3713
judgement 3713
conv@@ 3712
Marathi 3711
store 3711
Gh@@ 3709
porter 3707
journalists 3706
stages 3705
studied 3705
Broadcasting 3705
ord@@ 3704
careful 3703
worry 3703
branches 3701
Wor@@ 3701
y. 3701
composed 3700
CBSE 3700
camps 3698
elder 3698
ades 3697
permitted 3696
center 3696
Ben 3691
weak@@ 3690
88 3689
ills 3689
arian 3689
proposals 3688
Enterprises 3688
inner 3688
oor 3687
pa 3686
contributions 3685
SMS 3685
ave 3685
minds 3685
gained 3684
Sir@@ 3684
minus 3683
Mus@@ 3683
arrangement 3682
behaviour 3682
Number 3681
Dav@@ 3681
patri@@ 3680
AC 3679
appearing 3678
Gram 3678
Brah@@ 3677
with@@ 3676
mixed 3675
Sunny 3675
valley 3675
marry 3674
Pratap 3674
municipal 3673
K.@@ 3673
Spain 3672
Psalm 3672
firms 3671
dam@@ 3669
sacred 3669
color 3668
Gopal 3667
oh@@ 3666
Tribal 3666
veteran 3665
san@@ 3664
9,@@ 3663
objectives 3663
displayed 3663
Urdu 3663
Ambassador 3662
76 3661
Hol@@ 3661
Reg@@ 3661
investigate 3661
Championship 3661
Cap@@ 3660
answers 3660
couldnt 3660
enn@@ 3659
Mul@@ 3659
8,@@ 3658
97 3658
athy 3657
Jio 3657
82 3655
ups 3655
indigenous 3655
hits 3654
Organization 3652
esses 3651
fitness 3651
Chin@@ 3650
powder 3650
ligh@@ 3649
Naik 3649
relationships 3645
spending 3644
properly 3644
ek 3644
Intelligence 3643
pul@@ 3639
Gen 3639
Ha@@ 3638
Rav@@ 3637
appreciation 3636
upper 3635
Rag@@ 3635
represents 3633
Hy@@ 3633
termin@@ 3632
ateral 3632
turning 3632
Ocean 3632
1000 3631
pers 3631
Petrol 3630
pers@@ 3629
Hall 3629
managing 3628
ure@@ 3628
Secretaries 3628
Dem@@ 3627
tributes 3626
aps 3624
overcome 3624
.. 3624
squ@@ 3624
pattern 3623
Es@@ 3623
allowing 3622
ital 3622
Vinod 3621
childhood 3619
cam@@ 3618
personally 3618
praised 3618
map 3617
CR@@ 3616
attempts 3616
worker 3615
92 3613
Him@@ 3612
alisation 3609
waters 3609
segment 3606
consequences 3606
monthly 3605
23@@ 3605
Gogoi 3605
preparation 3604
components 3604
mus@@ 3603
86 3602
Vijay@@ 3602
trad@@ 3601
united 3601
grew 3600
Higher 3600
lal 3600
Electronics 3599
Taking 3597
Punjabi 3597
representing 3596
Padma 3596
believing 3596
Cent@@ 3595
activists 3595
gender 3594
Guwahati 3594
Dharmendra 3594
98 3593
Hereafter 3593
Pal 3593
Basket 3592
reflect 3590
ition 3590
S-@@ 3590
Hell 3590
bagged 3589
Hooda 3589
thir@@ 3588
hydro@@ 3588
Raksha 3588
motion 3586
tures 3585
root 3585
commit 3585
volume 3584
porting 3584
ys@@ 3583
pages 3582
Jadeja 3582
taxes 3581
bigger 3581
Comm@@ 3580
Sir 3580
KL 3578
ji@@ 3578
Revenue 3577
Mr.@@ 3577
greatly 3576
Note 3569
Roshan 3569
69 3566
apping 3566
Var@@ 3565
Covid 3564
preparing 3563
entering 3562
Islamabad 3562
targets 3561
ands 3561
treat 3561
YouTube 3560
infected 3560
crash 3560
bowl 3560
combined 3558
diversity 3558
traditions 3557
arti@@ 3557
Amritsar 3557
scal@@ 3554
object 3554
equivalent 3552
latter 3551
personality 3551
cycle 3549
Bu@@ 3548
Solar 3548
neighbours 3547
ascertained 3546
Venkaiah 3546
op 3546
Rani 3546
2019-20 3545
Institutions 3545
encouraging 3544
desires 3544
pilgrims 3544
adap@@ 3543
Shipping 3542
bud@@ 3541
IB@@ 3540
factor 3539
observ@@ 3539
modern@@ 3539
Paswan 3538
Non-@@ 3536
Saf@@ 3535
Lakh 3535
occup@@ 3533
ration 3532
= 3531
Congress-@@ 3531
Northern 3529
uel 3529
ving 3528
AS 3527
cent@@ 3527
monsoon 3526
FDI 3525
tory 3525
itting 3525
50,000 3525
launches 3525
duction 3524
Cell 3523
equipped 3523
Air@@ 3523
ws 3523
Cur@@ 3522
ensured 3522
comfort 3522
NG@@ 3522
aut@@ 3522
strengthened 3521
predic@@ 3521
ashi@@ 3520
ania 3519
studying 3518
Wise 3518
fies 3515
touched 3514
liber@@ 3513
Chand 3513
Truth 3513
politician 3512
125 3511
migrant 3511
Enter 3511
Add 3510
Land 3509
addresses 3509
Consul@@ 3507
diverse 3506
ify 3505
Hor@@ 3504
oph@@ 3503
protesting 3501
clothes 3501
Naz@@ 3500
ar-@@ 3499
WHO 3497
ric 3497
Aam 3496
Ret@@ 3495
railways 3495
filmmaker 3495
09 3494
Thailand 3493
Whats 3493
ken 3492
band@@ 3492
Woman 3492
streets 3492
aside 3491
coll@@ 3490
cy 3488
Integrated 3487
Series 3487
diplom@@ 3487
-year-old 3487
two-day 3486
arrival 3485
Chha@@ 3485
bronze 3485
cy@@ 3484
Six 3484
bit@@ 3484
him@@ 3482
oo 3481
holders 3480
fiscal 3479
tools 3479
onic 3479
96 3478
masks 3478
Paradise 3478
secured 3477
trip 3477
sting 3476
reiterated 3475
uck@@ 3475
outcome 3474
mul@@ 3474
percentage 3473
empowerment 3473
email 3469
ix@@ 3468
quick 3468
exactly 3468
Kim 3468
Islam@@ 3468
P.@@ 3467
involvement 3467
succeed 3467
mothers 3466
ink 3465
mit@@ 3465
Islands 3464
wan@@ 3463
lots 3463
diet 3463
ye@@ 3461
Ir@@ 3460
actively 3459
Museum 3458
finding 3458
dark 3457
80@@ 3456
15th 3456
Pawan 3456
Lahore 3454
poll@@ 3453
surprised 3451
T-@@ 3450
raped 3449
developments 3448
Data 3448
08 3448
anybody 3448
nomination 3447
94 3446
Pak 3446
tor-@@ 3445
likes 3445
87 3444
shoo@@ 3444
seeds 3443
Scriptures 3440
renewable 3439
exhibition 3438
Guard 3438
Rana 3438
esti@@ 3437
refers 3437
George 3437
congratulate 3435
asset 3434
prophet 3434
acquisition 3433
Badal 3433
hate 3433
solved 3432
Ref@@ 3431
Rajendra 3431
mountain 3431
portr@@ 3430
church 3430
Had 3427
Narayan 3427
abilities 3424
UAE 3424
Memorandum 3423
Shroff 3423
philosophy 3422
Dal@@ 3422
Bs 3421
simpl@@ 3421
globally 3421
retirement 3420
hidden 3420
ag 3419
aded 3418
jun@@ 3418
andi@@ 3417
stranded 3417
Da@@ 3415
Er@@ 3414
LRB 3414
ored 3413
magazine 3412
rescued 3412
Jas@@ 3411
Loc@@ 3411
LO@@ 3410
Anurag 3410
ump@@ 3409
Promotion 3409
inaugurate 3409
Xi 3408
symbol 3407
iah 3407
Tam@@ 3406
shortly 3404
resulting 3403
clin@@ 3403
Look 3403
feed 3402
gh 3402
assu@@ 3401
Korean 3401
det@@ 3399
reveal 3399
metres 3399
faster 3398
yl@@ 3398
CD 3396
telling 3396
hus@@ 3395
Gil@@ 3395
NEW 3395
Syria 3394
modi@@ 3393
secondary 3393
ole 3393
ura 3393
mistake 3393
Akbar 3392
expenses 3391
exams 3391
tured 3390
Maldives 3390
Shakti 3386
island 3385
engage 3384
Tw@@ 3384
pm 3383
i. 3382
emphasis 3381
ren 3381
machines 3380
chapter 3380
bon@@ 3380
ef 3380
cr 3380
transformation 3379
athan 3379
trials 3379
abuse 3378
120 3377
mur@@ 3377
2021 3376
Prabhu 3376
stream 3375
intended 3374
monitor 3373
IL@@ 3373
crossed 3372
oms 3372
compliance 3371
Has@@ 3371
revol@@ 3371
RD 3370
iring 3370
Bose 3369
practical 3369
yoga 3369
temporary 3368
lers 3368
capabilities 3367
tel@@ 3367
entitled 3366
ense 3364
religions 3364
Nothing 3363
crimes 3363
2015-16 3362
etc. 3362
whenever 3362
dar@@ 3362
revelations 3362
Joe 3362
Empowerment 3361
reaction 3361
Apple 3360
tenure 3359
club 3359
Thou 3359
enabled 3358
earthquake 3358
Territories 3357
Justices 3357
keen 3356
summer 3355
Video 3355
89 3354
ining 3354
aka 3354
DRDO 3354
cou@@ 3353
protected 3353
Qureshi 3353
hence 3352
oured 3352
transparent 3351
exists 3351
intention 3351
BS 3349
operate 3348
earliest 3348
dit 3347
Sushil 3347
combination 3345
astr@@ 3345
ved 3344
Mac@@ 3344
easier 3344
bir 3344
presentation 3343
Ang@@ 3343
responsibilities 3342
furn@@ 3342
Resurrection 3341
conclusion 3340
street 3340
Airtel 3339
output 3338
situations 3337
elec@@ 3336
gap 3335
professor 3335
background 3334
Instead 3333
frame 3331
direc@@ 3331
asa 3331
pair 3329
atha 3329
B.@@ 3327
acle 3327
Bihari 3326
Kashmiri 3326
flo@@ 3325
spir@@ 3324
biopic 3324
Vs 3323
poster 3323
ually 3322
valid 3322
reaches 3321
organic 3320
ait 3320
Janhvi 3320
detail 3319
productivity 3318
ID@@ 3318
App 3318
vic@@ 3318
illing 3318
Fort 3318
strikes 3318
Session 3317
Bang@@ 3316
unidentified 3316
cricketers 3316
Network 3314
professionals 3314
Af@@ 3314
de-@@ 3313
battery 3313
conscious 3312
satisfied 3311
Courts 3311
tri 3311
Convention 3310
Star@@ 3309
connections 3309
wast@@ 3309
doors 3309
2,000 3307
PV 3307
Rishi 3306
Ghosh 3306
Q 3305
supports 3305
pretty 3305
venue 3304
stic 3304
specially 3304
T20I 3304
Bay 3303
Application 3302
IP 3302
eling 3302
miles 3302
eous 3301
ishes 3301
grand@@ 3300
EU 3299
Coast 3298
Aadmi 3298
07 3297
hike 3297
blind 3296
scenario 3295
7th 3295
nur@@ 3295
plo@@ 3295
conver@@ 3294
count 3294
neighbouring 3294
screening 3294
Whatever 3294
winter 3293
ame@@ 3292
universal 3292
supplies 3292
Mic@@ 3292
airports 3291
amazing 3291
2001 3289
visitors 3289
den 3288
partys 3288
cli@@ 3287
Cir@@ 3286
allocated 3286
Bhawan 3286
TO 3285
cleanliness 3284
Rama 3284
radio 3283
Sid@@ 3283
parliament 3281
shelter 3281
fly 3280
Jun@@ 3279
ML@@ 3279
aur 3279
reasonable 3278
scope 3278
III 3278
Jodhpur 3278
Mufti 3278
bearing 3277
entirely 3277
ost 3276
Kabir 3276
93 3275
Could 3272
Smriti 3272
Jaishankar 3272
AR 3271
Pen@@ 3271
agreements 3270
salt 3268
Arabic 3267
speaks 3267
acid 3266
ney 3266
20th 3265
pet 3265
Rashid 3265
employee 3264
sick 3264
ete 3264
Bag@@ 3263
tax@@ 3260
institutes 3260
Gan@@ 3260
Gal@@ 3260
subsidy 3258
Organ@@ 3257
kh 3257
panic 3255
R. 3254
metal 3254
Hum@@ 3254
posing 3253
Puducherry 3253
signing 3253
tremendous 3253
autom@@ 3252
expectations 3251
12th 3251
Aishwarya 3251
silent 3250
apostles 3250
walking 3249
olog@@ 3248
lights 3248
ema 3248
Tor@@ 3247
Thank 3247
occasions 3246
PL@@ 3245
entr@@ 3245
quantity 3245
observe 3245
ici@@ 3244
exit 3244
precious 3244
ras 3244
Nirav 3244
Por@@ 3243
chose 3243
diplomatic 3242
contrac@@ 3241
NR@@ 3241
maritime 3241
700 3239
vac@@ 3239
High@@ 3239
gratitude 3239
Bat@@ 3239
Vietnam 3238
Parrikar 3238
sing@@ 3237
shortage 3236
blame 3236
ode 3235
circuit 3235
regulatory 3234
AB@@ 3232
minority 3232
2004 3231
UR@@ 3231
ouse 3229
AN 3228
height 3228
slow 3227
Noah 3226
ene 3225
Jal@@ 3224
jawans 3224
traders 3223
Afghan 3222
manage 3221
ention 3221
manifest 3221
2002 3220
Governance 3219
threats 3219
dedication 3218
hockey 3218
closure 3216
encies 3216
workshop 3216
ideal 3216
79 3215
add@@ 3215
hide 3214
urge 3213
Saty@@ 3212
cep@@ 3211
Cro@@ 3211
winner 3210
backed 3209
voted 3209
legislation 3209
indicated 3208
inputs 3207
bond 3206
telecom 3206
deposit 3205
Doc@@ 3205
Amazon 3204
poses 3203
suggest 3201
replace 3201
sid@@ 3201
machinery 3200
Cal@@ 3200
patience 3200
ension 3199
pieces 3197
Presidents 3197
wel@@ 3197
extensive 3196
Officials 3196
shift 3195
ells 3195
bol@@ 3195
Young 3195
HRD 3195
zero 3193
representative 3193
charging 3193
Goddess 3192
7-@@ 3190
mel@@ 3190
DG 3190
saving 3189
covers 3189
blocks 3189
Prov@@ 3188
Hindustan 3188
theory 3187
handling 3185
tool 3185
criticism 3184
NB@@ 3183
berg 3183
Sources 3183
requ@@ 3182
TDP 3182
exact 3182
spinner 3182
bin 3181
ept 3180
Penal 3180
identi@@ 3179
gar 3179
unfortunate 3179
outbreak 3178
facil@@ 3177
containing 3177
nutri@@ 3177
Ansari 3177
she@@ 3176
communal 3176
to-@@ 3175
Jason 3175
burnt 3174
rol@@ 3173
April-@@ 3172
Abbas 3171
ison 3169
founded 3169
dual 3168
component 3168
invitation 3168
Nas@@ 3168
celebrities 3168
treas@@ 3167
qualities 3167
riv@@ 3166
ood@@ 3166
icians 3165
Alliance 3165
rid 3165
appa 3165
21st 3164
starrer 3164
Celsius 3163
ava 3163
MB@@ 3161
Produc@@ 3160
puts 3160
opener 3160
pertaining 3159
Money 3159
06 3159
DM@@ 3159
insul@@ 3158
colleagues 3158
ress 3157
decade 3157
well-@@ 3155
Off@@ 3154
scr@@ 3154
Political 3154
dist@@ 3152
CC 3151
mobil@@ 3150
Arab 3150
routes 3150
DELHI 3150
escal@@ 3148
Madras 3148
mere 3148
fri@@ 3147
directors 3146
Bir@@ 3146
mits 3145
Hrithik 3144
fat 3143
Mahar@@ 3142
Shikhar 3142
Market 3141
examined 3141
Khans 3141
aud@@ 3139
ough 3139
Banking 3138
fail 3138
peak 3137
declare 3137
hai 3137
ratio 3136
Solomon 3136
Level 3134
Understanding 3134
acquired 3133
LPG 3133
flu@@ 3133
pregnant 3133
mm 3133
inary 3132
PMO 3132
Moh@@ 3132
largely 3131
ope 3131
hopes 3131
cod@@ 3130
popul@@ 3130
contained 3129
Motors 3129
uter@@ 3128
essed 3128
performances 3128
admission 3127
Chit@@ 3127
du 3127
fashion 3126
occupied 3125
distur@@ 3125
rumours 3124
dear 3122
designated 3121
ima 3121
introduction 3120
adopt 3120
Stat@@ 3119
mosque 3119
stor@@ 3118
enter@@ 3116
apped 3116
Ranchi 3116
vacant 3116
virtual 3115
kindness 3115
by@@ 3115
architecture 3114
state-@@ 3114
lim@@ 3114
Motor 3113
poetry 3113
wil@@ 3112
rers 3111
asts 3111
PRESIDENT 3111
Fr@@ 3110
mad@@ 3110
01.@@ 3109
firmly 3109
Nis@@ 3109
Others 3107
OD@@ 3107
shock 3107
kil@@ 3107
way@@ 3107
Super@@ 3106
inated 3106
Country 3106
membership 3106
Oper@@ 3105
I-@@ 3105
aren@@ 3105
civilian 3105
prize 3104
HE@@ 3104
quarter@@ 3102
auto 3102
Building 3102
ero@@ 3102
anointed 3102
fat@@ 3101
ING 3100
hosts 3100
Hong 3099
garden 3099
controversial 3099
Hand@@ 3098
yas 3097
rare 3096
eries 3096
AD@@ 3095
difficulty 3095
ga 3094
mas@@ 3093
inaugural 3093
Light 3093
Online 3091
alling 3091
techn@@ 3091
dignity 3091
visa 3090
ides 3090
realize 3090
fir@@ 3089
leg 3089
dust 3089
ili@@ 3088
Bet@@ 3088
minorities 3088
worshipped 3088
procedures 3087
.in 3087
metro 3087
moves 3086
D. 3085
Wil@@ 3085
plot 3084
ce@@ 3083
operated 3083
qualification 3082
box@@ 3082
undertake 3081
Sch@@ 3081
celebration 3081
itated 3080
ranked 3079
adv@@ 3079
examine 3078
Customs 3078
discovered 3078
sharp 3077
Pra@@ 3077
sheep 3077
ility 3075
salary 3075
Big 3075
transgres@@ 3075
blamed 3075
Vo@@ 3073
Grand 3073
risks 3072
Middle 3072
History 3072
reject 3072
flesh 3071
privilege 3070
wounded 3070
Mod@@ 3069
vari@@ 3068
eminent 3068
ign@@ 3067
depth 3066
ca@@ 3066
ulate 3065
in-charge 3065
Durga 3065
legislative 3063
cry 3063
afflic@@ 3063
Iranian 3063
PP@@ 3062
grain 3062
stu@@ 3062
Raut 3062
darkness 3061
depends 3060
lifted 3060
convicted 3060
symp@@ 3060
smooth 3058
tons 3058
Ibrahim 3057
Various 3056
Kath@@ 3056
AT 3055
Sourav 3055
server 3054
transaction 3053
hell 3053
serv@@ 3052
fallen 3051
van 3048
Examination 3048
distress 3047
dress 3046
ona 3045
SSP 3045
criticised 3045
culprits 3045
buil@@ 3044
surveillance 3042
amendment 3042
Street 3042
suspect 3042
Prof@@ 3040
cargo 3040
equally 3039
appreciate 3039
Teh@@ 3038
possess 3038
locked 3037
maker 3037
Prince 3037
Owaisi 3037
claiming 3036
hill 3036
financing 3035
explore 3035
gardens 3035
drivers 3034
eem 3034
voc@@ 3033
duo 3033
Calcutta 3033
ples 3032
appe@@ 3032
you. 3032
anning 3031
entertainment 3031
ician 3031
superstar 3031
Pant 3030
aking 3030
strive 3029
MSMEs 3027
wani 3027
ied 3026
MSP 3026
Trinamool 3023
PA 3022
var@@ 3022
02 3021
cle 3021
entities 3020
Tripathi 3020
discrimination 3019
rankings 3019
ib 3019
yp@@ 3018
meas@@ 3017
liquor 3017
legislators 3017
inclusion 3016
inch 3016
clos@@ 3015
domain 3015
sovereignty 3014
creative 3013
lake 3013
angle 3011
Kum@@ 3011
script 3010
lap@@ 3009
ock@@ 3008
Upon 3008
Left 3008
part@@ 3006
pon@@ 3006
undertaking 3005
Ber@@ 3004
premium 3002
receipt 3000
entity 2999
registering 2999
Rel@@ 2999
ble@@ 2999
Master 2998
nationals 2997
Forgiving 2997
HD 2996
play@@ 2996
vig@@ 2995
produces 2995
unjust 2995
Pension 2994
broad 2994
Gi@@ 2994
manual 2993
suddenly 2993
P-@@ 2992
festivals 2991
gradually 2990
bomb 2990
Rep@@ 2989
aches 2989
MoS 2989
impossible 2988
tra@@ 2987
structures 2986
scrip@@ 2986
ranks 2986
valuable 2985
Malayalam 2984
Command@@ 2984
ght@@ 2983
Projects 2982
pan 2982
Jal 2979
Would 2979
Deol 2979
bonds 2978
profile 2978
employed 2977
Kir@@ 2977
compar@@ 2976
lif@@ 2976
Muk@@ 2976
amended 2975
expert 2975
click 2974
hub 2973
breaks 2973
rog@@ 2972
gs 2972
NP@@ 2971
wherever 2971
PF@@ 2970
Ah@@ 2970
collective 2968
Meteorological 2968
scholars 2967
bhai 2967
-megapixel 2967
raft 2966
Andaman 2965
astic 2964
carefully 2963
aspirations 2963
Khattar 2963
Azam 2963
Mexico 2961
integration 2960
offence 2960
everybody 2960
Kartik 2960
Al-@@ 2960
sentiments 2959
Blue 2959
asser@@ 2958
motorcycle 2957
drawing 2956
convey 2956
Acc@@ 2954
ud 2953
withdraw 2952
shop 2952
grains 2952
cope 2951
Military 2950
Job 2949
nutrition 2949
ing-@@ 2948
Cham@@ 2948
recalled 2948
na@@ 2948
LD 2947
tious 2945
colours 2944
lawyers 2944
settlement 2943
Sav@@ 2943
PR@@ 2943
ert 2943
aspir@@ 2943
long-term 2942
pursue 2942
fees 2941
Radha 2941
₹ 2940
tment 2940
riya 2939
Main@@ 2938
0,000 2938
Mehbooba 2938
everywhere 2938
Sik@@ 2937
involves 2936
cri@@ 2936
Navjot 2935
DGP 2935
Ku@@ 2934
laundering 2934
disclosed 2933
Stock 2933
retali@@ 2933
FT@@ 2932
needy 2932
artists 2931
rock 2931
clu@@ 2930
Auto 2930
aman 2930
G-@@ 2929
-to-@@ 2929
PG 2929
Being 2929
Nik@@ 2929
pel@@ 2929
Know 2928
motor 2928
deposits 2927
wage 2927
capability 2927
Honda 2926
lest 2926
institutional 2924
authenti@@ 2924
owns 2924
2003 2924
Gorakhpur 2923
Without 2922
Support 2921
vir@@ 2921
ganj 2921
BE@@ 2920
ing. 2920
counterpart 2919
Jain 2918
tract 2918
Ank@@ 2918
MA 2917
comfortable 2917
alcohol 2917
130 2916
ze@@ 2915
grade 2914
ordinary 2913
Pul@@ 2913
Jewish 2913
Avoid 2913
Syed 2912
Kong 2911
Roman 2910
edge 2909
plying 2909
agitation 2908
devotion 2908
arrive 2907
Radio 2907
bun@@ 2907
impl@@ 2906
sudden 2906
BJP-@@ 2906
Jasprit 2905
lesson 2905
top@@ 2904
dra 2904
9th 2904
oot 2904
remembered 2904
Sit@@ 2904
Educational 2903
Pay 2902
dismis@@ 2902
attract 2901
ES@@ 2900
oda 2900
kno@@ 2899
hik@@ 2899
Stokes 2899
loves 2898
Top 2897
ori@@ 2897
.... 2897
Robert 2897
MD 2896
alli@@ 2896
Kun@@ 2896
instructed 2896
Deshmukh 2895
arrives 2895
seemed 2894
Peoples 2894
Samaj 2893
inform 2892
ghts 2891
clashes 2891
Chahal 2891
-19 2890
AD 2889
chances 2889
Kane 2889
shan 2888
TB 2888
lev@@ 2887
tes 2886
Knowing 2886
momentum 2885
brief 2885
Queen 2884
greeted 2884
quest 2883
intervention 2882
tensions 2882
Manager 2881
bi 2881
Asi@@ 2881
mak@@ 2881
allies 2881
Doctors 2880
Bhagat 2880
souls 2880
deep@@ 2879
ply 2879
survived 2879
slave 2879
log@@ 2877
economies 2876
realise 2876
Ven@@ 2875
Bud@@ 2875
stan 2875
IPS 2874
Partnership 2874
Martin 2874
Gol@@ 2873
tin@@ 2872
owners 2872
obtain 2871
calendar 2871
meat 2871
urgent 2871
Church 2871
expensive 2870
guests 2870
faculty 2869
corridor 2868
roots 2868
athletes 2868
onto 2867
Holy 2867
Daniel 2866
Lets 2866
heavenly 2866
nan 2865
Vas@@ 2865
corner 2865
mandate 2864
aon 2864
Alok 2863
lov@@ 2863
surprise 2862
ua 2862
kin 2861
bills 2860
interim 2859
consul@@ 2859
repeatedly 2859
Unit 2858
atively 2858
sanc@@ 2858
train@@ 2857
determination 2857
Directors 2856
Order 2854
lighting 2854
collision 2854
flying 2853
automatic 2852
Thomas 2852
10th 2852
contested 2852
Crime 2851
Surat 2850
Pu@@ 2850
diabetes 2850
unprecedented 2847
enquiry 2847
Beg@@ 2847
iling 2846
Case 2846
Messengers 2846
Area 2845
ecosystem 2845
Pandit 2845
enterprises 2844
DP@@ 2844
Nep@@ 2844
protein 2843
Phil@@ 2843
Lt 2843
abor@@ 2842
None 2841
shocked 2841
sends 2840
Distribution 2839
anth@@ 2839
honor 2838
jeet 2838
happ@@ 2838
update 2837
Ri@@ 2837
Village 2836
Om 2836
Account 2835
ranking 2835
Territory 2835
soft 2834
Mallya 2834
Saina 2834
Direct 2833
SAW 2833
aving 2832
tweets 2832
Rak@@ 2832
technological 2831
nic@@ 2831
releases 2831
livelihood 2831
publication 2830
fastest 2830
imagine 2830
regarded 2829
pain@@ 2829
PDP 2829
GS 2828
fun@@ 2827
viewed 2827
Acts 2827
assistant 2827
politicians 2825
sake 2825
Spanish 2825
Nand@@ 2824
dog 2824
slammed 2824
lah 2824
examinations 2823
variant 2823
-e-@@ 2823
fighters 2823
consolid@@ 2821
oting 2821
cow 2821
Babu 2820
acres 2819
ster@@ 2818
Khar@@ 2818
remarkable 2816
cup 2816
lowest 2815
quar@@ 2815
sy@@ 2815
resign 2815
Band@@ 2815
innocent 2815
hatred 2815
gen 2814
oes 2813
wari 2813
deemed 2811
plain 2811
shed 2811
Teachers 2810
vulnerable 2809
Universities 2808
afternoon 2808
Rang@@ 2807
gam 2807
identification 2806
04 2806
eter@@ 2805
staying 2805
Rom@@ 2804
extreme 2803
6th 2803
Ka@@ 2802
grav@@ 2801
recognize 2801
officially 2801
Nabi 2801
Employees 2800
soldier 2800
delayed 2798
zones 2797
Rather 2797
Commonwealth 2797
poly@@ 2796
Sometimes 2796
reporting 2795
ential 2795
illness 2794
0s 2793
bag 2791
determine 2789
dependent 2789
borne 2789
scared 2789
Associ@@ 2787
invite 2786
emo@@ 2786
blocked 2786
eas@@ 2785
turing 2785
intim@@ 2785
bright 2785
Shashi 2785
glass 2785
Music 2785
calcul@@ 2784
commun@@ 2784
Brahm@@ 2784
Remember 2784
Fre@@ 2783
affair 2783
probing 2783
tongue 2783
aint 2782
Citizens 2782
Shimla 2782
relative 2781
substantial 2781
vel@@ 2781
Tharoor 2781
Johnson 2781
lik@@ 2780
Ganesh 2780
Royals 2780
supreme 2779
Hasan 2779
prestigious 2778
petitions 2778
Kol@@ 2777
fron@@ 2776
divide 2776
DMK 2776
ensu@@ 2775
sung 2775
hoped 2774
bought 2773
road@@ 2773
whol@@ 2772
robust 2771
withdrawal 2771
Community 2771
behold 2770
instrument 2769
techniques 2769
ishment 2769
dition 2769
Hus@@ 2769
Never 2769
viol@@ 2768
priced 2768
Everything 2768
surrounding 2767
loaded 2767
seventh 2767
mark@@ 2766
residential 2766
Os@@ 2766
toilets 2766
favourite 2766
Relations 2765
accurate 2764
PNB 2764
athi 2764
Baj@@ 2764
Sridevi 2764
Israelites 2763
chastisement 2763
pick 2762
commissioner 2762
ly-@@ 2761
earn 2760
rain@@ 2760
PF 2759
Secondary 2759
announce 2759
Pro 2759
blessing 2759
frequently 2758
atures 2758
clarified 2758
Vik@@ 2758
cotton 2757
connecting 2757
torque 2756
push 2755
Kartarpur 2755
Model 2753
beaten 2753
Crude 2752
lasting 2752
commonly 2752
savings 2751
excellence 2751
Jail 2751
elderly 2751
Rupee 2749
DNA 2749
Bish@@ 2749
rang@@ 2747
fulfil 2747
calm 2747
bags 2746
in-law 2745
Mirza 2745
Direc@@ 2744
exhib@@ 2743
gather 2743
Chauhan 2743
03 2742
Goods 2742
mid@@ 2742
kills 2742
bone 2741
Rai@@ 2741
IR@@ 2740
administered 2740
prevention 2740
Grievances 2740
weapon 2740
chi 2739
hasnt 2738
iciency 2737
Marketing 2737
Referring 2737
rebel@@ 2737
pool 2736
brigade 2736
establishing 2735
twenty 2735
essions 2735
severely 2735
unveiled 2735
Gambhir 2735
Randeep 2735
revolution 2734
Spe@@ 2734
here@@ 2733
Ul@@ 2732
Prem 2732
skilled 2730
Pilot 2728
nav@@ 2728
bb@@ 2727
upset 2727
adjoining 2725
arch@@ 2724
productive 2723
Vikram 2723
nan@@ 2723
oked 2722
indi@@ 2722
Met@@ 2721
shrine 2721
ich 2721
activist 2721
removal 2720
hes@@ 2720
tery 2720
cin@@ 2720
native 2720
suspects 2718
Ki@@ 2717
Lab@@ 2715
Isaiah 2715
anim@@ 2714
meal 2714
throw 2714
11th 2713
advis@@ 2712
Sc@@ 2712
Silver 2711
Putin 2711
empty 2711
tial 2710
protecting 2709
conferencing 2709
met@@ 2709
mate 2709
e.@@ 2707
Dalit 2707
input 2706
cast@@ 2706
No.@@ 2705
Admiral 2705
conven@@ 2704
ba@@ 2704
Still 2704
Match 2704
surgery 2704
Relief 2703
messengers 2703
stocks 2702
Americans 2702
desired 2701
awaited 2701
Sidharth 2701
ision 2700
writes 2700
reads 2698
element 2698
rounds 2698
non@@ 2697
ectors 2697
explosion 2697
Fun@@ 2696
Advisor 2696
territories 2695
fulfill 2695
Kisan 2694
osis 2694
item 2692
activ@@ 2691
audit 2690
eable 2690
Israeli 2690
Christ@@ 2690
competitions 2689
Ts 2688
Eff@@ 2687
render 2687
execution 2686
aching 2686
secular 2686
Kish@@ 2686
Gardens 2686
enabling 2685
asses 2685
journal 2685
boundaries 2685
Ireland 2685
perspective 2684
Indian-@@ 2684
Traffic 2683
bow 2683
alli 2682
criminals 2682
Up 2681
Sah@@ 2681
reviews 2680
exposed 2680
otic 2680
tar 2679
fire@@ 2679
clean@@ 2679
estion 2679
Omar 2679
mature 2678
walls 2678
tackle 2677
thrown 2676
Hes 2676
sixes 2676
201@@ 2675
pulses 2675
TS 2675
beds 2675
usage 2674
anand 2674
priest 2673
password 2672
Yog@@ 2672
Sham@@ 2672
Deep@@ 2671
ao 2671
Kaushal 2671
Jud@@ 2671
certificates 2669
arise 2669
telephone 2669
ib@@ 2669
V. 2668
isolation 2667
Fil@@ 2667
SUV 2667
ola 2667
Processing 2666
Club 2666
Rate 2665
genuine 2665
boundary 2664
at-@@ 2664
Ni@@ 2664
subsequent 2663
Next 2662
marine 2662
badly 2662
prevailing 2661
oldest 2661
Daw@@ 2661
Gandhis 2660
dollars 2660
tle 2660
Standard 2659
introduce 2659
Clean 2659
wheel@@ 2659
ox@@ 2659
kmph 2659
comedy 2659
credited 2658
pay@@ 2658
gun 2658
Hollywood 2658
Jet 2657
rival 2657
ny 2657
Chancellor 2656
joins 2656
terrible 2656
wai@@ 2655
Gandhiji 2655
Tim 2655
collabor@@ 2654
Come 2654
Il@@ 2653
Ve@@ 2653
converted 2652
grants 2652
Sai@@ 2652
grap@@ 2651
ause 2651
Ari@@ 2651
Mulayam 2651
Art 2650
auspicious 2650
2011-12 2649
launching 2649
Cy@@ 2649
preliminary 2649
Siv@@ 2649
Jacob 2649
sch@@ 2648
observation 2648
PAN 2647
manufactured 2647
Dad@@ 2647
repeated 2647
Ayurveda 2647
engines 2646
authorised 2645
RTI 2645
Sri@@ 2645
Multi@@ 2644
quarantine 2644
Ms. 2643
intr@@ 2642
succ@@ 2642
rop@@ 2642
Umesh 2642
ashi 2641
manufacture 2641
Tell 2641
prayed 2641
tran@@ 2640
Bro@@ 2640
arranged 2640
imag@@ 2640
TH@@ 2639
arer 2639
Creator 2639
walked 2639
31.@@ 2638
forthcoming 2638
Wel@@ 2638
Sh 2638
temp@@ 2638
Dep@@ 2637
abl@@ 2637
assessee 2637
promp@@ 2636
Plus 2636
dom 2636
2014-15 2634
profession 2634
bling 2634
Enforcement 2633
plan@@ 2633
ner@@ 2632
militant 2632
cov@@ 2630
Mandir 2630
ardhan 2630
asi 2629
Tagore 2629
HO@@ 2628
by-@@ 2628
ez 2628
jewellery 2627
god@@ 2627
grave 2626
labs 2625
havent 2625
cleared 2624
deals 2623
Abhiyan 2623
kind@@ 2623
airline 2623
ere@@ 2623
lear@@ 2622
finds 2622
heal@@ 2621
Commander 2621
estate 2620
inity 2619
raids 2619
promoted 2618
advoc@@ 2618
akh@@ 2618
Rat@@ 2617
CS@@ 2616
Prav@@ 2616
And@@ 2616
bread 2616
beings 2615
champion 2615
aviation 2614
1999 2613
Construction 2613
tender 2613
photograph 2613
Delhi-@@ 2613
03.@@ 2612
Vivek 2612
theres 2612
erated 2611
Sin@@ 2611
Dilip 2611
Proverbs 2611
gation 2610
illa 2610
Gha@@ 2610
distancing 2609
ried 2609
correc@@ 2608
ook 2608
originally 2607
outfit 2607
mood 2607
balanced 2606
wills 2606
Medium 2605
murdered 2605
Disha 2605
TO@@ 2604
8th 2604
Cultural 2604
Golden 2603
arguments 2603
Review 2602
144 2602
Care 2601
san 2601
bly 2601
considerable 2600
Che@@ 2600
cru@@ 2600
instruments 2599
acceptable 2599
flowers 2599
industri@@ 2599
ideology 2599
winds 2598
wild 2598
illustr@@ 2597
Minority 2597
Hockey 2596
mob 2596
Inf@@ 2595
manufacturers 2595
Chak@@ 2594
hil@@ 2594
Ghulam 2594
refuge 2594
rating 2591
compe@@ 2591
ural 2591
alty 2591
Rob@@ 2591
aled 2591
appoint 2590
Ty@@ 2590
flows 2589
tivity 2589
Renewable 2589
jac@@ 2589
indicate 2588
ark 2588
jurisdiction 2587
Schools 2587
sey 2586
Where@@ 2585
iya 2585
Select 2584
craft 2582
submission 2581
presided 2581
Ji@@ 2581
whosoever 2581
Leela 2581
Soci@@ 2580
chairperson 2580
INS 2580
Farhan 2580
Export 2579
Films 2579
flowing 2579
plate 2578
icon 2578
Dam@@ 2578
Chandrababu 2578
mans 2578
Rijiju 2577
Bis@@ 2577
networks 2576
starring 2576
wash 2576
sanctions 2575
Satish 2575
chair 2574
Ish@@ 2574
celebrating 2573
una 2572
hall 2571
Sisodia 2571
Rahman 2570
Mount 2570
Javed 2569
Nm 2569
JP 2569
priests 2569
normally 2568
Marshal 2568
Aj@@ 2568
specifically 2567
Seven 2567
tennis 2567
ases 2566
mix 2565
Excellency 2565
transf@@ 2564
backs 2564
tiz@@ 2564
speaker 2564
RO 2563
globe 2563
scre@@ 2563
Adv@@ 2562
widespread 2562
Ghaziabad 2562
A.@@ 2561
kilometres 2561
arrests 2561
accessible 2560
Medicine 2560
eted 2559
Tu@@ 2559
intellectual 2558
casualties 2558
favor 2557
Corridor 2557
Judah 2556
Speci@@ 2555
og 2555
bowled 2555
Official 2553
lift 2552
hin@@ 2552
riots 2552
sible 2551
ign 2550
endeav@@ 2550
backward 2550
counting 2549
Malaika 2549
miti@@ 2548
BCM 2548
stolen 2548
Triv@@ 2548
Over@@ 2547
intense 2547
presidential 2546
Saeed 2546
teachings 2546
deficit 2545
ancing 2545
dep@@ 2545
stadium 2545
gi 2545
puri 2545
enforcement 2544
bow@@ 2544
consistent 2543
Wi@@ 2543
announces 2543
Implementation 2542
tracks 2542
poss@@ 2542
ota 2542
objects 2542
clinical 2539
verse 2538
alise 2537
rows 2537
golden 2537
Perhaps 2537
Bol@@ 2537
dealt 2536
Communication 2536
2020-21 2535
Chairperson 2535
Compl@@ 2534
functional 2534
restore 2533
cra@@ 2533
ater@@ 2532
Prices 2532
microSD 2532
bers 2531
Give 2531
CO 2530
negoti@@ 2530
forbidden 2530
legs 2529
ministerial 2528
parameters 2527
rev@@ 2526
chemicals 2526
udi 2526
aug@@ 2522
Fir@@ 2522
Systems 2521
cing 2521
30th 2521
Ta@@ 2521
vers@@ 2520
spon@@ 2520
ich@@ 2520
Corinthians 2520
hero 2520
ght 2519
wages 2518
declaration 2518
Tribunal 2518
spouse 2518
care@@ 2518
Part@@ 2517
teen@@ 2517
league 2517
parent 2516
oxygen 2516
honest 2516
Farooq 2516
cip@@ 2515
SR@@ 2515
split 2515
tally 2515
tier 2514
communic@@ 2514
Telecom 2514
lam@@ 2514
Sangh 2513
ule 2512
lions 2512
closing 2511
ambitious 2511
Abhi@@ 2511
thankful 2511
Yuvraj 2511
theatre 2511
flagship 2510
educated 2510
Vij@@ 2509
AND 2509
amendments 2509
stly 2509
Pankaj 2509
emplo@@ 2508
ga@@ 2508
ols 2508
Gowda 2508
convention 2507
shoulder 2507
Kap@@ 2507
regul@@ 2506
supposed 2506
arising 2505
anding 2505
Cop@@ 2505
distinguished 2505
Mid@@ 2504
ditions 2503
retri@@ 2503
super 2502
Bij@@ 2502
meters 2502
Revelation 2502
kal 2502
moderate 2501
buying 2501
foo@@ 2501
tam@@ 2501
interacted 2500
Inv@@ 2498
emia 2498
cation 2497
Southern 2496
ML 2496
You@@ 2495
ulation 2494
syst@@ 2492
Tech 2492
Kumaraswamy 2492
usion 2491
influenced 2491
Should 2490
injustice 2490
after@@ 2489
tied 2489
miss 2489
referring 2489
valued 2488
le-@@ 2488
Sev@@ 2488
Bhup@@ 2488
grad@@ 2487
disputes 2487
trib@@ 2487
Bajaj 2486
evident 2485
ech 2485
punished 2485
ed. 2485
emer@@ 2484
absor@@ 2483
lessons 2483
variants 2483
gradu@@ 2483
Azhar 2483
citation 2483
divorce 2483
N. 2482
restored 2482
oss 2481
iti 2481
Nathan 2481
yield 2480
DC@@ 2480
Khur@@ 2480
abol@@ 2480
Vic@@ 2480
Masjid 2480
heading 2479
India@@ 2478
onion 2478
renowned 2477
Vishnu 2477
Dou@@ 2476
sion@@ 2476
franchise 2476
Bhuvneshwar 2476
processor 2475
estimates 2474
INDIA 2474
ASEAN 2473
everlasting 2473
speedy 2472
gang 2472
far@@ 2472
amounts 2470
etary 2470
Rajan 2470
ther 2469
Naqvi 2469
Challengers 2469
Schedule 2468
indic@@ 2468
aste 2468
tragedy 2468
ammunition 2468
forgiving 2467
Tru@@ 2466
cumulative 2466
Buddhist 2466
Nicobar 2466
Search 2466
ica 2466
Timothy 2466
vice-president 2466
oriented 2465
depending 2465
attrac@@ 2465
judiciary 2465
IB 2465
Get 2464
utes 2463
communications 2463
AG@@ 2462
ey@@ 2462
MI 2461
eman 2461
19th 2461
ety 2461
Sul@@ 2461
Accoun@@ 2460
Thousands 2460
Consider 2460
it. 2460
spectrum 2459
aks 2458
Scindia 2458
tac@@ 2457
triple 2457
allotted 2456
itions 2456
messenger 2456
MG@@ 2455
path@@ 2455
Common 2454
tak@@ 2454
R.@@ 2452
sen 2452
planet 2452
school@@ 2452
TI 2450
Response 2449
baptized 2449
cooperative 2448
oring 2448
spl@@ 2448
Kher 2448
pura 2448
guarantee 2447
Greater 2447
Persian 2447
year@@ 2446
depic@@ 2446
midst 2446
lawful 2446
establishments 2444
aired 2444
Bahadur 2444
Pooja 2444
margin 2443
en-@@ 2443
inform@@ 2443
priv@@ 2442
lit@@ 2442
Ek@@ 2442
Dhar@@ 2442
doubles 2442
preparedness 2441
supplied 2441
Has 2441
Himalayan 2441
silence 2441
Operations 2440
Death 2440
rehabilitation 2440
eled 2440
legend 2439
FO@@ 2438
UL@@ 2438
tune 2437
journ@@ 2437
ver 2437
graphy 2437
brut@@ 2437
behavior 2437
Highway 2437
Manj@@ 2437
inations 2436
mistakes 2436
constr@@ 2434
Z 2433
sh 2432
Emergency 2432
Unto 2432
irs 2432
creates 2431
pha@@ 2431
complained 2431
Pakistan-@@ 2431
photographs 2430
econom@@ 2429
trem@@ 2429
Men 2429
desc@@ 2428
C-@@ 2427
interv@@ 2427
prac@@ 2427
isn 2427
Front 2427
producers 2426
susp@@ 2426
tag@@ 2426
enthusiasm 2426
liked 2426
B. 2424
cool@@ 2424
selfie 2424
jet 2424
Championships 2424
Bhagwat 2423
pris@@ 2422
Modi@@ 2422
bottom 2422
gro@@ 2421
dece@@ 2421
Ki 2420
vessels 2420
13.@@ 2419
Live 2419
gal@@ 2419
Error 2418
thetic 2417
bestowed 2417
Textiles 2416
Hos@@ 2416
Autom@@ 2415
accorded 2415
Sub-@@ 2414
Ratna 2414
attendance 2413
pass@@ 2412
Prab@@ 2412
Details 2411
fare 2411
nice 2410
Mines 2410
Till 2409
Movement 2409
consent 2409
relatively 2408
default 2408
Entertainment 2408
petitioner 2408
brave 2407
fort 2406
delegates 2405
disc@@ 2405
Medal 2405
enary 2404
ater 2404
tank 2404
Phase 2403
imprisonment 2403
Ras@@ 2402
mid-@@ 2401
expertise 2401
Zone 2401
tem@@ 2401
tie 2401
Very 2400
erv@@ 2400
tis@@ 2399
centers 2398
Buddha 2398
Statistics 2396
eer 2396
absolute 2396
fav@@ 2396
respected 2396
dam 2396
04.@@ 2395
Advisory 2395
yer 2395
Gurugram 2395
rig@@ 2394
Daily 2394
arts 2394
reflected 2393
Micro 2393
Studies 2393
catch 2393
Sl@@ 2393
lak@@ 2393
restricted 2392
California 2392
Kapur 2391
rested 2390
appl@@ 2390
Kas@@ 2390
aggreg@@ 2389
electr@@ 2389
writers 2389
movements 2388
apps 2388
fed 2387
tting 2387
uram 2387
ror 2387
expanding 2386
scoring 2386
ashing 2386
fishermen 2386
Williamson 2385
wrong@@ 2385
translated 2384
Han@@ 2384
attri@@ 2383
heavily 2383
wonder 2383
Kak@@ 2382
humili@@ 2382
humble 2382
Aar@@ 2382
findings 2381
Kochi 2381
St. 2381
adds 2380
resurrection 2380
shou@@ 2380
forests 2380
Play 2379
inauguration 2379
Ker@@ 2379
lod@@ 2377
ordin@@ 2377
pa@@ 2377
updated 2376
newspapers 2376
ported 2376
Help 2376
Rajeev 2376
developmental 2375
itate 2375
recording 2374
k-@@ 2373
Imp@@ 2373
belonged 2373
islands 2373
Mayor 2373
prizes 2372
Lal@@ 2372
Register 2371
hav@@ 2371
fic 2370
hypo@@ 2370
Netherlands 2370
tain@@ 2370
aun@@ 2370
finish 2370
agent 2369
typically 2368
impressive 2368
Bah@@ 2368
pacer 2368
advisory 2367
ested 2367
Sen 2367
Magistrate 2367
tear 2367
tant 2366
dating 2366
laugh@@ 2366
dering 2365
oli 2365
godly 2365
tun@@ 2364
Grover 2364
translation 2363
een 2363
long@@ 2363
layer 2363
Communications 2363
compassion 2363
monitored 2362
singing 2362
ache 2361
progres@@ 2360
Contin@@ 2360
youngsters 2360
highways 2359
ulated 2358
ferti@@ 2358
defin@@ 2358
bhp 2358
neck 2358
Shivaji 2357
convicts 2357
disputed 2356
setup 2356
Lake 2356
ear 2356
magic 2356
interrog@@ 2356
structural 2355
rein@@ 2355
pleas@@ 2355
Harbhajan 2355
Womens 2353
Date 2352
fic@@ 2352
lifestyle 2352
assure 2352
contrast 2351
exclusive 2350
sacrifices 2350
Luke 2350
ME 2349
Long 2349
tains 2349
Nobel 2349
respects 2348
serves 2348
transform 2348
database 2347
LE@@ 2347
boun@@ 2347
sincere 2347
uted 2346
SCO 2346
accordingly 2345
tering 2345
sentenced 2345
depression 2345
Mel@@ 2345
commodities 2343
laying 2343
vit@@ 2342
105 2342
govern@@ 2341
long-@@ 2341
ira 2341
civil@@ 2341
emphasised 2340
IMD 2340
Nan@@ 2340
iter@@ 2340
Gauri 2340
boat 2340
customs 2339
Old 2339
eva 2339
Cri@@ 2339
black@@ 2339
Vin@@ 2339
True 2339
adoption 2338
resp@@ 2338
indicates 2337
definition 2337
es-@@ 2337
efully 2337
affection 2337
Web@@ 2336
imal 2336
Kumari 2336
class@@ 2336
episode 2336
viz 2335
Hi@@ 2335
transl@@ 2335
artisans 2335
lauded 2335
withdrawn 2334
premier 2334
Samsung 2334
Raina 2334
Nax@@ 2334
Pil@@ 2334
Nal@@ 2334
royal 2334
reveals 2333
uli 2333
contemporary 2332
aning 2332
ranging 2331
preserve 2331
flat 2330
Block 2329
FS@@ 2328
doub@@ 2328
ener@@ 2328
2.0 2327
Ali@@ 2327
fearing 2327
maybe 2327
opposing 2327
arding 2326
14th 2326
Kend@@ 2326
Language 2325
alled 2325
open@@ 2325
ouring 2325
repe@@ 2325
publ@@ 2324
itu@@ 2324
qualify 2324
sealed 2324
all-rounder 2324
demonetisation 2323
sal 2323
consisting 2323
library 2323
Institutes 2322
Snapdragon 2322
Rajinikanth 2321
resh@@ 2321
Italian 2321
lis@@ 2320
Dehradun 2320
Sand@@ 2320
purchased 2319
DI@@ 2319
onal 2319
explains 2319
noticed 2319
snow 2319
profits 2318
entary 2318
rely 2317
Sem@@ 2317
interact 2317
confirmation 2316
Kailash 2316
impressed 2316
06.@@ 2315
TR@@ 2315
Kor@@ 2315
showcase 2315
Prad@@ 2315
enters 2314
Mark@@ 2314
inning 2314
Tab@@ 2314
ford 2314
prisoners 2314
Self 2313
cutting 2313
landing 2313
sett@@ 2312
resh 2312
bh@@ 2312
suspension 2312
entrance 2311
17.@@ 2310
author@@ 2310
colourful 2310
fever 2310
lord 2310
listening 2309
Island 2308
remark 2308
Atomic 2308
ew 2307
3,000 2307
andi 2307
manife@@ 2307
funded 2306
20,000 2306
TE@@ 2306
insp@@ 2306
thor@@ 2306
iny 2306
frustr@@ 2306
it-@@ 2305
asting 2305
emerge 2305
To@@ 2305
bird 2305
hood 2305
gates 2305
negotiations 2304
wine 2304
holder 2303
Persons 2303
ben@@ 2303
adverse 2302
Train 2302
Having 2302
contrary 2301
IRCTC 2301
Anj@@ 2301
suggests 2300
conventional 2300
terminal 2300
Pras@@ 2300
key@@ 2300
Nanak 2300
realised 2299
attractive 2299
whatsoever 2299
Patnaik 2299
Vicky 2299
temperatures 2299
fault 2298
merciful 2298
Amethi 2298
segments 2297
roof 2297
BSNL 2296
Shr@@ 2296
uncle 2295
Accordingly 2294
nor@@ 2294
oul@@ 2294
uma 2294
Siddiqui 2294
routine 2293
Ann@@ 2293
Bhu@@ 2293
eful 2292
Desai 2292
ful@@ 2291
concrete 2291
eing 2290
petroleum 2288
Assistance 2288
Nov@@ 2288
enc@@ 2288
theft 2288
interventions 2287
Aligarh 2287
encing 2286
innovations 2285
rying 2285
Jon@@ 2285
wat@@ 2285
cool 2285
BO@@ 2284
Efforts 2284
Kalyan 2284
argued 2283
Lankan 2283
exposure 2282
ship@@ 2282
ude 2282
Joh@@ 2282
Vinay 2282
ET 2281
nationwide 2281
cyber 2280
exchanges 2280
avo@@ 2280
discharge 2280
mentally 2280
gross 2279
discre@@ 2279
burn 2279
Sush@@ 2279
Prize 2278
Kargil 2278
accel@@ 2277
influ@@ 2277
Tom@@ 2277
Mike 2277
disappointed 2277
rif@@ 2277
extraordinary 2276
ares 2276
ives 2276
warn 2276
tidings 2276
16th 2275
nec@@ 2275
refugees 2275
Lieutenant 2274
deployment 2273
Sel@@ 2273
fore 2273
rallies 2273
mit 2272
constitute 2271
07.@@ 2270
aved 2270
executed 2269
federal 2269
hail 2269
consciousness 2269
hel 2269
categor@@ 2268
anpur 2268
lia 2268
Philippines 2267
notices 2267
PE@@ 2267
idols 2267
ahs 2266
Heritage 2265
spots 2265
fray 2265
attackers 2264
Garden 2264
anned 2262
audio 2262
Anti-@@ 2262
Hyundai 2262
pip@@ 2262
Sadar 2262
printed 2261
aper@@ 2260
depend 2259
ministries 2259
universe 2259
cleaning 2259
Bagh 2259
strategies 2258
disposal 2257
pro-@@ 2257
Finally 2257
Operation 2257
casting 2257
pledge 2257
fast@@ 2257
basically 2257
Moon 2257
securities 2256
passage 2256
recover 2256
haz@@ 2256
ond 2256
Jinping 2255
sweet 2255
Strategic 2254
representation 2254
alize 2254
life@@ 2254
tap 2253
parking 2253
hang@@ 2253
Finch 2253
TA 2252
imported 2252
button 2252
critics 2252
Prin@@ 2251
uv@@ 2251
Henry 2251
Khan@@ 2251
dness 2250
ed-@@ 2250
Wing 2250
wasn 2250
rav@@ 2249
Roh@@ 2249
pulled 2248
Administrative 2248
derived 2248
Bare@@ 2248
convinced 2248
Bon@@ 2247
tees 2247
Gulf 2247
NS 2247
oral 2247
Anupam 2247
airs 2246
survive 2246
civilians 2246
assess 2245
punish 2245
Gill 2245
dent 2244
clearance 2244
corrupt 2244
Squ@@ 2244
Det@@ 2242
AY 2242
abide 2242
Was 2242
Chinas 2242
recogn@@ 2241
voluntary 2241
diff@@ 2241
literary 2241
agents 2239
U.@@ 2239
Maharaj 2239
resistance 2239
Nearly 2238
ca 2238
CL 2237
yiel@@ 2236
annually 2236
museum 2234
Jer@@ 2234
Deb@@ 2233
Liter@@ 2233
commerce 2233
cautious 2233
angel 2233
cap 2232
Goel 2232
escaped 2231
ride 2230
increasingly 2229
operators 2229
simultaneously 2229
abandoned 2229
mac@@ 2228
IA 2228
agers 2228
loyal 2228
dian 2228
dwell 2227
masses 2226
uck 2226
Mach@@ 2225
-India 2225
slowly 2225
rum@@ 2225
Presently 2224
block@@ 2224
predicted 2224
interrogation 2224
allegation 2224
Bhansali 2224
lending 2223
weigh@@ 2223
mour@@ 2223
Eat 2223
Surjewala 2223
scri@@ 2222
Panch@@ 2222
sar@@ 2222
preferred 2221
OBC 2221
bod@@ 2221
Baroda 2220
extending 2220
collect 2220
ules 2219
itive 2219
lo 2219
batch 2218
Ayushmann 2218
settle 2217
Asif 2217
Raipur 2216
itted 2216
refer 2216
Ishant 2216
flee 2216
Kann@@ 2216
evalu@@ 2214
succeeded 2214
Unnao 2214
int 2213
Entrepreneurship 2213
Nay@@ 2213
rab@@ 2212
Ministerial 2212
fting 2211
Ger@@ 2211
album 2211
kms 2211
supervis@@ 2210
giant 2210
Pokhriyal 2210
tioning 2209
AB 2209
cooperate 2209
Log@@ 2209
ld@@ 2208
exciting 2208
pit@@ 2208
bones 2208
poems 2208
endeavour 2207
correspon@@ 2207
Serv@@ 2207
personalities 2207
freight 2206
Swar@@ 2206
Body 2206
migrants 2206
FY 2205
Quality 2205
liquid 2205
350 2205
Liber@@ 2205
fet@@ 2205
Houses 2205
homage 2205
defend 2204
allied 2203
VC 2203
priorities 2203
hos@@ 2203
stating 2203
shi 2203
Poll@@ 2203
14.@@ 2202
stimul@@ 2202
NGOs 2201
highlights 2201
physically 2201
rail@@ 2201
Branch 2200
trace 2200
keys 2200
udd@@ 2199
sters 2198
lan@@ 2198
plas@@ 2198
realized 2197
pillars 2197
fer@@ 2197
helpful 2197
Yuzvendra 2197
folder 2196
beg@@ 2195
legacy 2194
Active 2194
sac@@ 2194
everyday 2194
purcha@@ 2193
grievances 2193
Process 2193
parti@@ 2193
practi@@ 2193
beli@@ 2193
protestors 2193
cement 2192
aggressive 2192
lady 2192
Gandhinagar 2191
Sustainable 2191
possibilities 2191
stal@@ 2191
foods 2191
10-@@ 2190
09.@@ 2189
interior 2189
bab@@ 2189
Kedarnath 2189
Rejuvenation 2189
aths 2189
Mut@@ 2188
idation 2188
gress 2188
inspire 2187
AK 2187
Shastri 2187
associations 2186
not@@ 2186
VSM 2186
artist 2185
person@@ 2184
pione@@ 2184
commenced 2183
abs 2183
bla@@ 2183
Maulana 2183
reserves 2182
desig@@ 2182
alizing 2182
Nay 2182
18.@@ 2181
pronounced 2181
rolling 2181
minerals 2181
topic 2180
Cle@@ 2180
retain 2179
Hope 2179
Third 2178
San 2177
ority 2176
ket@@ 2176
targeting 2175
May@@ 2175
UP@@ 2175
guides 2175
Gun@@ 2175
Navratri 2175
Pensions 2175
prob@@ 2174
ership 2174
Whoever 2174
Arabian 2174
dad 2174
Ear@@ 2173
Qur 2173
Madhuri 2173
confron@@ 2172
ea 2172
Yamuna 2172
dynamic 2171
oration 2170
ez@@ 2170
Fertilizers 2170
minim@@ 2169
ames 2169
ament 2169
involve 2168
popularity 2168
Canadian 2168
Hun@@ 2168
creatures 2168
anch@@ 2166
win@@ 2166
motivated 2166
.com 2165
11,@@ 2164
05.@@ 2164
photo@@ 2164
erve 2164
inhabitants 2163
passport 2163
criteria 2162
comparison 2162
tent 2162
Nur@@ 2162
Catholic 2162
possibly 2161
slain 2161
Behold 2161
boards 2160
M.@@ 2160
PPP 2160
affects 2160
tasks 2160
helicopter 2160
Presid@@ 2159
edi 2159
Main 2158
entures 2157
optim@@ 2157
focusing 2157
Romans 2157
e- 2156
payable 2155
logging 2155
acquitted 2155
reliable 2154
handled 2154
t-up 2154
enjoying 2154
reverse 2153
refin@@ 2153
ems 2153
bility 2153
truthful 2153
Bahujan 2153
weaker 2152
hia 2152
Town 2152
sar 2152
ul-@@ 2152
evol@@ 2151
recall 2150
retained 2149
merged 2149
hotels 2149
witnessing 2149
yellow 2149
ematic 2148
onom@@ 2147
GO@@ 2146
sat@@ 2146
devoted 2146
prosecution 2146
ication 2145
Sukh@@ 2145
istan 2144
asaheb 2143
cha 2142
smoke 2142
Standards 2141
Sriniv@@ 2141
pitch 2141
technique 2141
obe@@ 2141
30.@@ 2140
PMs 2140
idhi 2140
1.5 2139
cho@@ 2139
adia 2139
rob@@ 2139
itary 2139
counter@@ 2138
08.@@ 2138
opted 2138
Guest 2138
mud 2138
elim@@ 2137
vir 2137
Dravid 2137
floo@@ 2137
cles 2136
fears 2136
nearest 2136
gall@@ 2136
erable 2135
Products 2135
Ly@@ 2135
tern@@ 2134
infections 2134
electrical 2134
stuck 2134
Scientific 2134
updates 2133
paise 2132
Tem@@ 2132
Bra@@ 2132
hop@@ 2132
assurance 2131
recru@@ 2131
generating 2131
describe 2131
ost@@ 2131
sens@@ 2131
Hebrew 2131
supremo 2131
Rishabh 2131
Champions 2131
contacted 2130
separately 2129
Ground 2129
8-megapixel 2129
Scripture 2129
Choudhary 2129
ambassador 2129
committees 2128
Nifty 2128
occurs 2128
queries 2127
meter 2127
testimony 2127
oppose 2127
nephew 2127
stores 2126
Sania 2126
DM 2125
Eight 2125
apologise 2125
editor 2125
talented 2125
disrup@@ 2124
feedback 2124
inga 2124
Real 2123
vacancies 2123
ops 2123
Excellence 2122
Sank@@ 2122
offences 2122
spac@@ 2122
surviv@@ 2121
Switzerland 2121
DP 2120
trol@@ 2120
Watchtower 2120
pilots 2120
Pak@@ 2120
strictly 2119
receives 2119
ashtra 2119
hunger 2119
lion 2118
delighted 2118
Set 2117
couples 2117
Gener@@ 2116
pays 2116
Mov@@ 2116
Chemicals 2116
s' 2116
Zak@@ 2116
Dil@@ 2115
integr@@ 2115
err@@ 2114
Launch 2114
Kiran 2114
Mann 2114
Hir@@ 2113
Neither 2113
joy@@ 2113
Directed 2113
Raman 2113
centr@@ 2112
associates 2112
uded 2112
Kaus@@ 2112
rai@@ 2112
antry 2112
surrounded 2112
contracts 2111
Vilas 2111
prosec@@ 2111
monetary 2110
acknowledged 2110
bullet 2110
DoNER 2110
wada 2109
Beijing 2109
disbelieved 2109
Vidhan 2109
convert 2108
asc@@ 2108
gifts 2108
martyred 2108
low-@@ 2107
PSUs 2107
immor@@ 2107
IV@@ 2106
migr@@ 2106
telec@@ 2106
Yatra 2106
gra 2106
Bhupinder 2106
Anderson 2106
ruler 2106
Jais@@ 2105
ignored 2104
Northeast 2104
Gaj@@ 2104
Corps 2103
crow@@ 2102
pleasant 2102
hrs 2102
Hour 2102
sole 2101
fted 2101
hydr@@ 2101
abi 2100
unemployment 2100
Rio 2099
Guidelines 2098
Personal 2097
commissioned 2097
signal 2097
itating 2097
18th 2097
tense 2097
chest 2096
Chandr@@ 2095
portfolio 2094
strange 2094
disperse 2094
Smt.@@ 2094
forum 2093
xing 2093
beliefs 2093
ransom 2093
EVMs 2093
hailed 2093
Neg@@ 2092
uru 2092
yav@@ 2092
docum@@ 2091
Tribes 2091
Sikhs 2091
Dixit 2091
Inte@@ 2090
ounding 2090
ern 2090
Beh@@ 2090
Sanitation 2090
carries 2089
consensus 2089
Gujarati 2089
AK@@ 2089
Rathore 2089
Knight 2089
lamp 2089
e-up 2088
orous 2088
Nad@@ 2087
briefed 2087
ts@@ 2087
wom@@ 2087
Ayushman 2087
slightly 2086
Any@@ 2086
avi 2086
scientist 2086
Karachi 2086
Interest 2085
Krish@@ 2085
autonomous 2085
stret@@ 2085
heights 2085
Madan 2085
16.@@ 2083
Minimum 2083
resort 2083
fish@@ 2083
NCC 2083
Hinduism 2083
Nic@@ 2082
rever@@ 2081
MM@@ 2081
adul@@ 2081
ementary 2080
cited 2080
won@@ 2080
sequ@@ 2079
ei 2078
Risk 2077
scar@@ 2077
aran 2077
cher 2077
Cummins 2077
cylinder 2077
threatening 2076
mism 2075
itra 2075
may@@ 2075
Sher@@ 2075
Patani 2075
shar@@ 2074
harvest 2074
motiv@@ 2074
devast@@ 2074
twe@@ 2073
hills 2073
2013-14 2072
airlines 2072
forecast 2071
Sanjeev 2071
Jog@@ 2071
compete 2070
committing 2070
bath 2070
shots 2070
determin@@ 2069
4,000 2069
Terrorism 2069
fe 2069
Sehwag 2069
emotions 2069
FT 2068
Regulation 2068
kes 2068
expl@@ 2068
confir@@ 2068
reputation 2068
eral 2068
DSP 2068
graph@@ 2067
EPFO 2066
J. 2066
.gov.in 2066
buyers 2065
contributing 2065
OS 2065
attempted 2065
voy 2065
Television 2065
Shekhar 2065
itory 2064
Committees 2064
recommendation 2064
NF@@ 2064
martyrs 2064
ary-@@ 2063
essors 2063
Mit@@ 2063
somewhere 2063
Cat@@ 2062
Ray@@ 2062
C.E. 2062
junior 2061
stick 2061
ii 2060
tech 2060
detected 2060
moments 2060
lic 2060
cos@@ 2060
ter-@@ 2060
teas@@ 2060
neg@@ 2059
stepped 2059
Muzaffarpur 2059
reception 2059
snowfall 2059
RA 2058
cross-@@ 2058
icious 2058
E. 2058
oa 2058
adult 2058
Irrfan 2058
than@@ 2057
ocr@@ 2057
hast 2057
ceasefire 2057
origin@@ 2056
sam@@ 2056
shor@@ 2056
It@@ 2056
alleging 2056
oe@@ 2056
Kriti 2056
endor@@ 2055
excess 2054
mitting 2054
Ahead 2054
blow 2054
sanction 2053
nom@@ 2053
swing 2053
conce@@ 2053
Kashyap 2053
openly 2053
fold 2052
drew 2052
rivals 2052
countrymen 2052
Yash@@ 2052
ser 2051
,@@ 2050
Panchayats 2050
statutory 2049
ration@@ 2049
15.@@ 2049
Orig@@ 2049
110 2049
T20 2048
conversion 2047
MH@@ 2047
impe@@ 2046
Jordan 2046
recompense 2046
duration 2045
Sweden 2045
gearbox 2045
legislature 2045
rat@@ 2044
Lev@@ 2044
plenty 2044
Flag 2044
fts 2043
m. 2043
corporation 2043
loom 2043
minute 2042
TRS 2042
Jayanti 2042
aar 2042
adults 2042
AL 2041
anded 2041
empower 2041
romantic 2041
Ken@@ 2041
separated 2040
forgotten 2040
Colin 2040
alias 2040
Ujj@@ 2040
NCR 2039
dip 2039
Sam 2039
lined 2038
limit@@ 2038
instruction 2038
zy 2038
amed 2038
sul@@ 2038
acquire 2037
itya 2037
magnetic 2037
rulers 2036
jets 2036
usual 2035
Governors 2035
tobacco 2035
wronged 2035
Hom@@ 2035
Federal 2034
Picture 2034
distinct 2033
Pin@@ 2033
Sibal 2033
Srik@@ 2033
Sunrisers 2033
cell@@ 2032
initi@@ 2032
utter 2032
tionally 2031
verification 2031
hra 2031
cured 2031
wad 2030
Bipin 2030
Plant 2029
acad@@ 2029
detention 2029
regards 2028
YS 2028
Sengar 2028
constable 2028
AIMIM 2028
ron@@ 2027
distinction 2027
akk@@ 2027
Design 2026
passion 2026
Rajkummar 2026
Hamid 2026
substance 2025
chargesheet 2025
main@@ 2024
Against 2023
PL 2023
rises 2023
quiet 2023
yn@@ 2022
fabric@@ 2022
Jos 2022
duced 2021
Schemes 2021
pil@@ 2021
ae 2021
hot@@ 2021
ullah 2021
Electricity 2020
aker 2020
sequence 2020
util@@ 2019
mut@@ 2019
Parents 2019
develop@@ 2019
Din@@ 2019
Shilpa 2019
hya 2019
aide 2019
log 2018
ground@@ 2018
Root 2018
cooking 2018
agon@@ 2018
nabbed 2018
engineers 2018
defamation 2018
lining 2017
ographic 2017
organizing 2017
single-@@ 2017
tribes 2017
voter 2017
Orissa 2016
Va@@ 2015
half-@@ 2015
pioneer 2015
societies 2015
Amrita 2015
-free 2014
volunteers 2014
constitu@@ 2013
Panchayati 2013
coffee 2013
Voting 2012
Doing 2012
ICMR 2012
bles 2011
frag@@ 2011
Alex 2011
Raju 2011
providers 2010
Program 2010
Santosh 2010
indul@@ 2010
publications 2009
licence 2009
completing 2009
micro 2008
ym@@ 2008
discrimin@@ 2008
conviction 2008
permit 2007
laboratories 2007
Expo 2007
Christmas 2007
Task 2006
partial 2006
yam 2006
chiefs 2006
power@@ 2005
baseless 2005
Hav@@ 2004
eved 2004
continent 2004
Ved@@ 2004
contr@@ 2003
1998 2003
ato 2003
pregnancy 2003
Eli@@ 2003
iss 2003
atics 2002
Bhand@@ 2002
Reports 2001
eternal 2001
Masood 2001
Asaduddin 2001
weakness 2000
critically 2000
hib@@ 2000
gang@@ 2000
dil@@ 1999
condemn 1999
throne 1999
triggered 1998
Portal 1998
apprised 1998
highlight 1998
Tokyo 1998
hectares 1998
Kes@@ 1998
couldn 1998
ump 1997
ino 1997
feared 1996
rela@@ 1995
comb@@ 1995
grams 1995
kin@@ 1995
Kush@@ 1995
collapse 1994
NA 1994
presents 1993
Registration 1993
sty@@ 1993
Birla 1993
husbands 1993
Saini 1993
molec@@ 1993
sir 1993
prophets 1993
operative 1992
top-@@ 1992
motor@@ 1992
ections 1991
delight 1991
dings 1990
encomp@@ 1990
Fat@@ 1990
urg@@ 1989
Way 1989
ethnic 1989
found@@ 1988
remin@@ 1988
legendary 1988
discussing 1988
demol@@ 1987
destinations 1987
accompl@@ 1987
kidnap@@ 1987
Knowledge 1986
Visakhapatnam 1986
threat@@ 1986
100@@ 1986
Jamia 1986
computed 1985
stretch 1985
Analysis 1984
appreh@@ 1984
ocean 1984
Spirit 1984
off-@@ 1983
accur@@ 1983
travelled 1983
Mighty 1982
confusion 1982
habit 1981
Headquarters 1981
anxiety 1981
assumed 1980
book@@ 1980
Incre@@ 1980
speeches 1980
EF 1980
Computer 1979
inate 1979
pursuing 1979
quali@@ 1979
Workers 1979
sively 1978
17th 1978
cub@@ 1978
Base 1977
mega 1977
definite 1977
Hanuman 1977
cultures 1977
tears 1977
cash@@ 1976
threw 1976
fi 1975
Dist@@ 1974
list@@ 1974
fifty 1974
Parishad 1974
Drinking 1974
Ze@@ 1974
resili@@ 1973
buff@@ 1973
span 1972
protocol 1972
Fri@@ 1972
maiden 1972
outer 1971
high-level 1970
staged 1970
Pictures 1970
Buttler 1970
bridges 1969
sab@@ 1968
TE 1968
Law@@ 1968
sword 1968
CR 1967
proj@@ 1967
NT 1967
pression 1967
Acharya 1967
Hindu@@ 1967
benefited 1966
mines 1965
Vehicles 1965
Cho@@ 1965
Dalits 1965
Additionally 1964
20-@@ 1964
mask 1964
icing 1963
avery 1963
emon 1963
Transfer 1962
second-@@ 1962
familiar 1962
description 1962
subjected 1961
Develop@@ 1961
twelve 1961
publicly 1961
ayal 1961
semi@@ 1961
ensions 1960
six@@ 1960
distri@@ 1959
Bench 1959
shalt 1959
Inter-@@ 1958
Animal 1958
Pot@@ 1958
maj@@ 1958
Oc@@ 1957
icked 1957
Collector 1957
ventil@@ 1957
Crores 1956
Ask 1956
memorial 1956
Om@@ 1955
180 1955
inte@@ 1955
doc@@ 1955
kan@@ 1955
199@@ 1954
violations 1954
appreci@@ 1954
oke 1954
forwarded 1953
Communist 1953
summoned 1953
Moun@@ 1953
reserve 1952
Conc@@ 1952
sample 1951
fro@@ 1951
well-being 1951
heart@@ 1951
Start 1951
JN@@ 1951
ston 1951
kumar 1950
Meerut 1950
scenes 1950
Electronic 1949
evolution 1949
fix 1949
ceremon@@ 1949
ologist 1948
outcomes 1947
chron@@ 1947
copies 1947
milestone 1947
eliminate 1947
Saj@@ 1947
Vidya 1947
Aer@@ 1947
tube 1946
wars 1945
badminton 1945
assemb@@ 1945
Chil@@ 1945
Shinde 1945
MU@@ 1944
bid@@ 1944
featuring 1944
Aw@@ 1944
swear 1944
laboratory 1943
Dur@@ 1943
accum@@ 1942
ulous 1942
ware 1942
harmful 1942
DE 1942
anagar 1942
Delhi-NCR 1942
Latin 1941
spiritually 1941
DD@@ 1940
Hari@@ 1940
graph 1940
ires 1939
13th 1938
haven 1938
Amar 1938
CG@@ 1937
regist@@ 1937
uniform 1937
concentration 1937
narrow 1937
N.@@ 1937
invested 1936
atically 1936
Works 1936
ought 1936
brilliant 1936
tin 1935
websites 1935
rit 1935
'd 1935
Bhumi 1935
NAT@@ 1935
accounting 1934
margin@@ 1934
rolled 1934
privacy 1934
psych@@ 1934
beating 1934
manifesto 1934
Mith@@ 1934
iced 1933
northeast 1933
Hotel 1933
musical 1933
Rahane 1933
icks 1933
sibility 1932
requests 1931
publishing 1931
Microsoft 1931
ultimately 1931
Jha 1931
ousness 1931
Exp@@ 1930
CH@@ 1930
dum@@ 1930
cribed 1929
dues 1929
habits 1929
apparently 1929
giv@@ 1929
contingent 1928
organis@@ 1928
Certificate 1928
Trav@@ 1928
dozen 1928
regulation 1927
broadcast 1927
Pollution 1927
persist@@ 1926
entrepreneurship 1926
demonstrated 1926
Axis 1926
HIV 1926
Iqbal 1926
Turkish 1926
Ravichandran 1926
Mahajan 1926
Seva 1925
reas@@ 1925
sporting 1925
Ton@@ 1925
noise 1925
compromise 1924
Hardeep 1924
tionary 1923
oud 1923
circum@@ 1923
obvious 1923
alpur 1923
acceptance 1921
containment 1921
teenth 1921
promising 1921
thinks 1921
ipur 1921
cies 1920
ibility 1920
deduction 1920
checked 1920
Jama@@ 1920
hardly 1920
citing 1920
Nevertheless 1919
dominated 1919
circular 1918
risen 1918
Arti@@ 1918
gir@@ 1918
fal@@ 1918
aught 1918
iel 1918
Sagar 1918
adju@@ 1917
ticals 1917
slaugh@@ 1917
arpur 1917
obviously 1917
Kiara 1917
occur@@ 1916
cros@@ 1916
Competition 1916
charity 1916
accommod@@ 1915
tolerance 1915
accountability 1915
formally 1915
Patiala 1915
Leh 1915
ument 1914
Whe@@ 1914
cordoned 1914
partition 1914
Fans 1914
tragic 1914
inspector 1914
pistol 1914
otes 1913
toral 1913
comfor@@ 1913
aband@@ 1913
classical 1913
sworn 1913
selfies 1913
denies 1913
apology 1912
Things 1912
linking 1911
superior 1911
educ@@ 1911
2030 1911
10,@@ 1910
Head@@ 1910
ocation 1910
Gau@@ 1910
hanging 1910
doubts 1910
Dig@@ 1909
commented 1909
No. 1908
affiliated 1908
Taylor 1908
printing 1907
chase 1907
illed 1907
CWC 1907
dict@@ 1907
fate 1907
Jav@@ 1907
therapy 1907
flash 1907
liquidity 1906
sensi@@ 1906
Bridge 1905
glorious 1905
ayan 1905
etc.@@ 1905
Kajol 1905
milit@@ 1905
decrease 1904
IV 1904
Ath@@ 1904
habit@@ 1904
locks 1904
steady 1903
FA 1903
Mauritius 1903
enterprise 1903
izes 1903
tribe 1903
vain 1903
Ric@@ 1903
ution 1902
affecting 1902
accepting 1902
celebrates 1902
RE 1901
reflects 1901
scores 1901
cher@@ 1901
Shoaib 1901
Witness 1901
Cities 1901
entrusted 1900
eli@@ 1900
gaon 1900
ray 1900
Mao@@ 1900
buried 1900
classified 1899
Key 1899
ownership 1899
SE 1899
booking 1899
artificial 1899
Corruption 1899
ins@@ 1899
betr@@ 1899
D.@@ 1898
asion 1898
Babylon 1898
aja 1898
BH@@ 1897
ac 1897
Dutta 1897
Plat@@ 1896
utmost 1896
Siddharth 1896
allest 1896
keeper 1896
2.5 1895
Bharat@@ 1895
PCB 1895
Allah. 1895
deity 1895
Securities 1894
sour@@ 1894
prosp@@ 1894
avan 1894
hima 1894
remake 1894
Musa 1894
cuts 1893
character@@ 1893
trends 1893
Conn@@ 1893
dir@@ 1893
Airways 1893
a. 1892
gusting 1892
holistic 1891
demonstration 1891
Puja 1891
hunt 1891
stance 1890
ardi@@ 1890
36@@ 1890
recognise 1890
hardship 1890
Pat 1890
pilgrimage 1890
tism 1890
Call 1889
annum 1889
Nature 1889
mes 1889
Gayle 1889
dinner 1889
thieves 1889
disbur@@ 1888
Keeping 1888
benef@@ 1888
Sultan 1888
Pati@@ 1888
Lt@@ 1887
prophecy 1887
nodal 1886
Authorities 1886
infiltr@@ 1886
you@@ 1886
palace 1886
heav@@ 1886
felicitated 1886
shore 1885
kid@@ 1885
Protest@@ 1885
Sydney 1885
Param@@ 1884
iers 1883
rendered 1883
exception 1883
isha 1883
shocking 1883
mon 1883
applying 1882
Chang@@ 1882
50-@@ 1882
Red@@ 1881
incorporated 1881
engineer 1881
Mandi 1881
abrogation 1881
Don@@ 1879
Ros@@ 1879
Morgan 1879
Venugopal 1879
Chan@@ 1879
tiv@@ 1879
Jeh@@ 1879
Es 1878
interface 1878
Nawazuddin 1878
angles 1878
periods 1877
sors 1877
aga 1877
Bap@@ 1877
well@@ 1876
Thr@@ 1876
tired 1876
Gate 1876
ip 1876
snat@@ 1876
eline 1875
Pradeep 1875
Pompeo 1875
William 1875
esome 1875
taluka 1875
burg 1874
khar 1874
salvation 1874
Doval 1874
Knower 1874
Roads 1873
quake 1873
ISIS 1873
upro@@ 1873
Sind@@ 1873
Holi 1873
Co-@@ 1872
exercises 1872
Bai@@ 1872
itan 1872
regret 1872
UGC 1872
contacts 1872
Administr@@ 1871
Neeraj 1871
wrath 1871
impose 1870
Tit@@ 1870
Tai@@ 1870
Gavaskar 1870
Mos@@ 1870
pursu@@ 1869
gradation 1869
Facil@@ 1869
approaches 1869
Boo@@ 1869
Phar@@ 1869
fool@@ 1869
expe@@ 1869
uity 1868
delivering 1868
NTPC 1868
earnings 1867
par 1867
Scre@@ 1867
amy 1867
rejoice 1867
cops 1867
Accounts 1866
C.@@ 1866
LL@@ 1866
Districts 1866
aer@@ 1866
dram@@ 1866
attacking 1866
spite 1865
nominations 1865
Buil@@ 1865
acre 1865
prosperous 1865
grac@@ 1865
fear@@ 1865
knock 1865
larg@@ 1864
breach 1864
know@@ 1864
Unity 1864
fam@@ 1864
quarters 1863
Final 1863
Singhs 1863
esha 1863
debit 1862
facilitating 1862
Growth 1862
sor 1862
del 1862
Megh@@ 1862
1996 1861
logistics 1861
swi@@ 1861
demonstr@@ 1861
yal 1861
interpre@@ 1861
Junior 1861
Brothers 1861
subsidiary 1860
19.@@ 1860
outs 1860
expressing 1860
partic@@ 1860
Save 1860
mainstream 1858
youngest 1858
af 1858
LoC 1858
cked 1858
Grand@@ 1858
mediate 1857
high@@ 1857
Bobde 1857
posting 1856
Lakshmi 1856
Amar@@ 1856
heartfelt 1856
eld 1855
Naveen 1855
satellites 1855
prev@@ 1854
tries 1854
wr@@ 1854
aur@@ 1854
CSIR 1854
Haasan 1854
Ashish 1854
strang@@ 1854
exce@@ 1853
cloud 1853
progressive 1853
Soviet 1853
Provisional 1852
oe 1852
lab 1852
MHA 1852
parallel 1851
196@@ 1851
Jaya 1851
dividend 1850
Equ@@ 1850
differen@@ 1850
coordin@@ 1850
prevented 1850
cogn@@ 1850
150th 1850
TP 1849
intent 1849
crick@@ 1849
RCB 1849
rafts 1848
Bhubaneswar 1848
waves 1848
hind@@ 1848
Football 1848
meanwhile 1848
Saul 1848
poem 1848
manufacturer 1847
incentives 1846
painting 1846
reminder 1846
missed 1845
resume 1845
Faridabad 1845
fulness 1845
Airlines 1845
Monitoring 1844
import@@ 1844
corona 1844
breathing 1844
collapsed 1844
empha@@ 1844
incurred 1843
V.@@ 1843
20.@@ 1843
adh 1843
Rahim 1843
tively 1842
tend 1842
nered 1842
poc@@ 1842
Harish 1842
fibre 1841
cheating 1841
pag@@ 1841
sponsored 1840
bids 1840
minent 1840
poo@@ 1840
enty 1840
avati 1840
roman@@ 1840
BJP-led 1839
900 1838
landed 1838
sorry 1838
transition 1837
mati 1837
conscience 1837
contem@@ 1836
cried 1836
Mahal 1836
Rampur 1836
merger 1835
issuing 1835
sub 1835
lad@@ 1835
sand 1835
hab 1835
weekly 1834
cryp@@ 1834
stric@@ 1834
column 1834
athon 1834
aine 1834
Bhav@@ 1834
Kharge 1834
humb@@ 1834
confessed 1834
Glenn 1834
ault 1833
ction 1833
rad@@ 1833
singles 1833
screen@@ 1833
riding 1832
Kishore 1832
horse 1832
counc@@ 1832
bars 1831
automatically 1830
Faith 1830
decreased 1829
1,0@@ 1829
und 1829
flower 1829
mou@@ 1829
amp@@ 1828
Umar 1828
dha 1828
vitamin 1828
diver@@ 1827
designs 1827
Nit@@ 1827
Arts 1827
eggs 1827
repair 1827
hast@@ 1827
Hafiz 1827
arh 1827
variable 1826
Co 1826
prohibited 1826
commander 1826
safely 1826
Dre@@ 1826
Gor@@ 1826
oon 1825
stringent 1824
competent 1824
Ex-@@ 1824
somebody 1824
ascertain 1823
consultations 1823
Excise 1823
Highlights 1823
Says 1823
describes 1821
tre 1821
Cu@@ 1821
mother@@ 1821
Leone 1821
slaves 1821
inter 1820
statistics 1820
cyclone 1820
fame 1820
kits 1820
circle 1819
eighth 1819
afford 1819
deserve 1819
38@@ 1818
curb 1818
diagno@@ 1818
Fer@@ 1818
Srivastava 1818
searches 1818
spar@@ 1818
Nishank 1818
Rad@@ 1818
Prior 1817
ecture 1817
rejects 1817
asted 1817
campaign@@ 1817
resist@@ 1817
utter@@ 1817
phys@@ 1817
Khadi 1817
cave 1817
Regulatory 1816
install@@ 1816
agarh 1816
feeding 1816
trillion 1815
Similar 1815
abbed 1815
Hassan 1815
continu@@ 1814
dible 1814
Delhis 1814
nt 1814
Bharati 1814
Bedi 1814
Polling 1814
vis 1813
,999 1813
Iyer 1813
Scientists 1813
todays 1813
Advanced 1812
crossing 1812
bold 1812
Rud@@ 1812
rebel 1812
Cooperative 1811
Journal 1811
Well@@ 1811
Mathura 1811
authorized 1810
ification 1810
amenities 1810
Cases 1810
Hindutva 1810
Large 1809
cler@@ 1809
Message 1809
Pauls 1809
TRA@@ 1809
falsehood 1808
SB@@ 1807
PI 1807
Gurgaon 1807
mean@@ 1807
Laughter 1807
web@@ 1806
HS 1806
West@@ 1806
dol@@ 1806
condoled 1806
short-@@ 1805
crip@@ 1805
xim@@ 1805
wings 1805
lam 1805
uka 1805
Kumble 1805
pus 1804
SSC 1804
Signs 1804
Reacting 1804
illu@@ 1804
gan 1804
reminded 1804
FE@@ 1803
aire 1803
itor@@ 1803
businessman 1803
Qualcomm 1803
Prashant 1803
booth 1803
favourable 1802
competi@@ 1802
isal 1802
exclusively 1802
mineral 1802
fluid 1802
harass@@ 1802
IM 1801
Oman 1801
holiday 1801
Flipkart 1801
ancer 1801
Afridi 1801
Singh@@ 1801
Yusuf 1801
One@@ 1800
Car 1800
formula 1800
chopped 1800
Parineeti 1800
girlfriend 1800
Appro@@ 1799
PT 1799
Kiren 1799
Tihar 1799
Veteran 1799
Pujara 1799
160 1798
spo@@ 1798
rets 1798
arming 1797
CSK 1797
fraud@@ 1796
dict 1796
mang@@ 1795
Bec@@ 1795
apar@@ 1795
Domestic 1794
preventive 1794
righ@@ 1794
Congress@@ 1794
gy@@ 1793
liability 1792
step@@ 1792
merit 1792
ior 1792
Gok@@ 1792
Empire 1792
odes 1791
elaborate 1791
stored 1791
releasing 1791
misleading 1791
Riders 1791
inspection 1790
erts 1790
shaped 1790
Dim@@ 1790
abode 1790
Hundreds 1790
amounting 1789
xed 1789
fulfilling 1789
elsewhere 1789
shel@@ 1789
Sre@@ 1789
cess 1788
checking 1788
paddy 1788
lyrics 1788
shepher@@ 1788
yard 1788
capit@@ 1787
essentially 1787
levelled 1787
ager 1787
Chowk 1786
Dabangg 1786
tan 1785
Statement 1784
Units 1784
framed 1784
confirm 1784
freely 1784
persecution 1784
shells 1784
inqu@@ 1783
Prof. 1783
suggestion 1783
aster 1783
Khand@@ 1783
breast 1783
pushed 1782
brow@@ 1782
otive 1782
arded 1781
deliberations 1781
attain 1781
bution 1781
griev@@ 1781
dium 1781
sidelines 1781
ots 1781
Rohtak 1781
helicopters 1781
advantages 1780
t.@@ 1780
eradic@@ 1780
reve@@ 1780
expelled 1780
clouds 1780
Galaxy 1780
21.@@ 1779
aid@@ 1779
revelation 1779
IFFI 1779
Congratulations 1779
stunning 1779
Rajkumar 1778
yours 1778
doubling 1777
rendering 1777
atra 1777
Oh 1777
enables 1776
uploaded 1776
Dubey 1776
rightly 1776
Ky@@ 1776
failing 1775
clothing 1775
violated 1775
outlook 1774
campaigns 1774
quota 1774
1992 1774
Strict 1774
Establ@@ 1773
assignment 1773
Electric 1773
Tejashwi 1773
slams 1773
iPhone 1773
desert 1773
Representatives 1772
Vill@@ 1772
ISI 1772
shal@@ 1772
compare 1772
mindset 1772
capture 1771
loading 1771
aints 1770
ergy 1770
ch-@@ 1770
depend@@ 1770
NPR 1770
chat 1770
eed 1770
bearers 1770
DO@@ 1769
Pet@@ 1769
tude 1769
taxpayers 1769
neighbourhood 1769
dish 1769
HU@@ 1768
lessly 1768
umps 1768
sculp@@ 1768
Rain 1767
evaluation 1766
recoveries 1766
esting 1766
histor@@ 1766
lin 1766
bus@@ 1766
maturity 1765
02.@@ 1765
fix@@ 1765
plication 1765
VP 1765
Andrew 1765
Ms.@@ 1765
Syn@@ 1764
mobility 1764
Pvt 1764
virtually 1764
restoration 1764
hosting 1764
Aut@@ 1764
postponed 1764
spring 1764
Sali@@ 1764
crafts 1764
scholar 1764
inser@@ 1763
tings 1763
pad 1763
wore 1763
inaugurates 1763
Mechan@@ 1762
Category 1762
tow@@ 1762
Misra 1762
best@@ 1761
alike 1761
devo@@ 1761
trapped 1761
legislator 1761
Dr.Harsh 1761
Million 1760
cultiv@@ 1760
Sak@@ 1760
Virender 1760
Mess@@ 1759
V-@@ 1759
jawan 1759
enture 1758
eria 1758
hygiene 1758
violating 1758
Inaugur@@ 1758
concentr@@ 1757
Web 1757
drought 1756
Publ@@ 1756
Jagan 1756
wider 1755
empowered 1755
Physical 1755
planes 1755
fours 1755
Commercial 1754
exha@@ 1754
Diesel 1754
extre@@ 1754
est-@@ 1754
eption 1754
topics 1753
essional 1753
initiate 1753
simil@@ 1753
Jha@@ 1753
fishing 1753
mist@@ 1753
Chautala 1753
exceptional 1752
ultimate 1752
removing 1752
asp@@ 1752
titles 1752
iation 1751
necessarily 1751
Making 1751
ologists 1751
bomb@@ 1751
resol@@ 1750
CI 1750
dairy 1750
smartphones 1750
resting 1750
noble 1750
Neh@@ 1750
Savarkar 1750
mos@@ 1750
Sanju 1750
explanation 1749
replacement 1749
ger@@ 1749
Filmfare 1749
Embassy 1749
upgradation 1748
SO 1748
justi@@ 1748
orph@@ 1748
gal 1748
symbol@@ 1748
Prac@@ 1747
plun@@ 1747
enormous 1747
entally 1747
Kav@@ 1747
drun@@ 1747
Commissioners 1747
MA@@ 1746
consist@@ 1746
Standing 1745
thrust 1745
exemption 1745
48@@ 1745
fined 1745
Argentina 1745
collections 1744
enses 1744
Library 1744
ABVP 1744
congregations 1744
Regulations 1743
urity 1743
SAARC 1743
Initi@@ 1743
eri 1743
ahe@@ 1743
migration 1742
salute 1742
interc@@ 1742
offspring 1742
opti@@ 1741
condi@@ 1741
losers 1741
Hebrews 1741
discount 1740
Moscow 1740
comprise 1739
accomplished 1739
commemor@@ 1739
bad@@ 1739
Kant 1739
preach 1739
Table 1738
instances 1738
divisions 1738
Complex 1738
i.e.@@ 1738
iconic 1738
duct 1737
conclude 1737
gers 1737
interpretation 1737
mutually 1737
Prot@@ 1737
wadi 1737
succumbed 1737
anas 1737
oper@@ 1736
nominee 1736
first-@@ 1736
Os 1735
apparent 1735
mated 1735
watched 1735
adu 1735
Girl 1735
earning 1734
safeguard 1734
1997 1734
Pran@@ 1734
sorrow 1734
disobedi@@ 1734
Heat 1734
e-commerce 1733
ris 1733
house@@ 1733
ald 1733
treating 1733
spr@@ 1733
Jayant 1733
Py@@ 1733
assi@@ 1732
compli@@ 1732
Lim@@ 1732
finalised 1732
subscribers 1732
hoods 1732
Mumbai@@ 1732
turn@@ 1731
dominant 1731
disrupted 1731
ori 1731
ridic@@ 1731
Whenever 1731
see@@ 1731
filling 1730
Bagh@@ 1730
bounty 1730
Musharraf 1730
anka 1730
1995 1729
thum@@ 1729
24.@@ 1728
formats 1728
installation 1728
ity-@@ 1728
pling 1728
Rule 1728
ais 1728
lashed 1728
Nair 1728
Khurrana 1728
computers 1726
Ever 1726
missiles 1726
Furthermore 1725
surve@@ 1725
Post@@ 1725
Mittal 1725
ange 1725
Gandhi@@ 1725
departed 1725
shame 1725
Payments 1724
impar@@ 1724
Thiruvananthapuram 1724
reduces 1724
census 1724
naval 1724
seminar 1723
restr@@ 1723
restric@@ 1723
ko 1723
campaigning 1723
igned 1722
disclose 1722
inar 1722
castes 1722
Devil 1722
-day 1721
them@@ 1721
tractor 1721
tile 1721
H.@@ 1721
1947 1721
Download 1721
projected 1720
innov@@ 1720
procured 1720
mun@@ 1720
Narmada 1720
Tej 1720
23.@@ 1719
tually 1719
ate@@ 1719
Mayank 1719
Income-tax 1719
ushing 1719
Taimur 1719
Payment 1718
supervision 1718
seam@@ 1718
females 1718
Gwalior 1718
Minist@@ 1718
utation 1717
DF 1717
Initiative 1717
shopping 1717
boycot@@ 1717
Aaryan 1717
odhi 1717
hospitalised 1717
Netaji 1717
estimate 1716
BA 1716
mortality 1716
disciplinary 1716
deposited 1716
cc 1716
hopeful 1716
three-match 1716
LMT 1716
Pow@@ 1715
menace 1715
Nor 1715
ankar 1715
Manufacturing 1714
Lam@@ 1714
valuation 1713
Discus@@ 1713
vibrant 1713
vil@@ 1713
Suhana 1713
Sai 1713
Groups 1712
ights 1712
cluster 1712
nesses 1712
hyper@@ 1712
Cancer 1712
Anniversary 1712
Vivekananda 1712
uro@@ 1712
CP 1711
seconds 1711
syl@@ 1711
Lock@@ 1711
smoking 1711
25th 1710
gath@@ 1710
Bhai 1710
CB 1709
Leaders 1709
operation@@ 1708
R-@@ 1708
Study 1708
gle 1708
agon 1708
Bar 1708
Tun@@ 1708
Mohit 1708
socio-economic 1707
anticip@@ 1707
thesis 1707
locate 1707
sit@@ 1707
proceed 1707
meaningful 1706
fodder 1706
beside 1706
persu@@ 1705
toilet 1705
eb 1705
believer 1705
Non 1704
thirty 1704
SAI 1704
Address 1704
Maurya 1704
Expressing 1704
occ@@ 1704
mechanisms 1703
cultivation 1703
ourable 1703
Qatar 1703
Protests 1703
atistical 1702
9-@@ 1702
responding 1702
Adviser 1702
Again 1702
anj 1702
onia 1702
sexually 1702
carrier 1702
repentance 1702
Maxwell 1702
endure 1702
sues 1701
stry 1701
Ml@@ 1701
Particip@@ 1700
Legal 1700
Rajkot 1700
Freedom 1700
ano 1700
altar 1700
visual 1699
Vehicle 1699
Leg@@ 1699
logical 1698
liver 1698
thunder@@ 1698
Jacqueline 1698
counted 1697
awaiting 1697
scription 1697
emissions 1697
landmark 1697
Nu@@ 1697
guys 1697
dancing 1697
Anantapur 1697
surge 1696
cere@@ 1696
disabled 1696
Nehwal 1696
complex@@ 1695
commence 1695
AIR 1695
attributed 1694
fails 1694
counsel@@ 1693
tta 1693
presenting 1692
Anti@@ 1692
strugg@@ 1692
civic 1692
utt@@ 1692
crying 1692
cut@@ 1691
barrel 1690
onions 1690
Los 1690
das 1690
shu 1690
Hit@@ 1690
Electoral 1689
Keshav 1689
dest 1689
Aurangabad 1689
tible 1688
iles 1688
Except 1688
no-@@ 1688
conqu@@ 1688
Raje 1688
Aud@@ 1687
BR@@ 1687
sof@@ 1687
Week 1687
perception 1687
agu@@ 1687
Ford 1687
affidavit 1687
trusted 1687
Lot 1687
Basic 1686
varied 1686
organising 1686
rap 1686
insti@@ 1686
Water@@ 1686
lyn@@ 1686
2012-13 1685
chang@@ 1685
RP 1685
theirs 1685
ideals 1685
POCSO 1685
governing 1684
license 1684
deprived 1684
vocation 1684
CJI 1684
human@@ 1684
CSR 1683
processed 1683
coin 1683
Kishan 1683
parade 1683
unbeaten 1683
ATM 1682
eigh@@ 1682
128 1682
Kalam 1682
unions 1682
PCC 1682
veget@@ 1682
bble 1681
alaya 1681
Vishal 1681
Starc 1681
Akali 1681
Stu@@ 1681
VI 1680
gran@@ 1680
themes 1680
Ori@@ 1680
Shweta 1680
urges 1680
investing 1679
Jhansi 1679
60@@ 1678
Engineer 1678
anker 1678
circulation 1677
decides 1677
Thane 1677
critic@@ 1677
vessel 1677
refl@@ 1675
intensive 1675
medic@@ 1675
Laxman 1675
Palace 1675
composition 1674
relates 1674
PG@@ 1674
Samuel 1674
CL@@ 1673
lecture 1673
Yam@@ 1673
SHO 1673
Pednekar 1673
diction 1673
ordinate 1672
tap@@ 1672
Cour@@ 1672
Sag@@ 1672
electro@@ 1672
genetic 1672
Ekta 1672
honey 1672
Hearing 1671
detection 1670
oj@@ 1670
rive 1670
peror 1670
taining 1669
sist@@ 1669
Jai@@ 1669
tancy 1668
commits 1668
dig 1668
Chavan 1667
Dwar@@ 1667
accusing 1667
UC@@ 1666
Cad@@ 1666
NASA 1666
cheque 1665
cated 1665
Belgium 1665
vide@@ 1665
fortune 1665
Provided 1664
attracted 1664
Constitu@@ 1664
Motor@@ 1664
anag@@ 1664
Rupani 1664
indirect 1663
Dhan 1663
vaccines 1663
compreh@@ 1663
presidents 1663
divid@@ 1662
approv@@ 1662
Prof 1662
armies 1662
Within 1661
stit@@ 1661
consistently 1661
string 1661
Dera 1661
UPSC 1661
Naj@@ 1661
Jackie 1661
revival 1660
module 1660
streams 1660
epid@@ 1660
Kos@@ 1660
Conservation 1660
wildlife 1660
eta 1660
Matt 1660
gent@@ 1660
obligation 1659
Tou@@ 1659
juice 1659
Eid 1659
saddened 1659
Ca@@ 1659
merch@@ 1658
surgical 1658
palm 1658
virtue 1658
Ashutosh 1658
Rand@@ 1658
beneath 1658
mens 1658
plies 1657
politically 1657
Atul 1657
privileged 1656
applies 1656
tend@@ 1656
bio-@@ 1656
mates 1656
magistrate 1656
sand@@ 1655
briefing 1655
proportion 1654
ment-@@ 1654
Vodafone 1654
Den@@ 1653
Harv@@ 1653
Rescue 1653
Taj 1653
diversi@@ 1652
vid@@ 1652
hospitality 1652
Ez@@ 1652
28.@@ 1651
Acad@@ 1651
avoided 1651
Cross 1650
Windows 1650
exploration 1650
traveling 1650
instruc@@ 1650
solidarity 1650
asha 1650
varieties 1649
unite 1649
curse 1649
Fore@@ 1648
partnerships 1648
clusters 1648
construct 1648
inconvenience 1648
adventure 1648
gearing 1648
bel 1647
gency 1647
Bid@@ 1647
Thanks 1647
VA 1646
drag@@ 1646
raises 1646
duce 1646
Abu 1646
umin@@ 1646
Saxena 1646
hoping 1646
meals 1645
Responding 1645
DST 1645
nam 1645
protested 1645
11@@ 1644
mild 1644
Net@@ 1644
frequent 1644
ov 1644
Arm@@ 1644
spin 1644
trigg@@ 1643
economically 1643
tops 1643
phot@@ 1643
noti@@ 1642
identifying 1642
Results 1642
perform@@ 1642
lovers 1642
overse@@ 1642
Allahs 1642
propor@@ 1641
assume 1641
inspiring 1641
drens 1641
27.@@ 1640
rage 1640
tified 1640
Capitals 1640
bears 1640
Maritime 1640
ustin 1640
coaching 1640
Hari 1640
Everybody 1640
persec@@ 1640
wicketkeeper 1640
appeals 1639
1990 1639
Hur@@ 1639
literacy 1638
banner 1638
worldly 1638
22.@@ 1637
undergo 1637
Ease 1637
mai@@ 1637
refuse 1637
shirt 1637
harmon@@ 1636
propag@@ 1636
aw 1636
Net 1635
posters 1635
nose 1635
Yeddyurappa 1635
operates 1634
capacities 1634
extends 1634
Digvijaya 1634
Judgment 1633
three-day 1633
Reforms 1632
Lin@@ 1632
cheaper 1632
Ind@@ 1632
keepers 1632
Hero 1632
lucky 1632
classification 1631
exporters 1631
deliberate 1631
ores 1631
Modern 1631
companions 1631
2010-11 1630
reck@@ 1630
Fair 1630
champions 1630
Jak@@ 1630
ignore 1630
walks 1630
Testing 1629
Bajwa 1629
FIRs 1629
paradise 1629
FM 1628
Jeevan 1628
cooper@@ 1628
Lee 1628
saffron 1628
Performance 1627
intensity 1627
House@@ 1627
Suc@@ 1627
Birth 1627
NSG 1627
Abhin@@ 1627
probed 1627
accommodation 1626
utilized 1626
deplo@@ 1626
SD 1626
windows 1626
other@@ 1626
kti 1626
evacuated 1626
Gurdaspur 1626
envisaged 1625
nest 1625
Records 1625
lok 1625
Loo@@ 1624
1991 1624
saf@@ 1624
CII 1624
thoroughly 1624
comeback 1624
Zafar 1624
Isaac 1624
prospects 1623
icient 1623
parks 1623
departure 1623
swearing-in 1623
KKR 1623
How@@ 1623
dur@@ 1622
revision 1621
ex 1621
longest 1621
nat@@ 1621
Journ@@ 1621
Heres 1621
Swamy 1621
Proc@@ 1620
marking 1620
and-@@ 1620
Agencies 1620
manpower 1620
Early 1620
overing 1620
fairly 1620
immune 1620
uda 1620
lens 1620
viously 1620
react 1620
NPS 1619
Part 1619
Sun 1619
elect 1619
Wat@@ 1619
apolog@@ 1619
emy 1619
Chandrachud 1619
denom@@ 1618
FS 1618
Full 1618
north-@@ 1618
Vice-@@ 1618
faith@@ 1618
RK 1618
Campaign 1617
repent 1617
Cannot 1617
tariff 1616
erring 1616
Nirbhaya 1616
charg@@ 1616
bureaucr@@ 1616
valu@@ 1615
lock@@ 1615
grid 1615
North-East 1615
anj@@ 1615
liar 1615
Find 1615
proofs 1614
Framework 1613
curren@@ 1613
ker@@ 1613
26.@@ 1613
25.@@ 1613
utilization 1612
Shane 1612
De 1612
Nationalist 1612
Range 1612
Tehsil 1612
Siddaramaiah 1612
examining 1611
NG 1611
sad@@ 1611
yn 1611
Sop@@ 1611
rena 1611
BSE 1610
Jyoti 1610
Lady 1610
FIFA 1610
immunity 1610
sustenance 1609
hall@@ 1609
acker 1609
encouragement 1609
ij@@ 1609
custom 1609
slowdown 1608
arances 1608
contin@@ 1608
query 1608
Prat@@ 1608
osity 1608
bacteria 1608
lity 1607
red@@ 1607
Dhaka 1607
uality 1607
jal 1607
ugg@@ 1606
deleg@@ 1606
tful 1606
Path 1606
comprised 1606
foreigners 1606
Karisma 1606
iri 1605
Offices 1604
surrender 1604
casualty 1604
Bills 1603
nationalism 1603
Shab@@ 1603
que@@ 1603
Visit 1603
Form 1602
expecting 1602
eye@@ 1602
geographical 1601
cadre 1601
cryst@@ 1601
typical 1601
boats 1601
Gand@@ 1601
rior 1601
Let@@ 1600
Indr@@ 1600
Exercise 1600
UNESCO 1600
devils 1600
ad-@@ 1600
coast@@ 1600
certification 1599
ducted 1599
plac@@ 1599
naturally 1599
fertilizers 1599
Villiers 1599
eagerly 1599
warner 1599
advances 1598
Expenditure 1598
measured 1597
bulk 1597
twin 1597
Menon 1597
hitting 1597
spinners 1597
graced 1597
Karthik 1597
Mahabhar@@ 1597
Chapter 1596
Sections 1596
TH 1596
subscri@@ 1596
inev@@ 1596
demonstrate 1596
Girls 1596
modified 1595
thermal 1595
discovery 1595
refund 1595
INX 1595
sounds 1595
PGI 1595
Garg 1594
Um@@ 1594
incl@@ 1594
ivers@@ 1594
haran 1594
ICU 1594
feat 1594
desper@@ 1593
Mam@@ 1593
Harry 1593
Gall@@ 1593
literally 1593
Stuart 1593
voices 1593
bhar 1592
trophy 1592
aith@@ 1592
remand 1592
edly 1591
clock 1591
loyalty 1591
lifetime 1591
reconc@@ 1590
a.@@ 1590
entials 1590
Amb@@ 1590
ject 1589
intensified 1589
Hab@@ 1589
anners 1589
dogs 1589
La 1589
isa 1589
ty-@@ 1588
kit 1588
tag 1588
cow@@ 1588
Bhat@@ 1588
screened 1588
kilometers 1587
smo@@ 1587
Bom@@ 1587
FI 1586
of-@@ 1586
Short 1586
450 1586
uti 1586
Something 1586
bond@@ 1586
distr@@ 1586
Barack 1586
objection 1586
vand@@ 1586
Ananya 1586
rati@@ 1585
1993 1585
Aad@@ 1585
dwelling 1585
view@@ 1585
handic@@ 1585
Muker@@ 1585
willed 1585
ident 1584
pursued 1584
Wasim 1584
Haj 1584
MT@@ 1583
Fs 1583
materi@@ 1583
peac@@ 1583
Berlin 1583
UA@@ 1582
IE@@ 1582
combine 1582
Kad@@ 1582
insects 1582
Rece@@ 1581
raj@@ 1581
ambi@@ 1580
abundance 1580
rao 1580
cum 1579
characteristics 1579
Ross 1579
stun@@ 1579
Criminal 1579
VS 1578
ached 1578
administr@@ 1578
Bun@@ 1577
108 1577
nant 1577
test@@ 1577
copper 1577
Haw@@ 1577
Nai@@ 1577
bitter 1577
ensing 1576
tight 1576
define 1576
paintings 1576
versions 1576
Sonu 1576
Sharing 1576
workshops 1575
luck 1575
Sabarimala 1575
anced 1574
thick 1574
North-@@ 1574
resigns 1574
chaeological 1574
Nanda 1574
Integr@@ 1573
turnover 1573
Liv@@ 1573
isance 1573
alid 1573
repeat 1573
presid@@ 1573
rated 1572
ific@@ 1572
multilateral 1572
forcing 1572
draws 1572
environ@@ 1572
investor 1571
exemp@@ 1571
reign 1571
Vladimir 1571
eu@@ 1571
Ok@@ 1571
Morcha 1571
ator@@ 1570
atoes 1570
bless 1570
tone 1569
Push@@ 1569
harb@@ 1569
breath 1569
tracking 1568
polic@@ 1568
SU@@ 1568
Nil@@ 1568
occas@@ 1568
Ludhiana 1568
Janm@@ 1568
surprising 1568
Gita 1568
JD@@ 1567
grou@@ 1567
treaty 1567
Course 1567
wit@@ 1567
mass@@ 1567
List@@ 1566
revive 1566
pack@@ 1566
Baz@@ 1566
HT@@ 1565
ults 1565
somewhat 1565
Chakraborty 1565
befitting 1565
Chandrayaan-2 1565
locality 1565
motive 1565
adopting 1564
Benefits 1564
commission@@ 1564
acks 1564
emen 1564
dan 1564
AIDS 1564
hole 1564
controlling 1563
theastern 1563
onau@@ 1562
pour 1562
silk 1562
memories 1562
mixture 1562
sheets 1561
dat@@ 1561
-1 1561
Pari@@ 1561
interactions 1561
Rain@@ 1561
sat 1561
Eden 1561
contents 1560
compulsory 1560
lesser 1560
planted 1560
reacted 1560
Gad@@ 1560
Nath@@ 1560
U. 1559
hay 1559
belt 1559
eping 1559
pher@@ 1559
stitu@@ 1558
Store 1558
Vigyan 1558
Stay 1558
install 1558
Cook 1558
shareholders 1557
Fit@@ 1557
stam@@ 1557
esp@@ 1557
VV@@ 1557
ASI 1557
neighbor@@ 1557
Shall 1557
Kochhar 1557
parable 1557
waiver 1556
blasts 1556
BBC 1556
pup@@ 1556
tissue 1556
Uni@@ 1555
reaffir@@ 1555
resid@@ 1555
pull 1555
deed 1555
enger 1555
Tra@@ 1555
clusion 1554
MP@@ 1554
tala 1554
negligence 1554
mic 1554
fulfillment 1554
Rawal 1554
gol@@ 1554
funeral 1554
vide 1553
incidence 1553
Angeles 1553
KS 1553
Sm@@ 1553
Some@@ 1553
Nuclear 1553
County 1553
saith 1553
allowance 1552
tit@@ 1552
wary 1552
Manu 1552
colleague 1552
requisite 1551
engaging 1551
Masters 1551
prevailed 1551
104 1551
Rhea 1551
Previous 1550
corpor@@ 1550
Analy@@ 1550
stag@@ 1550
CIL 1550
pink 1550
Hill 1550
Path@@ 1550
DR 1549
21-@@ 1549
T. 1549
earth@@ 1549
Suk@@ 1548
arch 1548
inger 1548
beach 1548
Adil 1548
ONGC 1548
Notification 1547
engers 1547
aqu@@ 1547
earthly 1547
searched 1547
bereaved 1547
humility 1547
--@@ 1547
Ill 1546
Bodies 1546
felicitations 1546
sleeping 1546
Ashwini 1546
oul 1546
ho 1546
amal@@ 1545
Import@@ 1545
lists 1545
awa@@ 1545
Prabhas 1545
present@@ 1544
speakers 1544
Karti 1544
beloved 1544
Haridwar 1544
hani 1544
bio@@ 1544
agg@@ 1543
ague 1543
Tower 1542
emi@@ 1542
Presidential 1542
organ@@ 1542
hostel 1542
dying 1542
stomach 1542
atia 1542
ifying 1541
ICT 1541
tural 1541
pipeline 1541
Field 1541
hana 1541
inducted 1540
1989 1540
Pap@@ 1540
similarly 1540
interfere 1540
fog 1540
fantastic 1540
Cont@@ 1539
Boards 1539
ood 1539
asy 1539
Hemant 1539
influential 1539
assic 1539
disbelief 1539
Loan 1538
12,@@ 1538
four@@ 1538
robo@@ 1538
lane 1538
zeal 1538
bench@@ 1537
choices 1537
juven@@ 1537
Konk@@ 1537
torate 1537
Tre@@ 1537
ayer 1537
gling 1537
Custom@@ 1536
Recovery 1536
inheritance 1536
precautions 1536
Histor@@ 1535
Fai@@ 1535
utor 1535
Tandon 1535
Radhika 1535
hasn 1535
controls 1534
insisted 1534
Mush@@ 1534
Learning 1533
Believers 1533
existed 1533
Shel@@ 1533
phr@@ 1533
indicators 1532
oti@@ 1532
Pon@@ 1532
deadly 1532
commerci@@ 1532
-long 1532
spectac@@ 1532
Marcus 1532
onwards 1531
Innov@@ 1531
osp@@ 1531
Prof.@@ 1531
anis 1531
obligations 1530
Identi@@ 1530
Lib@@ 1530
guards 1530
cows 1530
IMF 1529
Overseas 1529
utility 1529
Mysore 1529
embar@@ 1529
warrant 1529
opinions 1529
curriculum 1529
Awareness 1528
immensely 1528
Maharaja 1528
Trent 1528
Tabu 1528
Almighty 1528
decisive 1528
full-@@ 1527
particip@@ 1527
PCL 1527
rier 1527
cloth 1527
Christs 1527
Back@@ 1526
Think 1526
Genesis 1526
feas@@ 1525
preventing 1525
PCR 1525
Story 1525
settings 1525
grass 1525
Jahan 1525
puted 1524
Thir@@ 1524
set@@ 1524
11-@@ 1524
dial@@ 1524
Dab@@ 1524
mu 1524
ensed 1523
amidst 1523
chains 1523
differently 1523
reactions 1523
const@@ 1523
alore 1523
omi 1523
Invest@@ 1522
notable 1522
akshi 1522
Infosys 1522
finite 1522
butes 1522
Vijayan 1522
under-@@ 1521
extensively 1521
reless 1521
chal 1521
donated 1521
ornam@@ 1521
camp@@ 1521
Kunal 1521
instant 1520
hypocrites 1520
Certainly 1520
accounted 1519
coordinated 1519
pressing 1519
stro@@ 1519
separ@@ 1519
density 1519
Farm@@ 1518
eli 1518
Kabul 1518
disturbed 1518
Satans 1518
Neha 1518
bha 1518
centric 1517
offerings 1517
oming 1517
erous 1517
une 1517
ulations 1517
UIDAI 1517
NC 1517
textiles 1516
informal 1516
embarr@@ 1516
.nic@@ 1516
recited 1516
expedi@@ 1515
Us@@ 1515
exemplary 1515
rown 1515
exchanged 1515
Ris@@ 1514
Shor@@ 1514
Bac@@ 1514
secretaries 1514
Tari@@ 1514
Rome 1514
lunar 1514
excessive 1513
programm@@ 1513
writings 1513
patterns 1512
virtu@@ 1512
.in. 1512
oy 1512
profound 1512
Sawant 1512
Initially 1511
stic@@ 1511
MG 1510
140 1510
jah 1509
JEE 1509
contempt 1509
Van@@ 1509
yo 1509
Techn@@ 1508
fires 1508
T20Is 1508
distant 1508
Emp@@ 1507
confined 1507
edic@@ 1507
ossi@@ 1507
Subhas 1507
wrongdoers 1507
overnight 1506
Sudhir 1506
Pragya 1506
Bal 1506
tail 1505
fraternity 1505
refuses 1505
teeth 1505
Cru@@ 1505
IITs 1505
differ 1504
assed 1504
Writ@@ 1504
underlined 1504
Tourist 1504
unve@@ 1504
WE 1504
Diljit 1504
FA@@ 1503
Venkat@@ 1503
jump 1503
Akash 1503
metre 1503
immun@@ 1503
Pathan 1503
enacted 1502
Stan@@ 1502
cure 1502
defense 1502
Naresh 1502
Redmi 1502
Primary 1501
modes 1501
relate 1501
Pack@@ 1501
audiences 1501
rak@@ 1501
light@@ 1501
er. 1501
Sindh 1501
okay 1501
Dharam@@ 1501
Poonam 1501
gence 1500
num@@ 1500
assionate 1500
Melbourne 1500
Ol@@ 1500
tuary 1499
deepen 1499
weekend 1499
PoK 1499
thly 1498
economics 1498
evolved 1498
Diffe@@ 1498
some@@ 1498
Agn@@ 1498
aha 1498
5000 1498
Tim@@ 1497
onda 1497
Appe@@ 1497
condol@@ 1497
backing 1496
hip 1496
bidding 1496
Subramanian 1496
Arab@@ 1496
appropri@@ 1495
30,000 1495
Wales 1495
Swach@@ 1495
YSR 1495
formulated 1494
horiz@@ 1494
unusual 1494
must@@ 1494
Richard 1494
brown 1494
Bairstow 1494
5-megapixel 1494
tunnel 1494
stern 1494
Bin@@ 1494
insu@@ 1493
tox@@ 1493
assisted 1492
eclipse 1492
stre@@ 1492
grieve 1492
tall 1492
Ambala 1492
tlement 1491
Sign@@ 1491
EV@@ 1491
consuming 1491
fath@@ 1491
heroes 1491
4G 1491
pious 1491
hectare 1491
ade@@ 1490
prefer 1490
atri 1490
insult 1490
clay 1490
clud@@ 1489
BE 1489
Procedure 1489
Choksi 1489
leep 1489
compos@@ 1489
brotherhood 1489
ont 1489
ation. 1489
arent 1489
sustain 1488
Hem@@ 1488
AF@@ 1487
ect@@ 1487
Paper 1486
nominal 1486
Sap@@ 1486
defeating 1486
tel 1485
Pink 1485
offee 1485
erred 1484
Box 1484
duly 1483
Future 1483
irrespective 1483
Taxes 1483
considers 1483
Qualification 1483
Williams 1483
dri@@ 1483
Pramod 1483
achment 1483
Shreyas 1483
unda 1483
Clinton 1483
s- 1482
Lic@@ 1482
Bring 1482
bir@@ 1482
corporations 1481
observations 1481
750 1481
Resp@@ 1481
inviting 1481
Republican 1481
skir@@ 1481
vendors 1480
organiz@@ 1480
Exam@@ 1480
erings 1480
AIADMK 1480
derer 1480
Padmavati 1480
whomever 1480
linkages 1479
Rajas@@ 1479
Sita 1479
CPSEs 1479
imitate 1479
substantially 1478
follow@@ 1478
stances 1478
ordinance 1478
dge 1477
Sub 1477
mechan@@ 1477
formerly 1477
Sport 1477
Palestinian 1477
Bobby 1477
preci@@ 1476
coins 1476
granting 1476
Comb@@ 1476
sav@@ 1476
upl@@ 1476
loses 1476
strain 1476
rant 1475
itorious 1475
ppers 1475
Monsoon 1475
Hospitals 1475
Current 1474
DBT 1474
fellow@@ 1474
was@@ 1474
Ghaz@@ 1474
Sales 1473
rand@@ 1473
Meet 1473
spare 1473
Jabalpur 1473
Bod@@ 1473
obedience 1473
aller 1472
consult 1472
Fisheries 1472
custom@@ 1471
Property 1471
uous 1471
complicated 1471
Bath@@ 1471
Trains 1471
Dam 1471
Yas@@ 1471
Taiwan 1471
opathy 1471
untoward 1471
Economy 1470
tra-@@ 1470
Krishan 1470
Ajinkya 1470
time-@@ 1469
Ukraine 1469
mounted 1469
Malay@@ 1469
assembled 1469
Age 1469
rey 1469
dedicate 1468
Shanghai 1468
dhar@@ 1468
showcased 1468
affir@@ 1467
onomy 1467
aun 1467
suspicious 1467
penned 1467
policeman 1467
dim@@ 1467
commencement 1466
reviv@@ 1466
lays 1466
Ratan 1466
Respon@@ 1465
vaccination 1465
equation 1465
abundant 1465
occupation 1465
aly@@ 1465
exceed 1464
emission 1464
altern@@ 1464
p-@@ 1464
forensic 1464
pois@@ 1464
Zo@@ 1464
25,000 1463
g. 1463
zation 1463
acute 1463
helper 1463
Gs 1462
eman@@ 1462
Commissions 1462
academ@@ 1462
pairs 1462
CNG 1462
mic@@ 1462
Meg@@ 1462
anese 1462
stup@@ 1462
Status 1461
Mani 1461
Ephes@@ 1461
decree 1461
Advocate 1461
deleted 1461
aras 1461
BB@@ 1460
fixing 1460
deeper 1460
fierce 1460
trucks 1460
Khal@@ 1460
Internal 1459
Economics 1459
salaries 1459
1994 1459
ki@@ 1459
accountable 1459
Ray 1459
BMC 1459
Das@@ 1459
M.Venkaiah 1459
veter@@ 1459
fut@@ 1458
communicate 1458
transformed 1458
ella 1458
interference 1458
Charles 1458
southwest 1457
shr@@ 1457
commemorate 1457
Gop@@ 1457
complainant 1456
livestock 1456
struggling 1456
Ahuja 1456
Dikshit 1456
00,000 1455
DD 1455
aic 1455
investig@@ 1455
3D 1455
horri@@ 1455
country@@ 1455
objected 1455
plains 1455
Chawla 1455
impacted 1454
third-@@ 1454
26th 1454
six-@@ 1454
adha@@ 1454
Nana 1454
chand 1454
captains 1454
aik@@ 1454
tories 1453
dilig@@ 1453
memorandum 1453
warriors 1453
NHAI 1453
magn@@ 1453
condem@@ 1453
hails 1453
calcium 1453
obedient 1453
quantum 1452
Anna 1452
sis 1452
4GB 1452
introducing 1451
Improv@@ 1451
excep@@ 1451
Ow@@ 1451
seasons 1451
allo@@ 1451
hr 1451
ernity 1451
Rah@@ 1451
Geor@@ 1451
max@@ 1450
1956 1450
utili@@ 1450
acking 1450
wav@@ 1450
incumbent 1450
pop@@ 1450
ince 1450
bhadra 1450
contam@@ 1450
Truly 1450
flour@@ 1450
bey 1450
para 1449
Tran@@ 1449
accelerate 1449
legitimate 1449
organisms 1449
harm@@ 1449
Kanhaiya 1449
Mahi@@ 1449
mechanical 1449
cements 1448
13,@@ 1448
feder@@ 1448
Rup@@ 1448
hire 1448
Maybe 1448
Jayalalithaa 1448
Castes 1447
dial 1447
Until 1447
ambulance 1447
SDM 1447
Sanj@@ 1447
Dance 1447
idol 1447
augm@@ 1446
viable 1446
ured 1446
electronics 1446
Of@@ 1446
AW@@ 1446
sta 1446
king@@ 1446
Josh 1446
stroke 1446
commands 1446
proven 1445
loy@@ 1445
laun@@ 1445
cousin 1445
Coastal 1445
doctr@@ 1445
Broad 1445
deriv@@ 1444
calculated 1444
Kenya 1444
lifting 1444
crashed 1444
nurses 1444
lunch 1444
pur-@@ 1444
Bansal 1444
sional 1443
Miss 1443
India-China 1443
Philipp@@ 1443
Giriraj 1443
sacrificed 1443
supp@@ 1443
View 1443
drowned 1443
ogen@@ 1442
RR 1442
mation 1442
haul 1442
Meena 1442
accord 1442
rol 1442
64GB 1442
SCs 1441
Glo@@ 1441
gau@@ 1441
tedly 1441
voltage 1441
past@@ 1441
Scotland 1441
HAL 1441
opponents 1441
D-@@ 1440
Rit@@ 1440
Stations 1440
incredible 1440
Maha 1440
deter@@ 1439
arshan 1439
Rou@@ 1439
angal 1439
Thak@@ 1439
surplus 1438
thes@@ 1438
touching 1438
counter-@@ 1438
arity 1438
shell 1438
decre@@ 1438
much-@@ 1438
stabil@@ 1437
consu@@ 1437
tless 1437
telephon@@ 1437
gging 1437
Koh@@ 1437
PO 1436
circulated 1436
ulam 1436
shipping 1436
companion 1436
Marg 1436
assailants 1436
Failed 1436
taluk 1436
frequency 1435
A-@@ 1435
upgrade 1435
6,000 1435
attraction 1435
hes 1435
Wa@@ 1435
uk 1434
experim@@ 1434
Pos@@ 1433
garlic 1433
logy 1433
astar 1433
sty 1433
protocols 1432
15,000 1432
Governing 1432
misuse 1432
Chandrashe@@ 1432
icking 1432
separati@@ 1432
Province 1432
hars 1432
ressed 1431
eases 1431
watch@@ 1431
yar@@ 1431
Revolution 1431
smug@@ 1431
Manjrekar 1431
sentiment 1430
outreach 1430
plantation 1430
sim@@ 1430
vacation 1430
experiment 1430
Mata 1430
recur@@ 1429
applicants 1429
24th 1429
transform@@ 1429
preserved 1429
Exc@@ 1429
Regarding 1429
warnings 1429
clubs 1429
suspicion 1429
thorough 1429
outrage 1429
Sonali 1429
warns 1429
ador@@ 1429
Bibles 1429
Taj@@ 1429
residing 1428
ayers 1428
lamps 1428
males 1428
Denmark 1428
aren 1428
Pakh@@ 1428
NH-@@ 1428
left-@@ 1428
winder 1428
roadmap 1427
deliber@@ 1427
collectively 1427
Govind 1427
pered 1427
embrac@@ 1427
oh 1427
Krishi 1427
aki 1427
Sidd@@ 1427
Yash 1427
Pit@@ 1427
awa 1427
Fate@@ 1427
Tahir 1427
whichever 1426
or-@@ 1426
Travel 1426
lay@@ 1426
now@@ 1426
sewage 1426
brother@@ 1426
asth@@ 1426
Shim@@ 1426
sciences 1426
Situ@@ 1425
paramilitary 1425
improvements 1424
prise 1424
vary 1424
arriving 1424
acies 1424
Explan@@ 1424
pes 1424
wheel 1424
surfaced 1424
Hans@@ 1424
Cou@@ 1423
Cant@@ 1423
ero 1423
remembrance 1423
elevated 1422
adhe@@ 1422
safegu@@ 1422
ktop 1422
revolutionary 1422
grievous 1422
nervous 1422
Madhav 1422
shouted 1422
Richardson 1422
abil@@ 1421
Technologies 1421
Nigeria 1421
2-megapixel 1421
ovic 1421
ials 1420
Diplom@@ 1420
pillar 1420
mas 1420
diverted 1420
pros@@ 1420
pressu@@ 1419
utilised 1419
Workshop 1419
St 1419
Toyota 1419
Max 1419
cable 1419
aces 1419
indra 1419
justified 1419
believ@@ 1419
Lat@@ 1419
sinners 1419
advertisements 1418
consequence 1418
independ@@ 1418
applicant 1418
enthusi@@ 1418
Christianity 1418
Babri 1418
etings 1417
Nation@@ 1417
ordination 1417
factories 1417
plat@@ 1417
Flood 1417
Km 1417
Muzaffarnagar 1417
Funds 1416
Greece 1416
argue 1416
Saraswati 1416
Launched 1416
pat 1416
Lad@@ 1416
improves 1415
Universal 1415
Mallikarjun 1415
focus@@ 1414
Graduate 1414
ece 1414
employer 1414
Rog@@ 1414
Jeremiah 1414
Mari@@ 1414
Eupithecia 1414
Areas 1413
cid@@ 1413
illary 1413
nights 1413
Jagann@@ 1413
odiversity 1413
Unfortunately 1413
Exhibition 1413
enna 1413
Race 1412
Shivpal 1412
incre@@ 1411
Tul@@ 1411
edness 1411
RF 1410
appointing 1410
prop@@ 1410
http 1410
efs 1410
styles 1410
pit 1410
Dw@@ 1410
Paresh 1410
alous 1410
tative 1409
ou 1409
ionally 1409
awarde@@ 1409
Anantnag 1409
evolving 1408
tab 1408
omes 1408
designer 1408
Blood 1408
hid 1408
Surendra 1408
29.@@ 1407
inating 1407
shadow 1407
Parv@@ 1407
Census 1407
liberty 1407
agiri 1407
CSIR-@@ 1407
Pay@@ 1406
levied 1406
Chaturvedi 1406
flagged 1406
oves 1406
disasters 1406
Poland 1406
function@@ 1405
AY@@ 1405
cir@@ 1405
paired 1405
guns 1405
Merkel 1405
backdrop 1404
math 1404
benefitted 1404
ISA 1404
illegally 1404
humanitarian 1404
Estate 1403
Chet@@ 1403
desp@@ 1403
dang@@ 1402
Zimbabwe 1402
JK 1402
tants 1401
outlay 1401
mess@@ 1401
Zero 1401
halt 1401
restraint 1401
Wi-Fi 1401
India-Pakistan 1401
Place 1401
hiding 1401
execute 1400
navigation 1400
consumed 1400
Kag@@ 1400
ja@@ 1400
anic 1400
lat@@ 1400
impetus 1399
avenues 1399
urs 1399
pas@@ 1399
nas@@ 1399
sy 1399
polytheists 1399
compassionate 1399
recite 1399
Jyotiraditya 1399
sian 1399
propaganda 1399
Surve@@ 1398
scattered 1398
resemb@@ 1398
Godavari 1398
canal 1398
istry 1398
kars 1398
Gaurav 1398
guru 1398
BP 1397
legisl@@ 1397
treasure 1397
Sew@@ 1397
alistic 1397
Student 1397
H-@@ 1397
eshs 1397
Bus 1397
Attorney 1397
certified 1396
Recruitment 1396
respite 1396
implications 1395
secret@@ 1395
tee 1395
ethical 1394
regulator 1394
green@@ 1394
compound 1394
cigarett@@ 1394
alumin@@ 1394
aken 1394
Lalit 1394
riches 1394
obtaining 1393
30-@@ 1393
Feb 1393
ressing 1393
ester 1393
slogan 1393
consume 1393
guardian 1393
idolat@@ 1393
Unable 1393
fingerprint 1393
KVIC 1393
Scriptural 1393
SW@@ 1392
kruptcy 1392
cribe 1392
inging 1392
canc@@ 1392
ras@@ 1392
Sony 1392
stuff 1392
ainted 1392
iss@@ 1392
Ther@@ 1391
Amid 1391
cav@@ 1391
Gaz@@ 1391
Kashmiris 1391
ameter 1391
apati 1391
municipality 1391
chandra 1390
shoes 1390
heated 1390
washed 1390
Moeen 1390
Given 1389
1,4@@ 1389
erate 1389
counters 1389
proceeding 1389
Rash@@ 1389
hospit@@ 1389
Eve 1389
seri@@ 1389
steadfast 1388
Ajmer 1388
Cameron 1388
Yad@@ 1388
Fernandez 1388
fail@@ 1387
insight 1387
unlimited 1387
rush 1387
spared 1387
Shaheen 1387
pora 1387
descendants 1387
ceiling 1386
assing 1386
workforce 1386
leather 1386
aspora 1386
pi 1386
flock 1386
osa 1386
perfection 1386
teaches 1386
Kot@@ 1386
Athle@@ 1386
Vigilance 1385
ort 1385
grass@@ 1385
ldn 1385
Senate 1385
ingredi@@ 1384
pot 1384
Ek 1384
Drug 1384
Champ@@ 1384
esar 1384
dios 1384
stamp 1383
incid@@ 1383
cum-@@ 1383
resign@@ 1383
NL@@ 1383
Laun@@ 1383
Mukhtar 1383
dal 1383
seal 1383
mission@@ 1383
Quar@@ 1382
thered 1382
chart 1382
osh 1382
Badminton 1382
poets 1382
Delhi@@ 1382
BD 1381
partmental 1381
oll 1381
appointments 1381
Maneka 1381
Polic@@ 1380
switch 1380
survival 1380
tire 1380
ferv@@ 1380
queen 1380
directorial 1380
aph@@ 1380
bert 1379
spaces 1379
Hop@@ 1379
pack 1379
peacefully 1379
texts 1379
NREGA 1378
distor@@ 1378
Protocol 1378
iva 1378
Said 1378
deal@@ 1377
ATION 1377
Dec 1377
Kaul 1377
orbit 1377
Noble 1377
muscle 1377
Mob@@ 1376
accepts 1376
28th 1376
VE@@ 1376
territorial 1376
blood@@ 1376
comply 1375
proposes 1375
net@@ 1375
idi@@ 1375
Experts 1375
L. 1375
Bhattacharya 1375
meg@@ 1375
Night 1375
get@@ 1375
Divisional 1375
Ramayana 1375
Divine 1375
Leave 1374
operator 1374
clam@@ 1374
nit@@ 1374
Agar@@ 1373
guiding 1373
Lank@@ 1373
mathematics 1373
Hina 1373
prep@@ 1372
GST@@ 1372
desirable 1372
val 1372
gov@@ 1372
round@@ 1372
Chowdhury 1372
eda 1372
Dialogue 1372
acles 1372
Australi@@ 1372
mosques 1372
Sale 1371
harvesting 1371
eller 1371
zabad 1371
alog@@ 1371
qi 1371
scriptures 1371
Weather 1371
enhancement 1370
uplo@@ 1370
Kharif 1370
Ec@@ 1370
Vaish@@ 1370
Nawab 1370
Text 1370
Sheh@@ 1370
Notice 1369
alternate 1369
Late 1369
Bhan@@ 1369
BMW 1369
championship 1369
ITBP 1369
stipulated 1368
adversely 1368
YO@@ 1368
Start@@ 1368
Nov 1368
ott@@ 1368
southeast 1368
Lou@@ 1368
candid@@ 1367
esy 1367
offensive 1367
aa 1367
osh@@ 1367
Core 1366
cease 1366
illy 1366
tionable 1366
Raghu@@ 1366
Ira@@ 1366
seem@@ 1366
shine 1366
Kand@@ 1366
Kem@@ 1366
tribals 1366
F-@@ 1365
unlikely 1365
Gra@@ 1365
pled 1365
grows 1365
drops 1365
Celebr@@ 1365
Sus@@ 1365
lessness 1365
troller 1364
Chall@@ 1364
rubber 1364
dges 1364
binding 1364
disability 1364
Pharmaceu@@ 1364
richest 1364
Taapsee 1364
whats 1364
formulation 1363
hibition 1363
metro@@ 1363
colum@@ 1363
Kashi 1363
trafficking 1363
admonition 1363
Capt 1363
los 1363
Basu 1363
colli@@ 1363
His@@ 1363
Soren 1363
viz@@ 1362
distingu@@ 1362
usal 1362
exploitation 1362
knife 1362
essly 1362
liti@@ 1361
Tax@@ 1361
Acting 1361
drives 1361
garments 1361
erti@@ 1361
2025 1361
shut@@ 1361
Joshua 1361
Living 1361
rus 1361
luxury 1361
quint@@ 1361
Treas@@ 1360
SL@@ 1360
ensation 1360
erial 1360
-related 1360
pen 1360
ITC 1360
pump 1360
Boney 1360
tolerated 1360
tiger 1360
Brother 1360
Agr@@ 1359
readers 1359
wheels 1359
miscreants 1359
1,5@@ 1358
Men@@ 1358
Dor@@ 1358
Happ@@ 1358
sharply 1357
Ut@@ 1357
Access 1357
streaming 1357
Aff@@ 1357
32GB 1357
mita 1357
ashamed 1357
Ye@@ 1357
parag@@ 1356
penetr@@ 1356
e-based 1356
unfair 1356
free@@ 1356
mers 1356
icity 1355
Stri@@ 1355
conflicts 1355
constructive 1355
hao 1355
Aziz 1355
ekar 1355
ooth 1355
Dosanjh 1355
Acqu@@ 1354
Source 1354
isations 1354
dio 1354
Teams 1354
Govern@@ 1354
equals 1354
tum@@ 1354
aggression 1354
bacter@@ 1354
ball@@ 1354
Try 1354
pricing 1353
pursuit 1353
Much 1353
128GB 1353
mar 1353
aci@@ 1353
Recogn@@ 1352
consist 1352
sustainability 1352
IG 1352
counts 1352
jumped 1352
Brahmastra 1352
NABARD 1351
Vadodara 1351
tang@@ 1351
1988 1351
ninth 1351
kitchen 1351
warm@@ 1351
DY 1351
aerial 1351
indigen@@ 1350
DO 1350
rough 1350
bare@@ 1350
founding 1350
Legislature 1350
nursing 1350
Oberoi 1350
altitude 1350
Pathankot 1350
conceal 1350
moc@@ 1350
Supply 1349
collecting 1349
governmental 1349
defending 1349
Giving 1349
Violence 1349
atis@@ 1348
CEOs 1348
ageous 1348
Lewis 1348
Vihar 1348
Abe 1348
Kutch 1348
nap@@ 1348
exempted 1347
Nodal 1347
signature 1347
approaching 1347
radiation 1347
superintendent 1347
lain 1347
tack@@ 1347
Chal@@ 1347
dish@@ 1347
Mongol@@ 1347
client 1346
Peri@@ 1346
steadily 1346
Fle@@ 1346
taxation 1346
ION 1346
lingu@@ 1346
iso 1346
deities 1346
gotten 1346
gia 1346
CN@@ 1345
pensioners 1345
asing 1345
anonym@@ 1345
mAh 1345
thers 1345
Messiah 1345
negl@@ 1345
anki 1345
goodness 1345
unconstitutional 1345
essor 1344
automobile 1344
recre@@ 1344
prevail 1344
lu 1344
Fal@@ 1344
depos@@ 1343
22nd 1343
UI 1343
Mir 1343
wholly 1342
partly 1342
convenience 1342
hardware 1342
tanks 1342
unaware 1342
myth@@ 1342
Hasina 1342
Sudan 1342
Beli@@ 1342
ancest@@ 1342
ayana 1342
successive 1341
foster 1341
Speech 1341
ariya 1341
icy@@ 1341
dual-@@ 1341
Manchester 1341
Exper@@ 1340
burst 1340
Roo@@ 1340
Satya 1340
medallist 1340
Kota 1340
ications 1340
consult@@ 1339
G. 1339
Conclave 1339
Shan@@ 1339
respiratory 1339
cancellation 1338
recomm@@ 1338
cribing 1338
Hot@@ 1338
Luc@@ 1338
Chatterjee 1338
Syrian 1338
rejo@@ 1338
ington 1338
arn@@ 1338
U-@@ 1337
gm 1337
Stor@@ 1337
70@@ 1337
nak@@ 1337
immigrants 1337
Benef@@ 1336
striking 1336
autopsy 1336
onboard 1335
Bachel@@ 1335
Elec@@ 1335
assaulted 1335
store@@ 1335
UNI 1335
archit@@ 1335
Warning 1334
enjoyment 1334
siblings 1334
isher 1334
takings 1333
inars 1333
centi@@ 1333
Eng@@ 1333
narrated 1333
world-@@ 1333
ende@@ 1333
jam 1333
sex@@ 1333
SAD 1333
Aware 1333
erstwhile 1332
considerably 1332
Cycl@@ 1332
eco-@@ 1332
bean 1332
finest 1332
Pannu 1332
bra@@ 1332
1971 1332
1984 1332
baptism 1332
isition 1331
preference 1331
Deliver@@ 1331
disciplines 1331
triumph 1331
Lakshadweep 1331
1962 1331
organ 1331
Jalandhar 1331
tower 1331
Sanon 1331
upright 1331
itis@@ 1330
computing 1330
remedi@@ 1330
landscape 1330
i.@@ 1330
disposed 1330
Drugs 1330
Narasim@@ 1330
turb@@ 1330
deliberately 1330
hale 1330
sang 1330
evil@@ 1330
entries 1329
Point 1329
temporarily 1329
Narayan@@ 1329
caution 1329
CBDT 1329
Swam@@ 1329
Sonowal 1329
Democracy 1329
naught 1329
Mud@@ 1328
orable 1328
need@@ 1328
Tap@@ 1328
Lov@@ 1328
impression 1328
SM 1327
pel 1327
29th 1327
references 1327
adorable 1327
Ahmed@@ 1327
unseen 1327
physics 1327
foodgrains 1326
Lead@@ 1326
configuration 1326
Paytm 1326
am-@@ 1326
helmed 1326
preceding 1325
cum@@ 1325
ferences 1325
real-@@ 1325
resumed 1325
mills 1325
donation 1325
verified 1325
advisor 1325
TM 1325
expresses 1325
chairs 1325
north@@ 1325
Surya 1325
READ 1325
evidences 1324
check@@ 1324
Sach@@ 1324
glo@@ 1324
Expressway 1324
queues 1324
God. 1324
nick@@ 1324
perce@@ 1324
com 1324
Doll@@ 1323
biom@@ 1323
overwhelming 1323
asan 1323
magazines 1323
Jonny 1323
ghat 1323
Batt@@ 1323
webinar 1323
subsidi@@ 1322
dispat@@ 1322
sugarcane 1322
unlike 1322
outfits 1322
intelligent 1322
Jack 1322
Forests 1322
deteriorated 1321
198@@ 1321
112 1321
calamity 1321
cs 1321
biological 1321
kidney 1321
Mela 1321
outlets 1320
Deleg@@ 1320
raping 1320
lease 1319
Value 1319
RT 1319
23rd 1319
door@@ 1319
Visa 1319
shameful 1319
breath@@ 1319
f. 1318
circul@@ 1318
liqu@@ 1318
cater 1318
enrol@@ 1318
Telec@@ 1318
decent 1318
andan 1318
Theyre 1318
ASH@@ 1318
Weve 1318
AICC 1318
Stone 1318
Apostle 1318
dynam@@ 1317
ume 1317
textile 1317
essence 1317
Ramdev 1317
Arms 1317
Winter 1317
ity. 1317
likewise 1317
Amir 1317
imperative 1316
Posts 1316
mountain@@ 1316
throw@@ 1316
Marg@@ 1315
Countries 1315
judg@@ 1315
stem 1315
distinc@@ 1315
BJD 1315
Xiaomi 1315
master@@ 1315
sement 1314
https 1314
Saheb 1314
Wrest@@ 1314
mantra 1314
anya 1314
Manik@@ 1314
indication 1313
doubled 1313
memb@@ 1313
Cz@@ 1313
talaq 1313
issuance 1312
iciently 1312
Follow 1312
worth@@ 1312
enly 1312
validity 1312
Himself 1312
Cau@@ 1312
digit@@ 1311
opt 1311
him. 1311
Bethel 1311
inception 1310
fier 1310
co-operation 1310
specify 1310
hoomi 1310
inmates 1310
cholesterol 1310
Jubilee 1309
SIM 1309
recommend 1309
pre 1309
Chandrasek@@ 1309
arbitr@@ 1309
marginal 1308
magnitude 1308
ailers 1308
cc@@ 1308
Russell 1308
divor@@ 1308
alion 1308
praying 1308
regulated 1307
arises 1307
15-@@ 1307
tiya 1307
horses 1307
Otherwise 1307
ATS 1307
coconut 1307
veer 1307
39@@ 1306
prohib@@ 1306
switched 1306
chro@@ 1306
PM-@@ 1306
gras@@ 1306
Arun@@ 1306
Faz@@ 1306
ower 1305
Software 1305
GE 1305
adh@@ 1305
Kotak 1305
PMC 1305
velocity 1305
connects 1305
afterwards 1305
sedition 1305
bombs 1305
Dutch 1305
litres 1305
tices 1304
CS 1304
fu@@ 1304
Swiss 1304
mathem@@ 1304
ict 1304
tolerate 1304
Player 1304
Lun@@ 1304
erec@@ 1304
resentment 1304
Dra@@ 1303
accomplish 1303
organize 1303
Nain@@ 1302
workplace 1302
pronoun@@ 1302
Emirates 1302
ethanol 1302
lion@@ 1302
Hay@@ 1302
mila 1302
rom@@ 1302
opher 1302
Chicago 1302
remanded 1302
Cash 1301
uments 1301
Chair 1301
Four@@ 1301
renewed 1301
IST 1301
speculation 1301
Udaipur 1301
prejudi@@ 1301
authors 1301
guy 1301
emor@@ 1301
Vid@@ 1301
captaincy 1301
Balakot 1301
CF@@ 1300
prone 1300
URL 1300
IOC 1300
tips 1300
Shaikh 1300
ackers 1300
Back 1299
essi@@ 1299
Neel@@ 1299
eager 1299
gues 1299
Shu@@ 1299
Lords 1299
interactive 1298
insi@@ 1298
clusive 1298
thin 1298
PPAC 1298
Say@@ 1298
meric 1298
eme 1298
Jinnah 1298
Irrigation 1298
axis 1298
22@@ 1297
Corp 1297
tonne 1297
jar@@ 1297
Trumps 1297
EVM 1297
Holder 1297
Cul@@ 1297
ricksha@@ 1297
Kaz@@ 1297
ulating 1296
Cyber 1296
cus@@ 1296
etric 1296
ference 1296
attained 1296
sizes 1296
Mandal 1296
scholarship 1295
rewarded 1295
privileges 1295
Days 1295
Shik@@ 1295
missionary 1295
Jenn@@ 1295
Tro@@ 1295
civilization 1295
iser 1295
Riteish 1295
Cost 1294
PSU 1294
NE 1294
Columb@@ 1294
Vasundhara 1294
Related 1293
barriers 1293
anted 1293
start@@ 1293
Amarnath 1293
saints 1293
iest 1293
lawmakers 1293
-in-law 1293
erupted 1293
directory 1293
2009-@@ 1292
Bot@@ 1292
Estimates 1292
alam 1292
chemistry 1292
sel 1292
1950 1292
ignorance 1292
CMs 1292
ABS 1292
Marsh 1292
commitments 1291
draw@@ 1291
acknowled@@ 1291
pesti@@ 1291
tournaments 1291
Edition 1291
Phase-@@ 1290
enmity 1290
restaurant 1290
Chow@@ 1290
sle 1289
cataly@@ 1289
nish 1289
Terror@@ 1289
Defense 1289
ayi 1289
Kapo@@ 1289
resi@@ 1288
spi@@ 1288
archi@@ 1288
directing 1288
itys 1288
Braz@@ 1288
akash 1288
motorcycles 1288
Kid@@ 1288
Nutri@@ 1288
Consid@@ 1287
reviewing 1287
employers 1287
oz@@ 1287
Raveesh 1287
right-@@ 1287
Apply 1287
destroying 1287
upgraded 1286
mption 1286
Promo@@ 1286
atical 1286
EA 1286
Ranji 1286
oma 1286
son@@ 1286
rituals 1286
monuments 1286
PR 1285
Declaration 1285
Tob@@ 1285
Portugal 1285
cel 1285
Finland 1285
sinful 1285
poon 1285
dawn 1285
shouldnt 1285
Guarantee 1284
disabilities 1284
000@@ 1284
arajan 1284
warming 1284
bore 1284
Likewise 1284
ometer 1284
ICAR 1284
womans 1284
Sakshi 1284
idity 1283
AA 1283
SI 1283
beneficiary 1283
Kathmandu 1283
gesture 1283
garbage 1283
teries 1283
Relig@@ 1283
Heg@@ 1283
Balochistan 1283
Sahar@@ 1283
disorder 1283
apu@@ 1283
troubled 1283
edy 1283
bott@@ 1282
Relation@@ 1282
convenient 1282
correctly 1282
stitute 1282
Goswami 1282
Arth@@ 1282
leys 1282
Karun@@ 1282
J.@@ 1282
declining 1281
gear 1281
embassy 1281
Himalayas 1281
semi-final 1281
ste 1281
washing 1281
psychological 1281
availed 1280
uti@@ 1280
dramatic 1280
sanctuary 1280
Lyon 1280
weal@@ 1280
commodity 1279
cate 1279
barrier 1279
resurrected 1279
IIS@@ 1279
provinces 1279
phenomenon 1278
intervene 1278
helpline 1278
zo 1278
Baghel 1278
hero@@ 1278
bamboo 1278
MB 1277
rix 1277
tt 1277
Cold 1277
End 1277
ean 1277
rebellion 1277
Portuguese 1277
pering 1277
DCP 1277
unacceptable 1277
Irfan 1277
jur@@ 1277
Capacity 1276
ologies 1276
pref@@ 1276
imm@@ 1276
separation 1276
disk 1276
deaf 1276
radical 1276
engue 1276
1980 1275
MCG 1275
NO 1275
Wildlife 1275
egg 1275
Israel@@ 1275
alum@@ 1275
Rajouri 1275
Mahmood 1275
Neil 1275
edic 1275
Panipat 1275
victorious 1275
Haq 1275
prompt 1274
wind@@ 1274
dimensions 1274
expedite 1274
Years 1274
avat 1274
Hema 1274
Saur@@ 1274
Varma 1274
pand@@ 1273
collaborative 1273
mat 1273
Cr 1273
Austri@@ 1273
ospace 1273
declaring 1272
MEA 1272
Create 1272
goddess 1272
curfew 1272
redressal 1271
CT@@ 1271
Unlike 1271
Archi@@ 1271
striving 1271
Coimbatore 1271
loose 1271
finger 1271
deserved 1271
IndiGo 1271
Digvijay 1271
ather 1270
arrogant 1270
atories 1270
Kon@@ 1270
northwest 1270
Victoria 1270
eans 1270
remind 1270
Mouni 1270
shire 1270
movable 1269
partially 1269
cau@@ 1269
stak@@ 1269
atrocities 1269
chin 1269
Crown 1269
Coo@@ 1269
atile 1268
hibit 1268
Mega 1268
oods 1268
odd 1268
assessed 1267
forec@@ 1267
RB 1267
necessity 1267
Day@@ 1267
Adarsh 1267
odi 1267
adm@@ 1267
Healthcare 1267
crushed 1267
ck 1266
isha@@ 1266
ova 1266
yers 1266
Shopian 1266
ro-@@ 1265
convergence 1265
concepts 1265
Iron 1265
manirbhar 1265
preservation 1265
commendable 1265
Psy@@ 1265
listened 1265
cop 1265
foretold 1265
lun@@ 1265
Ala@@ 1265
Usman 1265
Benjamin 1265
Mercy 1265
individ@@ 1264
compens@@ 1264
et-@@ 1264
strengths 1264
Poonch 1264
sia 1264
Stephen 1264
restruc@@ 1263
clarity 1263
Ports 1263
neys 1263
Season 1263
ria 1263
Shivakumar 1263
Fear 1263
fundam@@ 1262
MoUs 1262
moun@@ 1262
ograph@@ 1262
Dus@@ 1262
Fernand@@ 1262
stir 1262
pics 1262
dioxide 1262
fortunately 1262
Bhojpuri 1262
coupled 1261
WTO 1261
energ@@ 1261
Need 1261
Kazakhstan 1261
complimented 1261
w.e.@@ 1260
specifications 1260
traditionally 1260
fuels 1260
time@@ 1260
eval 1260
flags 1260
self-reliant 1260
confused 1260
politi@@ 1260
Sign 1260
iliation 1259
sovereign 1259
damages 1259
odaya 1259
safer 1259
Guntur 1259
roc@@ 1259
stani 1259
favor@@ 1259
organs 1259
decis@@ 1258
expects 1258
mini 1258
Almost 1258
ghar 1258
zen 1258
ilian 1258
minded 1258
companys 1258
Cinema 1258
Zonal 1257
contributes 1257
tiveness 1257
CE 1257
1961 1257
stitutes 1257
irregularities 1257
Norway 1257
narrative 1257
packed 1257
yar 1257
neighbour 1257
Sas@@ 1257
hata 1257
helpl@@ 1257
Laws 1256
publicity 1256
enjoys 1256
Stre@@ 1256
Oct 1256
tioners 1256
Constable 1256
Nine 1256
adjust@@ 1255
chequ@@ 1255
1,6@@ 1255
Sovere@@ 1255
hies 1255
plications 1255
fiel@@ 1255
teamm@@ 1255
elite 1255
Shaw 1254
Vande 1254
diagnosis 1254
ias 1254
1,7@@ 1253
smoo@@ 1253
functionaries 1253
sym@@ 1253
urea 1253
Frank@@ 1253
ginger 1253
Marriage 1253
Antony 1253
Bluetooth 1253
102 1252
Population 1252
altogether 1252
wre@@ 1252
eet 1252
Uma 1252
indicating 1251
uals 1251
junction 1251
FP 1251
Disp@@ 1251
Using 1251
bases 1251
elev@@ 1251
raid 1251
democr@@ 1251
gene 1251
uation 1250
continuation 1250
earch@@ 1250
maternal 1250
1986 1250
tranqu@@ 1250
riy@@ 1250
anymore 1250
terri@@ 1250
hang 1249
restaurants 1249
MR 1249
eri@@ 1249
Phys@@ 1249
ruin 1249
Sessions 1249
Retur@@ 1248
LS 1248
Artificial 1248
wart 1248
birth@@ 1248
Hai 1248
Pathak 1248
1914 1248
1,9@@ 1247
Heads 1247
Sexual 1247
practic@@ 1247
sparked 1247
Sood 1247
Radhakrishnan 1247
idential 1246
eliminated 1246
BA@@ 1246
advertisement 1246
overwhel@@ 1246
orial 1246
Interior 1246
disc 1246
Announ@@ 1245
OP@@ 1245
holid@@ 1245
idence 1245
Pas@@ 1245
renamed 1245
whomsoever 1245
Saha 1245
issu@@ 1244
Ind 1244
array 1244
ulty 1244
swift 1244
motivate 1244
kne@@ 1244
pret@@ 1244
empowering 1243
titude 1243
iOS 1243
Questions 1243
blo@@ 1243
bag@@ 1243
offic@@ 1243
achi 1243
floral 1243
Hydro@@ 1243
bedded 1242
sensors 1242
bans 1242
Mujahideen 1242
ordained 1242
prostrate 1242
angel@@ 1242
ATMs 1241
auctions 1241
ellate 1241
internationally 1241
generous 1241
Wik@@ 1241
doubtedly 1241
traits 1241
kha@@ 1241
gur@@ 1241
ests 1240
vigil@@ 1240
remun@@ 1240
reti@@ 1240
chan@@ 1240
175 1240
forty 1240
inous 1240
Wis@@ 1240
marty@@ 1240
remarked 1240
hua 1240
Bhut@@ 1240
Print 1240
Centr@@ 1239
tained 1239
casts 1239
gov.in 1239
Strateg@@ 1238
feren@@ 1238
fabric 1238
FCI 1238
unci@@ 1238
Franc@@ 1238
ayam@@ 1238
olate 1238
pep@@ 1238
Meth@@ 1237
advise 1237
gaining 1237
sortium 1237
idable 1237
Commenting 1237
alties 1236
note@@ 1236
greg@@ 1236
instituted 1236
oner 1236
diamond 1236
py@@ 1236
harsh 1236
Srin@@ 1236
counterparts 1236
every@@ 1236
gov.in. 1236
riers 1236
baz 1236
KM 1236
Gross 1235
asw@@ 1235
refresh@@ 1235
Vide@@ 1235
Twent@@ 1235
Gates 1235
Little 1235
exhorted 1235
metric 1234
instal@@ 1234
equitable 1234
visas 1234
170 1234
stays 1234
hiked 1234
dul@@ 1234
JeM 1234
ius 1234
Ceremony 1234
lifel@@ 1234
14,@@ 1233
Corpor@@ 1233
34@@ 1233
nes 1233
cancel 1233
Laksh@@ 1233
networking 1233
phe@@ 1233
jay 1233
Indus 1233
lovely 1233
; 1232
Assessment 1232
uro 1232
LIC 1232
protective 1232
fing@@ 1232
crimin@@ 1232
Upper 1232
Arjuna 1232
Jit@@ 1232
mort@@ 1231
Achiev@@ 1231
frontline 1231
iver@@ 1231
fortunate 1231
Rampal 1231
Cong 1231
effectiveness 1230
Dat@@ 1230
gaz@@ 1230
enrolled 1230
Confederation 1230
Biotechnology 1230
lemen 1230
JMM 1230
CAG 1229
Bahrain 1229
focuses 1229
node 1229
TCS 1229
liter@@ 1229
Soni 1229
killings 1229
itement 1229
Haj@@ 1229
viewers 1229
grat@@ 1228
64@@ 1228
exec@@ 1228
eric@@ 1228
myst@@ 1228
Cyclone 1228
mom 1228
udu 1228
Rohing@@ 1228
patent 1228
Bop@@ 1228
normal@@ 1227
CH 1227
ity@@ 1227
convened 1227
Between 1227
barred 1227
incorrect 1227
enz@@ 1227
dres@@ 1227
Vitamin 1227
good@@ 1227
wk 1227
Mughal 1227
icate 1227
Ga@@ 1226
forged 1226
atar 1226
awada 1226
Netanyahu 1226
alising 1225
Product 1225
unanimously 1225
Fif@@ 1225
fruitful 1225
etal 1225
askar 1225
run-@@ 1225
Alwar 1225
bash 1225
collector 1225
Woe 1225
ent-@@ 1224
goodwill 1224
CM@@ 1224
boosting 1224
denying 1224
turne@@ 1224
Sundar 1224
Chaudhry 1224
Bak@@ 1224
Environmental 1223
tu 1223
insec@@ 1223
Flo@@ 1222
ET@@ 1222
oted 1222
praises 1222
thine 1222
sincerely 1222
hungry 1222
laugh 1222
stream@@ 1221
Institution 1221
infant 1221
Alexander 1221
dynasty 1221
pig@@ 1221
dense 1221
magnificent 1221
Tejas 1221
Kotw@@ 1221
better@@ 1220
27th 1220
capped 1220
BY 1220
Merced@@ 1220
editor@@ 1220
wicket-keeper 1220
cruise 1220
thal 1220
Jaff@@ 1220
itative 1219
envisages 1219
resorted 1219
chamber 1219
'an 1219
ucle@@ 1219
refu@@ 1219
NSS 1219
subur@@ 1219
abled 1218
affili@@ 1218
payee 1218
Seeing 1218
stein 1218
underlying 1217
Advance 1217
CMD 1217
cad@@ 1217
Lord. 1217
F-16 1217
procession 1217
intends 1216
Channel 1216
intentions 1216
lav@@ 1216
will@@ 1216
ansh 1216
throat 1216
Upadhyay 1216
inclined 1216
corrup@@ 1216
documentary 1215
big@@ 1215
650 1215
unnecessary 1215
Satellite 1215
mani 1215
B.C.E. 1215
Khawaja 1215
Sut@@ 1215
Maryam 1215
Wood 1215
nings 1214
neutr@@ 1214
fertilizer 1214
I. 1214
incomplete 1214
solving 1214
pin 1214
Put 1214
Maximum 1214
anal@@ 1214
arose 1214
CCI 1214
fielding 1214
Saurabh 1214
Malini 1214
Pent@@ 1214
GPS 1214
beauti@@ 1214
Khe@@ 1214
mandated 1213
erations 1213
organise 1213
menu 1213
inaugurating 1213
underground 1213
NGO 1213
widow 1213
cadets 1213
grandson 1213
reat 1212
boyfriend 1212
Job@@ 1212
Tushar 1212
decorated 1212
GE@@ 1211
errors 1211
eously 1211
enrich@@ 1211
Bhatia 1211
inherit 1211
topped 1211
legally 1210
40,000 1210
Challenge 1210
summons 1210
Vallabhbhai 1210
hali 1210
excluding 1209
Cards 1209
Secret@@ 1209
iors 1209
ution@@ 1209
spell 1209
Nab@@ 1209
grandfather 1209
gorgeous 1209
petitioners 1209
1948 1209
conducts 1208
offline 1208
viv@@ 1208
Grant 1208
Raman@@ 1208
empire 1208
Must@@ 1208
epic 1208
ores@@ 1207
allow@@ 1207
ommunications 1207
traced 1207
drome 1207
Sajid 1207
Filmmaker 1207
imagination 1207
bikes 1207
-in 1206
Prob@@ 1206
HP 1206
seize 1206
Mukul 1206
Tej@@ 1206
rocket 1206
survivor 1206
Politics 1206
semi-@@ 1205
traction 1205
Record 1205
jour@@ 1205
subj@@ 1205
snap@@ 1205
Biden 1205
wrestler 1205
yu 1205
Soor@@ 1205
Spokesperson 1205
vegetable 1204
ellow 1204
Degree 1204
travellers 1204
uta 1204
tabled 1204
CISF 1204
Waqf 1204
invented 1204
state-run 1204
scrutiny 1203
Disabilities 1203
sil 1203
Tamil@@ 1203
ananda 1203
Uzbekistan 1203
Mosque 1203
excluded 1202
gated 1202
Factory 1202
chec@@ 1202
Reserv@@ 1202
culmin@@ 1202
loads 1202
Six@@ 1202
accid@@ 1202
warfare 1202
manip@@ 1202
landslides 1202
Sky 1202
Khalid 1202
elabor@@ 1202
acharya 1202
acknowledge 1201
clave 1201
enth 1201
Chemical 1201
ayak 1201
imperfect 1201
puram 1201
possessed 1201
expres@@ 1201
PN@@ 1201
LJP 1201
alry 1201
fleet 1201
dishon@@ 1201
limitations 1200
unle@@ 1200
hasten 1200
Ranjit 1200
trou@@ 1200
Brun@@ 1200
lips 1200
scalped 1200
gonna 1200
harder 1200
dissem@@ 1199
dimin@@ 1199
pushing 1199
medicinal 1199
Daman 1199
pleas 1199
Mira 1199
somehow 1199
Consu@@ 1198
immigration 1198
Clearly 1198
insur@@ 1198
suburban 1198
302 1198
smile 1198
gren@@ 1198
paste 1198
Certi@@ 1197
etting 1197
clarify 1197
exalted 1197
ego 1197
\ 1197
Teacher 1197
liable 1196
ghtened 1196
Stop 1196
locally 1196
Laboratory 1196
discover 1196
Imam 1196
RM 1195
responses 1195
listing 1195
fulfil@@ 1195
solem@@ 1195
anguish 1195
eti 1195
rhy@@ 1195
tia 1195
unhappy 1195
twithstanding 1194
ateway 1194
tice 1194
rup@@ 1194
umping 1194
disciple 1194
argu@@ 1194
subsi@@ 1193
defaul@@ 1193
herent 1193
admon@@ 1193
nov@@ 1193
Hind 1193
redly 1193
Ashraf 1193
Benefit 1192
grati@@ 1192
revoked 1192
Colleges 1192
Gabri@@ 1192
Tat@@ 1192
chromos@@ 1192
theism 1192
digit 1191
concluding 1191
fast-@@ 1191
servic@@ 1191
Permanent 1191
attempting 1191
fatalities 1191
anner 1191
Wid@@ 1191
Boult 1191
headlines 1191
NSE 1190
elevation 1190
Flight 1190
dissemination 1189
earmarked 1189
Books 1189
transmitted 1189
angi 1189
VK 1189
churches 1189
trap 1188
robbery 1188
Meas@@ 1187
event@@ 1187
Rice 1187
FICCI 1187
jury 1187
pro 1187
comment@@ 1187
volumes 1186
lightning 1186
mayor 1186
neutral 1185
signals 1185
PRA@@ 1185
eties 1185
Poin@@ 1185
fisheries 1185
tus 1185
3000 1185
roughly 1185
Dun@@ 1185
anjali 1185
grievance 1184
announ@@ 1184
H. 1184
lip@@ 1184
specialist 1184
pumps 1184
fitting 1184
perf@@ 1184
Colombo 1184
Jaish-e-Mohammed 1184
rendra 1184
Rest@@ 1184
Buddhism 1184
bribe 1184
gged 1183
invoke 1183
chairmanship 1183
Navdeep 1183
Shatrughan 1183
Mehul 1183
bru@@ 1183
divisional 1183
atomic 1183
Investors 1182
prevalent 1182
infra@@ 1182
advertising 1182
chlor@@ 1182
Page 1182
Chaturthi 1182
AFP 1182
NH 1182
chant 1181
atters 1181
shop@@ 1181
Chro@@ 1181
Swedish 1181
tribulation 1181
trick 1181
showroom 1181
Provident 1180
provider 1180
Trin@@ 1180
coordinate 1180
judged 1180
There@@ 1180
provincial 1180
etic 1180
Hills 1180
Gaya 1180
announcing 1179
produc@@ 1179
Asha 1179
figured 1179
clip 1179
breasts 1179
bani 1179
that@@ 1179
Prati@@ 1179
method@@ 1178
revenues 1178
brac@@ 1178
administrator 1178
prospect 1178
enjo@@ 1178
Singhvi 1178
aq 1178
uncertainty 1177
Van 1177
logged 1177
Constitutional 1177
insula 1177
scuffle 1177
dos@@ 1177
emat@@ 1177
Guptill 1177
arai 1177
Yuv@@ 1177
Mol@@ 1177
clo@@ 1176
dressed 1176
thriller 1176
Judicial 1176
timing 1175
anticipated 1175
getary 1175
utions 1175
plied 1175
start-ups 1175
plicate 1175
precautionary 1175
Treatment 1175
container 1175
Veer 1175
Shir@@ 1175
King@@ 1175
dubbed 1175
indices 1174
allotment 1174
interrupted 1174
145 1174
Investig@@ 1174
selectors 1174
odh 1174
Remove 1174
Minor 1174
Sacred 1174
sensitivity 1173
tion-@@ 1173
avail@@ 1173
Mohan@@ 1173
Dom@@ 1173
Grid 1173
Entry 1173
Oxford 1173
indulging 1173
requesting 1173
Tennis 1173
Celebrations 1173
urging 1173
Aircraft 1172
Kulbhushan 1172
Rifles 1172
amins 1172
Asthana 1172
apprehended 1172
dents 1171
opol@@ 1171
securing 1171
UT@@ 1171
athlete 1171
Oli 1171
hvi 1171
SP-@@ 1171
Prayagraj 1171
capita 1170
Mater@@ 1170
bes@@ 1170
Kendra 1170
successor 1170
youre 1170
Jaw@@ 1170
OR@@ 1169
trun@@ 1169
dwellers 1169
psy@@ 1169
reader 1169
describing 1169
Sheila 1169
Tour 1169
Jay 1169
Issue 1168
satisfactory 1168
horticulture 1168
Run 1168
flood-@@ 1168
Harris 1168
directives 1167
moist@@ 1167
Broad@@ 1167
Commun@@ 1167
sew@@ 1167
Saint 1167
Guar@@ 1167
Coach 1167
Singer 1167
ots@@ 1167
Poverty 1167
Bhardwaj 1167
startups 1166
Micro@@ 1166
amend 1166
adoles@@ 1166
Wr@@ 1166
jj@@ 1166
sanitiz@@ 1166
Drink 1166
bute 1165
honesty 1165
Bush 1165
Sandhu 1165
yang@@ 1165
LE 1164
Targ@@ 1164
Release 1164
algorith@@ 1164
labor 1164
Patt@@ 1164
NM@@ 1163
execu@@ 1163
age-@@ 1163
march 1163
preserv@@ 1163
dens 1163
Classes 1163
illenn@@ 1163
Mr@@ 1163
wilderness 1163
Compare 1163
Stalin 1163
mortal 1163
Gurdwara 1163
DK 1163
bac@@ 1163
publishers 1163
Tag 1162
ilseeds 1162
distribute 1162
Expl@@ 1162
upheld 1162
Always 1162
Civ@@ 1162
west@@ 1162
Metropolitan 1161
havan 1161
popularly 1161
Kabaddi 1161
KK 1161
Dharma 1161
dor@@ 1161
Priya 1161
Diu 1161
Qaeda 1161
loud 1161
maintains 1160
Parties 1160
Procurement 1160
furniture 1160
KC 1160
logic 1160
kins 1160
eo 1160
Battle 1160
masters 1160
proceeds 1159
graduation 1159
phere 1159
mind@@ 1159
eshwari 1159
tus@@ 1159
JJP 1159
1-0 1159
Eoin 1159
leaf 1159
tras 1159
Pw@@ 1158
Krishnap@@ 1158
Hai@@ 1158
torn 1158
experiments 1158
Naren@@ 1158
scen@@ 1157
missible 1157
Eligi@@ 1157
reflection 1157
unemployed 1157
compati@@ 1157
print@@ 1157
atta 1157
Disease 1157
Tibet 1157
swimming 1157
Babar 1157
versus 1156
brief@@ 1156
interacting 1156
1500 1156
transported 1156
Plessis 1156
guil@@ 1156
genes 1156
Vidarbha 1156
PWD 1155
Sultan@@ 1155
panchayats 1155
umes 1155
PU@@ 1155
trapati 1155
Ethi@@ 1155
kid 1155
kash 1155
coloured 1155
Stoinis 1155
Mec@@ 1155
jee 1155
Female 1155
abh 1154
Husbandry 1154
arr@@ 1154
mik@@ 1154
Birthday 1154
Jim 1154
Id@@ 1154
detect 1153
Wind@@ 1153
Made 1153
Ashton 1153
Maidan 1153
lig@@ 1152
DIS@@ 1152
one-day 1152
slip 1152
Grants 1152
booths 1152
rarely 1152
Geeta 1152
Cheteshwar 1152
PAT 1151
login 1151
tise 1151
paren@@ 1151
tenance 1151
postal 1151
discourse 1151
refrain 1151
astro@@ 1151
fem@@ 1151
aided 1150
Regist@@ 1150
graded 1150
IMS 1150
Bus@@ 1150
Chairmanship 1150
stopping 1150
Judges 1150
brethren 1150
Swara 1150
alerted 1150
thy@@ 1150
adron 1150
Comprehensive 1149
Strong 1149
Sarah 1149
cide 1149
mist 1149
Scott 1149
alu@@ 1148
conducive 1148
deliv@@ 1148
ette 1148
intend 1148
tehsil 1148
dle 1148
Councils 1148
Uttar@@ 1147
ider 1147
Egyptian 1147
conceived 1147
congratulations 1147
chilli 1147
debris 1147
Mans@@ 1147
seasonal 1146
forefront 1146
paths 1146
Wo@@ 1146
Sor@@ 1146
ayam 1146
tiny 1146
concentrate 1146
objec@@ 1146
great@@ 1146
Devo@@ 1146
flour 1146
Shoo@@ 1146
Arch@@ 1146
Mix 1146
naming 1146
ware@@ 1145
resolutions 1145
heres 1145
Rapid 1145
titudes 1145
wooden 1145
Game 1145
gue 1145
scooter 1145
apa 1145
IR 1144
perceived 1144
oler@@ 1144
retire 1144
analyst 1144
storms 1144
archy 1144
elephant 1144
cular 1143
l-@@ 1143
pharmaceutical 1143
bagh 1143
muscles 1143
Anton@@ 1143
Consequently 1142
front-@@ 1142
rella 1142
brands 1142
expressions 1142
son-@@ 1142
Ponting 1142
Rajinder 1142
yle 1142
eligibility 1141
assuming 1141
Chamber 1141
evid@@ 1141
dump@@ 1141
Shyam 1141
perpetrators 1141
Sameer 1141
5-speed 1141
caring 1141
5G 1141
Vice-President 1141
Watson 1141
Transl@@ 1140
tify 1140
liberal 1140
hati 1140
conversations 1140
ifies 1140
smil@@ 1140
Mohali 1140
Pakist@@ 1140
puja 1140
variables 1139
Bond 1139
sition 1139
Tyagi 1139
interviews 1139
Idea 1139
Chun@@ 1139
jar 1139
Moti@@ 1139
faithless 1139
Howrah 1139
HD@@ 1139
Ashram 1139
Yemen 1139
rests 1138
Plans 1138
bands 1138
barg@@ 1138
arious 1138
quantities 1138
SK 1138
invites 1138
Lokpal 1138
esha@@ 1138
town@@ 1138
1,8@@ 1137
Kr@@ 1137
cris@@ 1137
Kom 1137
sportspersons 1137
shetra 1136
apuram 1136
did@@ 1136
Wayanad 1136
babies 1136
jinn 1136
15,@@ 1135
bered 1135
Billion 1135
liness 1135
ped@@ 1135
earth. 1135
renov@@ 1135
ignorant 1135
flames 1135
adequ@@ 1134
guarante@@ 1134
gery 1134
ishable 1134
Together 1134
Written 1134
cogniz@@ 1134
people-@@ 1134
ady 1134
ax 1134
istrates 1134
theatres 1134
taker 1134
robbers 1134
Gospel 1134
transit 1133
width 1133
conve@@ 1133
Scholar@@ 1133
GeM 1133
kout 1133
unlawful 1133
excise 1132
Return 1132
Ball@@ 1132
Ho@@ 1132
ifer 1132
Airports 1132
Majesty 1132
Rohan 1132
Insolvency 1131
cali@@ 1131
incorpor@@ 1131
197@@ 1131
Gag@@ 1131
justices 1131
disorders 1131
Lashkar-e-@@ 1131
sentences 1131
Solicitor 1131
Sons 1131
wrapped 1131
airspace 1131
governed 1130
IND@@ 1130
mem@@ 1130
ruined 1130
Shashank 1130
Chanda 1130
vely 1129
cylind@@ 1129
Focus 1129
Kuwait 1129
choosing 1129
Reuters 1129
Palestine 1129
camel 1129
Parade 1129
perfectly 1129
poured 1129
Organizations 1128
educate 1128
ESIC 1128
Ka 1128
Mandaviya 1128
Adit@@ 1128
Boxing 1128
cartri@@ 1128
Dum@@ 1127
clou@@ 1127
-in-@@ 1127
Prith@@ 1127
PPE 1127
drone 1127
uscrip@@ 1127
deserves 1127
donate 1127
entre@@ 1127
Move 1127
inspec@@ 1126
ull 1126
Ten 1126
resses 1126
Kulkarni 1126
Peti@@ 1126
dog@@ 1126
Dushyant 1126
Exalted 1126
Close 1125
tom 1125
acha@@ 1125
hampur 1125
sper@@ 1125
Fam@@ 1125
haply 1125
rip@@ 1125
filming 1125
Mall@@ 1125
credibility 1124
1987 1124
satis@@ 1124
hybrid 1124
qualifying 1124
chick@@ 1124
estr@@ 1124
crowds 1124
first-ever 1124
ECI 1124
Resolution 1123
placement 1123
intern@@ 1123
dealings 1123
resist 1123
Boy 1123
Neetu 1123
Curran 1123
Harman@@ 1123
imperi@@ 1123
well-known 1123
Answer 1123
Lucky 1123
gage 1122
gaps 1122
strateg@@ 1122
nut 1122
denial 1122
vel 1122
sq 1122
Camp 1122
bearer 1122
Engineers 1122
Ls 1121
aeg@@ 1121
Inst@@ 1121
Top@@ 1121
week@@ 1121
OP 1121
Maz@@ 1121
Nizam@@ 1121
ini@@ 1121
FAS@@ 1120
relaxation 1120
dependence 1120
circles 1120
iller 1120
inguished 1120
deadline 1120
tropical 1120
Enable 1120
wick@@ 1120
NAME 1120
endurance 1120
leverage 1119
exploring 1119
expectation 1119
cence 1119
Modiji 1119
Ye 1119
Crick@@ 1119
TRIFED 1119
surr@@ 1119
Preparations 1119
itiz@@ 1118
discern@@ 1118
act@@ 1118
convict 1118
kn@@ 1118
earing 1118
Spic@@ 1118
Squad 1118
honours 1118
Storm 1118
populations 1118
undering 1117
itably 1117
Bandra 1117
Type 1117
114 1117
Electrical 1117
baaz 1117
experiencing 1117
Shram@@ 1117
optical 1117
Bhat 1117
Nadi@@ 1117
Power@@ 1117
answ@@ 1117
phased 1116
incentive 1116
flex@@ 1116
indu@@ 1116
progressing 1116
bom@@ 1116
eni 1116
Dhumal 1116
eland 1116
managers 1115
-off 1115
recipient 1115
Intern@@ 1115
Heart 1115
merchant 1114
colonies 1114
regulate 1114
Emer@@ 1114
ample 1114
sust@@ 1114
poultry 1114
spices 1114
Girish 1114
yre 1114
congratulates 1114
Dak@@ 1114
colonial 1114
rocks 1114
serial 1114
Arshad 1114
acked 1114
dealers 1113
Programmes 1113
zes 1113
label 1113
hardships 1113
oping 1113
violates 1113
decreas@@ 1113
cultivate 1113
objections 1113
prince 1113
Russi@@ 1113
Phul@@ 1113
Aggarwal 1113
psalmist 1113
230 1112
concep@@ 1112
ben 1112
amaz@@ 1112
lag@@ 1111
knowled@@ 1111
observing 1111
urban@@ 1111
ainment 1111
illicit 1111
inton 1111
filmmakers 1111
Boeing 1111
Gon@@ 1111
Prabhakar 1111
arians 1111
achi@@ 1110
Backward 1110
arily 1110
sunami 1110
thro@@ 1110
understands 1110
Users 1110
glimp@@ 1110
surrendered 1110
evacuation 1110
Actors 1110
deliveries 1110
idi 1110
alla 1110
Hans 1110
Registrar 1109
of-the-art 1109
over-@@ 1109
gain@@ 1109
fifteen 1109
English@@ 1109
clai@@ 1109
Mathur 1109
bottles 1109
proph@@ 1109
combating 1109
mast@@ 1109
actresses 1109
first-class 1109
fasc@@ 1109
Fit 1108
49@@ 1108
realistic 1108
che 1108
Medic@@ 1108
sigh@@ 1108
collaborate 1108
AIC@@ 1108
Bikaner 1107
tenth 1107
TikTok 1107
avo 1107
flav@@ 1107
alloy 1107
bai 1107
Sanjiv 1106
NAM 1106
intimate 1106
restriction 1106
unt 1106
tenders 1106
1951 1106
lish 1106
blog 1106
Rehman 1106
hearted 1106
Kumbh 1106
Swachhta 1106
thood 1106
arus 1106
Ug@@ 1105
Strength@@ 1105
satisfy 1105
carved 1105
withdrew 1105
chal@@ 1105
philos@@ 1105
Domin@@ 1105
Colonel 1105
Gazette 1104
reiter@@ 1104
Agrawal 1104
bund@@ 1104
wrongdoing 1104
MBBS 1104
athle@@ 1104
plot@@ 1104
Bangladeshi 1104
spy 1104
Archer 1104
Kel@@ 1104
Deep 1104
xibility 1103
conferences 1103
FOR 1103
exercised 1103
fores@@ 1103
ND 1103
riving 1103
competing 1103
willingness 1103
graphic 1103
Anth@@ 1103
anxious 1103
Karnal 1103
Madurai 1103
accusations 1103
hik 1103
invent@@ 1102
EX@@ 1102
uds 1102
ived 1102
Cov@@ 1102
restingly 1102
fig@@ 1102
Indones@@ 1102
wrong-@@ 1102
Shin@@ 1102
calf 1102
Hen@@ 1102
Jair@@ 1102
Worlds 1102
semi-finals 1102
exceeding 1101
financially 1101
advancement 1101
Resid@@ 1101
7,000 1101
ocks 1101
nus 1101
discour@@ 1101
Sarkar 1101
Munde 1101
Dawood 1101
chari@@ 1101
inery 1101
wis@@ 1101
UG@@ 1101
NDMA 1101
Houston 1101
cong@@ 1100
Warriors 1100
Shekhawat 1100
Superstar 1100
greets 1100
Traders 1099
Yoj@@ 1099
WS 1099
Mathem@@ 1099
Assam@@ 1099
illustration 1099
ecation 1099
Zampa 1099
yatra 1099
rot@@ 1099
Afric@@ 1099
truths 1099
adjour@@ 1099
apologised 1099
Vision 1098
Role 1098
replacing 1098
lectures 1098
Result 1098
despair 1098
scar 1098
preached 1098
Suff@@ 1098
adviser 1098
indranath 1098
cooked 1098
behavi@@ 1097
tendency 1097
acious 1097
Harsim@@ 1097
knoweth 1097
historian 1097
justly 1097
felic@@ 1097
disappointment 1097
Rajapaksa 1097
curve 1096
conn@@ 1096
creed 1096
cheap 1096
middle-@@ 1096
Inc@@ 1096
strength@@ 1096
Fran@@ 1096
ques 1096
proteins 1096
patiently 1096
INR 1095
PRO@@ 1095
Auction 1095
reckoning 1095
regardless 1095
stops 1095
ranges 1095
Sukhbir 1095
Tibetan 1095
mischief 1095
uding 1095
extradition 1095
ong-@@ 1094
GP 1094
deteriorating 1094
ingham 1094
vedic 1094
Poor@@ 1094
intensify 1093
Appoint@@ 1093
along@@ 1093
troubles 1093
Religion 1093
1,3@@ 1092
premi@@ 1092
115 1092
Gari@@ 1092
upta 1092
fos@@ 1092
guess 1092
plug@@ 1092
favours 1092
springs 1092
defended 1092
fs 1092
struction 1091
DAY 1091
offs 1091
approve 1091
jute 1091
pledged 1091
chap@@ 1091
dowry 1091
crown 1091
adha 1091
wrestling 1091
transforming 1090
Not@@ 1090
Ordinance 1090
originated 1090
rej@@ 1090
ead 1090
so-@@ 1090
Cambo@@ 1090
Mono@@ 1090
mile 1089
cides 1089
rooted 1089
akrish@@ 1089
county 1089
AJ@@ 1089
Appl@@ 1089
inherited 1089
Ron@@ 1089
share@@ 1088
promotes 1088
Wick@@ 1088
Steven 1088
proceeded 1088
Meen@@ 1088
philosoph@@ 1088
Aksha@@ 1087
Activities 1087
Raghuram 1087
twitter 1087
Jackson 1087
Ep@@ 1087
Laxmi 1087
prostr@@ 1087
Constituency 1087
Vand@@ 1087
aiah 1087
1970 1086
fortnight 1086
adjudged 1086
Kirti 1086
Nigam 1086
Dayal 1086
sives 1086
respect@@ 1086
Baat 1086
favorable 1086
attachment 1086
portrait 1086
leak 1086
Dipak 1086
Hell@@ 1086
inhabited 1086
polluted 1086
testi@@ 1085
clarification 1085
arrange 1085
childs 1085
DIG 1085
drinks 1085
estly 1085
zens 1085
Babbar 1085
pati@@ 1085
expir@@ 1084
Shardul 1084
Florida 1084
diagnosed 1084
Krishn@@ 1084
neglected 1084
Kyrgy@@ 1084
Nadal 1084
oters 1084
lis 1084
bottle 1084
iance 1083
Susp@@ 1083
appro@@ 1083
seiz@@ 1083
liars 1083
poor@@ 1083
hadi 1083
physi@@ 1083
Amr@@ 1083
accompanying 1082
GW 1082
athers 1082
thodox 1082
demonstrations 1082
alis 1082
marriages 1082
Santner 1082
ida 1082
tbsp 1082
32@@ 1081
potentially 1081
Ks 1081
contestants 1081
Sarban@@ 1081
ubali 1081
nuts 1081
zar 1081
akum@@ 1081
Kashmirs 1081
itates 1080
Annex@@ 1080
concerted 1080
Aat@@ 1080
Shillong 1080
Phone 1080
flu 1080
kilo@@ 1080
coo@@ 1080
wouldn 1080
Fero@@ 1080
sorts 1080
abused 1080
Sig@@ 1079
rejection 1079
By@@ 1079
Fatima 1079
PhD 1079
cardiac 1079
criticized 1079
Prahl@@ 1079
pist@@ 1079
Nichol@@ 1079
particles 1079
M-@@ 1078
sowing 1078
undergone 1078
corridors 1078
characteristic 1078
NL 1078
reluc@@ 1078
talents 1078
dul 1078
mohan 1078
contradic@@ 1078
Kevin 1078
solid@@ 1077
Import 1077
Appreci@@ 1077
autonomy 1077
Lower 1077
leng@@ 1077
bell 1077
Wash 1077
Aryan 1077
seas 1077
mary 1076
quet 1076
101 1076
Awar@@ 1076
equipments 1076
aul 1076
Cas@@ 1076
burned 1076
Moz@@ 1076
alleges 1076
mount 1076
Increase 1075
host@@ 1075
rul@@ 1075
Jammu-@@ 1075
Balan 1075
meditation 1075
p. 1075
Clin@@ 1075
VHP 1075
plain@@ 1075
mium 1074
boarding 1074
prolonged 1074
Inc 1074
logo 1074
decla@@ 1074
ographer 1074
Eliz@@ 1074
Representative 1073
Equipment 1073
fla@@ 1073
Dairy 1073
50th 1073
ulture 1073
WF 1073
co-star 1073
Bajrang 1073
chit 1073
istic@@ 1072
chur@@ 1072
oso 1072
Murli 1072
ret 1072
rys 1072
truth@@ 1072
Madhu 1072
scholar@@ 1071
Gom@@ 1071
ellow@@ 1071
Ronal@@ 1071
assassination 1071
Ricky 1071
Chem@@ 1071
neighbors 1071
brass 1071
PAT@@ 1071
Manisha 1071
upgrad@@ 1070
Self-@@ 1070
Generation 1070
quick@@ 1070
worsened 1070
constructing 1070
landslide 1070
anshi 1070
potassium 1070
ascular 1070
Gir@@ 1070
studio 1070
disruption 1069
pric@@ 1069
shoulders 1069
Rising 1069
sla@@ 1069
placing 1069
proto@@ 1069
symbols 1069
yl 1069
flies 1069
breeding 1069
Poly@@ 1069
Riv@@ 1069
pleases 1069
lever@@ 1068
instrumental 1068
purely 1068
Treaty 1068
foremost 1068
Learn 1068
amin 1067
relevance 1067
incul@@ 1067
viewing 1067
owers 1067
compact 1067
Qamar 1067
aspur 1067
Jaish-e-Mohammad 1067
per-@@ 1067
symbolic 1067
avilion 1067
Popular 1067
conductor 1067
Sain@@ 1067
oaths 1067
Democr@@ 1067
anny 1067
Awake 1067
Hon 1066
tariffs 1066
assisting 1066
knee 1066
prestige 1066
festive 1066
say@@ 1066
Fig@@ 1065
sized 1065
Pre-@@ 1065
US-@@ 1065
compul@@ 1065
376 1065
But@@ 1065
Choubey 1065
memorable 1065
secretly 1065
obstacles 1065
vigilant 1065
eering 1065
Tilak 1065
proclaimed 1065
cream 1065
explored 1064
developers 1064
135 1064
1985 1064
architec@@ 1064
packages 1064
conserv@@ 1064
auti@@ 1064
pore 1064
phan 1064
vice-captain 1064
Hin@@ 1064
Calling 1064
bypolls 1064
spirituality 1064
Cypr@@ 1064
peti@@ 1063
1972 1063
scorer 1063
Carey 1063
Sana 1063
osph@@ 1063
wouldnt 1063
G20 1062
ection@@ 1062
numer@@ 1062
m-@@ 1062
igh 1062
frac@@ 1062
habilitation 1062
strongest 1062
Down 1062
RIL 1062
ounder 1062
Vijayvargiya 1062
agra@@ 1062
nationalist 1062
alarm 1062
jung 1062
dak 1062
neuro@@ 1062
Americ@@ 1062
109 1061
Jagdish 1061
ugitive 1061
novels 1061
Hizbul 1061
jok@@ 1061
Sahu 1061
composite 1060
dimen@@ 1060
2024 1060
Male 1060
Kedar 1060
creativity 1060
liv@@ 1060
lung 1060
Miller 1060
Gopal@@ 1060
Texas 1060
Person@@ 1059
Chadha 1059
fewer 1059
predec@@ 1059
Samiti 1059
throwing 1059
level@@ 1059
commuters 1059
embering 1059
stationed 1059
air-@@ 1058
dances 1058
east@@ 1058
Baramulla 1058
Sabar@@ 1058
sugg@@ 1057
IND 1057
questi@@ 1057
Mining 1057
adver@@ 1057
Hung@@ 1057
Hamirpur 1057
pitted 1057
Het@@ 1057
condemns 1057
Worship 1057
Kadap@@ 1056
Hazare 1056
py 1056
willingly 1056
testify 1056
Wag@@ 1056
bercul@@ 1056
electrification 1055
scandal 1055
glorify 1055
Sunni 1055
Mumb@@ 1055
exerc@@ 1054
ADB 1054
Manufacture 1054
gad 1054
eaten 1054
highligh@@ 1053
ynam@@ 1053
tations 1053
Mail 1053
showcas@@ 1053
sickness 1053
Fortun@@ 1053
NSA 1053
eup 1053
obstruc@@ 1053
Prithvir@@ 1053
probability 1052
ethics 1052
ression 1052
Id 1052
multi 1052
Auth@@ 1052
Tak@@ 1052
theast 1052
pets 1052
Const@@ 1052
Cari@@ 1052
revenge 1052
patriotism 1052
Anu@@ 1051
NIC 1051
mid 1051
prey 1051
businessmen 1051
goo@@ 1051
Guinea 1051
electri@@ 1051
ya@@ 1051
metals 1050
Clu@@ 1050
ement@@ 1050
Milk 1050
celebrity 1050
Roll@@ 1050
RPF 1050
recycl@@ 1049
Que@@ 1049
anci@@ 1049
astes 1049
Leban@@ 1049
Vit@@ 1049
elines 1048
sphere 1048
126 1048
toxic 1048
mill 1048
Bay@@ 1048
Jimmy 1048
Kup@@ 1048
mad 1048
thwest 1048
vision@@ 1048
Pir@@ 1048
Dedic@@ 1048
Pash@@ 1048
0.5 1047
Cer@@ 1047
Connectivity 1047
agrees 1047
therap@@ 1047
achar@@ 1047
worn 1047
Summer 1047
contri@@ 1046
abrog@@ 1046
chronic 1046
Traditional 1045
sic 1045
PH@@ 1045
yang 1045
halla 1045
Statue 1045
NEET 1044
Ishaan 1044
chop@@ 1044
107 1043
fif@@ 1043
controversi@@ 1043
otech 1043
Medi@@ 1042
nodes 1042
PDS 1042
35A 1042
poe@@ 1042
Richa 1042
iel@@ 1040
fair@@ 1040
106 1040
surg@@ 1040
istics 1039
indi 1039
wat 1038
aho 1038
abst@@ 1038
ishments 1037
nin@@ 1037
portation 1037
porters 1037
Francisco 1037
fru@@ 1036
Ox@@ 1036
earchers 1035
squared 1035
gy 1034
kis@@ 1034
asty 1034
Chr@@ 1034
RDA 1033
GT@@ 1033
Parliam@@ 1033
Gam@@ 1033
NCA 1033
ampur 1032
rie 1032
122 1031
ers@@ 1030
endar 1030
Ayur@@ 1030
ensive 1030
agen 1029
Green@@ 1029
ru 1028
nu@@ 1028
256GB 1028
3GB 1028
Econom@@ 1027
VAT 1027
fashi@@ 1027
ester@@ 1027
iv 1026
ulative 1026
reserv@@ 1025
Waste 1025
119 1025
Mode 1025
gha 1025
inking 1024
encour@@ 1024
103 1024
Citiz@@ 1024
Send 1024
Enter@@ 1023
eves 1023
OK 1023
escap@@ 1022
ecu@@ 1020
Jawa@@ 1020
ATE 1019
cm 1019
Nig@@ 1019
2G 1019
dead@@ 1019
[...]
