के 51390
में 32109
की 27867
, 27282
है 21460
। 19593
को 17311
और 17246
से 14690
) 12421
बैंक 12300
( 12114
का 11464
. 10809
लिए 9609
पर 9404
-@@ 8475
किया 8445
गया 6196
करने 6033
वर्ष 5611
हैं 5346
तथा 5270
ने 4517
एवं 4507
द्वारा 4468
/ 4299
वित्तीय 3830
रूप 3773
गई 3735
भी 3378
एक 3282
दौरान 3130
₹ 3068
कर 3014
साथ 2893
हो 2879
कि 2831
जो 2807
प्रतिशत 2767
किए 2728
इस 2719
यह 2587
गए 2552
ऋण 2499
भारतीय 2483
वृद्धि 2392
- 2371
तक 2361
जाता 2295
जोखिम 2243
आ@@ 2121
आधार 2017
सं@@ 2013
वि@@ 1967
बैंकों 1966
अनुसार 1960
शामिल 1898
भारत 1887
रिज़र्व 1880
" 1853
हुए 1824
प्रबंधन 1817
.@@ 1808
बैंकिंग 1789
लेखा@@ 1786
क्षेत्र 1782
नहीं 1772
अन्य 1767
रिजर्व 1763
निधि 1756
प्राप्त 1734
अधिक 1728
ही 1725
रहा 1711
होने 1709
ए@@ 1705
हुई 1684
जा 1677
नि@@ 1670
कम 1628
करोड़ 1628
मुद्रा 1621
: 1596
क@@ 1588
बाजार 1568
जारी 1564
हेतु 1546
कार्य@@ 1542
दर 1523
लाभ 1516
राशि 1509
विदेशी 1494
मार्च 1493
% 1489
वाले 1481
मूल्य 1479
कारण 1472
ई@@ 1468
' 1466
प्रदान 1436
बिलियन 1433
सभी 1429
बी@@ 1428
निवेश 1419
सरकार 1415
अपने 1413
एफ@@ 1391
इसके 1390
परि@@ 1385
करना 1382
संबंधित 1382
था 1333
संबंध 1315
या 1313
दिया 1310
भुगतान 1284
नीति 1268
अंतर्गत 1246
प्रणाली 1244
अवधि 1243
आय 1222
योजना 1201
न 1197
समिति 1192
विभिन्न 1175
कार्य 1175
करते 1164
आर@@ 1161
करता 1158
इन 1150
परीक्षा 1139
जाने 1134
संबंधी 1122
अ@@ 1101
ब्याज 1096
रही 1094
थी 1090
माध्यम 1088
स्थिति 1077
दे@@ 1065
उपलब्ध 1056
1 1056
स्तियों 1049
स्तर 1041
विभाग 1034
प्र@@ 1025
कुल 1024
य@@ 1004
ए 973
प्रावधान 973
तहत 957
अनु@@ 957
निर्धारित 953
बाद 942
रि@@ 940
निदेशक 939
मूल्यांकन 938
एल@@ 934
समय 934
वित्त 926
आई 924
; 922
सी@@ 920
लागू 920
2020 917
मूल्य@@ 905
हानि 901
जिसमें 895
दी 893
लेखा 879
31 876
चल@@ 870
न@@ 868
डी@@ 863
वाली 860
तुलना 858
खाते 850
प्रकार 848
सके 838
ब@@ 837
2018 836
रिपोर्ट 836
आर 833
कमी 832
आपके 829
अधिनियम 826
परिचालन 821
ित 820
पूंजी 818
कोई 816
वल 814
एम@@ 802
जैसे 788
बी 785
एस@@ 781
नों 781
हुआ 780
विकास 779
उपयोग 775
पिछले 774
मों 772
मुद्रास्फीति 759
लागत 756
सेवा 756
आधारित 756
बोर्ड 756
प्रमुख 748
अपनी 747
जून 744
किसी 742
महत्वपूर्ण 736
प्रक्रिया 735
3 730
गिरावट 722
जाती 722
गत 721
जाएगा 721
सुधार 718
विवर@@ 714
व्यय 713
पुनर्@@ 711
ताकि 711
तो 710
तैयार 708
प्रभाव 707
2 705
2017 699
अलावा 698
ग्राहकों 697
एफ 696
टी@@ 691
पत्र 688
कंपनी 684
आस्ति 679
समा@@ 678
जी@@ 677
सुविधा 676
सहित 675
अतिरिक्त 673
सूचना 672
लिया 671
त 669
2019 669
अथवा 663
शेयर 658
बनाने 657
सरकारी 653
सा@@ 646
प्रतिभूतियों 645
क्षेत्रों 635
देश 632
आर्थिक 632
समूह 628
दरों 628
ड@@ 626
सुनिश्चित 626
तिमाही 624
प्रति 623
सी 622
ओ@@ 621
केंद्रीय 620
आंतरिक 618
निगरानी 618
बड़ौदा 612
यदि 610
देने 610
ग्राहक 609
प्रति@@ 608
गैर@@ 608
शेष 606
विशेष 605
केंद्र 604
बीच 601
अनुपालन 601
30 597
वे 596
व्यवसाय 594
समीक्षा 594
अधि@@ 592
जबकि 588
ताओं 587
घरेलू 585
मांग 585
रहे 582
लेनदेन 579
व 576
उद्देश्य 576
वैश्विक 570
राज्य 569
ध्यान 567
कुछ 564
मुख्य 557
जमा 548
पहले 548
2016 547
डी 543
णों 542
ओ 542
ऐसे 539
शाखाओं 537
ई 537
चाल@@ 532
उ@@ 531
पूर्ण 528
4 528
एस 527
एन@@ 527
ष@@ 527
6 524
सकता 523
पूरा 522
अनुरूप 520
उनके 520
5 519
व्यापार 517
2015 514
सीमा 512
मौद्रिक 508
दर्ज 506
आई@@ 504
कर्मचारियों 504
2014 502
करती 499
वे@@ 497
कृत 497
2015-16 493
गयी 491
वार्षिक 491
होता 487
प@@ 484
जिससे 482
क्रेडिट 481
9 481
डे@@ 480
क 477
औसत 476
बिक्री 476
पो@@ 476
संख्या 475
सामान्य 475
मा@@ 472
10 471
समग्र 470
ति@@ 468
बैं@@ 467
ग्रामीण 466
वर्तमान 465
निर्धारण 464
प्रत्येक 464
उप@@ 463
पा@@ 463
2017-18 460
प 458
आयोजित 456
अंतरण 456
उत्पादन 455
पास 453
थ@@ 453
निवे@@ 450
शों 450
कृषि 449
उधार 449
विनिमय 448
खातों 447
धारा 447
यू@@ 446
एच@@ 445
उसके 444
विवरण 444
वर्षों 443
अंत 443
सुरक्षा 443
अनुपात 443
लक्ष्य 443
सम@@ 442
के@@ 442
स@@ 442
नई 442
2013 441
पर्यवे@@ 440
भार@@ 439
गतिविधियों 439
र्@@ 437
नए 436
होती 435
उच्च 435
नीतिगत 434
शुरू 434
संस्थाओं 433
रखा 432
दो 432
नकदी 432
दिनांक 431
कों 430
राष्ट्रीय 430
पूर्व 429
व्यापक 428
आवश्यकता 428
इक्विटी 428
दिए 427
होगा 427
जिसके 426
ारा@@ 425
2016-17 425
रखने 425
परिवर्तन 425
व्यवस्था 424
8 424
कार्यालयों 423
बेहतर 422
पी@@ 422
2019-20 422
ना@@ 421
इसमें 420
अप्रैल 419
शेयर@@ 418
जाए 418
करके 417
स्थापित 417
तीन 416
0.@@ 416
ऑफ 413
दिशानिर्देशों 413
परी@@ 412
उस 410
जहां 410
अभि@@ 409
द@@ 409
ता 408
1.@@ 408
धार@@ 407
कार्ड 407
निर्माण 406
फ्रेमवर्क 406
अंतरराष्ट्रीय 406
एल 406
दोनों 405
म@@ 405
जम@@ 404
कार्यान्वयन 404
समाप्त 404
थे 404
खाता 402
प्रस्तुत 402
क्@@ 401
सेवाओं 400
लगभग 400
टी 400
ि@@ 400
अर्थव्यवस्था 400
बीमा 399
बढ़कर 399
निपटान 398
7@@ 398
क्षमता 397
परिपक्@@ 397
ये 397
णी 396
एक्स@@ 396
सु@@ 392
धारित 392
बे@@ 391
कई 388
देशों 386
नियामक 386
सहायता 385
तारीख 385
समाधान 384
नोटों 383
नियंत्रण 383
14 382
बढ़ाने 381
भाग 381
प्रवाह 381
ंकन 381
इसे 380
मानक 378
फ़@@ 378
ह@@ 377
आदि 377
एनबी@@ 375
जोखि@@ 375
2014-15 374
गणना 374
प्रशिक्षण 373
7 372
निर्णय 372
आकलन 372
बकाया 371
तेजी 371
2021 371
संरचना 370
4@@ 370
कंपनियों 370
समेकित 370
ल@@ 369
तुल@@ 369
ऋणों 368
निर्यात 368
20 368
निम्नलिखित 367
उन्हें 364
कीमतों 364
श्री 364
प्रभावी 364
वधि 363
5@@ 362
मामले 361
ों 360
मजबूत 360
टि@@ 360
स्थिरता 359
डि@@ 359
अव@@ 358
पोरेट 357
ट@@ 357
जानकारी 357
तों 357
कार्@@ 356
डिजिटल 354
बारे 353
विधिक 353
एम 353
बनाए 352
धारकों 352
वता 351
3.@@ 351
वी@@ 350
सेवाएं 350
रुप 349
कार्यालय 347
यता 347
नीतियों 347
प्रयोग 347
उन 346
एं 346
2018-19 345
पता 344
मामलों 344
रे@@ 344
दूसरी 344
एसबीआई 343
शियों 343
6.@@ 342
प्रयास 341
मूल 341
स्वै@@ 340
राज्यों 339
आगे 337
वसूली 336
राजकोषीय 336
संशोधित 335
प्रबंध 335
बाह्य 334
चार्ट 333
हम 332
प्रावधानों 331
बैठक 331
से@@ 331
त@@ 330
काफी 330
कार्यक्रम 329
बा@@ 329
संभावना 328
अब 328
2.@@ 328
उत्पादों 328
सार@@ 328
तथापि 327
अंतिम 327
जब 327
च@@ 326
ओर 326
आवश्यक 326
अलग 326
राजस्व 325
नियमों 325
ं@@ 325
अग्र@@ 325
जाना 324
वास्तविक 323
ियों 322
8@@ 322
कर्मचारी 321
स्@@ 321
अग्रिम 321
र@@ 320
दबाव 320
जुलाई 320
अर्थात 320
श्रेणी 319
ट 319
एफसी 319
वेशन 319
9.@@ 319
अनुमति 318
लेन@@ 317
रिपोर्टिंग 317
हमारी 317
मे@@ 316
ऐसी 316
आपूर्ति 316
छोड़कर 315
उत्पाद 315
बनाया 314
व@@ 314
मिलियन 314
नोट 313
जनवरी 313
4.@@ 313
5.@@ 313
करण 313
डॉलर 312
15 312
संयुक्त 311
वह 311
छ@@ 311
प्रतिभूति 311
विनियमन 310
तेल 310
निदेशकों 310
कारोबार 310
क्योंकि 309
स्टेट 309
धियों 308
ली 307
इसका 307
लाख 306
तदनुसार 305
गुणवत्ता 305
स्वर्ण 304
सकल 304
कर्ताओं 304
7.@@ 304
कर्ता 304
भविष्य 303
ऑफ़ 303
निर्देशों 303
शेयरों 303
ग@@ 302
प्रौद्योगिकी 301
न्@@ 301
8.@@ 301
तरह 300
क्षेत्रीय 299
पीए 299
प्रारंभ 299
निष्पादन 299
जी 298
इसकी 298
बॉ@@ 298
शुरुआत 297
श@@ 296
मंडल 296
पहचान 296
जीडीपी 296
पो 294
जिसका 293
निरंतर 292
मात्रा 291
दिसंबर 291
2020-21 291
रुपया 291
वाणिज्यिक 290
पहली 289
उचित 289
3@@ 289
जिसे 288
अनुमान 288
करे@@ 288
दिशा@@ 287
करेगा 287
सां@@ 287
लिमिटेड 287
उपायों 287
ली@@ 285
रहने 285
आवश्यकताओं 285
नियमित 285
सह@@ 285
आयात 284
प्रीमियम 284
आने 284
लन 283
संदर्भ 283
निर्@@ 283
ो 282
सदस्य 282
विचार 282
उनकी 282
सहकारी 282
विस्तार 281
करें 281
खरीद 280
बि@@ 279
हमारे 279
अन@@ 279
पद्धति 278
एमएसएमई 278
फरवरी 277
लों 276
शोधन 276
ड 276
ज@@ 275
VI@@ 273
बजट 273
प्राथमिक 273
पात्र 273
विकसित 273
चाहिए 272
बीसी 271
उपाय 271
केवल 271
दृष्टिकोण 271
X@@ 271
बनी 270
6@@ 270
हालांकि 269
पर्याप्त 269
माना 269
लि@@ 268
सकते 268
इससे 268
प्रतिभू@@ 268
निजी 267
19@@ 267
पालक 267
स्थापना 267
दिशा 267
दृष्टि 266
लगातार 265
क्षकों 265
जाते 265
संशोधन 265
जरिए 264
स 264
धन 264
25 264
वर्@@ 264
बना 264
सितंबर 263
भूमिका 263
यथा 263
नियम 260
रेपो 260
आरक्षित 259
सीबी 259
9@@ 259
इंडिया 258
‌ 257
सहयोग 257
पेंशन 257
खाद्य 256
पीआई 256
हमने 256
कॉर्पोरेट 256
क्षण 255
बढ़ोतरी 255
न्यूनतम 255
वर्गीकृत 255
सुदृढ़ 255
इ@@ 255
रा@@ 254
सबसे 253
मौजूदा 253
विशिष्ट 252
प्रणालियों 252
ंसी 252
होगी 251
संस्थान 251
ंग@@ 251
ट्रे@@ 251
उसे 250
बढ़ 250
डब्ल्यू@@ 250
स्थानीय 250
य 250
निर्गम 250
अगस्त 249
बड़े 249
टीकरण 249
सीसी@@ 248
रेटिंग 248
हिस्सा 247
ला@@ 246
ीकरण 246
विश्लेषण 246
सकती 246
गति 245
प्रक्रियाओं 245
चालू 245
घोषणा 245
विश्व 244
रखते 244
सदस्यों 244
आईटी 244
मानकों 244
सरकारों 244
50 243
वर्ग 243
सूचित 243
आरबीआई 242
एटीएम 242
परिणामस्वरूप 242
2013-14 242
तौर 241
अध्यक्ष 241
II@@ 241
अंतरि@@ 240
लेने 240
इन्@@ 240
34 239
-19 238
नुसार 238
डेटा 238
अंतर 237
कोवि@@ 237
र 237
रुपए 237
अपेक्षित 237
12 237
शुल्क 237
गैर 237
ती 237
स्टाफ 237
मूल्यों 236
मोबाइल 236
॥ 235
प्रभावित 234
जिनमें 234
वर्ष@@ 234
का@@ 233
पी 233
बाजारों 232
शहरी 232
रु 232
13 231
सार्वजनिक 231
वस्तुओं 231
अधिकारियों 231
संसाधन 231
उद्योग 230
खंड 230
देय 229
बावजूद 229
चे@@ 229
कार@@ 228
क्षित 228
आईसी@@ 227
व्यव@@ 227
यां 227
कार्रवाई 227
गठन 227
रु@@ 226
I@@ 226
आवास 225
18 225
ओं 224
संस्था 224
इकाइयों 224
माही 224
पे@@ 223
प्रतिफल 223
जमा@@ 223
i 223
उत्पन्न 223
विवे@@ 222
टिव 222
बहुत 222
समान 221
अंतर@@ 221
नवंबर 220
जांच 220
डों 220
ज 220
जिन 219
जाएगी 219
17 219
अपना 219
धारक 218
चार 218
मार्@@ 218
वर्ती 218
कित 217
अनुमोदन 217
अप@@ 217
जर 217
लिख@@ 217
कु@@ 216
अधिकारी 216
अंशदान 215
मई 215
तियों 215
बैक 215
मॉडल 214
बचत 214
घा@@ 214
दायित्व 214
पूंजीगत 214
उपभोक्ता 213
वितरण 213
त्मक 213
2@@ 212
री@@ 212
पूरे 212
प्रगति 211
0@@ 211
धोखाधड़ी 211
कार 211
उल्लेखनीय 211
मानदंडों 210
ण 210
लघु 210
अनुसंधान 210
केंद्रित 210
क्रमशः 210
वायदा 210
तियां 210
् 210
वर्गीकरण 209
एसडी@@ 207
हों 207
करो@@ 207
शर्तों 207
माह 206
खुदरा 206
नियाम@@ 206
22 206
स्थान 206
पहुंच 206
महामारी 205
दिन 205
प्रत्या@@ 205
मुंबई 204
11 204
| 201
होते 201
आकस्मिक 201
जक 200
लाभांश 200
ल 200
19 200
कमजोर 199
परिणाम 199
दर्शाता 198
पुनः 198
समय@@ 198
11.@@ 197
‍ 197
्रास 196
फंड 196
अनुमोदित 195
अत्यधिक 195
प्राधि@@ 195
णियों 195
यन 195
नेटवर्क 194
फिर 194
पूरी 194
वेबसाइट 194
ता@@ 194
आ 194
पत्रों 193
ग 193
घटकर 193
होना 192
स्व@@ 192
लोन 192
स्थगित 192
यु@@ 192
कराने 191
ले 190
लाने 190
मत 190
समाप्ति 190
कीय 190
बढ़ावा 190
भीतर 190
दर्शाया 189
शाखा 189
तिथि 189
स्थित 188
मदद 188
योगदान 187
स्टॉक 187
अनेक 187
इसी 187
मद@@ 187
कारी 187
अनुभव 187
फ@@ 186
व्यवहार 186
रिवर्स 186
ग्रस्त 186
योग्य 185
मासिक 185
परियोजना 185
परीक्षण 184
मानव 184
कन 183
कटौती 183
नीचे 183
23 183
लेकिन 182
ताएं 182
्य 182
क्ष@@ 182
स्तियां 181
रह 181
चित 181
शाखा@@ 180
देना 180
कारोबारी 180
रुपये 180
ने@@ 180
अधिकार 180
90 179
राय 179
वा@@ 179
100 179
धिक 179
सि@@ 178
शीर्ष 178
करार 178
गठित 178
अधिग्रहण 178
सक्रिय 178
शील 177
पहल 177
28 177
ंच@@ 177
प्रा@@ 177
अमेरिकी 177
दैनिक 176
इसलिए 176
क्षी 176
स्पष्ट 176
40 176
याँ 176
ः 176
प्रेषण 176
विविध 176
बढ़ा 175
निम्@@ 175
रोजगार 175
हाल 174
कमीशन 174
अपेक्षा 174
तरीके 174
क्षाओं 174
प्रयासों 174
मुद्र@@ 174
संबद्ध 173
ढांचे 173
मान@@ 172
वेतन 172
अपे@@ 171
21 171
योजनाओं 171
प्रणा@@ 170
प्रस्ताव 170
ii 170
देखते 170
पालन 170
धित 169
2012 169
पोर्टफोलियो 169
ड़ 169
अध्ययन 169
आव@@ 169
निवारण 168
आईआर@@ 168
तु@@ 168
अर्जन 168
रिटेल 168
जैसी 168
टे@@ 167
एआई 167
विकल्प 167
शुद्ध 167
जरी 167
वित्तपोषण 166
सीए@@ 166
स्थितियों 166
उद्यमों 166
तिक 166
सिस्टम 165
10.@@ 165
एंड 164
आईएम@@ 164
शिक्षा 164
ऋण@@ 164
अंक 164
ले@@ 164
कार्यों 164
01 164
शिकायत 163
जागरूकता 163
परियोजनाओं 163
उससे 163
या@@ 163
दीर्@@ 162
दिशानिर्देश 162
बॉक्स 162
उपयुक्त 162
रों 162
सेबी 162
हित 162
वाला 162
स्तरीय 162
आरंभ 161
व्स 161
सीआर@@ 161
इलेक्ट्रॉनिक 161
मी@@ 161
बाज़ार 160
पीसी 160
सर@@ 160
सीआर 160
पीएस 159
बंद 159
अर्थव्यवस्थाओं 159
कर्@@ 159
हिसाब 159
औद्योगिक 158
अंकों 158
संकेत 158
विभागों 158
नात्मक 158
कि@@ 158
कता 157
अधीन 157
बाव@@ 157
प्रोत्साहित 157
ण@@ 156
27 156
अमरीकी 156
अनिवार्य 156
कच्चे 156
लेकर 156
नीय 156
सूचकांक 156
दाओं 156
कीमत 156
टीएम 156
1,@@ 156
उद्यम 155
वजह 155
बिल 155
पश्चात 155
एफटी 154
नवोन्मे@@ 154
संहिता 154
सूची 154
ंगी 154
संचालन 154
सुरक्षित 154
उपर्युक्त 154
प्राप्@@ 154
बढ़ती 154
शिकायतों 154
बाहर 154
16 154
फि@@ 154
अनुकूल 154
सीबी@@ 154
टों 154
लाइन 153
नामित 153
जीएसटी 153
अं@@ 152
चल 152
बने 152
दिनों 151
ग्रे@@ 151
आयोजन 151
हितधारकों 151
बार 151
उसकी 151
एकीकृत 151
हमें 150
घाटे 150
उक्त 150
लग@@ 150
जिन्हें 150
21.@@ 149
स्थायी 149
संविदा 149
ट्रेडिंग 149
टरी 149
तकनीकी 149
ऑनलाइन 148
बैठकों 148
जिनके 148
नु@@ 148
26 148
परामर्श 148
घोषित 148
उतार@@ 148
12.@@ 148
अचल 147
अर्थात् 147
रहित 147
िता 147
परिदृश्य 147
चलते 146
हा@@ 146
निवेशकों 146
फ्रास्ट्रक्चर 146
निरीक्षण 146
साक्षरता 146
किये 145
आपका 145
ति 145
लगाया 145
बॉन्ड 145
विदेश 145
स्वतंत्र 145
ै@@ 144
बात 144
इकाई 144
ष 144
लाभ@@ 144
प्रयोजन 144
वाह 144
केन्द्रीय 144
मंदी 143
समायोजित 143
ीय 143
स्वरूप 143
े 143
धी@@ 143
सहयोगी 143
जिसकी 143
31.@@ 143
बड़ी 143
लगाने 143
प्रो@@ 142
प्रत्यक्ष 142
दर्शा@@ 142
ा@@ 142
मुद्दों 141
स्वामित्व 141
लि 141
सीमित 141
भावी 141
हो@@ 141
रखी 140
उनका 140
श 140
शो@@ 140
परिपत्र 139
संसाधनों 139
मानदंड 139
केंद्र@@ 139
यू 139
2012-13 139
खर्च 139
आकार 139
हिंदी 139
तीव्र 138
विनिर्माण 138
0 138
वृ@@ 138
समर्थन 138
तब 138
महीने 138
एमएस 138
समायोजन 138
ो@@ 138
वर्त@@ 138
फलस्वरूप 138
इं@@ 138
सेल 138
वार 137
अंतराल 137
नदी 137
हियों 137
अनुसरण 137
प्रभार 137
समितियों 137
आंकड़ों 137
सामाजिक 137
निर्देश 136
समे@@ 136
टा@@ 136
ब 136
संचालित 136
प्राथमिकता 136
201@@ 136
अभियान 136
थीं 136
दा@@ 136
समूहों 135
विक्रय 135
व्यक्तियों 135
देन 135
बढ़ने 135
कर्ज 135
उच्चतर 135
पीएस@@ 135
कराया 135
ऊर्जा 135
ट्स 134
श्रेणियों 134
नाम 134
कीमतें 134
सीपीआई 134
स्वीकार 134
पड़ा 134
ढंग 134
ीकृत 134
2010 134
भौतिक 134
सर्वेक्षण 134
ऐसा 133
स्थिर 133
मूल्यां@@ 133
मां@@ 133
एक्@@ 133
विद्यमान 133
नियंत्रित 133
29 133
उल्लेख 133
धीन 133
कालिक 133
क्यू@@ 133
कदम 133
पन 132
को@@ 132
लोगों 132
फे@@ 132
वरिष्ठ 132
संभावित 132
संपूर्ण 132
ख@@ 131
उन्नत 131
नियुक्त 131
वहीं 131
दि@@ 131
चढ़ाव 131
24 130
सतत 130
तंत्र 130
अनुरोध 130
पु@@ 130
कवर 130
अक्तूबर 130
देता 130
प्रथम 129
प्रदत्त 129
जन@@ 129
वोटिंग 129
जिंग 129
अधिकतम 129
चलता 129
चर्चा 129
प्रकाशित 129
केंद्रों 129
मानसून 128
धा@@ 128
जुड़े 128
बैठकें 128
पक्ष 128
सिद्धांतों 128
ते 128
एससी 128
मार्क 128
अंकित 128
जैसा 128
गारंटी 128
उपक्रमों 128
एसबी@@ 127
विक 127
दरें 127
यी 127
सही 127
पट्@@ 127
दर@@ 127
हिस्सेदारी 126
04.@@ 126
यद्यपि 126
कारकों 126
सुविधाओं 126
विश्वास 126
एक्सचेंज 126
मध्यम 126
ी@@ 126
लता 126
कॉरपोरेट 126
मार्केट 126
समुचित 126
अनुसूचित 126
प्राप्ति 125
बनाना 125
शन 125
प्रे@@ 125
निश्चित 125
दूसरे 125
साइबर 125
विनिर्दिष्ट 125
तत्काल 125
गवर्नेंस 125
सक्षम 125
राजभाषा 125
भर 125
बढ़ाकर 124
विषय 124
परिस्थितियों 124
संपर्क 123
बातों 123
द्वि@@ 123
4,@@ 123
ह्@@ 123
प्रोत्साहन 123
होंगे 123
हे@@ 123
डाटा 122
घाटा 122
संरक्षण 122
बिना 122
महंगाई 122
बल 122
ंडों 122
बांड 122
जु@@ 121
लक्ष्यों 121
णात्मक 121
इनमें 121
डेबिट 121
उपभोग 121
सकें 121
सकारात्मक 121
प्रभाव@@ 121
अनुसूची 121
घटकों 120
पीएम@@ 120
एनई@@ 120
सीएस@@ 120
2011 120
03.@@ 120
बढ़ाया 120
म्यू@@ 120
नियत 119
हिस्से 119
स्वयं 119
पैदा 119
बाहरी 119
वै@@ 119
20@@ 119
दिल्ली 119
प्रारंभिक 119
मो 119
शि 119
प्रचलित 119
व्यवस्थित 118
च 118
अंतर्राष्ट्रीय 118
चौथी 118
कर@@ 118
विगत 118
दायरे 118
स्वीकृत 118
चरण 118
इन@@ 118
काम 118
गवर्@@ 118
संगठन 117
पांच 117
जिनका 117
आउट@@ 117
35 117
उत्@@ 117
नी@@ 117
00 117
परिणामों 117
अस्थायी 116
न्स 116
प्रदेश 116
नकद 116
आधारभूत 116
एमएस@@ 116
स्तरों 116
परिवर्तनों 116
1970 116
प्रबंध@@ 116
तः 116
10@@ 116
पूर्ण@@ 116
मध्य 115
सामान्यतः 115
भारी 115
द 115
त्@@ 115
अभी 115
देखी 115
की@@ 115
रो@@ 115
भवन 115
प्रस्तावित 115
पूर्ववर्ती 115
एँ 114
ं 114
मंत्रालय 114
्यु@@ 114
ओवर@@ 114
निक 114
किंग 114
यूएस 114
उप 114
लित 114
टे 113
अनिश्चितता 113
आईएस 113
भ@@ 113
अपेक्षाकृत 113
गतिविधि 113
वाई@@ 113
सूक्ष्म 113
स्फीति 113
प्तता 113
चुअल 113
14.@@ 113
कार्यान्वित 112
जहाँ 112
खोलने 112
सीधे 112
जीएस 112
रुख 112
तेज 112
घटक 112
तर@@ 112
उसका 112
एन 111
किक 111
अंतर्@@ 111
ख 111
दे 111
जि@@ 111
ऋ@@ 111
पहलों 111
ी 111
एनडी@@ 111
सीमाओं 111
तर 111
80 110
जाएंगे 110
कलापों 110
क्या 110
रेट 110
प्रतिकूल 110
5,@@ 110
आंकड़े 110
तया 110
सम्@@ 110
रहीं 110
देश@@ 110
एक@@ 109
शा@@ 109
न्यू@@ 109
हासिल 109
प्रार@@ 109
एएस 109
संस्थागत 108
जीवन 108
बन्धन 108
अर्जित 108
टिंग 108
क्स 108
विस्तृत 108
सेगमेंट 108
अप 108
प्रसार 108
चलन 108
सिफारिशों 108
देखा 108
वों 107
चु@@ 107
अल्@@ 107
जे@@ 107
प्रकट 107
मुद्रा@@ 107
प्रतिनिधि 107
टन 107
निष्पा@@ 107
संग्रहण 107
यर 107
क्षेत्र@@ 106
सहायक 106
कहा 106
ट्@@ 106
देते 106
75 106
संकट 106
2010-11 106
स्रोत 106
36 106
प्लेटफॉर्म 105
33 105
गु@@ 105
नियुक्ति 105
अंतर्निहित 105
बड़ा 105
तकों 105
पूर्ति 105
संगत 105
किसानों 105
साइट 105
बनाई 104
ष्टि@@ 104
दल 104
लेख@@ 104
परिवेश 104
लाया 104
उपलब्धता 104
अनुमानों 104
iii 104
अग्रणी 104
सल 104
अनुमानित 104
शि@@ 104
स्क 104
पर्या@@ 104
टेक 104
एजेंसी 104
आप 103
आरसी 103
व्य@@ 103
सम्बद्ध 103
क्रम@@ 103
एनएस@@ 103
धि@@ 103
वी 103
भिन्न 103
खा@@ 103
ध्या@@ 103
रखे 102
48 102
यथा@@ 102
उठाए 102
नां@@ 102
परिभाषित 102
विधि 102
प्रथाओं 102
सामना 102
फर्@@ 102
सूचीबद्ध 102
ऊपर 102
कराई 102
आश्वासन 102
संघ 102
बढ़ते 101
संस्थानों 101
दावों 101
इंटरनेट 101
व्यावसायिक 101
अधिसूचित 101
टेड 101
छूट 101
ण्ड 101
पोर्टल 101
करों 101
लोकपाल 101
आयोग 101
गी 100
क्रिया@@ 100
हमारा 100
सीए 100
परिवर्त@@ 100
हास 100
विशेष@@ 100
एलसी 100
प्रधान 99
आपने 99
ण्@@ 99
सृजन 99
सहभागिता 99
इन्हें 99
जनता 99
05 99
चालित 98
आईडी 98
14@@ 98
अपनाया 98
अगले 98
लॉकडाउन 98
रजि@@ 98
शासन 98
ार@@ 98
संके@@ 98
पंजीकृत 98
यों 98
एससी@@ 98
ट्र@@ 98
अवसर 97
ज्ञान 97
तियाँ 97
कार्यक्रमों 97
1949 97
मध्य@@ 97
निम्न 97
अर्थ@@ 97
जिनकी 97
फो@@ 97
संतुलन 97
प्रदर्शित 97
वापस 97
गमन 97
पर@@ 96
मि@@ 96
खो@@ 96
सीजी@@ 96
निगम 96
बन 96
लाभों 96
जन 96
किंतु 96
प्@@ 96
ना 96
भर्ती 96
v@@ 95
ारों 95
आईएफ@@ 95
व्यक्तिगत 95
मेल 95
स्वास्थ्य 95
एव@@ 95
ज्यादा 95
मान्यता 95
णा@@ 95
विषयों 95
अनि@@ 95
भूमि 94
लक्षित 94
लो@@ 94
अक्टूबर 94
पार्श्@@ 94
उल्लिखित 94
मिली 94
पड़ने 94
लेट 94
बचाव 94
सिक्@@ 94
संभावनाओं 94
एमए 93
आईबी@@ 93
सेवा@@ 93
मिला 93
तीसरी 93
घटाकर 93
बहु@@ 93
टर 93
उसी 93
एसएस 93
यो@@ 93
नेस 93
संचार 93
खाद्यान्न 92
व्यक्ति 92
सचिव 92
1@@ 92
बै@@ 92
अति@@ 92
छोटे 92
नये 92
इनके 92
ती@@ 92
महीनों 92
सूची@@ 92
टो@@ 92
दी@@ 92
फलों 92
घटनाओं 92
आईपी 92
पैरा 92
मद 92
सो@@ 91
मामूली 91
सियों 91
ड्राफ्ट 91
म 91
प्रभावों 91
अर्@@ 91
कौ@@ 91
इसने 91
आया@@ 91
बंट@@ 91
60 91
क्षक 91
बढ़ी 91
शनों 91
पीएफ@@ 90
एकल 90
रक्षा 90
पॉलिसी 90
उपस्थिति 90
अद्यतन 90
स्ट 90
तता 90
मीडिया 90
मियों 90
कोर 90
नीलामी 89
चन 89
आया 89
नीकरण 89
कवरेज 89
रल 89
45 89
रूपरेखा 89
ओवर 89
नीतियां 89
सर्वोत्तम 89
बहि@@ 89
65 89
आइ@@ 89
6,@@ 89
जिस 89
होकर 89
फसल 89
गतिविधियां 89
संकल्प 89
महा@@ 89
प्रोसेसिंग 88
पारदर्शिता 88
दूर 88
निवेशक 88
भंडार 88
जै@@ 88
पड़ 88
आईसी 88
जरूरत 88
सीपी@@ 88
32 88
प्रतिबद्धता 88
युक्त 88
ऑन@@ 88
परिसर 87
बद्ध 87
नो@@ 87
आईएल 87
नामांकन 87
संभव 87
पेपर 87
असर 87
रणनीति 87
निर्दिष्ट 87
मण्डल 87
नियों 87
सहारा 86
अप्र@@ 86
संपत्ति 86
गवर्नर 86
मुख्यतः 86
रखना 86
सीसी 86
निर्भर 86
लें 86
18@@ 86
मे 86
मॉ@@ 86
ष्ट 86
खोले 86
रहेगा 86
पट्टे 85
चीन 85
चक्र 85
3,@@ 85
आरबी 85
स्वचालित 85
ट्रिलियन 85
घट@@ 85
कौशल 85
विनि@@ 85
आक@@ 85
सुविधाएं 85
आयी 84
अपनाने 84
सूचनाओं 84
मै@@ 84
प्रवर्तन 84
13.@@ 84
विशेषज्ञ 84
यात्रा 84
नी 84
अधिकांश 84
लेखों 84
जोर 84
त्वरित 84
सन 84
ठ@@ 84
पाया 83
सेंटर 83
स्वीकृति 83
निरंतरता 83
मैनेजमेंट 83
एआर 83
कता@@ 83
षी 83
नया 83
नियंत्र@@ 83
जिम्मेदारी 83
कै@@ 83
गे@@ 83
चयन 83
अध्य@@ 83
49 83
छह 83
कारक 82
मिलाकर 82
लची@@ 82
गये 82
गुजरात 82
ड़@@ 82
कार्यरत 82
सांख्यिकी 82
2011-12 82
राशि@@ 82
जिसने 82
चुनौतियों 82
हित@@ 82
चेक 82
ष्टि 82
पू@@ 82
चि@@ 82
ल्यूशन 81
95 81
ंब@@ 81
भुग@@ 81
बेर 81
कं@@ 81
एलए 81
शिष्ट 81
सप्ताह 81
विद्युत 81
रू@@ 80
समाज 80
मिल 80
क्रय 80
इत्यादि 80
धीमी 80
उन्@@ 80
स्टे@@ 80
जरूरतों 80
प्लेटफार्म 80
्य@@ 80
मी 80
मान 80
वैकल्पिक 80
कॉ@@ 79
नीयता 79
लर 79
पूर्वानुमान 79
जों 79
ऑफ@@ 79
सरल 79
अपरि@@ 79
पद 79
15@@ 79
अपना@@ 79
2,@@ 79
िक 79
उभरती 79
आसान 79
मार्ग 79
ढ@@ 79
टा 79
वाई 79
सीएफ@@ 79
वासी 79
एसएमई 79
ऑ@@ 79
[ 78
पॉलि@@ 78
प्रमाण@@ 78
मुक्त 78
लिंग 78
श्रमिक 78
वातावरण 78
आंशिक 78
कृ@@ 78
एफडीआई 78
हद 78
उत्पादकता 78
यर@@ 78
दक्षता 78
डीएस 78
46 78
भू@@ 77
क्रमिक 77
संकेतक 77
चूंकि 77
समावेश 77
औपचारिक 77
प्रकाशन 77
फ्@@ 77
ब्लू@@ 77
क्ति@@ 77
परक 77
श्रृंखला 77
ण्य 77
सीमाएं 77
मा 77
बुनियादी 77
बदलाव 77
हि@@ 77
तुल्य 77
विपरीत 76
इनकी 76
डिजि@@ 76
दाता 76
हितों 76
आगामी 76
एपी 76
200@@ 76
उत्तर 76
माइ@@ 76
आवश्य@@ 76
निष्कर्ष 76
रुझान 76
डिजाइन 76
9,@@ 76
तय 76
बहाली 76
एच 76
तानों 76
,9@@ 76
दिखाई 76
ढांचा 76
वें 76
सीमांत 76
बीएस@@ 76
परिवर्तित 76
स्ट्रे@@ 75
दर्शाती 75
आईए@@ 75
़ 75
उद्देश्यों 75
इस्तेमाल 75
साल 75
्@@ 75
वक्तव्य 75
44 75
अतः 75
वर्गों 75
कानूनों 75
वस्तु 75
I 75
वास 75
आवेदन 75
समर्थित 75
अंश 75
उम्मीद 75
ँ@@ 75
मजबूती 75
स्टैंड@@ 75
आयकर 75
डॉ 75
समस्त 75
16.@@ 74
परंतु 74
आम 74
12@@ 74
किसान 74
केन्द्र 74
ा 74
पार 74
परिणा@@ 74
मौजूद 74
धारियों 74
तत्@@ 74
प्रवृत्ति 74
* 73
वाणिज्य 73
महत्त्वपूर्ण 73
दिवस 73
दूसरा 73
ट्रेड 73
वर्षीय 73
08 73
निर्मित 73
माल 73
इतर 73
ऑप्शन 73
बीए 73
ज़र 73
दायित्वों 73
सा 73
एसएमएस 73
धन@@ 73
अदा 73
51 73
शियां 72
कहीं 72
पीपी@@ 72
मंजूरी 72
64 72
चर 72
समन्वय 72
आवासीय 72
उपरोक्त 72
नामे 72
विलय 72
पथ 72
चुनिंदा 72
परिवहन 72
सामने 72
01.@@ 72
आशा 72
सेवानिवृत्ति 72
III 72
ला 72
चूक 72
जा@@ 72
महाप्रबंधक 72
भि@@ 72
500 71
आदेश 71
सफलतापूर्वक 71
भूत 71
पुनर्गठन 71
उनमें 71
जुटा@@ 71
हरण 71
कल्याण 71
सांख्यिकीय 71
सहज 71
व्यापारियों 71
उत्तरदायी 71
प्रस्तुति 71
अखिल 71
लॉ@@ 70
सामग्री 70
समझौता 70
प्रमाणपत्र 70
नेतृत्व 70
आबंटन 70
13@@ 70
बिजनेस 70
कानून 70
66 70
दें 70
समी@@ 70
17@@ 70
वाहों 70
ऑफिस 70
93 70
देखें 70
लाइफ 70
कुमार 70
उभरते 70
क्वि@@ 69
एसए@@ 69
कॉल 69
आरएस 69
चैनलों 69
सतर्कता 69
यूके 69
ज़@@ 69
ग्र@@ 69
धारि@@ 69
नोटिस 69
पेक्ष 69
रिंग 69
वली 69
15.@@ 69
सुधारों 69
गलत 69
सलाहकार 69
स्रोतों 69
पुष्टि 69
पहला 69
मुख 69
त्र@@ 69
पहुँच 69
70 69
2009 69
महिला 69
पूंजी@@ 69
क्रियान्वयन 68
स्थि@@ 68
शीघ्र 68
29@@ 68
23.@@ 68
यक 68
टीसी 68
मौ@@ 68
भा@@ 68
साक्ष्य 68
आए 68
त्रा@@ 68
डेट 68
41 68
ल्ड 68
रू 68
सार्क 68
बु@@ 67
चैनल 67
पुरस्कार 67
चक्र@@ 67
बीएस 67
स्था@@ 67
जो@@ 67
टिकाऊ 67
प्रतिक्रिया 67
्यों 67
धि 67
संग्रह 67
बाध्य@@ 67
सामान्य@@ 67
निर्या@@ 67
मो@@ 67
यानी 67
दु@@ 67
ब्@@ 67
स्मि@@ 67
वाय@@ 67
मार्गदर्शन 67
व्यक्त 67
नक@@ 67
दित 67
एडी@@ 67
सेट 67
नरमी 67
सर्वाधिक 67
पीओ@@ 67
लोक 67
मौसम 66
अच्छी 66
प्राधिकरण 66
42 66
इंटर@@ 66
डिंग 66
हारों 66
ॅ@@ 66
ंक 66
करणों 66
विशेषताओं 66
चुका 66
लिंक 66
29.@@ 66
संगठ@@ 66
अपनाई 66
निर्णयों 66
सिद्धांत 66
महत्व 66
डीए 66
सम्मिलित 66
भार 66
बार@@ 65
आईडी@@ 65
उन्होंने 65
38 65
ताएँ 65
फ्ट 65
कारों 65
वापसी 65
दृ@@ 65
ारी@@ 65
क्षेप 65
II 65
खंडों 65
काउंटर 65
छोड़ 65
24@@ 65
जिन्होंने 65
पृष्ठभूमि 65
हस्तांतरण 65
क्रि@@ 65
43 65
गार@@ 65
फी@@ 65
योजना@@ 65
केन्द्रों 65
करेगी 64
] 64
चरणबद्ध 64
कानूनी 64
वत 64
विमर्श 64
प्रक्रिया@@ 64
परामर्@@ 64
ग्रेड 64
कोड 64
7,@@ 64
मर्@@ 64
स्ट@@ 64
फार्म 64
बिजली 64
समक्ष 64
स्थ@@ 64
उद्योगों 64
टर@@ 64
र्म 64
शासित 64
एजेंसियों 64
ची 64
लंबित 64
स्थ 64
पहलुओं 64
85 64
8,@@ 64
अल्प@@ 64
टरों 64
विधि@@ 63
इनपुट 63
प्राइवेट 63
सॉफ्टवेयर 63
स्ति@@ 63
यत 63
87 63
इनका 63
शुरूआत 63
री 63
प्रयुक्त 63
धान 63
दों 63
दक 63
सात 63
क्षा@@ 63
सुधार@@ 63
प्स 63
शा 63
निय@@ 63
एनसी@@ 63
यूनिट 63
ंकित 62
नामक 62
उछाल 62
? 62
विरुद्ध 62
उसमें 62
मार्ग@@ 62
प्रस्तावों 62
नीति@@ 62
आचार 62
र्स 62
24.@@ 62
99 62
ग्रहण 62
कारियों 62
iv 62
टरिंग 62
मुख्य@@ 62
फै@@ 62
47 62
58 62
समि@@ 62
घटा 62
शृंखला 62
पारित 62
करे 62
शक्ति 62
ग्लोबल 62
कुशल 62
मंद 62
आईए 61
पारदर्शी 61
एमआई 61
16@@ 61
बन्@@ 61
कराता 61
डाला 61
बल्कि 61
पते 61
37 61
नियमा@@ 61
पूर्व@@ 61
ष्ट@@ 61
ढ़@@ 61
लेते 61
त्रुटि 61
गामी 61
निपटने 61
टू@@ 61
68 61
मजदूरी 61
चुनौती 61
ध@@ 61
कार्यवाही 61
39 61
नाबार्ड 61
देशी 61
केन्द्रित 61
द्@@ 61
विदेशों 60
नुकसान 60
ंस 60
शित 60
प्रमाणित 60
शुभारंभ 60
डाई 60
चिन्हित 60
प्राथमि@@ 60
रिकार्ड 60
स्ट्रा@@ 60
मद्देनजर 60
दान 60
ग्@@ 60
मिलकर 60
वसू@@ 60
लना 60
एफआई 60
ध 60
पीसी@@ 60
बोर्@@ 60
संरच@@ 60
मु@@ 60
-1 60
एप्लिकेशन 60
दस्तावेज 60
न्यायालय 60
55 60
भाव@@ 60
परिसरों 59
रहता 59
प्राव@@ 59
व्यापारिक 59
ारि@@ 59
अंश@@ 59
निहित 59
संपदा 59
18.@@ 59
थोक 59
सम्मेलन 59
प्रस्तु@@ 59
दीर्घकालिक 59
अवकाश 59
करोड 59
कराए 59
देखरेख 59
विज@@ 59
पि@@ 59
चना 59
उठाने 59
ें 59
पीडी 59
डालर 59
एसटी 59
20.@@ 58
भवनों 58
मिशन 58
समापन 58
मूलभूत 58
करेंगे 58
फ्यू@@ 58
प्रशिक्षित 58
नेशनल 58
तीकरण 58
घ 58
पैमाने 58
माहौल 58
पोर्ट@@ 58
चुनाव 58
समर्पित 58
76 58
शुरु 58
वह@@ 58
है@@ 58
अवसंरचना 58
सहयोगियों 58
सीएन@@ 58
आरओ 58
एजेंट 58
दिखाया 58
72 58
'@@ 58
एकीकरण 58
शिक्षण 57
सॉ@@ 57
विचार@@ 57
्या@@ 57
रखाव 57
सिफ़@@ 57
फार्@@ 57
हार्@@ 57
सं 57
दिवसीय 57
पाई 57
देशीय 57
पूर्वा@@ 57
04 57
गहन 57
कैपिटल 57
काउं@@ 57
सिफारिश 57
74 57
समू@@ 57
ै 57
आघात 57
पॉजि@@ 57
पक्ष@@ 56
सब्जियों 56
विशेषज्ञों 56
मान्य 56
जुटाने 56
एसए 56
सकेगा 56
ल्यू@@ 56
अन्यथा 56
मिलने 56
टीम 56
डो 56
संस्कृति 56
वहां 56
पद्धतियों 56
समाहित 56
दौर 56
\ 56
म्@@ 56
संलग्न 56
प्रमाण 56
जिला 56
ब्या@@ 56
आईपी@@ 56
उच्चतम 56
गो@@ 55
स्त@@ 55
अर 55
धोखाध@@ 55
गि@@ 55
शियल 55
घटना 55
पारि@@ 55
लगाए 55
17.@@ 55
पड़ता 55
भागीदारी 55
एनआई@@ 55
बो@@ 55
पर्यावरण 55
द्ध@@ 55
गो 55
मित 55
आरआई 55
सृजित 55
डा@@ 55
एमएल 55
टियों 55
नीला@@ 55
अर्ध@@ 55
पुन@@ 55
केन्द्र@@ 55
फिन@@ 55
संचित 55
वोट 54
बढ़ाना 54
भाव 54
गा@@ 54
57 54
संवेदनशील 54
दान@@ 54
मूल@@ 54
अन्तर्गत 54
े@@ 54
एमसी@@ 54
बाधाओं 54
पह@@ 54
प्रवेश 54
संरचनात्मक 54
थ 54
उदाहरण 54
द्धि@@ 54
एण्ड 54
फीस 54
शीलता 54
फोकस 54
द्य@@ 54
इंश्योरेंस 54
आरएल 54
पॉ@@ 54
63 54
पश्चिम 53
टै@@ 53
स्टा@@ 53
न्यास 53
द्ध 53
कराना 53
02 53
मालि@@ 53
शून्य 53
कल@@ 53
दालों 53
प्रतिस्पर्धा 53
सीमा@@ 53
नवीनतम 53
क्षमताओं 53
मृत्यु 53
बीएसई 53
बुक 53
2000 53
दाताओं 53
सों 53
जुड़ी 53
समझा 53
कोष 53
कार्यप्रणाली 53
सीओ@@ 53
पै@@ 52
फैक्@@ 52
प्रदर्शन 52
सिटी 52
अवसरों 52
25@@ 52
भरोसा 52
अध्यक्षता 52
लाई 52
श्रम 52
फर्म 52
77 52
लाई@@ 52
व्यापी 52
टर्स 52
79 52
चरणों 52
88 52
सीई@@ 52
आसानी 52
तीसरे 52
वस्तु@@ 52
प्रतिभागियों 52
रोकने 52
फर 51
सहमति 51
उत्तरदायित्व 51
लीकरण 51
लाना 51
89 51
71 51
राहत 51
ल्स 51
03 51
2008 51
पीएल 51
प्रतिनिधियों 51
फ़@@ 51
पठ@@ 51
कल 51
इंफ्रास्ट्रक्चर 51
रखरखाव 51
रहते 51
रहेगी 51
एनआर@@ 51
एसटी@@ 51
+ 51
पर्@@ 51
थोड़ी 51
पाने 51
घोषणा@@ 50
प्रसंस्करण 50
पेशेवर 50
नोडल 50
माध्यमों 50
होनी 50
लो 50
वर्धित 50
सर्विस 50
कारणों 50
परिप्रेक्ष्य 50
क्र@@ 50
प्रधानमंत्री 50
प्रशासनिक 50
रिकॉर्ड 50
तरफ 50
अल्प 50
सुविधाजनक 50
घट 50
प्रॉ@@ 50
देती 50
09 50
ऐ@@ 50
विभाजित 50
डा 50
दारी 50
गांवों 50
निकायों 50
विजन 50
सब्सिडी 50
दत्त 50
पार्टी 50
,@@ 50
हाउस@@ 50
्यू@@ 50
स्थानों 50
चिकित्सा 50
वृत्ति 50
क्रम 49
कल्पित 49
दो@@ 49
संतुलित 49
अधिसूचना 49
तैयारी 49
नंबर 49
कारगर 49
मिलेगी 49
पंजीकरण 49
कम@@ 49
सुसंगत 49
मोचन 49
णियां 49
28@@ 49
पीआर 49
उन्नयन 49
कताएं 49
दर्शाते 49
संपत्तियों 49
2006 49
00@@ 49
श्र@@ 49
ंग 49
उद्@@ 49
82 49
61 49
व्यापारी 49
छुट्टी 49
हस्तक्षेप 49
हेड@@ 49
सर्@@ 49
बढ़ोत्तरी 49
कार्या@@ 49
समझौते 49
लाइसेंस 49
दिवाला 49
मैट 49
30.@@ 49
स्वैच्छिक 49
लीज 49
सीडी 49
कम्पनी 48
पुनः@@ 48
26@@ 48
बिंदु 48
खनन 48
पत्र@@ 48
नैतिक 48
v 48
र्ड 48
27.@@ 48
ृ@@ 48
मामला 48
33.@@ 48
रजिस्टर 48
एनएच@@ 48
ौ@@ 48
स्वी@@ 48
वन 48
बद्धता 48
ंत 48
उपभोक्ताओं 48
27@@ 48
तर्कसंगत 48
हाउस 48
रखेगा 48
दिवा@@ 48
संवेदनशीलता 48
पैकेज 47
96 47
फसलों 47
डीआर@@ 47
हर 47
मुकाबले 47
हैदराबाद 47
आईएस@@ 47
मुद्दे 47
सशक्त 47
आनु@@ 47
26.@@ 47
54 47
संबंधों 47
थि@@ 47
विधियों 47
73 47
ऑप्@@ 47
शन्स 47
सिर्फ 47
समु@@ 47
लिं@@ 47
तात्@@ 47
धारण 47
प्रकृति 47
53 47
2.5 47
कारिता 47
स्पष्टीकरण 47
दबा@@ 47
52 47
संवर्धन 47
संचरण 47
समी 47
प्रशासन 47
डेटाबेस 47
त्रि@@ 47
22.@@ 47
रण@@ 47
निष्पक्ष 47
रखता 47
मास्टर 47
28.@@ 47
जीएम 46
देखने 46
निष्@@ 46
लर्निंग 46
ंड@@ 46
सूच@@ 46
कॉर्@@ 46
अवगत 46
संदेश 46
फा@@ 46
संगठनों 46
ष्@@ 46
बढ़त 46
आरएफ 46
चाहे 46
चिंताओं 46
पैरा@@ 46
बाधित 46
जानी 46
जोकि 46
लाइसे@@ 46
कभी 46
विशेषकर 46
लगा 46
ही@@ 46
सुधारने 46
भागियों 46
बं@@ 46
14,@@ 46
सुझाव 46
पुणे 46
06 46
फॉ@@ 46
कथन 46
दृष्टि@@ 45
सफल 45
कीकरण 45
मोटे 45
प्राधिकारी 45
ज़@@ 45
59 45
उपयोगी 45
शोर 45
स्पॉट 45
इलेक्ट्रा@@ 45
92 45
फेड@@ 45
सीपी 45
प्रेरित 45
टर्न@@ 45
2007 45
तम 45
चर्स 45
लाइ@@ 45
विस्तारित 45
द्र@@ 45
प्रेस 45
अध्याय 45
अप्रत्यक्ष 45
लंबे 45
चेन्न@@ 45
दाएं 45
69 45
98 45
रूप@@ 45
प्लै@@ 45
उत्तर@@ 45
बढ़े 44
स्थितियां 44
डेड 44
वॉ@@ 44
प्रदाता 44
समया@@ 44
नीतिक 44
नशील 44
मशीन 44
तकनीक 44
प्रायोगिक 44
पक्षों 44
दि 44
षणों 44
ह 44
रिटर्न 44
योजित 44
अंग 44
अमेरिका 44
19.@@ 44
जाएं 44
तारी@@ 44
ट्रस्ट 44
ब्रांड 44
विश्वसनीय 44
औसतन 44
फाइनेंस 44
81 44
सू@@ 44
कलाप 44
एमएसपी 44
दावा 44
ऐतिहासिक 44
उल्लंघन 44
97 44
स्फी@@ 44
एएस@@ 44
वेब 44
प्रोफाइल 43
रूपा@@ 43
लेंस 43
वंचित 43
जिलों 43
एमसी 43
साव@@ 43
जेशन 43
श्रेणी@@ 43
णीय 43
तुरंत 43
लियों 43
1955 43
पूर्णतः 43
किराया 43
आईएन@@ 43
टाइ@@ 43
न्न@@ 43
अमरीका 43
संभावनाएं 43
फ 43
स्वि@@ 43
प्रभा@@ 43
अवार्ड 43
सफलता 43
हें 43
84 43
पोषण 43
भौगोलिक 43
प्रतीत 42
डीसी 42
एसी 42
62 42
रहती 42
जीसी 42
आय@@ 42
प्रारूप 42
आती 42
फोन 42
पार्@@ 42
योजन 42
प्रासंगिक 42
ऑन 42
शी 42
अल 42
द्वितीय 42
कुशलता 42
थो@@ 42
प्रतिबद्ध 42
ठा@@ 42
निकट 42
धीरे 42
यूरो 42
सौ@@ 42
ि 42
वहन 42
जता 42
200 42
सोने 42
नियोजित 42
हीत 42
सोशल 42
बैठ@@ 42
प्रतिष्ठित 42
खर्@@ 42
न्ट 42
12,@@ 42
यूनि@@ 42
रिपोर्@@ 42
होम 42
25.@@ 42
टाई 42
दंड 42
उठा@@ 42
एशिया 42
सलाह 42
बदले 42
विनिवेश 41
परिषद 41
56 41
परस्पर 41
67 41
उपरांत 41
एबी 41
वर्ड 41
वाहन 41
पिछली 41
संशोधनों 41
राष्ट्री@@ 41
पूर्वक 41
गांधी 41
सका 41
बताया 41
संदर्भित 41
भाषाओं 41
ड्स 41
पों 41
सड़क 41
फॉर 41
स्कीम 41
उत्तरा@@ 41
ज़ 41
प्रेषित 41
निवासी 41
1,5@@ 41
50@@ 41
स्ट्र@@ 41
र्थ 41
आईओ@@ 41
चों 41
पेमेंट 41
निवार@@ 41
टिकल 41
खरीफ 41
फर्स्ट 41
बराबर 41
2.0 41
हस्ताक्षर 41
साइ@@ 41
अत्याधुनिक 41
कंप्यू@@ 41
उत्पादक 41
डर 41
टो 40
तरीकों 40
जाली 40
साधारण 40
शिकायतें 40
संभा@@ 40
क्टर 40
हरित 40
35@@ 40
थोड़ा 40
आपूर्ति@@ 40
कट@@ 40
टिप्पणियों 40
क्रियान्वित 40
आकर्षित 40
एटी@@ 40
इका@@ 40
स्वीकार्य 40
पोषित 40
अपनाए 40
30@@ 40
वर्तन 40
मॉड्यूल 40
पक्षी 40
मत@@ 40
दिसम्बर 40
प्रभावशाली 40
सहमत 40
पाँच 40
कोलकाता 40
इंट 40
ब्रो@@ 40
प्रतिबंध 40
मंच 40
एसोसिएशन 40
सुगम 40
चयनित 40
धारी 40
पृथक 40
पीओ 40
तनाव 40
वीसी 39
ंशियल 39
निर्बाध 39
बर@@ 39
विश्ले@@ 39
चिंता 39
समकक्ष 39
फाइने@@ 39
मेट 39
पेट्रोलियम 39
विचारों 39
स्प@@ 39
रिपोर्टों 39
योजनाएं 39
संरक्षित 39
उत्कृष्ट 39
पासवर्ड 39
11,@@ 39
संघीय 39
नं@@ 39
वरी@@ 39
प्रायोजित 39
एक्सेस 39
एप्@@ 39
शे@@ 39
उद्य@@ 39
योग्यता 39
पारंपरिक 39
संदिग्ध 39
मं@@ 39
महाराष्ट्र 39
यल 39
प्रतिबि@@ 39
हाजिर 39
सीएस 39
सौंपा 39
गृह 39
आईटी@@ 39
डिस्काउंट 39
क्षति 39
षित 39
ऊ@@ 39
k@@ 39
सर्वोच्च 39
उनको 39
प्रसारित 39
आरडी 39
नेट 39
ते@@ 39
वितरित 39
ईएस@@ 39
2022 39
प्रतिवर्ष 39
बल@@ 39
91 39
बनने 38
स्त 38
जोड़ा 38
सिंग 38
काल 38
एप्लीकेशन 38
प्रतिस्पर्@@ 38
उनसे 38
मेंट 38
संपन्न 38
बज@@ 38
तद@@ 38
अना@@ 38
विवेक 38
विलंब 38
मानद@@ 38
परा@@ 38
पुनर्निर्माण 38
बदौलत 38
पाए 38
क्र 38
माँग 38
वर्षा 38
अध@@ 38
10,@@ 38
ईए 38
मू@@ 38
करनी 38
विपणन 38
मिक 38
1000 38
संस्थाएं 38
डीएस@@ 38
खरीदने 38
प्रद 38
लेख 38
क्लो@@ 38
बजे 38
सम्पूर्ण 38
यो 38
बशर्ते 38
सर्विसेज 38
टीए 37
ल्@@ 37
प्री@@ 37
हार्य 37
लगी 37
उपयोगकर्ताओं 37
राज@@ 37
खपत 37
देगा 37
फ्रा@@ 37
@ 37
संर@@ 37
सांकेतिक 37
ज्ञापन 37
पश्चात् 37
अस्थिर 37
दूरस्थ 37
1.5 37
प्रबंधक 37
कंप्यूटर 37
चलाया 37
उदय 37
जिम्मेदार 37
वित्त@@ 37
गों 37
वादी 37
सेवानिवृत्त 37
हेज 37
बदलने 37
सहभा@@ 37
कार्यकाल 37
कक्ष 37
ंश 37
07 37
छो@@ 37
प्रयोज@@ 37
मतदान 37
बंध@@ 37
आते 37
नागरिकों 37
डीपी 37
उदार 37
विशेषज्ञता 37
अप्रत्याशित 37
मिलता 37
महाविद्यालय 37
मिथ@@ 37
बनाते 37
इंटरफेस 37
अंदर 37
199@@ 37
उपकरण 36
ग्रुप 36
लंबी 36
जिम्मेदारियों 36
प्राकृतिक 36
इंटरनेशनल 36
पीएफ 36
बीआई 36
3.5 36
बंधक 36
गन 36
प्ले@@ 36
मुखी 36
योज@@ 36
भेजे 36
विश्व@@ 36
खराब 36
चुकी 36
रुप@@ 36
आठ 36
लिया@@ 36
ू 36
प्रतिस्पर्धी 36
नयी 36
माइक्रो 36
शंस 36
सेमिनार 36
न्य 36
निष्कर्@@ 36
निर्वाचित 36
तट@@ 36
विषय@@ 36
समाचार 36
होंगी 36
लहर 36
ऊर्@@ 36
षों 36
पेज 36
पाल@@ 36
2-@@ 36
ग्राफ 36
कार्यकारी 36
1.1 36
अनिश्चि@@ 36
www.@@ 36
टि 35
ट्रां@@ 35
समुदाय 35
प्रतिबंधों 35
ब्रे@@ 35
करा 35
रियायत 35
साप्ताहिक 35
दश@@ 35
पण@@ 35
दगी 35
83 35
घटा@@ 35
क्षे@@ 35
अन्@@ 35
ज्ड 35
कैश 35
प्रभारी 35
डै@@ 35
वर्णित 35
00,000 35
36@@ 35
आशय 35
स्टॉ@@ 35
जल 35
टू 35
नजर 35
व्युत्@@ 35
नॉ@@ 35
एमडी 35
अच्छा 35
प्रका@@ 35
अत्यंत 35
पार@@ 35
कोयला 35
सर्व@@ 35
निंग 35
.com 35
बाधा 35
द्विपक्षीय 35
समयबद्ध 35
46@@ 35
86 35
प्रि@@ 35
प्रतियोगिता 35
प्याज 35
अंत@@ 35
सर्स 35
मशीनरी 34
दक्षिण@@ 34
त्तर 34
ड़ियों 34
एसई@@ 34
दानों 34
भिन्नता 34
विकल्पों 34
ु 34
दार 34
पख@@ 34
धानों 34
प्रमाणन 34
यूएई 34
दृढ़ 34
बदल 34
महसूस 34
प्रारम्भ 34
झ@@ 34
निर्दे@@ 34
घर 34
सत्यापन 34
विका@@ 34
दृढ़ता 34
पूरक 34
कम्पनियों 34
78 34
vi@@ 34
.0@@ 34
सर्वश्रेष्ठ 34
स्कूल 34
संतोषजनक 34
समन्वित 34
प्रतिनिधित्व 34
अनंतिम 34
शिप 34
गंभीर 34
ु@@ 34
ऑटो 34
सीएसआर 34
हमेशा 34
x@@ 34
क्षणों 34
उठाया 34
भारतीयों 34
अभूतपूर्व 34
रा 34
लियां 34
तापूर्वक 34
कार्यस्थल 34
दक्षिण 34
वीं 34
आएगी 33
बदली 33
एएम@@ 33
क्षि@@ 33
राजस्थान 33
एग्री@@ 33
ंगि@@ 33
किफायती 33
क्ला@@ 33
तब@@ 33
जनसंख्या 33
अभाव 33
गिरकर 33
डाइ@@ 33
कैप 33
कू@@ 33
वैध 33
योग 33
स्टै@@ 33
नकारात्मक 33
रूपांतरण 33
बताते 33
शर्ते 33
लगाई 33
वर्धन 33
ज्@@ 33
पोजीशन 33
1.2 33
चुकता 33
जापान 33
दं@@ 33
गण 33
था@@ 33
रे 33
शीर्ष@@ 33
स्तर@@ 33
पदोन्नति 33
औ@@ 33
चिह्नित 33
यथास्थिति 33
समस्या 33
इंडियन 33
अपलोड 33
रेखांकित 33
1,0@@ 33
फ़ा@@ 33
पात्रता 33
पेश 33
इस्पात 33
प्रोसे@@ 33
साक्ष@@ 33
टॉ@@ 33
करायी 33
मंजूर 33
लियन 32
क्रे@@ 32
ंतरित 32
आरंभिक 32
शोषण 32
साख 32
सेस 32
वित्@@ 32
यहां 32
ब्रिक्स 32
साझा 32
चलकर 32
हैं@@ 32
वार्@@ 32
जू@@ 32
बारिश 32
भत्ते 32
चला 32
परिवारों 32
चू@@ 32
आधार@@ 32
ओसी 32
पदों 32
इयों 32
नज़र 32
मात्र 32
रद्द 32
मानी 32
आपको 32
दृढ़@@ 32
पुर्@@ 32
09.@@ 32
ष्ठ@@ 32
65.@@ 32
रेलवे 32
संग्र@@ 32
अपी@@ 32
पे 32
भांति 32
स्ट्री 32
लक्ष@@ 32
जाग@@ 32
वेब@@ 32
सिल 32
प्लेट@@ 32
निम्न@@ 32
म् 32
बाधा@@ 32
निरूप@@ 32
सख्त 32
दर्शी 32
बढ@@ 32
.in 32
सेंट्रल 31
धक 31
बीपी 31
राजनैतिक 31
दर्@@ 31
आपदा 31
र्व 31
मशीनों 31
वर 31
गिर@@ 31
आर्@@ 31
पार्टियों 31
कठिन 31
कन@@ 31
मिलती 31
लाभार्थियों 31
क्षतिपूर्ति 31
मिले 31
दावे 31
45@@ 31
आईबी 31
चय 31
बचने 31
विद्यार्थियों 31
्र@@ 31
वित 31
रखकर 31
इ 31
आशा@@ 31
जरूरी 31
अपेक्षा@@ 31
दिये 31
मॉडलों 31
संग@@ 31
मुहैया 31
कोविड 31
सिद्धा@@ 31
गतिशील 31
एनएम@@ 31
फ्रे@@ 31
मुश्@@ 31
0.5 31
ंट 31
पेड 31
इजाफा 31
लापन 31
1.8 31
गति@@ 31
कैलेंडर 31
लिमि@@ 31
ऑपरे@@ 31
उत्कृष्टता 31
ष्कृत 31
5-@@ 31
फोलियो 31
हटा 31
रेज 31
ंचर 31
फाय@@ 31
परिकल्पना 31
घ@@ 31
स्टी 31
नशीलता 31
यौन 31
उपस्थित 31
न्या@@ 31
ढाँ@@ 31
13,@@ 31
बोझ 31
4.5 31
मलेशिया 31
पूर्वी 30
तना@@ 30
निभाई 30
स्वस्थ 30
ऑडिट 30
अनुदान 30
भेज 30
7.5 30
दस्तावेजों 30
उद्धृत 30
केट 30
निप@@ 30
सुपुर्@@ 30
सावधानी 30
पसंदीदा 30
कार्यशाला 30
रोक 30
भले 30
एनए@@ 30
रुकता 30
आना 30
नेपाल 30
धातु 30
जगत 30
10,000 30
टिप्पणी 30
35.@@ 30
आंक@@ 30
संवे@@ 30
लिक 30
नही 30
एजे@@ 30
रिटी 30
खुला 30
सम्बन्धी 30
विशेषताएं 30
निदेश@@ 30
तीनों 30
धिकृत 30
पदार्थों 30
फॉर्@@ 30
ban@@ 30
अहमदाबाद 30
कठोर 30
पैनल 30
चेन 30
ब्लॉक 30
ईआर 30
रोकथाम 30
म्स 30
पहुंचा 30
जाति 30
घटाने 30
तें 30
केरल 30
नियु@@ 30
लंदन 29
अद@@ 29
द्यो@@ 29
सीईओ 29
गुंजाइश 29
हिस्सों 29
नं 29
करीब 29
जीवन@@ 29
कदमों 29
समावेशी 29
प्रोजेक्ट 29
सामयिक 29
एटी 29
1961 29
32.@@ 29
निर्भरता 29
मैनुअल 29
सिं@@ 29
IV@@ 29
पड़ी 29
बहाल 29
इक्वि@@ 29
2009-@@ 29
केशन 29
आफ 29
मन 29
2,4@@ 29
पन्@@ 29
08.@@ 29
प्रवि@@ 29
इंजीनियरिंग 29
खुले 29
सिद्ध 29
साधन 29
व्यवस्थाओं 29
सिंगापुर 29
वो@@ 29
अधिकृत 29
सटीक 29
रत्न 29
लिये 29
असामान्य 29
सारा@@ 29
भेजने 29
डिस्@@ 29
आधि@@ 29
वस्तुतः 29
यि@@ 29
गुण@@ 29
शालाएं 29
कामकाज 29
दुनिया 29
21-@@ 29
2005 29
ट्रा@@ 29
सिक्के 29
साझेदारी 29
आरटीआई 29
बनाता 29
बढ़ाते 29
समस्याओं 29
ठ 29
40@@ 29
प्रतिदिन 29
डील@@ 29
अधिकतर 28
अनाज 28
लाए 28
संस्था@@ 28
हार@@ 28
ौदा 28
अंतरिम 28
अकादमी 28
हैंड@@ 28
ष्टता 28
नगर 28
प्रयो@@ 28
1.3 28
एनपीएस 28
पैटर्न 28
संतुष्टि 28
श्@@ 28
लिखित 28
प्रदाताओं 28
रियल 28
करू@@ 28
मुख@@ 28
मूर्त 28
ग्रा@@ 28
क्सी 28
ठीक 28
आउट 28
घटना@@ 28
तीव्रता 28
कागज 28
टीपी 28
भे@@ 28
व्यवसा@@ 28
अनुपस्थिति 28
गुना 28
चाहते 28
ऐप 28
चौ@@ 28
वृत्त 28
मिलेगा 28
पिंग 28
निकाय 28
शी@@ 28
लेखन 28
तभी 28
दशक 28
स्वतंत्रता 28
गईं 28
स्टी@@ 28
विश्वविद्यालय 28
पंजाब 28
एनएफ@@ 28
लगे 28
अनुभ@@ 28
संस्@@ 28
मार्के@@ 28
धिकार 28
रबी 28
बढ़ता 28
कंपनियां 28
सम्मान 28
संक्रमण 28
डे 28
चे 28
चुके 28
असाधारण 28
ईंधन 28
श्रीमती 28
एसडी 27
स्त्रो@@ 27
जिट 27
शुरुआती 27
उत्साह@@ 27
तरफा 27
संभालने 27
किस्त 27
प्रबन्ध 27
अधिकारों 27
इकाइयां 27
चेतावनी 27
बीटी 27
मिलान 27
टेक्@@ 27
एसएम@@ 27
डाय@@ 27
वाड़े 27
शर्त 27
कार्यभार 27
हस्ताक्षरित 27
गैस 27
ग्रीन 27
युवाओं 27
टाइम 27
माप 27
ब्योरा 27
पुरानी 27
तरण 27
प्रतिनि@@ 27
मैप 27
बेस 27
हार्डवेयर 27
सात्मक 27
चालन 27
रकम 27
0.1 27
गृ@@ 27
ख़ 27
चार्टर्ड 27
एमओ@@ 27
विभाजन 27
250 27
शालाओं 27
$ 27
बरकरार 27
हिन्दी 27
प्राइ@@ 27
जम्मू 27
सम्मेलनों 27
प्रसारण 27
अध्ययनों 27
नवीकरणीय 27
हे 27
विंडो 27
रत 27
नत 27
एकत्र 27
65@@ 27
महिलाओं 27
अहम 27
विकासशील 27
उगा@@ 27
पीटी 27
डीआई 27
विष@@ 27
ओएस 27
बहुपक्षीय 27
शहरों 27
नकारी 27
वालों 27
रीकरण 27
ज्ञा@@ 27
सर्वे@@ 27
परिभाषा 27
उसने 27
सन्@@ 27
जनरल 26
प्रौ@@ 26
जयपुर 26
परम्परा@@ 26
इंस्टीट्यूट 26
पुनरुत्थान 26
02.@@ 26
रह@@ 26
फॉर्म 26
दवा@@ 26
टीआई 26
ज्ञात 26
उपकरणों 26
6.5 26
षण 26
चिं@@ 26
5.0 26
प्रकोप 26
ये@@ 26
ओपी 26
बढ़ा@@ 26
ट्रि@@ 26
डाटाबेस 26
पड़ेगा 26
वेस्टमेंट 26
आईजी@@ 26
मनी 26
मार्केटिंग 26
राजनीतिक 26
गित 26
स्वच्छ 26
पत्रिका 26
आस@@ 26
चार@@ 26
1995 26
नव@@ 26
ब्रा@@ 26
करवा@@ 26
पुराने 26
रियाय@@ 26
94 26
एसएम 26
मैसूर 26
° 26
डो@@ 26
पीछे 26
दक्षिणी 26
पश्चिमी 26
निष्ठा 26
हन 26
अत 26
लै@@ 26
वैन 26
मिन@@ 26
द्व@@ 26
निकल 26
म्प@@ 26
ीं 26
कताओं 26
रख 26
आईएम 25
घटनाक्रम 25
णि@@ 25
रियों 25
एमटी@@ 25
मेंट्स 25
टीय 25
सैं@@ 25
सक्रियता 25
नता 25
सेन्@@ 25
माफी 25
विचाराधीन 25
अंततः 25
लगने 25
नग@@ 25
तृतीय 25
विज्ञापन 25
पहुंचने 25
1990 25
सेंसेक्स 25
50,000 25
तन 25
प्रशि@@ 25
प्रभाग 25
त्र 25
प्राधिकार 25
vi 25
बढ़ाई 25
बैरल 25
आकर्षक 25
भेजा 25
णी@@ 25
1,4@@ 25
नौ 25
हानि@@ 25
उर्वरक 25
विश्वसनीयता 25
V.@@ 25
रुचि 25
म्य 25
सामूहिक 25
पुनरु@@ 25
कालीन 25
7-@@ 25
लेशन 25
पक@@ 25
ड़ी 25
प्रचार@@ 25
सत्य@@ 25
मीट्रिक 25
सौर 25
आं@@ 25
टस 25
नेंस 25
खरीद@@ 25
ंडे@@ 25
प्राथमिकताओं 25
भाषा 25
वज@@ 25
नन 25
समेंट 25
गा 25
नैनीताल 25
व्यावहारिक 25
डर्स 25
2.4 25
भु@@ 25
अभिन्न 25
नियर 25
अभ@@ 25
त्रुटि@@ 25
परियोजनाएं 25
तालिका 25
रखती 25
ऑफर 25
पड़े 25
खण्ड 25
वृत्@@ 25
नें 25
ंडा 25
वें@@ 25
आरक्षण 25
कन्@@ 25
अफ्रीका 24
खास 24
सोर्@@ 24
पर्स 24
अवि@@ 24
फाइन@@ 24
38@@ 24
शु@@ 24
सब@@ 24
दूरसंचार 24
सीरीज 24
ग्रेट 24
बदलते 24
2002 24
नर 24
कंप@@ 24
38.@@ 24
संक्षिप्त 24
मापद@@ 24
तथ्य 24
निग@@ 24
जाल@@ 24
फेड 24
बेचने 24
स्क्र@@ 24
1,7@@ 24
संकेतों 24
क्ता 24
बर 24
प्रतिभा@@ 24
सातवें 24
संकाय 24
श्रेष्ठ 24
सुविधा@@ 24
स्टील 24
अनुच्छेद 24
आभूषण 24
कॉमर्स 24
दीर्घ@@ 24
अंग्रेजी 24
जयंती 24
जोड़ 24
जे 24
एशियाई 24
of@@ 24
bar@@ 24
od@@ 24
गर्@@ 24
क्षम@@ 24
क्य 24
नो 24
जाएंगी 24
कस्ट@@ 24
उत्तरी 24
15,@@ 24
करवाने 24
गयीं 24
ऑटो@@ 24
बजाय 24
सचिवालय 24
्या 24
4.0 24
माननीय 24
मध्यस्थता 24
4-@@ 24
यूनियन 24
अपर्याप्त 24
भरने 24
ू@@ 24
फायदा 24
त्तों 24
3-@@ 24
ंसि@@ 24
गतिशीलता 23
नरम 23
जगह 23
ंड्स 23
स्ड 23
उठाते 23
बिग 23
शक्तियों 23
चुना 23
अवधारणा 23
जागरूक 23
उठा 23
मानना 23
तीय 23
3.0 23
आइ 23
सौंपी 23
फ्र@@ 23
संचयी 23
महात्मा 23
ईमेल 23
लेना 23
1,6@@ 23
स्वाभाविक 23
सुचारू 23
दू@@ 23
800 23
प्रतिभागी 23
िया 23
यही 23
सितम्बर 23
आईसीटी 23
जित 23
तीसरा 23
प्रकाश 23
इनको 23
प्रिं@@ 23
कर्स 23
में@@ 23
सार्@@ 23
साधनों 23
49.@@ 23
र्र@@ 23
ैं@@ 23
सीमेंट 23
1-@@ 23
s@@ 23
वा 23
मानता 23
संबंध@@ 23
ऊंची 23
मंत्री 23
भावना 23
नियोजन 23
स्मार्ट 23
विवाद 23
सुगमता 23
लगाना 23
युवा 23
# 23
आज 23
डीए@@ 23
खतरों 23
22@@ 23
स्वा@@ 23
टिक्स 23
रेल 23
1,8@@ 23
36.@@ 23
उपयोगकर्ता 23
कनेक्ट 22
सेक्टर 22
पेशकश 22
लेपन 22
फार@@ 22
ग्राह@@ 22
एड@@ 22
फोरम 22
पने 22
सीधी 22
पित 22
बिहार 22
देरी 22
1.0 22
परिणाम@@ 22
डीजल 22
मिड 22
संसा@@ 22
गम 22
8-@@ 22
यूजर 22
,000 22
रक्षण 22
प्रविष्टि 22
पाठ्यक्रमों 22
परिसंपत्तियों 22
भूटान 22
आवा@@ 22
सकेगी 22
स्थल 22
प्रया@@ 22
सरत 22
उपयोगिता 22
हू@@ 22
कृपया 22
मॉनि@@ 22
तन@@ 22
स्विच 22
तर्क 22
क्शन 22
राज्य@@ 22
सख्ती 22
एं@@ 22
नौकरी 22
विज़न 22
कल्पना 22
23@@ 22
अनुसंधान@@ 22
5,000 22
फाउंडेशन 22
फल@@ 22
देकर 22
व्या@@ 22
डाउनलोड 22
तु 22
त्री 22
सम्मानित 22
पेंशन@@ 22
डिग्री 22
बुले@@ 22
37@@ 22
आवंटित 22
कार्मिक 22
गार 22
उत्पीड़न 22
बनाएगा 22
रित 22
उपलब्धियों 22
समृद्ध 22
ट्रिक 22
न्यायिक 22
षक 22
क्रा@@ 22
ड़ा 22
पावर 22
ंट@@ 22
टेशन 22
नियंत्रक 22
आउटपुट 22
स्टार्ट@@ 22
उबर@@ 22
मान्य@@ 22
दायरा 22
प्रश्न 22
34.@@ 22
प्रतिपक्ष 22
सैद्धांतिक 22
व्यवस्था@@ 22
bi@@ 22
इतिहास 22
जीकरण 22
निर्ण@@ 22
साद 22
जिले 22
जिनसे 21
जेक्शन 21
देन@@ 21
लें@@ 21
कक 21
प्रतिक्रिया@@ 21
ॉ@@ 21
सलाह@@ 21
फाइ@@ 21
10-@@ 21
आधुनिक 21
चीनी 21
स्पि@@ 21
विविधता 21
पारस्परिक 21
खासतौर 21
सूचकां@@ 21
ारण 21
ध्व@@ 21
एसोसि@@ 21
वाहनों 21
फर@@ 21
X 21
स्थापन 21
गृह@@ 21
क्रॉस 21
ंसिंग 21
जान@@ 21
किन्तु 21
करवा 21
समेत 21
मह@@ 21
डाल 21
प्रिंट 21
वरि@@ 21
अनुभवों 21
उद@@ 21
लॉस 21
ंड 21
भागों 21
च्यू@@ 21
श्रमिकों 21
भाग@@ 21
मॉड@@ 21
निर्देशित 21
जोड़ने 21
धर 21
जिन@@ 21
अनुशंसा 21
उद्यमियों 21
संभाला 21
डाले 21
श्य@@ 21
0-@@ 21
74.@@ 21
मर 21
सरकारें 21
एक्स 21
कराती 21
र्ट 21
टेक्नोलॉजी 21
एफआई@@ 21
लीय 21
साय@@ 21
भर@@ 21
बास्केट 21
दस 21
पहचा@@ 21
चार्@@ 21
त्रु@@ 21
बदलकर 21
निर्मा@@ 21
भागीदार 21
फुट@@ 21
सीओ 21
रिकवरी 21
छ 21
दोहरे 21
क्यू 21
वीडियो 20
यूरोप 20
फील्ड 20
श्रे@@ 20
साकार 20
जायेगा 20
1.6 20
वर्तक 20
वास्तव 20
अचानक 20
1.7 20
पहलू 20
जीबी 20
दृश्य 20
कीं 20
ढ 20
इंडि@@ 20
विश्लेषकों 20
07.@@ 20
रोड@@ 20
मोड 20
वक 20
= 20
डिलीवरी 20
27,@@ 20
लिटी 20
शर्तें 20
उभरा 20
शन@@ 20
शॉर्ट 20
1,9@@ 20
मानों 20
नागरिक 20
पंक्ति 20
्रा@@ 20
300 20
पद्ध@@ 20
लेता 20
वैश्@@ 20
कठिनाइयों 20
ल्ट 20
सम्पन्न 20
अनुशं@@ 20
प्रोफेसर 20
मिश्रित 20
लोकप्रिय 20
टीएस 20
समझने 20
वश्यक 20
घंटे 20
त्ता 20
पहचानने 20
पक्षीय 20
झु@@ 20
स्ट्री@@ 20
द्धार 20
V 20
ैं 20
जाया 20
बंध 20
मेजबान 20
37.@@ 20
भंडारण 20
a@@ 20
दारों 20
नवीन 20
निष्क्रिय 20
20,@@ 20
सुझावों 20
माप@@ 20
1998 20
रिसर्च 20
नीत 20
निगमों 20
इस@@ 20
ल्डिंग 20
कायम 20
शीघ@@ 20
रम 20
रिमोट 20
लेन 20
मेक 20
एलपीजी 20
हॉ@@ 20
प्रतिब@@ 20
गल@@ 20
रहें 20
क्ट 20
धों 20
मांगों 20
सेल्@@ 20
टेस्ट 20
स् 20
विशेषता 20
क्ष 20
खंड@@ 20
53.@@ 20
तकनीकों 20
भीम 20
2.2 20
एका@@ 20
https 20
राष्ट्र 20
मद्दे@@ 20
उन@@ 20
संदेशों 20
करा@@ 19
रूस 19
आबादी 19
जुड़ा 19
डील 19
अति 19
दस्तावे@@ 19
आमतौर 19
फिट 19
क्सि@@ 19
घटने 19
विविध@@ 19
64.@@ 19
मनो@@ 19
संवाद 19
अगली 19
क्वा@@ 19
खाद्या@@ 19
गह@@ 19
दर्शाने 19
आजीविका 19
परिस्थिति 19
सेवानि@@ 19
घटनाएं 19
बैक@@ 19
अवस्था 19
पेट्रोल 19
इरादे 19
वांछित 19
देखे 19
गै@@ 19
पद@@ 19
रहना 19
इंडेक्स 19
निफ्टी 19
चढ़ा@@ 19
मैं 19
अपील 19
चावल 19
1999 19
39@@ 19
नैशनल 19
शत 19
रहेंगे 19
४@@ 19
स्पर्@@ 19
55.@@ 19
उम्मीदवार 19
47.@@ 19
प्रमुखों 19
सल@@ 19
प्रयोजनों 19
समर्थ 19
जिसमे 19
तालमेल 19
खोज 19
प्रोत्सा@@ 19
विश्वविद्यालयों 19
चेंज 19
दिव@@ 19
काव 19
कॉलेज 19
अनुशासन 19
ड़ों 19
सब 19
संगठित 19
पब्लिक 19
एसई 19
2001 19
बेंगलुरु 19
फार्मास्@@ 19
ट्रांसफर 19
बह@@ 19
IV 19
अभ्यास 19
आसपास 19
मिश्रण 19
समुदायों 19
बेस्ट 19
प्रत्य@@ 19
सम्बन्धित 19
स्टोर 19
गण@@ 19
विशाल 19
वाद@@ 19
प्रौद्योगि@@ 19
टल 19
गम@@ 19
चा 19
ट्टा 19
एकमात्र 19
तमिलनाडु 19
बंगाल 19
बेल@@ 19
तला@@ 19
ड्@@ 19
कर्नाटक 19
कश्मीर 19
001 19
पर्यटकों 19
संब@@ 19
मशी@@ 19
अग्रसर 19
46.@@ 19
मार@@ 19
ाई 19
ंतरण 19
06.@@ 19
निष्ठ 19
विज्ञान 19
सीआई 19
फॉर@@ 19
सप्लाई 19
आवंटन 19
उत्सर्जन 18
निर्माताओं 18
राजीव 18
विभागीय 18
आन@@ 18
आप@@ 18
लॉजी 18
उड 18
बगैर 18
ग्रिड 18
इच्छुक 18
सत्य 18
सावधा@@ 18
शेय@@ 18
लाभकारी 18
आमदनी 18
अला@@ 18
चौथे 18
खिलाफ 18
आलोक 18
कराधान 18
वहाँ 18
मांगी 18
प्लांट 18
रेंस 18
सामंजस्य 18
सुलभ 18
षकों 18
देशभर 18
नेटवर्@@ 18
भों 18
आगमन 18
परोक्ष 18
धियां 18
x 18
जमीन 18
टेंट 18
सीएम@@ 18
बिलिटी 18
2,6@@ 18
2,7@@ 18
लोग 18
ढ़@@ 18
400 18
जाँच 18
लौह 18
बढ़ाए 18
परंपरागत 18
ज़ोर 18
न्याय@@ 18
खरीदी 18
हीन 18
स्ती 18
आवेदनों 18
यूएस@@ 18
रैंकिंग 18
धर@@ 18
पीवी 18
संस्थाप@@ 18
नाओं 18
प्रश@@ 18
वचन@@ 18
99.@@ 18
23,@@ 18
यूरो@@ 18
वर@@ 18
1,3@@ 18
वर्णन 18
लाइव 18
थे@@ 18
भेजी 18
पानी 18
नार्@@ 18
व्याख्यान 18
स्वे@@ 18
आपस 18
छात्रवृत्ति 18
स्टर 18
0.6 18
ट्रैकिंग 18
1956 18
एसपी 18
तथ्यों 18
स्नातक 18
व्यवसायों 18
भाष@@ 18
हजार 18
अर्थ 18
तत्वों 18
टिन 18
आन्@@ 18
तरिक 18
चुनौतीपूर्ण 18
दिव्यांग 18
चारों 18
मेशन 18
रसायन 18
कितनी 18
कड़ी 18
विवादित 18
स्टि@@ 18
खें 18
शीर्षक 18
डालने 18
नाइट 18
अनुकू@@ 18
जीएस@@ 18
इंटी@@ 18
संकलन 18
सबुक 18
तुओं 18
त्मकता 18
डाउन 18
अनुबंध 18
अध्यादेश 18
2019-@@ 18
जटि@@ 18
यूरोपीय 18
न्वयन 18
तिहाई 18
बिन्दु 18
जवाबदेह 18
वां 18
¡ 18
सेल@@ 18
66.@@ 18
स्को@@ 18
वेयर 18
तीस 17
45.@@ 17
वर्चुअल 17
ईरान 17
आमंत्रित 17
निया@@ 17
सीएल 17
आंध्र 17
बाकी 17
सुचार@@ 17
एचडी 17
0.3 17
प्रसन्नता 17
एसआर 17
अच्छे 17
ंक@@ 17
परिवार 17
होटल 17
मांग@@ 17
62.@@ 17
0.4 17
परिस्थितियां 17
हाथ 17
संयोजक 17
मुताबिक 17
त्याग 17
बिल्डिंग 17
कां@@ 17
एस्टेट 17
धता 17
पा 17
काग@@ 17
संसद 17
इरा@@ 17
टर्@@ 17
निकासी 17
अर@@ 17
VI 17
निरस्त 17
42.@@ 17
यात्री 17
बढ़ना 17
सदैव 17
जैन 17
हक 17
निकालने 17
वैल्यू 17
पाठ्यक्रम 17
वाय 17
मिक्स 17
आदेशों 17
बहु 17
अभियानों 17
अर्थशास्त्र 17
स्ट्रि@@ 17
ज़ा@@ 17
63.@@ 17
बचा 17
लीड 17
सत्रों 17
रन 17
लय@@ 17
मसौदा 17
लग्@@ 17
वीएस 17
नै@@ 17
पाद@@ 17
तलाश 17
उपभो@@ 17
श्री@@ 17
कड़े 17
मंडलों 17
कॉम 17
ब्यू@@ 17
एएन@@ 17
हैः 17
जवाबदेही 17
डाली 17
हकदार 17
दायर 17
चेन्नई 17
34@@ 17
चै@@ 17
गतिविधि@@ 17
चलने 17
बेचे 17
नल 17
24,@@ 17
बनाकर 17
अदा@@ 17
कहते 17
उपलब्धि 17
स्क्रीन 17
लेबल 17
बच्चों 17
पहुंचाने 17
48.@@ 17
तो@@ 17
संस्थापित 17
1980 17
षि@@ 17
अक्सर 17
ंत@@ 17
दौरे 17
प्रारू@@ 17
कमजोरी 17
बनायी 17
कामगारों 17
त्य 17
54.@@ 17
अभ्य@@ 17
रिलेशनशिप 17
ड़े 17
निरन्तर 17
co@@ 17
शिक्षित 17
छोटी 17
पं@@ 17
ईयों 17
व्याप्त 17
सर्वि@@ 17
अलर्ट 17
ओबीसी 17
डब्ल्यू 17
आधिकारिक 17
पसंद 16
चाहता 16
पीजी@@ 16
चुनौतियां 16
तौ@@ 16
सिंगल 16
यांत्रिकी 16
ट्रैक 16
॑ 16
44@@ 16
मोर्@@ 16
सिफारिशें 16
निरा@@ 16
नमूने 16
निर्वाचन 16
उत्तराखंड 16
संस्करण 16
80@@ 16
टोल 16
सकेंगे 16
सै@@ 16
कान्@@ 16
67.@@ 16
माण 16
पूर्@@ 16
इलाहाबाद 16
लेस 16
र्थ@@ 16
इंड@@ 16
25,000 16
बढ़ेगी 16
विन्यास 16
उत्पाद@@ 16
हूं 16
गरीबों 16
ः@@ 16
हु@@ 16
निश्चि@@ 16
यातायात 16
संज्ञान 16
विफल 16
रता 16
यिक 16
लियत 16
दामों 16
जानने 16
पाल 16
बचाने 16
32@@ 16
निविदा 16
हत 16
गिता 16
बोली 16
वैधानिक 16
पिन 16
भर्@@ 16
राष्ट्रपति 16
संभवतः 16
न्यूजीलैंड 16
पीएम 16
पक 16
मिंग 16
दौरा 16
राउंड 16
सार 16
फैक्ट्री 16
शनल 16
समझ 16
फ़ 16
डिजा@@ 16
ध्य@@ 16
बदला 16
क्लस्टर 16
गठबंधन 16
स्कूलों 16
निभाता 16
16,@@ 16
टिकल्स 16
नाते 16
सह 16
भाषी 16
हालिया 16
यहाँ 16
सत्र 16
ंडिंग 16
मिकों 16
ठोस 16
वश 16
पात 16
क्षा 16
अवश्य 16
दाय@@ 16
प्रथा 16
एपी@@ 16
रेखा 16
ड्यू@@ 16
कच्चा 16
त्व 16
च्च@@ 16
गी@@ 16
णता 16
दर्शन 16
अल@@ 16
ओपन 16
आफ@@ 16
प्रेरक 16
नतम 16
मॉरीशस 16
प्रतिबंधित 16
असफल 16
1.4 16
प्रवासी 16
गुणवत्तापूर्ण 16
इलेक्ट्रो@@ 16
ठि@@ 16
कॉन्@@ 16
19,@@ 16
एनडीए 16
पूर्णता 16
गांव 16
गिर 16
वन@@ 16
केस 16
वर्ल्ड 16
सराहना 16
माइक्रो@@ 16
प्राय 16
सामा@@ 16
रोड 16
चेन्@@ 16
जें@@ 16
नवीकरण 16
राइट 16
आचरण 16
जनजाति 16
प्रचार 15
देर 15
ग्राम 15
अजय 15
दारियों 15
फं@@ 15
हाउसिंग 15
बातें 15
125 15
अनिवार्@@ 15
फ्टवेयर 15
निर्यातकों 15
क्ली@@ 15
लगा@@ 15
क्ताओं 15
आयु 15
पृ@@ 15
स्पेक्ट्रम 15
ऑयल 15
विमोचन 15
संयोजन 15
अरब 15
चलाने 15
युक्ति 15
बेसिक 15
पल@@ 15
पर्यटन 15
निर@@ 15
ऊंचाई 15
थान 15
जलवायु 15
अनुचित 15
सें@@ 15
हब 15
मेट्रो 15
खरीदे 15
कार्र@@ 15
18,@@ 15
स्नातकोत्तर 15
000 15
संतुष्ट 15
भरपाई 15
पेय 15
दूध 15
विक्रेताओं 15
सारे 15
परे@@ 15
2004 15
चिंतन 15
मनरेगा 15
ट्रै@@ 15
गं@@ 15
तव्य@@ 15
आत्मनिर्भर 15
बृ@@ 15
चली 15
डेवलपमेंट 15
रेशन 15
वार@@ 15
र्ण 15
डीबीटी 15
350 15
2,000 15
आधे 15
मनोरंजन 15
संक्षेप 15
3,6@@ 15
स्वतः 15
मानती 15
नाएँ 15
नवी@@ 15
जल@@ 15
48@@ 15
लगाते 15
जनों 15
सल्@@ 15
विद्यालयों 15
खाड़ी 15
कोटा 15
उत्त@@ 15
माने 15
म्ब@@ 15
रखें 15
मुझे 15
फाइड 15
लिस्ट 15
भागीदारों 15
जवाब 15
माल@@ 15
देख 15
ारिश 15
एनजीओ 15
क्रो@@ 15
ँ 15
शुक्रवार 15
तिया 15
स्थता 15
सचि@@ 15
फैलने 15
एकत्रित 15
सकी 15
अस@@ 15
वायरस 15
2020-@@ 15
तत्कालीन 15
अन्तर@@ 15
69@@ 15
राइ@@ 15
प्रोग्राम 15
1991 15
जर्@@ 15
बची 15
सौदे 15
3,7@@ 15
प्रबल 15
ड़@@ 15
निया 15
जनक 15
भरा 15
खतरा 15
उठाना 15
वर्जन 15
दस्तावेज़ 15
संपर्@@ 15
गहरा 15
रिट 15
ढांचागत 15
उच्च@@ 15
सिक्का 15
दृश्यों 15
मत्स्य 15
चुने 15
चा@@ 15
49@@ 15
छः 15
गौ@@ 15
बचा@@ 15
पोर्@@ 14
टीकाकरण 14
1996 14
बानी 14
रिकॉर्@@ 14
शोध@@ 14
भय 14
कराते 14
लिहाज 14
नियाँ 14
एफपी 14
एंड@@ 14
क्ल@@ 14
सिंह 14
टैक्स 14
उद्देश@@ 14
किरा@@ 14
एसएससी 14
स्टोरेज 14
ट्रल 14
लार्@@ 14
लयों 14
2003 14
ड़ 14
इतनी 14
कारी@@ 14
प्रमुख@@ 14
एट 14
कोयले 14
साबित 14
डॉ@@ 14
मि 14
णिक 14
ग्रह@@ 14
तारीखों 14
बनकर 14
बॉम्बे 14
क्रमा@@ 14
गेहूं 14
सुझा@@ 14
हवाई 14
सपोर्ट 14
वाद 14
अड़@@ 14
फा 14
खतरे 14
सिक्यो@@ 14
कार्यबल 14
प्रतिभा 14
मुकद@@ 14
120 14
आखिरी 14
अत्या@@ 14
अक्ष@@ 14
आत्म@@ 14
प्ला@@ 14
सामान 14
घटित 14
यूट्यूब 14
व्@@ 14
जुड़ाव 14
कैप्@@ 14
कोटि 14
दूरी 14
न्द्र@@ 14
भुवनेश्वर 14
दुर्लभ 14
अवलोकन 14
सिस 14
छोड़ने 14
पटेल 14
इम्@@ 14
पोर्ट 14
सत्यापित 14
y@@ 14
सित 14
सांस्कृतिक 14
लग 14
असमर्थ 14
आभासी 14
दरा 14
प्रगतिशील 14
थ्र@@ 14
57@@ 14
निरी@@ 14
सीआईएल 14
मता@@ 14
ईएस 14
सिस्ट@@ 14
बागवानी 14
ठी@@ 14
मनाया 14
एसएस@@ 14
भूल 14
20,000 14
चित्र 14
उतार 14
दशकों 14
निकाला 14
स्थानांतरित 14
गणित 14
नोटबंदी 14
जरु@@ 14
सर्वो@@ 14
भी@@ 14
खासकर 14
डोमेन 14
निभा@@ 14
धारणाओं 14
60.@@ 14
आयुक्त 14
आश्र@@ 14
रोल 14
चुनावों 14
ढील 14
टैब 14
विधायी 14
प्वाइंट 14
संपा@@ 14
क्षम 14
प्रशस्त 14
क्त 14
रणनीतिक 14
ब्यौ@@ 14
जर्नल 14
66@@ 14
दुर्@@ 14
किस 14
फ़्@@ 14
55@@ 14
स्पा@@ 14
करेंगी 14
देहरादून 14
संसदीय 14
4,9@@ 14
लुक 14
आवाजाही 14
इसीलिए 14
्यता 13
दुर्घटना 13
जांच@@ 13
58@@ 13
बदलावों 13
जमेंट 13
बडी 13
शांत 13
कराएगा 13
लगाकर 13
पड़ताल 13
रोका 13
निका@@ 13
धारणा 13
पाते 13
दिखा 13
निभा 13
व्याख्या 13
शै@@ 13
अपराध 13
गरीब 13
अपवाद 13
लेटर 13
दायी 13
दन 13
विधेयक 13
ईएम 13
पुट 13
बेंग@@ 13
बिंदुओं 13
68@@ 13
अन्त 13
बर्@@ 13
पदभार 13
बहुमूल्य 13
सोना 13
मणि@@ 13
47@@ 13
180 13
सिवाय 13
इनसे 13
म्भिक 13
आपकी 13
कर्मियों 13
मुक़ाबले 13
टिप्प@@ 13
बारीकी 13
ीन 13
वासियों 13
फेसबुक 13
फ्रंट 13
स्टो@@ 13
उम्मीदवारों 13
मास 13
हांगकांग 13
संबोधित 13
नमी 13
मिया@@ 13
50.@@ 13
नलों 13
64@@ 13
मैन 13
वस्तुएं 13
ट्री@@ 13
पत्रिकाओं 13
भूतपूर्व 13
हाय@@ 13
विश्@@ 13
17,@@ 13
सम्मुख 13
बायो@@ 13
शैक्षणिक 13
कार्यक्षेत्र 13
जर्स 13
टर्मिनल 13
पीसीआर 13
रायपुर 13
पिछला 13
न्त 13
आपातकालीन 13
नरों 13
कैरियर 13
उन्हीं 13
हलचल 13
दौ@@ 13
स्रो@@ 13
लियाँ 13
वाइ@@ 13
संक्र@@ 13
कोरिया 13
गाँ@@ 13
बुवाई 13
सेल्स 13
150 13
फंडिंग 13
टमाटर 13
आपसी 13
शुदा 13
ईसी 13
ब्यूरो 13
05.@@ 13
67@@ 13
पड़ती 13
फ़ॉ@@ 13
फैले 13
छू@@ 13
त् 13
समीकरण 13
तरि@@ 13
सक 13
एनपी@@ 13
बाढ़ 13
700 13
नवम्बर 13
कार्यकारिणी 13
बदलती 13
अधिकां@@ 13
वाना 13
निर्यातक 13
संक@@ 13
३@@ 13
खुलने 13
त्व@@ 13
बीसीएम 13
चम@@ 13
जितना 13
आंकड़ा 13
आईआर 13
एगा 13
वीकरण 13
समझौतों 13
यूपी 13
पंजी@@ 13
पल 13
तर्ज 13
तल 13
डेल 13
शब्दों 13
सीधा 13
एन्@@ 13
रुक 13
3,4@@ 13
नजदीक 13
अनियमि@@ 13
स्पेस 13
कक्षों 13
रूट 13
आता 13
जबरदस्त 12
बातचीत 12
तत्व 12
एचए@@ 12
रीज 12
मिस्@@ 12
सम्बन्ध 12
शीट 12
भारत@@ 12
रें@@ 12
निवास 12
ऐक्@@ 12
पीढ़ी 12
संतु@@ 12
टिंग्स 12
सशक्तिकरण 12
दुबई 12
स्वदेशी 12
कने 12
त्ति 12
पुष्ट 12
चरम 12
ठहरा@@ 12
मांस 12
रण 12
अदालत 12
इसमे 12
लगता 12
वारा 12
जब्त 12
समर्थ@@ 12
2,9@@ 12
ढ़ 12
सूचक 12
यूनिवर्सिटी 12
अंग@@ 12
0.2 12
इको@@ 12
भरे 12
2,0@@ 12
सोलर 12
न्य@@ 12
फिलहाल 12
पदाधिकारियों 12
जला@@ 12
गंभीरता 12
सब्@@ 12
समुद्र@@ 12
आईआईटी 12
इंदिरा 12
बेच 12
44.@@ 12
शें 12
खेती 12
दीपक 12
शो 12
fin@@ 12
लाभदायक 12
फ़ाइ@@ 12
कानपुर 12
धार 12
बच@@ 12
शब्दा@@ 12
डीज 12
किराए 12
मल्टी@@ 12
आनेवाले 12
2,3@@ 12
अर्द्ध@@ 12
ंप 12
मूल्यवान 12
अग्नि@@ 12
शिफ्ट 12
जिम्मेद@@ 12
3,0@@ 12
क्तियों 12
श्यो@@ 12
सक@@ 12
गलती 12
याना 12
टें@@ 12
आलू 12
तुरन्त 12
टियाँ 12
योजक 12
मेहता 12
मतों 12
बनाएं 12
पट@@ 12
लैंड 12
प्रथा@@ 12
शोध 12
शनिवार 12
सीआई@@ 12
यूनाइटेड 12
यस 12
जिम 12
गाम 12
दा 12
पृष्ठ 12
पायी 12
प्रायः 12
तेज़ी 12
आईआई@@ 12
पायलट 12
पुरस्कृत 12
ओडिशा 12
कार्बन 12
ओमान 12
वैसे 12
अग@@ 12
वस्त 12
ड्रा@@ 12
21@@ 12
मनों 12
रूपों 12
क्वार्@@ 12
कावट 12
धी 12
वार्ड 12
उजागर 12
ऊ 12
बाँ@@ 12
यी@@ 12
स्थानांतरण 12
सचेत 12
्रे@@ 12
मोटर 12
खे@@ 12
निकलने 12
सूखे 12
निक@@ 12
ईमानदारी 12
कम्प्यू@@ 12
वैक्सीन 12
सिक्किम 12
धान@@ 12
जुड़ने 12
बढ़ाता 12
सदस्यता 12
स्की@@ 12
करवाया 12
केट@@ 12
वरी 12
सिद्धान्त 12
ण्ड@@ 12
रेख@@ 12
फायदे 12
वैज्ञानिक 12
रिक 12
विधा@@ 12
वेंचर 12
उपा@@ 12
चलाए 12
सृ@@ 12
लॉगिन 11
लखनऊ 11
कितना 11
बाग@@ 11
ऑटोमोबाइल 11
बनाये 11
छोड़@@ 11
आँ@@ 11
प्रतीक्षा 11
लिप्त 11
क्लिक 11
गांधीनगर 11
वां@@ 11
गलतियों 11
॒ 11
वर्क 11
अकादमिक 11
मौजूदगी 11
शहर 11
तकर्ता 11
प्रतिष्ठान 11
प्रशासक 11
वृद्ध 11
लरी 11
नवीनीकरण 11
भूमिकाओं 11
सूचनाएं 11
स्पर्धा 11
सच्ची 11
जेम्स 11
मैने@@ 11
पकड़ने 11
आवृ@@ 11
1993 11
त्सा@@ 11
भावना@@ 11
बास 11
धन्यवाद 11
कंट्रोल 11
टाइल 11
भेद 11
नाइजेशन 11
समाधानों 11
छु@@ 11
चालक 11
न्न 11
शांति 11
लाल 11
पेन 11
रोक@@ 11
बंधित 11
डल 11
लेक्@@ 11
एससीओ 11
सिंचाई 11
रोध 11
देगी 11
उतना 11
टीज 11
कमजो@@ 11
त्त 11
खोल 11
समानांतर 11
भरी 11
टेबल 11
6-@@ 11
लोहा 11
वस्त्र 11
रख@@ 11
पियन 11
नमूनों 11
टेली@@ 11
25,@@ 11
हैंडल 11
तं@@ 11
त्याग@@ 11
सामुदायिक 11
जीएसटी@@ 11
क्रिया 11
आभार 11
बनाएगी 11
ट्यू@@ 11
गुवाहाटी 11
कोशिश 11
ब्यौरा 11
स्टैंड 11
उदाह@@ 11
स्वामी 11
प्वा@@ 11
गियों 11
जोड़े 11
नाथन 11
मोह@@ 11
बीएम@@ 11
छात्र@@ 11
वचन 11
सटी@@ 11
दै@@ 11
ज्वा@@ 11
दुबारा 11
उपक्रम 11
गुणव@@ 11
आदर्श 11
नाइ@@ 11
अंतः@@ 11
अकाउंट 11
अधीनस्थ 11
फॉलो@@ 11
संवेद@@ 11
भ 11
एमजी 11
साम@@ 11
अर्ध 11
हालात 11
शॉ@@ 11
हूँ 11
फ्रॉ@@ 11
वही 11
ंद@@ 11
खुशी 11
पुनरा@@ 11
रोचक 11
भेदभाव 11
नगरीय 11
फैली 11
लाभार्थी 11
पैसे 11
प्रदूषण 11
जेने@@ 11
2012-@@ 11
अभिनव 11
ब्लॉ@@ 11
नॉन 11
फैलाने 11
पदा 11
ब्रि@@ 11
नव 11
बनाम 11
फाइल 11
मेडिकल 11
टेलर 11
स्या@@ 11
अक्षय 11
मार 11
कट 11
करणीय 11
छुट्@@ 11
पकड़े 11
घरों 11
इंड 11
किराये 11
जय@@ 11
इंग 11
तार@@ 11
गुणा 11
बिया 11
अपनाना 11
ंडर 11
तरी 11
आशंका 11
साध@@ 11
बुल@@ 11
ज़ि@@ 11
वो 11
टर्न 11
ऑर्डर 11
दूसरों 11
करवाई 11
एजें@@ 11
हवा 11
बताई 11
टिप्पणियां 11
एनालि@@ 11
संख्या@@ 11
आरसी@@ 11
उत्थान 11
प्रदेशों 11
रियर 11
तार्किक 11
गिर्द 11
संघ@@ 11
मानते 11
जिन्@@ 11
वेल्@@ 11
मजदूर 11
बृह@@ 11
अदाय@@ 11
गोवा 11
कमो@@ 11
कनाडा 11
एआई@@ 11
नर्@@ 11
सालों 11
0,000 11
कॉम्@@ 11
600 11
रेन 11
डब्ल@@ 11
क्रॉ@@ 11
देखना 11
अन्तर्@@ 11
रुझा@@ 11
प्लान 11
मिलते 11
लाभान्वित 11
बढ़@@ 11
डर@@ 11
पदो@@ 11
बद@@ 11
लैपटॉप 11
बलों 11
शैक्षिक 11
रंग 11
ीक 11
्यू 11
बीबी 11
30,000 11
अन्य@@ 11
तृ@@ 11
स्टोन 11
डीजी@@ 11
कोट 10
मकान 10
दाम 10
बना@@ 10
फैलाव 10
बारी 10
विधान 10
सुल@@ 10
प्रोटोकॉल 10
भविष्य@@ 10
अवरुद्ध 10
आवे@@ 10
श्योरेंस 10
कपड़ा 10
तिलहन 10
रफ्तार 10
भरपूर 10
हता 10
एमपी 10
नदार 10
शुद्धता 10
शिखर 10
दुरुपयोग 10
हस्त@@ 10
दिक 10
यें 10
आतिथ्य 10
जोड़ना 10
व्यापार@@ 10
समकालीन 10
यूनिवर्@@ 10
उलट 10
मक 10
फ़ाय@@ 10
क्वे@@ 10
मछली 10
निपटारा 10
ग्रै@@ 10
स्तं@@ 10
हाई 10
जात 10
जोड़कर 10
ट्री 10
हमलों 10
शुल्@@ 10
थोड़े 10
न्तों 10
साइटों 10
बर्ग 10
शासकीय 10
सुपुर्द 10
आवेदकों 10
जिनको 10
तित 10
सामग्रियों 10
हटाना 10
ट्रैक्ट 10
मंचों 10
पीएसयू 10
विस्त@@ 10
निपटा 10
अनुप्रयोगों 10
खी@@ 10
पूछताछ 10
उद्योग@@ 10
शक्तियां 10
पूछे 10
बहा@@ 10
बहरीन 10
विवादास्पद 10
इट 10
पटना 10
संग्रहालय 10
जर्मनी 10
रत्@@ 10
कमि@@ 10
सऊदी 10
ंज@@ 10
आधा 10
लक्षण 10
असमानता 10
छात्र 10
उद्यमिता 10
लिय@@ 10
र्जी 10
टेलीफोन 10
कब्जे 10
ऑपरेटिंग 10
t@@ 10
मुद्@@ 10
डाउन@@ 10
लू@@ 10
पर्यावरणीय 10
बों 10
संयोग 10
ज़िम्मेदारी 10
सहा@@ 10
वारी 10
सित@@ 10
प्रश्नों 10
2,8@@ 10
राष्ट्र@@ 10
स्व 10
शस 10
दुरुस्त 10
ज्ञान@@ 10
गुज@@ 10
ेद 10
गंतव्य 10
30,@@ 10
स्ट्रीट 10
ताः 10
प्रतिष्ठानों 10
स्टिंग 10
सर्वे 10
सीन 10
महासभा 10
अटल 10
ंजी@@ 10
गुजर 10
प्रेरणा 10
सीखने 10
लक 10
डन 10
आश्वस्त 10
ऑपरेशन 10
दीं 10
लय 10
सार्थक 10
फिक 10
झा@@ 10
सक्रि@@ 10
ज्यू@@ 10
रूपये 10
नक 10
तस्वीर 10
मील 10
व्याख्या@@ 10
संदर्@@ 10
कॉन्फ्रेंस 10
बढा@@ 10
उन्होने 10
कॉर@@ 10
भरोसे 10
गुणवत्ता@@ 10
नशी@@ 10
जलाशयों 10
28,@@ 10
दाद 10
खुली 10
1989 10
पुलिस 10
वाहक 10
अनुक्रम 10
र्ट@@ 10
बंदी 10
डिया 10
ट्रिक्स 10
खाली 10
इलेक्ट्रॉनिक्स 10
प्राइमरी 10
लाकर 10
प्लस 10
उद्यमी 10
वती 10
सौंप 10
अस्तित्व 10
देखभाल 10
कल्याणकारी 10
जब@@ 10
निरपेक्ष 10
्न 10
्री 10
ग्रि@@ 10
हता@@ 10
फाइनल 10
क्रमों 10
झट@@ 10
एलपी 10
सीरीज़ 10
णन 10
तरीका 10
201 10
स्टार्टअप 10
पकड़ 10
टाटा 10
संजीव 10
1987 10
डियों 10
मिली@@ 10
पोस्ट 10
प्रसिद्ध 10
अनुप्रयोग 10
भो@@ 10
कमाई 10
इल 10
कितने 10
इकोनॉ@@ 10
स्वागत 10
ट्रा 10
आस्ट्रेलिया 10
40,000 10
छवि 10
यूए@@ 10
विद्यु@@ 10
दाल 10
स्टडी 10
किलोमीटर 10
ज़ी@@ 10
61.@@ 10
प्शन 10
आयामी 10
असं@@ 10
एगी 9
एशन 9
वाह@@ 9
एना@@ 9
डेवल@@ 9
लेती 9
सॉफ्ट 9
ख़@@ 9
डीओ@@ 9
चार्ज 9
होनेवाले 9
हां 9
फ्री 9
59@@ 9
केल 9
कप@@ 9
शय 9
खनिज 9
750 9
रं@@ 9
उभर 9
पुस्तिका 9
109 9
बरेली 9
कला 9
पैं@@ 9
कल्@@ 9
जनित 9
रात 9
एमसीजी 9
कॉमन 9
लूर 9
डिज़ाइन 9
निचले 9
हल@@ 9
समूचे 9
स्वामि@@ 9
i@@ 9
स्क्रि@@ 9
कृषक 9
श्रीलंका 9
जर@@ 9
ड्रि@@ 9
70@@ 9
बांटा 9
143 9
साझेदार 9
अयस्क 9
मंशा 9
पुस्तक 9
शानदार 9
समझी 9
हटाने 9
सौदा 9
लने 9
चर्चा@@ 9
रिफंड 9
रिकॉ@@ 9
पोजी@@ 9
दूर@@ 9
अपू@@ 9
गोपनीयता 9
क़@@ 9
प्लास्टिक 9
बेल्जियम 9
त्रिपुरा 9
बताता 9
मैं@@ 9
मास्क 9
नागपुर 9
रेख 9
जिसको 9
माम@@ 9
52.@@ 9
2018@@ 9
ऊपरी 9
ड़कर 9
पारिवारिक 9
सुबह 9
सभा 9
आईसीआईसीआई 9
जमानत 9
आईजी 9
लॉक 9
ॉ 9
166 9
इंस्टि@@ 9
मरम्मत 9
निर्माता 9
पटियाला 9
ech@@ 9
मने 9
पांचवें 9
जटिल 9
B@@ 9
सकने 9
हरियाणा 9
ड़ें 9
चुनौ@@ 9
नू@@ 9
ंस@@ 9
लॉक@@ 9
तापूर्ण 9
ख्य@@ 9
खान 9
ट्रिब्यू@@ 9
2,5@@ 9
मंत्रालयों 9
स्टिक 9
समझौ@@ 9
कटाई 9
बढाने 9
मंत्रियों 9
ठे 9
चरण@@ 9
हिमाचल 9
डायरेक्ट 9
कम्यू@@ 9
आश्चर्यजनक 9
199 9
भावनाओं 9
डीएम 9
मौलिक 9
निषेध 9
पांच@@ 9
इच्छा 9
कॉरिडोर 9
मुश्किल 9
बनाती 9
टेक्नो@@ 9
2013-@@ 9
बाउ@@ 9
हल 9
शक्ति@@ 9
ैंस 9
नींव 9
जीवी 9
देंगे 9
सीख 9
एबी@@ 9
मिनट 9
डिवाइस 9
जुड़ 9
बंदरगाहों 9
कनेक्टिविटी 9
बेहतरीन 9
लोड 9
लैक्@@ 9
ठी 9
बाल 9
रैंक 9
दलों 9
पहिया 9
गुप्ता 9
मोड़ 9
तीव्र@@ 9
बित 9
खरीदारों 9
आश्@@ 9
एंटर@@ 9
कीमती 9
विचारा@@ 9
क्लि@@ 9
पमेंट 9
किट 9
तरल 9
kar@@ 9
तेलंगाना 9
नि 9
रास्ता 9
ध्य 9
प्रीमि@@ 9
चंद्र 9
णा 9
क्वालिटी 9
ठे@@ 9
प्रोफेशनल 9
11@@ 9
बड़ 9
गाई 9
स्वयं@@ 9
r@@ 9
टने 9
1,000 9
ड़ा@@ 9
अतीत 9
ारोपण 9
तान 9
ठान 9
क्रियाओं 9
29,@@ 9
घटी 9
हटाया 9
आरपी 9
डकर 9
बांद्रा 9
कुर्@@ 9
कैरे@@ 9
बल्स 9
तैनाती 9
त्रा 9
तै@@ 9
्री@@ 9
ड्यूल 9
टीओ 9
रिय@@ 9
कद@@ 9
याचिका 9
75@@ 9
मुफ्त 9
समझता 9
झो@@ 9
दियों 9
मानवीय 9
नमूना 9
ंगों 9
तव्यों 9
एवाई 9
सर्च 9
विराम 9
गोपनीय 9
ot@@ 9
ing@@ 9
कूल 9
रूपए 9
उत्पादकों 9
एस्@@ 9
लौटा 9
शनरी 9
इसी@@ 9
वर्द्धन 9
जाए@@ 9
व्हाइट 9
स्ति 9
सस्ते 9
स्कोर 9
युद्ध 9
सन@@ 9
रोधी 9
वर्स 9
सब्जी 9
पाबंदी 9
भाषण 9
कड़@@ 9
प्रै@@ 9
वर्क@@ 9
साइड 9
ताप@@ 9
चंडीगढ़ 9
बिल@@ 9
खड़ी 9
विक@@ 9
प्रतिष्ठा 9
वेज 9
प्रवा@@ 9
पड़@@ 9
पुस्तकों 9
एजेंडा 9
संगोष्ठी 9
वेने@@ 8
एला 8
द्र 8
बारी@@ 8
38,@@ 8
सोर्स 8
खा 8
मेजबानी 8
कैसे 8
एनजी@@ 8
उड्डयन 8
ञ@@ 8
कपास 8
कमी@@ 8
थन 8
साहित्य 8
सर्वर 8
सिरे 8
A 8
आक्रामक 8
नेट@@ 8
पें@@ 8
काला@@ 8
सम्पर्क 8
उबर 8
6000 8
फ़ 8
टिफिकेशन 8
डिजी@@ 8
वासन 8
वार्ष@@ 8
ौ 8
पवार 8
संभाल 8
शिंग 8
बाध्य 8
ब्राजील 8
सर्वसम्मति 8
ंटि@@ 8
लाइट 8
रोज़गार 8
स्थलों 8
ढु@@ 8
निवासियों 8
वाही 8
एएम 8
मै 8
O@@ 8
रेडियो 8
नौ@@ 8
फिलि@@ 8
सेग@@ 8
झारखंड 8
लते 8
फैसला 8
वाइड 8
रेस्ट 8
थल 8
लोर 8
बांग्लादेश 8
मिड@@ 8
नगरों 8
कोच्चि 8
खासी 8
पिछड़े 8
क्ट्स 8
198@@ 8
उन्नति 8
उ 8
जॉब 8
टीवी 8
मता 8
कपूर 8
खि@@ 8
महि@@ 8
जिक 8
कत 8
भली 8
बीकानेर 8
ेय 8
b@@ 8
यं 8
डाक 8
60@@ 8
संपादित 8
निर्वहन 8
जोड़ी 8
संस्थापक 8
स्वर्@@ 8
उपज 8
निकट@@ 8
विजेता 8
लती 8
जेनरे@@ 8
जुर्माना 8
टकराव 8
1972 8
ारत 8
अभिव्यक्ति 8
1973 8
सद@@ 8
सरो@@ 8
लु@@ 8
नाएं 8
अनू@@ 8
दह@@ 8
डाक@@ 8
बढ़ेगा 8
लान 8
तमिल 8
मलयालम 8
बदलना 8
लॉन्च 8
वायर@@ 8
वं@@ 8
खेल 8
जापानी 8
रभ 8
खोलकर 8
काओं 8
ढा@@ 8
ट्रैक्टर 8
निगाह 8
धर्म 8
न्यूयॉर्क 8
पत्ति 8
त्योहार 8
कुश@@ 8
खुद 8
ारी 8
निकाल 8
समझते 8
काया@@ 8
कथ@@ 8
ट्रो@@ 8
निभाने 8
गेट 8
ग्री 8
जिम्मे@@ 8
सिन्हा 8
विजय 8
ंद्र@@ 8
पहुंचे 8
सस्ती 8
अंडर@@ 8
स्टार्ट 8
कठो@@ 8
गर 8
कोर्@@ 8
विक्रेता 8
खरा 8
कथित 8
संयंत्र 8
वांस 8
1964 8
कृतियों 8
शिकायतकर्ता 8
2010-@@ 8
दुष्@@ 8
छा@@ 8
20-@@ 8
टैरिफ 8
पाती 8
अद्य@@ 8
बर्खा@@ 8
सर्जिकल 8
बू@@ 8
रियां 8
रूम 8
मोर्चे 8
टॉप 8
बिलकुल 8
e@@ 8
मति 8
ऊँचाई 8
बाजी 8
एकाउंट 8
फैक्टरी 8
ध्@@ 8
चुकाने 8
तथ@@ 8
विज्ञापनों 8
नष्ट 8
ड़िया 8
फ्रांस 8
ंडो 8
लाइन@@ 8
हालत 8
िकी 8
पीजी 8
एशियन 8
अकेले 8
पौ@@ 8
3,9@@ 8
कैं@@ 8
घू@@ 8
राम@@ 8
बिल्@@ 8
ारा 8
समझ@@ 8
प्लेक्स 8
पुस्तकालय 8
कर्म@@ 8
http 8
115 8
विरासत 8
ङ 8
क्रो 8
अनुमो@@ 8
लीडर 8
क्स@@ 8
क्षति@@ 8
एप 8
उत्साह 8
चले 8
किंगडम 8
ंग्स 8
फैल 8
स्कैन 8
15,000 8
खुला@@ 8
इरादा 8
न्यू 8
दोनो 8
डियन 8
टु@@ 8
लेंगे 8
बोनस 8
कामगार 8
प्रशिक्ष@@ 8
चला@@ 8
छठे 8
करियर 8
ev@@ 8
छात्रों 8
रांची 8
बुरी 8
किस्@@ 8
डालते 8
2023 8
उल@@ 8
जल्द 8
रेंज 8
लीकेशन 8
दम 8
लेगा 8
हाइ@@ 8
असम 8
मणिपुर 8
1997 8
एत@@ 8
वैधता 8
राष्ट्रों 8
मज@@ 8
अन्तर्राष्ट्रीय 8
90@@ 8
अग्रवाल 8
चौथाई 8
अगर 8
संदेह 8
पशुपालन 8
डेयरी 8
लगायी 8
न्ड 8
गूगल 8
1994 8
बहुमत 8
उपधारा 8
दर्भ 8
रजत 8
मोती 8
मिट्टी 8
न्यायाधिकरण 8
ग्री@@ 8
गर्ग 8
कौन 8
ंदे 8
151 8
एक्ट 8
अनुवाद 8
औषधीय 8
ग्रेटर 8
गोल्ड 8
किंग@@ 8
अरुणाचल 8
इलाकों 8
आपराधिक 8
फे 8
ऑपरेटर 8
रवि 8
वेंक@@ 8
फेडरेशन 7
गल 7
कॉन्फ्रेंसिंग 7
वेल@@ 7
स्पॉ@@ 7
हर्@@ 7
ष्ट्र@@ 7
मक@@ 7
जल्दी 7
सर्टिफिकेट 7
वरीयता 7
वाराणसी 7
वीडियो@@ 7
दिखाए 7
भ्रष्टाचार 7
डू@@ 7
थीम 7
पुनर्जीवित 7
दोहरा@@ 7
सजग 7
सूरत 7
बंदरगाह 7
अमीरात 7
राष्ट्रव्यापी 7
फोर्स 7
पहुंची 7
जॉ@@ 7
यम 7
असुरक्षित 7
अपडेट 7
हुईं 7
फ्रि@@ 7
निभाते 7
मालदीव 7
इनो@@ 7
कॉरपोरेशन 7
फैसले 7
अलबत्ता 7
ट्विटर 7
1,500 7
140 7
बेच@@ 7
आजादी 7
आदत 7
चतु@@ 7
ख़ास 7
ंगी@@ 7
कोर्स 7
समझे 7
पड@@ 7
ताल 7
सुसज्जित 7
फार 7
जाकर 7
दोहराया 7
ऑडियो 7
नना 7
कपड़े 7
ब्र@@ 7
निष@@ 7
बेहतरी 7
रिव्यू 7
पीड़न 7
आपदाओं 7
न्तर 7
मूला 7
सुग@@ 7
सतर्क 7
़@@ 7
बचे 7
परिव@@ 7
तने 7
न्व@@ 7
क्राइ@@ 7
साझे@@ 7
9-@@ 7
प्र 7
आरम्भ 7
चिह्न 7
प्रतियोगि@@ 7
समारोह 7
एम्@@ 7
पीएचडी 7
न्यायालयों 7
एसो@@ 7
चार्ट@@ 7
उच्चस्तरीय 7
37,@@ 7
आएगा 7
प्लेस 7
जीपी 7
पार्टियां 7
126 7
ज़ा 7
वीजा 7
प्रयत्न 7
गर्व 7
गहरी 7
स्वर्गीय 7
पंत 7
ब्लू 7
मारि@@ 7
बीते 7
कल्प@@ 7
रेखा@@ 7
टैग 7
लयन 7
160 7
हाँ 7
बदलता 7
संविधान 7
नियां 7
ऊंचा 7
गुजराती 7
ारियां 7
लाइफ@@ 7
ल्टी 7
अमल 7
सब्सि@@ 7
श्रेय 7
इंद्र@@ 7
प्रदू@@ 7
135 7
नित 7
फर्जी 7
इशारा 7
समृद्धि 7
काय@@ 7
समन्व@@ 7
लॉजि@@ 7
उत्तम 7
ऑर्@@ 7
टियां 7
वर्ग@@ 7
101 7
l 7
असे@@ 7
ङ@@ 7
मकसद 7
किलोग्राम 7
राह 7
मूलतः 7
च्छा 7
नम्बर 7
कैंप 7
अगर@@ 7
तला 7
पकड़ा 7
सर 7
कॉर्पोरेशन 7
उपाध्यक्ष 7
हस्तांतरित 7
दशा 7
जानिए 7
सुपर@@ 7
लेज 7
आन 7
बल्@@ 7
लिकेशन 7
घु@@ 7
मुक्ति 7
निभाती 7
आये 7
संक्रामक 7
करवाना 7
सूखा 7
सुनवाई 7
ल्ड@@ 7
बा 7
टिक 7
माध्य@@ 7
आद@@ 7
a.@@ 7
द् 7
26,@@ 7
शिविर 7
संयंत्रों 7
मेह@@ 7
33@@ 7
ताप 7
देख@@ 7
बाइ@@ 7
गुरुवार 7
चर@@ 7
त्तम 7
मल्टी 7
कठिनाई 7
org@@ 7
मल 7
नैतिकता 7
ारित 7
सेन 7
इंजन 7
फ़े@@ 7
बीज 7
बुकिंग 7
फू@@ 7
खिलाड़ियों 7
कैश@@ 7
जरुरत 7
प्रयोगशाला 7
अपर 7
आग@@ 7
म्म@@ 7
स्वतं@@ 7
काउ@@ 7
230 7
ंगर 7
मिले@@ 7
्रि@@ 7
स्टेप 7
000@@ 7
पहुंचते 7
110 7
चतुर्वेदी 7
झे@@ 7
निःशुल्क 7
भगत 7
इंग्लैंड 7
चाल 7
कराये 7
पहचाने 7
होस्ट 7
प्रपत्र 7
पनों 7
टेल 7
गर@@ 7
्यो@@ 7
हर@@ 7
गहराई 7
छत्तीसगढ़ 7
सूक्ष्@@ 7
कैरी 7
प्रयोग@@ 7
महत्व@@ 7
कृष्ण 7
ताकत 7
मती 7
पार्टनर 7
भोपाल 7
प्ति 7
पत्तियां 7
आईएएस 7
फेर 7
केन्या 7
विज्ञप्ति 7
मेहनत 7
ईडी 7
सुधीर 7
सेट@@ 7
त्रों 7
टमेंट 7
उदा@@ 7
य्या 7
फैला 7
फ़ाइल 7
कनेक्@@ 7
मिट 7
छि@@ 7
कृष्णन 7
स्वायत्त 7
किन 7
योग@@ 7
मैटिक 7
बताए 7
हट 7
लंब 7
लकड़ी 7
उपबंधों 7
ंडरों 7
च्छिक 7
त्वपूर्ण 7
102 7
संवैधानिक 7
पन्न 7
ख्य 7
लेनी 7
मंडी 7
उपचार 7
सबक 7
विक्र@@ 7
लेगी 7
बड़@@ 7
ग्रीन@@ 7
लिख 7
मेटा@@ 7
म्र 7
सौंद@@ 7
पेशेवरों 7
फ़ो@@ 7
अतिक्रमण 7
पन@@ 7
> 7
बुद्धि@@ 7
आपात 7
भंड@@ 6
सुलझाने 6
लॉन्@@ 6
उड़ीसा 6
किं@@ 6
पाएगी 6
ज़्यादा 6
कमा@@ 6
ईस 6
वेग 6
इनोवेशन 6
प्रतिष्ठा@@ 6
अयोग्य 6
कोल 6
काइ@@ 6
वेस्ट 6
राउ@@ 6
बेरोजगारी 6
मौद्र@@ 6
लिखे 6
उतनी 6
ऊंचा@@ 6
पीपीपी 6
त्राओं 6
जियम 6
अस्ति@@ 6
चलाई 6
निश्@@ 6
टास्क 6
आगरा 6
मीटिंग 6
पैक 6
40,@@ 6
नजदीकी 6
डमी 6
युग 6
220 6
चर्चाओं 6
मतभेद 6
आवाज 6
डियो@@ 6
मनी@@ 6
बहस 6
पंच 6
रै@@ 6
दिखता 6
संचालक 6
गाड़ियों 6
मित्र 6
खु@@ 6
भव 6
फ्री@@ 6
लड़ने 6
बीस 6
समर्थक 6
नियमन 6
खरीदारी 6
सात@@ 6
हस्ता@@ 6
जोड़ते 6
नंब@@ 6
तीर्ण 6
रर 6
त्य@@ 6
कारि@@ 6
108 6
पहुँचने 6
पंचा@@ 6
रखेगी 6
काउंसिल 6
रोधक 6
121 6
प्रशंसा 6
ंगा@@ 6
ंकी 6
पश्@@ 6
77@@ 6
आइए 6
मिलना 6
दाखिल 6
इंस्टी@@ 6
K@@ 6
प्रधान@@ 6
क्लीन 6
शब्द 6
2016-@@ 6
विंग 6
उपाधि 6
नौकरियों 6
ड्रग्स 6
विध@@ 6
मवर्क 6
लाभा@@ 6
शुरु@@ 6
यान 6
एचडीएफसी 6
अंबेडकर 6
नर@@ 6
दायक 6
इंजी@@ 6
पदाधिकारी 6
व्यावसा@@ 6
उल्लेख@@ 6
यं@@ 6
पुर 6
अखंडता 6
113 6
ड्यूटी 6
240 6
पंडित 6
परीक्षणों 6
्स 6
मः 6
विधा 6
450 6
पाउंड 6
मेक्सिको 6
प्रतियोगिताओं 6
बैच 6
विमानन 6
लाइड 6
पुस्तकें 6
शिया 6
परीक्षाओं 6
शास्त्र 6
बेहद 6
161 6
गाँव 6
धिकारों 6
पुस्@@ 6
एनि@@ 6
इक@@ 6
वाल 6
लिखा 6
अर्थशास्त्री 6
मुद्दा 6
परिचित 6
हड़ताल 6
पुराना 6
स्कै@@ 6
पहुंच@@ 6
पलट 6
बनना 6
मास्@@ 6
छोड़ी 6
डू 6
पर्यावर@@ 6
खरीदा 6
क़ायम 6
पढ़ा 6
आश्चर्य 6
1500 6
सुरक्षा@@ 6
तू@@ 6
सीएम 6
विन@@ 6
तिरुवनंतपुरम 6
उल्लं@@ 6
तिकता 6
नेवाली 6
लैण्ड 6
हिस्से@@ 6
पॉवर 6
सशक्तीकरण 6
तरजी@@ 6
पुनर्वास 6
ईल 6
माइक्रोसॉफ्ट 6
समानता 6
गेशन 6
द्योगि@@ 6
एमओयू 6
ाधिकार 6
प्राइस 6
लांग 6
संभ@@ 6
मोटर@@ 6
हॉल 6
आयातित 6
ारो@@ 6
ड्रा 6
नतीजों 6
तंजा@@ 6
शुरू@@ 6
एचसी 6
यास 6
यंस 6
खिलाड़ी 6
d@@ 6
विफलता 6
लाखों 6
जरूरतमंद 6
4,000 6
चौथा 6
प्ट 6
जन्म 6
आधी 6
शक 6
दोगुना 6
नीदरलैंड 6
शल 6
नरे@@ 6
निर्देश@@ 6
08@@ 6
पंच@@ 6
णः 6
लेक 6
इंटेलिजेंस 6
मॉल 6
मांगे 6
विशि@@ 6
भीतरी 6
मय 6
मुरली 6
राव 6
उभर@@ 6
दिष्ट 6
लाओं 6
कुंजी 6
उज्ज्वल 6
a 6
ङ्@@ 6
एचओ 6
पहुंचाया 6
दुचेरी 6
सरों 6
फर्नी@@ 6
आकांक्षाओं 6
बिट 6
ब्रै@@ 6
कम्@@ 6
्यूटर 6
अनुप@@ 6
उपयोग@@ 6
गेटिव 6
जानेवाले 6
मंजू@@ 6
प्रती@@ 6
जवाब@@ 6
प्रवास 6
अफ@@ 6
जरी@@ 6
हावी 6
रूचि 6
मसौदे 6
एयर 6
वक्@@ 6
उर्वरकों 6
संरचनाओं 6
वेश 6
समस्या@@ 6
संघों 6
सस 6
बताएं 6
तलाशने 6
ड़ियां 6
विद्यार्थी 6
प्रो 6
सिविल 6
ढुलाई 6
पीएमसी 6
भक्त 6
नामों 6
खत्म 6
शिक्षा@@ 6
l@@ 6
साई@@ 6
मकता 6
6,000 6
टता 6
सुमित 6
बोस 6
बनता 6
नेशन 6
इंदौर 6
फार्मा 6
जुटा 6
ज्ञ 6
56@@ 6
बंधन 6
सोयाबीन 6
जान 6
प्रचुर 6
रजनी@@ 6
कास्ट 6
इसको 6
असली 6
वाट 6
गिरने 6
सीसीटीवी 6
इन्हीं 6
असि@@ 6
ड्र@@ 6
सुंद@@ 6
मिलों 6
स्टा 6
अनदेखी 6
वॉट 6
घटन 6
सना 6
योग्य@@ 6
साझेदारों 6
कृत्रिम 6
दय 6
जग@@ 6
पुरुषों 6
कॉक 6
हा 6
कम्प@@ 6
जेंस 6
पक्षियों 6
राजमार्ग 6
देखता 6
न्यु@@ 6
मण@@ 6
देहा@@ 6
चिंग 6
जवा@@ 6
चुनी 6
शर्@@ 6
प्टर 6
द्वार 6
आएं 6
दायि@@ 6
लैब 6
मियां 6
माँ@@ 6
डायरे@@ 6
ऊंचे 6
समुद्री 6
अभिलेख 6
टीई 6
एलबी 6
लह@@ 6
वस्था 6
सौ 6
गोष्@@ 6
पैन 6
एकदिवसीय 6
कना@@ 6
करदाताओं 6
तक@@ 6
स्ट्रक्चर 6
कमज़ोर 6
तव्य 6
टीमों 6
प्रक्षे@@ 6
प्ले 6
वट 6
आर्किटेक्@@ 6
रंजन 6
लम्@@ 6
145 6
जरिये 6
मिन 6
सीबीआई 6
मजदूरों 6
क्टो@@ 6
निजता 6
दूरदर्शन 6
ग्यार@@ 6
हाई@@ 6
ऑक्सीजन 6
वीएम 5
राजकोट 5
सब्जियां 5
चालकों 5
एक्टिव 5
मिस 5
जेड 5
मुम्बई 5
टेलीकॉम 5
गठ@@ 5
कला@@ 5
कृति 5
विशा@@ 5
आत 5
स्था 5
खड़े 5
ठहरने 5
एंगे 5
हरि@@ 5
तैयारियों 5
प्रोटो@@ 5
लनों 5
अपशिष्ट 5
न्द 5
सौंपे 5
वांछ@@ 5
निश 5
विशाखा@@ 5
ष्य 5
उंड 5
डेस्कटॉप 5
उर्@@ 5
क्रमण 5
साहस 5
इतना 5
अँ@@ 5
पार्ट@@ 5
विरोधाभा@@ 5
नोट@@ 5
च्छ@@ 5
पृथ@@ 5
चाहिये 5
डीडी@@ 5
ंदन 5
154 5
रुख़ 5
बताती 5
प्रिंसिपल 5
र्डर 5
आधारशिला 5
सरण 5
यात्रियों 5
वादों 5
नाम@@ 5
विवादों 5
लौट 5
पदार्थ 5
लगाम 5
जोरदार 5
हैंड 5
छलांग 5
बेरोजगार 5
कही 5
बिज@@ 5
भंग 5
सर्वा@@ 5
ऑफि@@ 5
टाइम्स 5
वाइस 5
कैलिफोर्निया 5
रेक 5
साम्@@ 5
ऑल 5
झे 5
उम्मीदों 5
चीजों 5
ड़ि@@ 5
परिचय 5
चुनावी 5
54@@ 5
फ्रेंस 5
पंचायत 5
सोसाइटी 5
मीटर 5
तत्पर 5
आकर्षण 5
चौकसी 5
2011-@@ 5
कवायद 5
निर्णायक 5
ज़े@@ 5
उतरने 5
राल 5
हैसियत 5
गाइड 5
पाँ@@ 5
शायद 5
डु@@ 5
मना@@ 5
गाहों 5
प्रतिरक्षा 5
कचरा 5
लाते 5
हल्का 5
C 5
अनुकरण 5
यकों 5
लाती 5
क्रांतिकारी 5
अफगानिस्तान 5
पाकिस्तान 5
आयाम 5
वाल्@@ 5
ब्राउन 5
दिसं@@ 5
लां@@ 5
स्पे@@ 5
फिल्म 5
कांत 5
पाठ@@ 5
मिल@@ 5
दर्जा 5
शमन 5
नुक@@ 5
फ़ि@@ 5
पीय 5
आईपीएल 5
12,000 5
काम@@ 5
कॉलम 5
विरोधी 5
दोहरा 5
कड़ा 5
अनुभाग 5
वाड़ा 5
वायु 5
एनटी@@ 5
कन्न@@ 5
112 5
याः 5
5000 5
मानसिक 5
भां@@ 5
फिल्मों 5
मणि 5
पुरस्कारों 5
द्धा 5
डिय@@ 5
संगम 5
धनुष 5
धरा 5
बिग@@ 5
उपलब्धियां 5
सार्वभौमिक 5
आकांक्षा 5
फल 5
सेशन 5
सैनिटाइ@@ 5
गांठ 5
पति 5
एमटी 5
पाउ@@ 5
ूत 5
क़ा@@ 5
आदिवासी 5
शॉपिंग 5
पत्थर 5
बलू@@ 5
अगला 5
लैंडर 5
1979 5
सदस्य@@ 5
2024 5
गरीबी 5
उन्मूलन 5
रचना 5
लगाता 5
भौ@@ 5
जर्मन 5
त्तरी 5
बीत 5
स्कॉ@@ 5
नियोक्ता 5
स्टेज 5
डिट 5
हाज़िर 5
मंथन 5
सहारे 5
अन्दर 5
स्कूली 5
गठजोड़ 5
लिए@@ 5
शार्@@ 5
डियम 5
कोषा@@ 5
लॉट 5
नः 5
रेड 5
अनौपचारिक 5
मेज 5
मर्स 5
मानवाधिकारों 5
लिंग@@ 5
इजा@@ 5
फ़ा 5
360 5
स्थाई 5
चालान 5
फेयर 5
झटका 5
क्यों 5
स्मृति 5
शिता 5
विद्यालय 5
उड़@@ 5
बनते 5
थाईलैंड 5
निकाली 5
यांग 5
सघन 5
129 5
इटली 5
भूति 5
वेस्ट@@ 5
पहुंचना 5
मैनेजर 5
900 5
उज्@@ 5
आर्टिफिशियल 5
स्वाय@@ 5
अनं@@ 5
किन्@@ 5
माई@@ 5
चाहि@@ 5
विरूद्ध 5
कोटक 5
परेशानी 5
हटा@@ 5
फिल 5
फस@@ 5
यंग 5
क्ले@@ 5
कल्प 5
गुप्त 5
हानिकारक 5
मार्गों 5
गुनी 5
1952 5
सहन 5
लिपि 5
्व@@ 5
अनैतिक 5
गन्@@ 5
बनीं 5
क्तियां 5
४ 5
नज़@@ 5
एव 5
नुमा 5
भरत 5
बारह 5
शक्तिशाली 5
सुखद 5
प्रश्@@ 5
शाम 5
पोस्ट@@ 5
डालना 5
ंट्स 5
फेक्ट 5
भाषा@@ 5
कंटे@@ 5
पड़ेगी 5
टिका 5
सामानों 5
नाया 5
उदार@@ 5
शू@@ 5
मुनाफा 5
लिखी 5
नाथ 5
बौद्धिक 5
कार्गो 5
विडियो 5
चिकित्सकीय 5
123 5
नम 5
पद्@@ 5
प्रेशन 5
मारुति 5
मोटर्स 5
कलेट 5
ड़ना 5
आनंद 5
दिलचस्पी 5
1992 5
सदा@@ 5
तत्त्व 5
ट्रेनिंग 5
हाशि@@ 5
उत्तरप्रदेश 5
80,000 5
146 5
निकटतम 5
लैस 5
^ 5
उसपर 5
ईपीएफओ 5
द्दी 5
रणों 5
बनती 5
महे@@ 5
जाँ@@ 5
विज्ञ@@ 5
कनेक्शन 5
आर्टिफि@@ 5
ख्या@@ 5
लम 5
मेज@@ 5
तैनात 5
मेगा@@ 5
1988 5
हल्की 5
हरेक 5
सदा 5
वैसी 5
एड 5
बादल 5
य्य@@ 5
भग@@ 5
बनेगी 5
उन्हे 5
रिलीज 5
लेवल 5
176 5
मंड@@ 5
गोल्डन 5
वाता@@ 5
ंगे@@ 5
अज@@ 5
बरतने 5
स्पीड 5
जन्@@ 5
कांफ्रेंस 5
प्रतीक 5
खरी@@ 5
बे 5
मायने 5
शिका 5
स्पद 5
कारोबारियों 5
समारोहों 5
धनों 5
बाय@@ 5
प्रोसेसर 5
लौटने 5
स्तंभ 5
करि@@ 5
मुख्यालय 5
हेल@@ 5
भत्ता 5
सर्व 5
पशु 5
तेलुगु 5
कैम@@ 5
राकेश 5
स्त्रियों 5
आवागमन 5
नवो@@ 5
सप्@@ 5
बचना 5
दास 5
टीके 5
पुरी 5
164 5
टेस्टिंग 5
रिज़@@ 5
पाएगा 5
सेज 5
प्रदर्@@ 5
बताना 5
उद्यमशीलता 5
निराशाजनक 5
डेंट 5
मल्होत्रा 5
फ्लो@@ 5
दिन@@ 5
भेजता 5
र्ष 5
पर्यवेक्षक 5
बडे 5
पहुँचा 5
पाट 5
मकानों 5
इड 5
550 5
चिह्@@ 5
दौड़ 5
स्मारक 5
खो 5
वानी 5
धारणा@@ 5
ब्ला@@ 5
विंडों 5
अस्प@@ 5
वस्@@ 5
एमआर 5
ंद 5
लीटर 5
टीना 5
स्टेबल 5
आचार्य 5
ष्ठ 5
घरेल@@ 5
लाइनों 5
अगुवाई 5
बिगड़@@ 5
संत 5
खोला 5
छठी 5
बैठने 5
पढ़ा@@ 5
एंट्री 5
लिफ्ट 5
वि 5
सकार 5
फाल 5
अमी@@ 5
{ 5
हेल्थ 5
ंख@@ 5
टिविटी 5
र्य 5
पदा@@ 5
ंग्@@ 5
क़@@ 5
पत्थरों 5
एमएम 5
बदतर 5
लापरवाही 5
< 5
मुना@@ 5
साक्षा@@ 5
ृत 5
॰ 5
रक 5
फ़ै@@ 4
अक्टू@@ 4
गाइ@@ 4
पश्चा@@ 4
पुण@@ 4
इवेंट 4
आदमी 4
MS 4
उल्@@ 4
मुकाबला 4
विख्यात 4
दिखी 4
महत्वाकांक्षी 4
पैके@@ 4
धाराओं 4
चन्द्र 4
उसको 4
विप@@ 4
नाग@@ 4
मेरठ 4
मुरा@@ 4
दाबाद 4
एक्शन 4
डिफेंस 4
वनस्पति 4
सीज 4
नामांकित 4
कौन@@ 4
जोधपुर 4
कर्तव्यों 4
आंदोलन 4
थी@@ 4
खेल@@ 4
कूद 4
संघर्ष 4
तरा 4
मददगार 4
क्ति 4
चढ़ा 4
भ्रा@@ 4
रोजग@@ 4
कड@@ 4
कार्यकर्ताओं 4
380 4
लोकप्रियता 4
अत्यन्त 4
मांगा 4
गु 4
स्टिक्स 4
धा 4
जरिया 4
पैसा 4
आयो@@ 4
मज़बूत 4
98@@ 4
लायक 4
छानबीन 4
कली@@ 4
ज़्यादातर 4
शिविरों 4
पल्ली 4
प्रेसिडेंट 4
सिया 4
उच्चा@@ 4
कैलि@@ 4
कर्तव्य 4
विद्वानों 4
परीक्षाएं 4
होटलों 4
320 4
प्रशासकों 4
मिजोरम 4
मसलों 4
कहां 4
गुड़गांव 4
हारिक 4
चिंता@@ 4
ज़ो@@ 4
सफ@@ 4
ट्वीटर 4
टेलीविजन 4
संगति 4
15-@@ 4
शुभ@@ 4
शिमला 4
० 4
अच्छ@@ 4
सचिवों 4
b 4
एक्सिस 4
काले@@ 4
सदस्यीय 4
सीनियर 4
पदक 4
युवकों 4
आधुनिकीकरण 4
ट्रांसमिशन 4
comp@@ 4
any@@ 4
secret@@ 4
ar@@ 4
cc 4
वाप@@ 4
मेमोरियल 4
आग्रह 4
नायक 4
जाय@@ 4
जस@@ 4
बुनियाद 4
हराई 4
अनुभवी 4
अल्पसंख्यक 4
पट्टी 4
मास्ट@@ 4
एंटी@@ 4
अनुसं@@ 4
काबू 4
जीव@@ 4
विद 4
द्वी@@ 4
वार्ता 4
शिष्ट@@ 4
35,@@ 4
दिखने 4
फास्ट 4
अपर्या@@ 4
असफलता 4
भरोसेमंद 4
ज़ल 4
अस्थ@@ 4
चूँकि 4
क्सन 4
मराठी 4
जाहिर 4
विश्वस्@@ 4
अक्षम 4
कीर्ति 4
एरिया 4
परे 4
जोन 4
प्रोफे@@ 4
नज@@ 4
ज्योति 4
सुलझा@@ 4
तालि@@ 4
जीवित 4
मरा@@ 4
इला@@ 4
विभाज@@ 4
सावधान 4
नते 4
बता 4
पाना 4
इंतजार 4
मॉर्@@ 4
225 4
आवेद@@ 4
जानबूझकर 4
केयर 4
मैसेज 4
कहता 4
पढ़ें 4
बेचा 4
प्रोटे@@ 4
सफर 4
आबं@@ 4
भास्कर 4
कोषीय 4
अंडर 4
ंजी 4
आत्मविश्वास 4
पलायन 4
यमन 4
महानगर 4
बसों 4
उत्तेज@@ 4
चने 4
ठा 4
पवन 4
झलक 4
सेमी@@ 4
साल@@ 4
बोनी 4
प्रोग्रा@@ 4
स्कोप 4
ारियों 4
महत्@@ 4
पांचों 4
थाइ@@ 4
टें 4
सीजन 4
आगंतु@@ 4
लं@@ 4
मोर 4
2015-@@ 4
बन्ध 4
चित्र@@ 4
फोटो 4
जवाबी 4
म्बर 4
जेज 4
पाएं 4
त्यो@@ 4
ड़ी@@ 4
इंगित 4
1983 4
करवाकर 4
जार 4
पान 4
डबल 4
गलियारे 4
टावर 4
in@@ 4
war@@ 4
ris 4
आयोज@@ 4
वीय 4
फ़ी@@ 4
ज्यादातर 4
साइज 4
उत्साहित 4
प्रू@@ 4
राम 4
भेजना 4
बां@@ 4
टकर 4
उनपर 4
थम 4
ंगत 4
मार्गदर्शक 4
रैं@@ 4
बियों 4
196@@ 4
एडवाइ@@ 4
नवाचार 4
पूल 4
सेतु 4
उत्पत्ति 4
शिनाख्त 4
रिक्@@ 4
एजेंडे 4
2017-@@ 4
1975 4
तन्@@ 4
प्रासं@@ 4
हीं 4
टाने 4
et@@ 4
काट 4
रिजर्@@ 4
माफ 4
पहुँचाने 4
o@@ 4
वाटर 4
मसाला 4
रासायनिक 4
क्री 4
सामरिक 4
इकट्ठा 4
ची@@ 4
मेल@@ 4
आईआरसीटीसी 4
श्रृंख@@ 4
वान 4
एकड़ 4
द्वीप 4
पेश@@ 4
इलेक्@@ 4
स्वच्छता 4
ज़न 4
पंचायती 4
राज 4
197@@ 4
सेकंड 4
आधु@@ 4
अवैध 4
सम्भव 4
बर्ताव 4
अंकुश 4
रवैया 4
मुर्@@ 4
ूल 4
बनेगा 4
ेंगे 4
सेहत 4
स्पेशल 4
प्रवी@@ 4
इंडोनेशिया 4
132 4
ारे 4
तीत 4
लर्@@ 4
म्भ 4
जुर्@@ 4
इण्@@ 4
काफ़ी 4
सराहा 4
थियों 4
तुर्की 4
स्पेन 4
नार 4
सप्ता@@ 4
सके@@ 4
काशी 4
पाता 4
जुड़@@ 4
तनों 4
कॉलो@@ 4
भूख 4
xi@@ 4
राजन 4
डोने@@ 4
ड्डा 4
तरी@@ 4
जनजातियों 4
पेरि@@ 4
एनएचएआई 4
दण्ड 4
एशि@@ 4
यन@@ 4
सरी 4
गॉ@@ 4
विशेषाधिकार 4
दीवार 4
106 4
योगा@@ 4
महत्त्व 4
ट्रांस@@ 4
बेकार 4
सिग्@@ 4
कोरियाई 4
अप्@@ 4
पेशे@@ 4
राना 4
उत्सव 4
114 4
स्टू@@ 4
फ्लाइट 4
जनल 4
गां@@ 4
फिलीपी@@ 4
वाक्य 4
केसी 4
काई 4
मल@@ 4
गारों 4
ड़ने 4
साफ 4
सिलेंडर 4
चारि@@ 4
उद्धरण 4
र्ष@@ 4
व्यक्ति@@ 4
शेल 4
कराकर 4
इमारतों 4
मैके@@ 4
हल्के 4
क्री@@ 4
टेन 4
गोपाल 4
भ्र@@ 4
जमशे@@ 4
दपुर 4
किलो@@ 4
रशिप 4
रि 4
कियों 4
ट्रायल 4
185 4
तार 4
अनै@@ 4
हिस्@@ 4
अबतक 4
ज्ञ@@ 4
नती@@ 4
7,000 4
भूत@@ 4
व्यू 4
उपबंध 4
सपे@@ 4
माणिक 4
नमेंट 4
इंस्टा@@ 4
चक्रवात 4
आग 4
कीट 4
बुरा 4
मैत्री 4
क्षेत्रफल 4
चव्हाण 4
चैन 4
ग्रोथ 4
पथ@@ 4
दिखायी 4
प्रतिभाशाली 4
उग्र 4
जूझ 4
बांग्ला 4
मनाने 4
खुश@@ 4
दोहन 4
अगुआई 4
न्याय 4
जताई 4
कव@@ 4
धू@@ 4
हर्ष 4
ंब 4
लंबाई 4
ताल@@ 4
न्यूज 4
लंबा 4
साक्षात्कार 4
ंडि@@ 4
उड़ान 4
प्त 4
निन्दा 4
जेसन 4
राक 4
वास@@ 4
टाउन 4
झा 4
छी@@ 4
टली 4
दुग्ध 4
्रो@@ 4
रोकना 4
सड़कों 4
टाला 4
पण 4
कारो@@ 4
वेट 4
ट्यूट 4
नीज 4
122 4
स्मार्टफोन 4
सभाओं 4
धे@@ 4
निदेशा@@ 4
घंटों 4
होनेवाली 4
कुल@@ 4
सौंपने 4
ंडेंट 4
स्टैंडर्ड 4
प्रैक्@@ 4
धनराशि 4
जोशी 4
शह@@ 4
बनें 4
मोहन 4
थर्मल 4
मिया 4
चोरी 4
कार्टू@@ 4
पुनर्विचार 4
ब्रह्म@@ 4
134 4
बिगड़ 4
यूएन 4
स्थाप@@ 4
दरा@@ 4
रिफाइनरी 4
चड्ढा 4
बान्@@ 4
रिश्तेदारों 4
अशोक 4
लीग 4
बताने 4
मुकदमे 4
लेखक 4
सेंट 4
लिन 4
कम्प्यूटर 4
& 4
पदार्थ@@ 4
परिक 4
जाम@@ 4
ख़ु@@ 4
कुछ@@ 4
लिहाजा 4
दवाओं 4
तनावपूर्ण 4
गुटों 4
मानवाधिकार 4
पोत 4
सेफ 4
विदों 4
अमे@@ 4
एंड्रॉ@@ 4
नाजुक 4
ज़्@@ 4
सः 4
पात्रा 4
निराशा 4
उद्ध@@ 4
तम@@ 4
तना 4
सिन 4
ंव 4
फली 4
e-@@ 4
गोविंद 4
लभ 4
डीएम@@ 4
हमसे 4
ब्स 4
रेंट 4
ओरि@@ 4
ंध@@ 4
कृत्य 4
पत्तियों 4
कदा@@ 4
कीर्ण 4
आवेदक 4
शैली 4
आर्टिकल 4
जोड़ता 4
षा 4
नाराय@@ 4
ज्म 4
111 4
3000 4
द्रा@@ 4
वू@@ 4
शां@@ 4
147 4
प्रस@@ 4
तर्क@@ 4
आराम@@ 4
बोलने 4
पुर@@ 4
किल 4
वाणी 4
मेन 4
अमित 4
} 4
अभ्या@@ 4
नोड 4
लीं 4
सौं@@ 4
असहम@@ 4
क्टरों 4
एंगी 4
डीओ 4
श्त 4
लॉजिस्टिक्स 4
कक्षा 4
ेगा 4
अद्वितीय 4
सम्बंधित 4
कतार 4
मयंक 4
क्कर 4
मोनो@@ 4
मृत 4
पूछना 4
सरसों 4
वना 4
वाशिंगटन 4
काया 4
संचा@@ 4
सारी 4
117 4
पड़ते 3
शियन 3
स्ट्रीम 3
नेपाली 3
यांत्र@@ 3
त्यागी 3
देखकर 3
अस्वीकार 3
ख्@@ 3
जिक्र 3
मेमो@@ 3
तेज़ 3
फ़ायदा 3
खिड़की 3
टार 3
मजिस्ट्रेट 3
गौर 3
गन्ना 3
बहादुर 3
अंदाज 3
पार्थ@@ 3
रचना@@ 3
पट्टनम 3
सेना 3
चढ़@@ 3
राशन 3
वेंशन 3
बू 3
आरटी 3
मैन्यु@@ 3
वापिस 3
५@@ 3
मही@@ 3
प्रचु@@ 3
वास्तविकता 3
जाल 3
बाबत 3
औप@@ 3
अविश्वसनीय 3
एंटी 3
188 3
शं@@ 3
आभा@@ 3
रजिस्ट्रेशन 3
डम 3
यर्स 3
टना 3
चैं@@ 3
कम्युनि@@ 3
अप्स 3
छोड़े 3
शर 3
रणीय 3
तिरु@@ 3
जल्@@ 3
शासन@@ 3
निरोधक 3
एनए 3
दराज 3
पक्का 3
समीप 3
इंस्टाग्राम 3
काँ@@ 3
कअप 3
विलियम्स 3
वियतनाम 3
मूवमेंट 3
2014-@@ 3
गुट 3
स्वदेश 3
भेद@@ 3
ारियाँ 3
S@@ 3
जीता 3
पीसीएल 3
सुल्@@ 3
नपुर 3
इर@@ 3
परंपरा 3
लोकसभा 3
कच्च@@ 3
स्पी@@ 3
विवेकानंद 3
श्रेष्ठ@@ 3
औष@@ 3
उठने 3
हाइब्रिड 3
कंटेनर 3
ra@@ 3
हमले 3
व्यतीत 3
घोषणापत्र 3
स्वास्थ्य@@ 3
कूट 3
आउ@@ 3
चोट 3
चाई 3
फॉलो 3
हीरा 3
लौ@@ 3
अभिप्रेत 3
मेघालय 3
दंड@@ 3
दिव्यांगजनों 3
मुख्यधारा 3
कठि@@ 3
गेट्स 3
अध्या@@ 3
पार्क 3
प्रमो@@ 3
जीरो 3
खींच@@ 3
क्लब 3
माला 3
लस 3
हटने 3
बॉर्डर 3
अन्तिम 3
उत्कृ@@ 3
लोकल 3
रीज़ 3
उपलब्@@ 3
च्छेद 3
पास@@ 3
144 3
कोंक@@ 3
हरा 3
वंश 3
आपूर्@@ 3
तंग 3
स्टैं@@ 3
प्राइम 3
210 3
शाला 3
हेल्पलाइन 3
पशु@@ 3
स्कॉट 3
फ़िल्@@ 3
बाह@@ 3
अन्त@@ 3
छाई 3
रिया 3
स्क्रिप्ट 3
फेस 3
राघ@@ 3
तीखी 3
E@@ 3
वैसा 3
एनसीआर 3
सीबीडीटी 3
लाता 3
ड्डी 3
पटरी 3
बंधों 3
रविवार 3
छत 3
इलेक्ट्रि@@ 3
गाँधी 3
पोस्टर 3
शिव 3
संधि 3
विकास@@ 3
वजन 3
कह@@ 3
वपूर्ण 3
अपरा@@ 3
नाइजीरिया 3
रॉयल 3
फोर्ड 3
शार@@ 3
कन्या 3
छठा 3
अन्वेषण 3
विजेताओं 3
अस्पतालों 3
1800 3
पोरेशन 3
सीट 3
रखेंगे 3
मृ@@ 3
दिला@@ 3
चपेट 3
मेड 3
किफाय@@ 3
मुक 3
प्रोजे@@ 3
दीनदयाल 3
चं@@ 3
यूनी@@ 3
टम 3
मेगा 3
समझकर 3
मालूम 3
अनावश्यक 3
पर्सनल 3
पीपीई 3
काना 3
कैसा 3
साउथ 3
सेले@@ 3
निकली 3
पूछ@@ 3
नाक 3
रो 3
सुथ@@ 3
अथक 3
द्धता 3
पुष्@@ 3
ढ़ 3
एडि@@ 3
तिज 3
शियम 3
ब्री@@ 3
ब्रांच 3
पू 3
पृष्ठ@@ 3
हरी@@ 3
ट्रैफिक 3
चाहें 3
गुरु@@ 3
गिरे 3
रवैये 3
सैमसंग 3
इंटरनल 3
बुरे 3
तर्@@ 3
अधू@@ 3
फीचर्स 3
ंडी 3
चयन@@ 3
डिप्लोमा 3
मेडि@@ 3
नृ@@ 3
सुब्रमण्य@@ 3
येगी 3
ach@@ 3
क्तिकरण 3
लॉजिकल 3
पांचवीं 3
अदालतों 3
योद्धा 3
कें 3
अन्ना 3
फ्लै@@ 3
अभ्यर्थियों 3
फाइबर 3
bi 3
सोमवार 3
गिरा 3
मृदा 3
पारिस्थितिकी 3
जियो 3
मुहिम 3
ंसिल 3
हां@@ 3
org 3
काऊ 3
अंडमान 3
निकोबार 3
जानें 3
कृतज्ञता 3
बिठा@@ 3
महज 3
116 3
11-@@ 3
stat@@ 3
di@@ 3
२०@@ 3
स्ता 3
दिखा@@ 3
सज@@ 3
शिपिंग 3
रेजि@@ 3
सेफ्टी 3
बदलें 3
नू 3
आयरन 3
हेम@@ 3
संभव@@ 3
हिता 3
निचली 3
जीविका 3
लांच 3
टीआरएस 3
मानित 3
ऐंड 3
उपहार 3
कचरे 3
टॉम 3
पढ़े 3
भला 3
अ 3
टाइप 3
आठ@@ 3
खर 3
जता@@ 3
कंड@@ 3
136 3
दार@@ 3
m@@ 3
s.@@ 3
भेजकर 3
भय@@ 3
जैव 3
धो@@ 3
चंद्र@@ 3
करन 3
मेधा@@ 3
गतिरोध 3
सान@@ 3
सचिन 3
समर्पण 3
बैग 3
सैनिकों 3
न् 3
पना 3
कोय@@ 3
सहाय 3
एग्@@ 3
दक्षि@@ 3
गज@@ 3
धरने 3
र्पण 3
पस 3
घि@@ 3
Il@@ 3
अंडे 3
ढि@@ 3
बैंड 3
बैठे 3
डालता 3
डिपार्टमेंट 3
सीडेंट 3
दोगुनी 3
हेड 3
काल@@ 3
190 3
लेक्स 3
अशांति 3
निब@@ 3
ब्यो@@ 3
स्म@@ 3
निकला 3
जनादेश 3
रॉ@@ 3
प्रतियोगी 3
ग्रो@@ 3
लौटे 3
जम 3
ष्टा@@ 3
104 3
दृश्य@@ 3
F@@ 3
in 3
म्मे@@ 3
यूपी@@ 3
दूरदराज 3
ौती 3
स्पीकर 3
धम@@ 3
एमबी@@ 3
लौटा@@ 3
महंगा 3
उमंग 3
मोदी 3
ग्र 3
कोहली 3
प्रशांत 3
ग्रेजुएट 3
सिल@@ 3
परिषद् 3
ताला@@ 3
बाई 3
भाँति 3
श्रीवास्तव 3
अपराधों 3
ज़रिए 3
जैविक 3
175 3
ऊँचा 3
प्प@@ 3
मिनी 3
भूकंप 3
भूस्खलन 3
हमला 3
विनाश 3
ओला@@ 3
ठंड 3
बयान 3
118 3
साई 3
गार्@@ 3
खोजने 3
होम@@ 3
चयी 3
छाया 3
प्लानिंग 3
सिन्@@ 3
हौ@@ 3
p@@ 3
स्कर 3
कन्नड़ 3
ज़ 3
ध्दि 3
सोसायटी 3
भीम@@ 3
शनि@@ 3
अस्पताल 3
जाएँ 3
एलईडी 3
डिली@@ 3
संलग@@ 3
धार्मिक 3
नेटवर्किंग 3
कपड़ों 3
निराधार 3
अनावरण 3
ध्वनि 3
ट्रेन 3
डियो 3
गरिमा 3
यापन 3
घबरा@@ 3
अनुग्रह 3
नवाजा 3
ब्रिटेन 3
ब्लैक 3
दोषी 3
निकले 3
छोर 3
हुये 3
जानकारियां 3
णु@@ 3
करी@@ 3
तले 3
माई 3
650 3
रवै@@ 3
पीयू@@ 3
खुलासा 3
जिकल 3
स्त्र@@ 3
जोल 3
पढ़ी 3
गीगा@@ 3
युद्ध@@ 3
मिका 3
it@@ 3
कमा 3
पर्य@@ 3
चित्रित 3
कतर 3
मेमोरी 3
यड 3
आश्रय 3
धर्@@ 3
ग्लो@@ 3
संक्रमित 3
माल्या 3
मश@@ 3
लुधियाना 3
बेड 3
पंख 3
एयरलाइन 3
भट@@ 3
मालिकों 3
बुधवार 3
बीर 3
मानद 3
भारती 3
आकाशवाणी 3
वादा 3
ड़े@@ 3
जिंद@@ 3
मॉनसून 3
भा 3
निपट@@ 3
घोर 3
घिरा 3
नामां@@ 3
मद्रास 3
हाईकोर्ट 3
आशं@@ 3
षा@@ 3
130 3
मानव@@ 3
ंच 3
योगियों 3
103 3
फॉर्मेट 3
नली 3
और@@ 3
अम@@ 3
ढो@@ 3
टिक@@ 3
धिकारी 3
राय@@ 3
153 3
टीका 3
® 3
128 3
ईमानदार 3
प्रदर्श@@ 3
जेट 3
वोटों 3
बोध 3
गर्मियों 3
मन्@@ 3
अरविंद 3
उभरी 3
मिर्@@ 3
ेक 3
ट्वीट 3
ओम@@ 3
हानी 3
ेगी 3
1985 3
रीति 3
ग्रीष्@@ 3
हार्ड 3
मगर 3
१ 3
केशंस 3
मौतों 3
घो@@ 3
एहतिया@@ 3
सहम@@ 3
अपार 3
मृतक 3
यनों 3
इन्स 3
आतं@@ 3
पचास 3
नवोन्@@ 3
सुश्री 3
वाए 3
संतोष@@ 3
दिखती 3
प्रस्ता@@ 3
पुरा@@ 3
यूरिया 3
एनर्जी 3
ल्य 3
अंजाम 3
अखबारों 3
127 3
तरित 3
देखती 3
द्धि 3
नास 3
लोक@@ 3
शिल्प 3
सो 3
वाकि@@ 3
ताज़ा 3
सिलि@@ 3
चाह@@ 3
मतभेदों 3
T@@ 3
Re@@ 3
DS 3
स्पेक्@@ 3
चाय 3
लुप्त 3
Ind 3
AS 3
नोएडा 3
पीपुल्स 3
संघर्ष@@ 3
स्ता@@ 3
देनी 3
भिक 3
कल्चर 3
फूड 3
बजाए 3
रेटर 3
Z 3
z 3
छू 3
उत्पा@@ 3
मेगावाट 3
रिस 3
चरिंग 3
खींच 3
सिक्योरिटी 3
वात 3
असिस्टेंट 3
ड़ियाँ 3
विंडो@@ 3
शोधकर्ताओं 3
म्बे 3
जिस@@ 3
अरु@@ 3
भट्टाचार्य 3
चुनने 3
सेंसर 3
मोहलत 3
रना 3
विश्वास@@ 3
चक 3
बादी 3
पीड़ा 3
डब्ल्यूडी 3
पंचायतों 3
सिव 3
कारा 3
प्रीमियर 3
निरं@@ 3
उर्जा 3
धारा@@ 3
महोत्सव 3
पृथ्वी 3
पात@@ 3
शांतिपूर्ण 3
दाई 3
रिजि@@ 3
जरुरी 3
ंगता 3
गणि@@ 3
ख़राब 3
ट्वि@@ 3
बेंगलुरू 3
छोटा 3
स्टेशन 3
धु@@ 3
वेद@@ 3
सैनिक 3
पहुंचा@@ 3
बाध 3
ष्कार 3
जायेंगे 3
लगते 3
क्रांति 3
शिशु 3
पेय@@ 3
पाइ@@ 3
आह्वान 3
पारी 3
प्रौद्योगिकियों 3
मामू@@ 3
जिसपर 3
गीत 3
धनी 3
मॉरि@@ 3
नागालैंड 3
रोकता 3
फोर्@@ 3
119 3
रक्षक 3
पुर्तगाल 3
हॉट@@ 3
स्टार 3
लत 3
संरक्षक 3
दाय 3
11,000 3
मिश्र 3
ढ़ी 3
वैज्ञानिकों 3
याद 3
नरेगा 3
चिन्ह 3
ल्फ 3
मातृ@@ 3
पहु@@ 3
व्र@@ 3
ड्रग 3
पूछने 3
रिसा@@ 3
बारीक 3
जबर्@@ 3
दस्त 3
रिया@@ 3
उठ@@ 3
लैटिन 3
तत्व@@ 3
निभाया 3
यीं 3
R@@ 3
मक्का 3
एयर@@ 3
बीमार 3
पत्तन 3
रखनी 3
लेक्शन 3
ऑस्ट्रेलिया 3
बीएच@@ 3
लॉग 3
फ्लैट 3
शुरूआती 3
अटैक 3
पहुंचाना 3
कांग 3
्यां@@ 3
औषधि 3
टिकट 3
आखिर 3
वारि@@ 3
¬ 3
ख़ा@@ 3
अथ@@ 3
डॉक्@@ 3
चश्@@ 3
दस्ता@@ 3
अहसास 3
किरण 3
निकाले 3
हेल्@@ 3
शिक 3
महिला@@ 3
जरूर@@ 3
स्टोरी 3
गढ़@@ 3
ब्रॉड 3
अवय@@ 3
पासपोर्ट 3
चक्रवर्ती 3
लैंगिक 3
चैट 3
जलाने 3
जाबाद 2
क़ानून 2
कड़ों 2
हरा@@ 2
अज्ञात 2
दोहरी 2
अकाद@@ 2
बायो 2
रिश्@@ 2
नाल्ड 2
दल@@ 2
खनि@@ 2
शू 2
गोल्@@ 2
पाम 2
अन्न 2
सास 2
परेशान 2
खेतों 2
पुल 2
मिता@@ 2
संवेदना 2
रक्षा@@ 2
PAN 2
सरा@@ 2
आयत 2
झी@@ 2
खुराना 2
कः 2
लिश 2
आतंकवाद 2
मुक़ा@@ 2
वर्मा 2
S 2
मज़दूरी 2
आइडिया 2
आरो@@ 2
द्य 2
स्टो 2
सद्भाव 2
घोष@@ 2
गर्मी 2
संतोष 2
टेलि@@ 2
धिकारियों 2
सातवीं 2
खिक 2
एचएस 2
चेतना 2
थॉमस 2
जॉन 2
जरि@@ 2
दिलीप 2
स्वर 2
जनगणना 2
करी 2
बॉलीवुड 2
फुटबॉल 2
वन्य 2
प्राणियों 2
शौ@@ 2
कीन 2
नॉर्वे 2
खरे 2
CH 2
रायबरेली 2
लिखते 2
किम 2
P@@ 2
PF 2
SC@@ 2
SS 2
पि 2
स्वास्थ@@ 2
ोड़ 2
मधु@@ 2
मक्खी 2
छे 2
ju@@ 2
इंजीनिय@@ 2
रंग@@ 2
बाज़ 2
प्रेरणा@@ 2
कहानियों 2
फन 2
शिकाय@@ 2
बख्@@ 2
पहुँ@@ 2
अधिकरण 2
खं@@ 2
नगरपालिका 2
अलगा@@ 2
अंग्रे@@ 2
प्रेत 2
वर्गी@@ 2
हवेली 2
चुंबकीय 2
मैग्@@ 2
नेटिक 2
आईएसएफ 2
अवमानना 2
चालीस 2
150@@ 2
लॉ 2
दूत 2
सानों 2
सिम्@@ 2
दर्शकों 2
वल्ल@@ 2
अमरी@@ 2
280 2
उम्मीदवारी 2
एक्सप्रे@@ 2
सवे 2
सुन 2
रोके 2
पर्यटक 2
गें 2
मुख्यमंत्री 2
कष्ट 2
बंगाली 2
सोचना 2
बखूबी 2
आईपीएस 2
जमीनी 2
माण@@ 2
साल्@@ 2
मारियों 2
मोटरसाइकिल 2
वला 2
155 2
इजाजत 2
ध्यान@@ 2
बर्ट 2
स्टीन 2
असहमति 2
त्न 2
सत@@ 2
सफाई 2
अटै@@ 2
आइस@@ 2
EV@@ 2
N 2
यार 2
चलेगी 2
दिखाता 2
केबल 2
खाना 2
एयरटेल 2
निस्@@ 2
बत 2
अक्@@ 2
कमाने 2
1982 2
परफॉर्@@ 2
पत्@@ 2
दोपहर 2
तह@@ 2
पत्य 2
पड़ा@@ 2
झार@@ 2
सौभाग्य 2
माइश 2
ढाई 2
बिल्कुल 2
स्मा@@ 2
रिवा@@ 2
पिया 2
स्नै@@ 2
ंतिक 2
पायनियर 2
लैं@@ 2
सबके 2
फीचर 2
मुआवजा 2
सेक्स 2
चुना@@ 2
जीवंत 2
रोगियों 2
लुढ़@@ 2
बचाया 2
ज़रूरी 2
दया 2
मित्रों 2
बंग@@ 2
गढ़ 2
Dum@@ 2
my 2
खरी 2
हाला@@ 2
ारे@@ 2
ड्रे@@ 2
इंडस्ट्री 2
पॉली@@ 2
स्थानां@@ 2
दाश्त 2
हरे 2
हिट 2
आवि@@ 2
प्रगाढ़ 2
राजधानी 2
सर्टिफि@@ 2
व्य 2
प्रभुत्व 2
अटकल@@ 2
धमाका 2
प्रकाश@@ 2
निकालकर 2
कुर 2
पट्ट@@ 2
२@@ 2
मिनल 2
मोटी 2
वेशी 2
प्रॉपर्@@ 2
डार 2
com@@ 2
पर्सन 2
ट्यूब 2
लाइब्रेरी 2
आभारी 2
अय्य@@ 2
स्ट्रिया 2
कुवैत 2
होगें 2
प्रख्यात 2
बोट 2
सैट 2
यरी 2
गायब 2
इसपर 2
सुनने 2
भविष्यवाणी 2
चाँद 2
हारून 2
ख़ान 2
लेम 2
रूसी 2
घड़ी 2
व्यस्त 2
त्रता 2
नियो 2
घुस 2
खार 2
ंका 2
शकों 2
बतायी 2
इन्होंने 2
मण्ड@@ 2
गानों 2
३ 2
क़ु@@ 2
ऑक्@@ 2
फिक्की 2
दिलाया 2
क्रिकेटर 2
चैंपियन 2
अवॉर्ड 2
बाबा 2
साहब 2
अतिथि 2
बुलाए 2
com 2
लुओं 2
निष्क्रि@@ 2
न्वित 2
हृ@@ 2
लादेश 2
समर्थकों 2
कुलपति 2
कॉलोनी 2
तनत 2
उठाएं 2
धु 2
आईएमडी 2
श्य 2
Corporate 2
Governance 2
R 2
रहेंगी 2
उत्सा@@ 2
नतीजा 2
जूट 2
किस@@ 2
ितों 2
सपनों 2
व्यास 2
रने 2
प्रेसि@@ 2
बताओ 2
अधिकारिक 2
द्वीपों 2
लेंगी 2
उठाये 2
सबको 2
देंगी 2
कप्@@ 2
रैम 2
डेक्स 2
दिता 2
500@@ 2
कत@@ 2
नज़रिया 2
वेरि@@ 2
कोणीय 2
सभा@@ 2
खे 2
मजबूर 2
रोटी 2
इश@@ 2
मुना 2
ड्राइव 2
शुभार@@ 2
आला 2
मेर@@ 2
चाहूंगा 2
ईपीएफ@@ 2
इंकार 2
म्प 2
इच्छाओं 2
कोरोना 2
लेग 2
ढे 2
१७ 2
मानचित्र 2
YO@@ 2
NO 2
चेहरा 2
ंके 2
आएंगे 2
लव@@ 2
1977 2
ख्त 2
हरी 2
गाजियाबाद 2
रोबोट 2
धरोहर 2
टीसीएस 2
सुन@@ 2
जलस्तर 2
सर्किट 2
नियो@@ 2
नट@@ 2
सतीश 2
पिछ@@ 2
गलिय@@ 2
उन्होनें 2
रक@@ 2
जातियों 2
पिछड़ा 2
वई 2
परिश्रम 2
मित्तल 2
र्न 2
लनी 2
उपल@@ 2
ह्यू@@ 2
दीप 2
जाइ@@ 2
समे 2
मिलाने 2
2025 2
पोज 2
प्री 2
लीट 2
निर्णा@@ 2
ग्रता 2
तकरीबन 2
वल@@ 2
बाल@@ 2
हिन्@@ 2
अब@@ 2
कण 2
नाडु 2
रान 2
जब्@@ 2
रेस 2
सैन्य 2
सस्ता 2
पारदर्@@ 2
घनिष्ठ 2
बुद्ध 2
वर्द्@@ 2
सकारा@@ 2
धोखा 2
रामनाथ 2
सुजुकी 2
होंडा 2
वकालत 2
M 2
s 2
Technologies 2
Private 2
Limited 2
स्ट्रेलिया 2
ष्टाचार 2
कोल@@ 2
पतियों 2
ग्रु@@ 2
रौ@@ 2
संसार 2
घ्न 2
भीड़ 2
क्षों 2
नरेन्द्र 2
रोज़@@ 2
स्टॉल 2
महासचिव 2
नरसिम्@@ 2
ix@@ 2
रचनात्मक 2
भोजन 2
लए 2
च्@@ 2
50-@@ 2
चलेगा 2
क्ष्य 2
मल्@@ 2
फिल्@@ 2
अत्य@@ 2
खारिज 2
ताब@@ 2
किमी 2
ध्र@@ 2
मस्@@ 2
खलन 2
तल@@ 2
लड़ाई 2
भरकर 2
नामी 2
शीत 2
निर्देशन 2
शाला@@ 2
सिंध 2
नती 2
420 2
यानि 2
सौहार्@@ 2
1981 2
रद्@@ 2
ंबर 2
105 2
कहें 2
f 2
कुमारी 2
प्लेट 2
फेस्टिवल 2
सिंधु 2
इजराइल 2
निकी 2
एकजुटता 2
विवा@@ 2
i.@@ 2
श्वर 2
निर्धारि@@ 2
सैद्धा@@ 2
सुनील 2
अंतरिक्ष 2
रिफ 2
नमू@@ 2
बोलना 2
कैमरा 2
सौंदर्य 2
छा 2
ठप 2
वाणिज्य@@ 2
मिलनी 2
अभ्यर्थी 2
स्टार@@ 2
सरे@@ 2
सुब्र@@ 2
वक्त 2
गाने 2
हाद 2
174 2
लोकन 2
मूर्@@ 2
मुंब@@ 2
बुलेट 2
उपर 2
मन@@ 2
आत्म 2
ंचल 2
डीज़ 2
जनहित 2
धरी 2
पड़ोस 2
लक्षणों 2
नियमि@@ 2
आब@@ 2
डं@@ 2
सदन 2
आन्दोलन 2
पां@@ 2
गनी 2
पावर@@ 2
जौ@@ 2
कैंसर 2
अमेरि@@ 2
क्चर 2
नेवालों 2
केन्@@ 2
विल 2
फी 2
विद्या 2
मुजफ्फरपुर 2
करु@@ 2
र्च 2
ट्रोल 2
परो@@ 2
नतीजे 2
बडा 2
कहे 2
आशीर्वाद 2
ठहराया 2
कोले@@ 2
ब्रू@@ 2
सम्मि@@ 2
पल्स 2
ड़ते 2
काता 2
ज़रूरत 2
मज़@@ 2
आक्रमण 2
पैसों 2
सड़कें 2
उद्घाटन 2
ज़ों 2
कामना 2
इंडोने@@ 2
उम्मीदें 2
120@@ 2
कॉपी 2
निटी 2
माथुर 2
धरती 2
अट@@ 2
n@@ 2
शिकार 2
लीस 2
तर्गत 2
सुभाष 2
अड्डे 2
बह 2
केमि@@ 2
कल्स 2
निः@@ 2
मानत 2
रोगों 2
क्वार्टर 2
जुट 2
नेताओं 2
पेरिस 2
छात्राओं 2
उम्र 2
पीपीएसी 2
इच्छ@@ 2
शंकर 2
त्या@@ 2
गे 2
बढ़ेंगे 2
उभार@@ 2
नकली 2
दित्य 2
पड़ोसी 2
मिला@@ 2
गुरू@@ 2
131 2
पोशाक 2
वियर 2
यंत्र 2
टीन 2
गली 2
तेज@@ 2
आसमान 2
लगीं 2
सिंगा@@ 2
महिंद्रा 2
न्ति 2
ऑडि@@ 2
लोगो 2
बच 2
छुटकारा 2
133 2
रियाल 2
मिठा@@ 2
वैचारिक 2
शेड्यूल 2
फिल्में 2
कबड्डी 2
निश्चय 2
अके@@ 2
रोज@@ 2
लंबन 2
ईटी 2
निदान 2
फूँ@@ 2
गौरव 2
clos@@ 2
टैं@@ 2
भूषण 2
सहकारिता 2
बचाना 2
दिल@@ 2
मेरे 2
पैकेट 2
कुलम 2
खेलों 2
स्फो@@ 2
ट्र 2
टीबी 2
लास 2
सम्भावना 2
शे 2
आनेवाली 2
मैथ्यू 2
सार्व@@ 2
शिशु@@ 2
खने 2
कश 2
जानकर 2
पैर 2
मार्ट 2
ट्रॉ@@ 2
दबा 2
2,500 2
275 2
जितनी 2
पीस 2
ख़री@@ 2
डूब 2
पॉजिटिव 2
,999 2
पक्@@ 2
-- 2
साक्षी 2
lin@@ 2
Y@@ 2
शशि 2
gm 2
sn@@ 2
आकर्@@ 2
ेंद्र 2
देशा@@ 2
at@@ 2
ब्रिज 2
पुरम 2
दोष 2
बेस्ड 2
एनआरसी 2
डि 2
कमान 2
८@@ 2
कड़ 2
वेंद्र 2
नारायण 2
दुबे 2
हल्@@ 2
बेह@@ 2
सरदार 2
आपसे 2
लाएं 2
जुनून 2
ग्राउंड 2
as 2
ब्लैक@@ 2
ड्रो@@ 2
पैड 2
लिप@@ 2
203 2
क्वी@@ 2
107 2
मंत्र@@ 2
करनेवाले 2
श्रीनि@@ 2
W@@ 2
w@@ 2
w 2
www 2
बॉल 2
देव 2
त्रिपाठी 2
मोबाइ@@ 2
विन 2
ऑ 2
कृतिक 2
राइड 2
मिता 2
अमेरिकन 2
वारंट 2
देह 2
सम्बन्@@ 2
ष्टीकरण 2
न्नता 2
तटीय 2
सँ@@ 2
आर्थ@@ 2
ठाणे 2
बापू 2
सांग@@ 2
ंडो@@ 2
मक्@@ 2
पूर्वोत्तर 2
इलेक्ट्रॉ@@ 2
चाइना 2
यूक्रेन 2
आल 2
स्टेशनों 2
वास्त@@ 2
पीसीबी 2
गुज़@@ 2
जेक्ट 2
हिर 2
वाणि@@ 2
झी 2
सदस्@@ 2
फिंच 2
IS@@ 2
शप 2
गिरा@@ 2
एकजुट 2
लैंड@@ 2
कोलंबिया 2
इतने 2
प्रवीण 2
मुखर्जी 2
खतरनाक 2
लगाये 2
मद्@@ 2
इंटेलि@@ 2
तबाही 2
भ्रष्ट 2
ंतों 2
स्म 2
फ्ले@@ 2
निर्दोष 2
चारियों 2
कोर्ट 2
कली 2
कुं@@ 2
आदि@@ 2
सुदूर 2
4000 2
काला 2
In@@ 2
पहुँच@@ 2
विहित 2
जलमार्ग 2
मिलेंगे 2
रथ 2
भरें 2
धैर्य 2
विरा@@ 2
30-@@ 2
दुश्@@ 2
कालि@@ 2
प्रांतीय 2
पेट 2
कह 2
वण 2
धे 2
विकलांग 2
शारीरिक 2
समझना 2
रोशनी 2
इमरजेंसी 2
समैन 2
प्रोड@@ 2
ीम 2
धूप 2
महाराजा 2
गाय@@ 2
फिटनेस 2
182 2
स्कि@@ 2
भूमिकाएं 2
आंधी 2
फोटो@@ 2
वोल्@@ 2
लवा@@ 2
बली 2
नागरिकता 2
पूर्वजों 2
वैवाहिक 2
वृक्ष 2
जन्म@@ 2
उम@@ 2
फीट 2
रेस्तरां 2
गोरि@@ 2
आरोप@@ 2
प्रोटीन 2
ंगा 2
सांख्य@@ 2
बसे 2
ग्रामीणों 2
कलर 2
ग्रह 2
बैडमिंटन 2
मोड़ा 2
इमारत 2
प्रिय@@ 2
real@@ 2
ty@@ 2
क्की 2
कृत@@ 2
विमान@@ 2
is@@ 2
em@@ 2
आस 2
कमज़ो@@ 2
डोर 2
चरित्र 2
थाः 2
घंटा 2
्राष्ट्रीय 2
रिए@@ 2
रोग 2
पाइपलाइन 2
प्रचालन 2
वसा 2
भयावह 2
पाइप 2
आईसीसी 2
भूमि@@ 2
काएँ 2
ब्ले@@ 2
लियो 2
महंगे 2
पीपी 2
कसौ@@ 2
समुद्र 2
गाड़ी 2
इलेक्ट्रिक 2
मध्यप्रदेश 2
ुओं 2
धर्म@@ 2
बन@@ 2
पढ़ते 2
ड़ता 2
परंपराओं 2
वादन 2
संप्र@@ 2
पंप 2
दीदा 2
चिंताजनक 2
जंगल 2
मेटिक 2
त्त@@ 2
195@@ 2
परम्परा 2
148 2
९@@ 2
पब्लि@@ 2
इने@@ 2
सत्ता@@ 2
XI 2
सर्दी 2
ईस्ट 2
तकनी@@ 2
पत्रकारों 2
जली 2
ेंगी 2
जीत 2
गिरी 2
ृंख@@ 2
सूर 2
तादाद 2
es@@ 2
मुस्@@ 2
तोड़ 2
यूआईडीएआई 2
एडमि@@ 2
स्ट्रेशन 2
अख्@@ 2
तियार 2
उदाहरणों 2
सिर 2
खला 2
मेरा 2
if@@ 2
c 2
c@@ 2
वमेंट 2
पिक 2
घातक 2
शॉट 2
बँ@@ 2
डमि@@ 2
मैच 2
बैंग@@ 2
एयरो@@ 2
सोल 2
बटा@@ 2
जबरन 2
काठमांड@@ 2
फुट 2
चलती 2
लोस 2
क्रेन 2
1963 2
फॉक्स 2
पेड़ 2
विमर्@@ 2
ढांच@@ 2
पारे@@ 2
170 2
माय@@ 2
फ़ैसले 2
भटक 2
फेम 2
त्यौ@@ 2
ंसर 2
अहमियत 2
मुकदमा 2
गिंग 2
इसे@@ 2
सिया@@ 2
सरे 2
बस 2
मेंस 2
हक@@ 2
खिताब 2
तारा@@ 2
पोर 2
मुख्या@@ 2
मौकों 2
हुनर 2
ब्रिड 2
टुकड़े 2
ँगे 2
उम्मीद@@ 2
हस्ताक्ष@@ 2
खाने 2
रास्ते 2
तोड़ने 2
सकर 2
वायु@@ 2
क्का 2
भरना 2
टते 2
एंव 2
सूर्य 2
ताजी 2
बरसात 2
दुकानें 2
टक 2
ंकर 2
धवन 2
यूजर्स 2
णुओं 2
V@@ 2
स्य 2
कीटना@@ 2
साह@@ 2
नकार 2
नेता 2
जीरा 2
टिकटों 2
उठाएगा 2
श्रृ@@ 2
प्रच@@ 2
शने 2
दवा 2
टिस 2
कटा@@ 2
सरा 2
पत्नी 2
भुज 2
304 2
सन् 2
कोण 2
मुलाकात 2
तू 2
तूर 2
हमे 2
क्यो@@ 2
पिंक 2
वॉच 2
एक्सप्रेस 2
कोच्च@@ 2
F 2
रियम 2
कब्जा 2
शनी 2
सम 2
3,000 2
विवि@@ 2
फिलीपींस 2
कहानी 2
कस्@@ 2
स्वीडन 2
रॉय 2
ट्रॉफी 2
व्यर्थ 2
बेटी 2
लड़कियों 2
मिलि@@ 2
लू 2
गुल@@ 2
चक्रवा@@ 2
सफ़@@ 2
बने@@ 2
चिन्@@ 2
बुला 2
डब्ल्यूएचओ 2
सराहनीय 2
हटाए 2
रहकर 2
अमिताभ 2
विकता 2
फैन 2
मना 2
जहाज 2
गोयल 2
लगाएं 2
बिगा@@ 2
ंकि 2
सिखाया 2
उदयपुर 2
सुपर 2
दिख 2
जिल 2
टैक्@@ 2
वुड 2
विद्युतीकरण 2
चर्@@ 2
सामर्थ्य 2
ब्रिटिश 2
थै@@ 2
फिकेशन 2
ब्ल@@ 2
गिक 2
एकसाथ 2
शव 1
महर्षि 1
वीपी 1
ारिज 1
पट 1
224 1
OR@@ 1
पीड़ित 1
रिलीज़ 1
न्यायाधीश 1
प्रतिज्ञा 1
शपथ 1
शेर 1
घाती 1
रच@@ 1
गिरफ्त 1
वीरता 1
इयां 1
Reg@@ 1
ऽ 1
भड़@@ 1
बन्दी 1
घात 1
यिका 1
चि 1
औस@@ 1
संवाददाताओं 1
ंगे 1
फ्लू 1
कच@@ 1
महान 1
कंधे 1
बला 1
पेड़ों 1
कतों 1
र्थियों 1
वक्ताओं 1
आदित्य 1
बिड़ला 1
ग्य@@ 1
सोसाय@@ 1
तेल@@ 1
वश्य@@ 1
थि 1
H 1
यॉ@@ 1
फ्रा 1
मैदान 1
उतर@@ 1
परम 1
विद्वान 1
हाने 1
रिकॉर्डिंग 1
सोसाइ@@ 1
संग 1
शिना@@ 1
जितने 1
मित्रता 1
शूटिंग 1
बोल्ट 1
्र 1
रहनेवाले 1
राज़@@ 1
गारी 1
नॉर्@@ 1
आईओसी 1
मतलब 1
लीन 1
रुके 1
कानू@@ 1
सिय@@ 1
१२ 1
दय@@ 1
प्रिय 1
शोक 1
बिता@@ 1
विकि@@ 1
बच्च@@ 1
साहेब 1
लु 1
गिरो@@ 1
विधानसभा 1
धुरी 1
उत्तराखण्ड 1
हिंदू 1
सिख 1
बौद्ध 1
ईसाई 1
मसलन 1
त्री@@ 1
हिक 1
कूट@@ 1
शताब्दी 1
एकतरफा 1
पुरु@@ 1
दावेदार 1
पतन 1
वर्ण@@ 1
फैमिली 1
बूत 1
राज्यपाल 1
्यादा 1
परेशा@@ 1
जं@@ 1
लिखने 1
कामका@@ 1
हार्दिक 1
स्मार्ट@@ 1
नील@@ 1
बदला@@ 1
वाहि@@ 1
आश्रम 1
डॉट 1
बूझकर 1
यूआई 1
परन्तु 1
बढ़िया 1
द्वार@@ 1
अफ्रीकी 1
स्क्वा@@ 1
रघु@@ 1
सूरी 1
साफ़ 1
याता@@ 1
मार्ट@@ 1
एयरक्राफ्ट 1
अधिक@@ 1
हिन्दू 1
स्वभाव 1
शयों 1
शेर@@ 1
गाया 1
गिल 1
बीएसएनएल 1
एनएल 1
थाई@@ 1
ठ्@@ 1
पार्ट 1
जायजा 1
चित्रण 1
सूत्रों 1
फ्लिपकार्ट 1
मस्तिष्क 1
म्यांमार 1
इल@@ 1
जावेद 1
काटने 1
खुश 1
नीर 1
अजीज 1
जहा@@ 1
जिद 1
उपयोगि@@ 1
उतर 1
सागर@@ 1
IC@@ 1
AAP 1
दंगे 1
डूबने 1
बुल 1
इस्@@ 1
पत्रकार 1
राई 1
चीज 1
आइसोलेशन 1
नक़@@ 1
दुर्घटना@@ 1
जूद 1
धिया 1
किला 1
ताछ 1
खौ@@ 1
डु 1
राह@@ 1
काः 1
न्द्र 1
ज़िम्मेदार 1
जन्मभूमि 1
तीर्थ 1
आलोचना 1
फिंग 1
क्रू@@ 1
क्राइम 1
376 1
तरा@@ 1
पेंटिंग 1
सुख@@ 1
सीरिया 1
सभ@@ 1
आम@@ 1
बैठकर 1
सिर@@ 1
सिक 1
व्यक्तित्व 1
ताने 1
रेंसिक 1
बांध@@ 1
गौरवान्वित 1
विक्रे@@ 1
करेगें 1
किया@@ 1
ख़बर 1
इधर 1
हफ्तों 1
सारा 1
जंग 1
कर्मी 1
कोरोना@@ 1
लड़@@ 1
तंबाकू 1
स्टल 1
hom@@ 1
el@@ 1
ans@@ 1
बैटरी 1
ज़रूर@@ 1
लिस 1
adi@@ 1
श्व@@ 1
नाश@@ 1
ताइ@@ 1
इंडस्ट्री@@ 1
बोले 1
भीषण 1
भक्तों 1
CSR 1
Report 1
१३ 1
कोष@@ 1
इलाज 1
पीडीएफ 1
जगदीश 1
तरता 1
1930 1
विस्फोटक 1
आकृति 1
संबोधन 1
नासिक 1
पटनायक 1
फैं@@ 1
ईमान@@ 1
प्लेयर 1
रात्रि 1
ds 1
चैलें@@ 1
जाय 1
भक्ति 1
ंको 1
अधिवक्ता 1
लेंडर 1
गेल 1
किलो 1
कमांड 1
३० 1
ील 1
चिली 1
जहाजों 1
कूटनीतिक 1
दर्जे 1
परहेज 1
छत्रपति 1
शिवाजी 1
महाराज 1
यूनेस्को 1
समझदारी 1
नेंट 1
कटो@@ 1
अल्मोड़ा 1
g@@ 1
op@@ 1
ho@@ 1
जल्दबाजी 1
अने@@ 1
नेक 1
137 1
कलं@@ 1
अगु@@ 1
सहार@@ 1
सामी 1
हँ@@ 1
नगर@@ 1
मेन@@ 1
फ्रेम 1
खड़ा 1
श्मा 1
क्त@@ 1
स्वामी@@ 1
मूर्ति 1
औ 1
ऐ 1
शुमार 1
मर्सि@@ 1
ज़िला 1
ll 1
गणेश 1
सेके@@ 1
ंडरी 1
जीतने 1
Compl@@ 1
aints 1
Add 1
ढ़ा@@ 1
दखल 1
सते 1
लगेगा 1
ख़ि@@ 1
माउंट 1
हाली 1
एयरलाइंस 1
वेल 1
स्कों 1
परमाणु 1
मैक्सिको 1
मिस्र 1
आरोपित 1
चौड़ाई 1
चोटें 1
घु 1
पकों 1
विच@@ 1
मानने 1
भाषाएं 1
हृदय 1
दरगाह 1
कोविंद 1
बिंद@@ 1
आईवी 1
पिड 1
पटल 1
प्रदायिक 1
ब्ध 1
द्योगिक 1
हटकर 1
बॉय@@ 1
टिफि@@ 1
प्राची@@ 1
सुनाई 1
काश 1
क्षिप्त 1
1976 1
d 1
जय 1
नागर 1
निभाएंगे 1
खोज@@ 1
भेंट 1
ऑल@@ 1
लेड 1
मेरी 1
आईटीसी 1
चारे 1
स्विट्जरलैंड 1
व्हा@@ 1
जीवा@@ 1
सोच 1
लड़ी 1
लड़ा@@ 1
फायदेमंद 1
उठ 1
श्वे@@ 1
IL@@ 1
उच्@@ 1
वसी@@ 1
टाया 1
अकेली 1
शांति@@ 1
भाषित 1
260 1
टॉस 1
निस्संदेह 1
उत्सु@@ 1
सांत्वना 1
सुनामी 1
छिड़@@ 1
उपरो@@ 1
क़ 1
सश@@ 1
भाज@@ 1
परिणी@@ 1
सुना 1
आतंकवादी 1
झूठे 1
डीएफ 1
परिधान 1
370 1
फोसिस 1
जानना 1
दस्त@@ 1
जेंसी 1
सले 1
नजरअंदाज 1
download 1
Div@@ 1
id@@ 1
end@@ 1
शरी@@ 1
URL 1
तेलुगू 1
हैप्पी 1
प्रभु 1
ंबू 1
कट्@@ 1
आहार 1
म्ब 1
इमार@@ 1
लिखकर 1
एलडी 1
दिखाने 1
वारा@@ 1
पांड@@ 1
पहुँचा@@ 1
विला@@ 1
प्पल 1
ताकतों 1
कोरोनावायरस 1
ॉन 1
कमिंग 1
डेन@@ 1
138 1
संगणित 1
तमा@@ 1
ud 1
फीसदी 1
मोर्चा 1
प्रत्यक्ष@@ 1
पंथ 1
हस्तशिल्प 1
प्लेन 1
सिफ@@ 1
हंगा@@ 1
नजरिया 1
साउ@@ 1
पढ़ने 1
बेटा 1
ऊँची 1
मतें 1
दोष@@ 1
सच्चा 1
दुर्व्यवहार 1
ज़त 1
दोबारा 1
त्रित 1
कवि@@ 1
स्तन 1
सने 1
सिलसिला 1
राजनयिक 1
कोरो@@ 1
ंबली 1
चमक@@ 1
सितारे 1
नाजु@@ 1
क़ि@@ 1
फिजिकल 1
श्रा@@ 1
घन@@ 1
घुसपै@@ 1
पूर्णिमा 1
साहित्यिक 1
मनुष्यों 1
प्रयोगशालाओं 1
यंत्रों 1
हार 1
मैनु@@ 1
ud@@ 1
am@@ 1
im@@ 1
Home 1
CC@@ 1
समझा@@ 1
तीं 1
ंटल 1
बूती 1
जेब 1
निशा@@ 1
GE@@ 1
नाना 1
बाएं 1
दाहिने 1
बयानों 1
दावे@@ 1
चीजें 1
जातीय 1
सद्भावना 1
महीना 1
.. 1
पाये 1
बरा 1
ढूँ@@ 1
नमा@@ 1
ऑक्स@@ 1
नारायण@@ 1
त्यौहार 1
श्रो@@ 1
दिव्यांग@@ 1
बेल 1
h@@ 1
tips 1
an@@ 1
str@@ 1
act 1
RE@@ 1
RA 1
साइंसेज 1
पाठ 1
ग़@@ 1
प्रचंड 1
ओसा@@ 1
हाइड्रो@@ 1
क्वीन 1
प्रकोष्ठ 1
रिफाइन@@ 1
धं@@ 1
ट्स@@ 1
खंगा@@ 1
CP 1
मैंने 1
बांटने 1
कमेटी 1
कारा@@ 1
छ्@@ 1
यहीं 1
चक्कर 1
खाएं 1
यद 1
गुज़र 1
L@@ 1
जोड़ें 1
उठाई 1
जाएँगे 1
संगीत 1
वैक्@@ 1
शास्त्रीय 1
प्रसन्न 1
अली@@ 1
र्नी 1
कान 1
पूर 1
अंदाज़ 1
असंभव 1
अक@@ 1
रंजीत 1
चटर्जी 1
सिम@@ 1
ँच 1
हने 1
मांगें 1
अराज@@ 1
हाथों 1
निदेशालय 1
162 1
नीन 1
मांड 1
ंटी 1
स्ना@@ 1
Ban@@ 1
king@@ 1
ap@@ 1
ki@@ 1
bha@@ 1
shame@@ 1
टाइगर 1
प्रां@@ 1
चाँ@@ 1
अंधे@@ 1
सार्वज@@ 1
अड्डों 1
पंड@@ 1
Dis@@ 1
u@@ 1
res@@ 1
as@@ 1
p 1
invest@@ 1
or@@ 1
services 1
गौड़ा 1
अपराधी 1
ट्रम 1
पद्म@@ 1
न्यायमूर्ति 1
चंद्रशेखर 1
तेश 1
मार्शल 1
स्सी 1
मिर 1
इनकम 1
सीखते 1
राष्ट्रवाद 1
ट्राइ@@ 1
एक्सपो 1
जोत 1
प्रांत 1
भूमिगत 1
स्को 1
स्वच्छ@@ 1
चौड़ा 1
अंदा@@ 1
कॉफी 1
ढा 1
आयतों 1
डेट्स 1
सफल@@ 1
ओस 1
निकलते 1
शराब 1
रस्@@ 1
सेक्रे@@ 1
यु 1
कांस्य 1
ME@@ 1
अल्पसंख्यकों 1
हॉस्पिटल 1
सरपर@@ 1
माम 1
प्रण@@ 1
छाप 1
बो 1
कार्ट 1
खोई 1
अकाल 1
बतौर 1
वायरल 1
चौंकाने 1
वैल@@ 1
दलील 1
सशस्त्र 1
पार्किंग 1
केश 1
IM@@ 1
PA@@ 1
C@@ 1
T 1
स्वराज 1
Al@@ 1
our@@ 1
te@@ 1
rest 1
लड़ना 1
मंग@@ 1
वाने 1
शीतकालीन 1
झटके 1
शुक्ल 1
कलाकारों 1
जिंदगी 1
बितर 1
एके@@ 1
bun@@ 1
des@@ 1
de 1
en 1
press 1
speeches 1
can@@ 1
techn@@ 1
olog@@ 1
y-@@ 1
and-@@ 1
innov@@ 1
ation@@ 1
help@@ 1
new@@ 1
dat@@ 1
a-@@ 1
gener@@ 1
ing-@@ 1
pos@@ 1
si@@ 1
bil@@ 1
iti@@ 1
es-@@ 1
यार्ड 1
कुर@@ 1
एचडी@@ 1
परिसंघ 1
झगड़े 1
कॉन 1
थाम 1
खाध@@ 1
०@@ 1
m 1
आजीवन 1
फोरेंसिक 1
SBI 1
फूल 1
दिक्कत 1
चाहू@@ 1
ँगा 1
आसियान 1
जागरू@@ 1
प्रशा@@ 1
सकीय 1
यूनानी 1
जगहों 1
जितेंद्र 1
लगाव 1
असीम 1
स्किल 1
मंजिल 1
सतर्@@ 1
योगि@@ 1
बन्द 1
इंडस्ट्रीज 1
वालो 1
256 1
हॉकी 1
बास्@@ 1
मुकाब@@ 1
ईं 1
दिखाते 1
बहुल 1
हताहत 1
डेविड 1
बिन 1
इज 1
नवी 1
दुःख 1
परिवार@@ 1
बिताने 1
माइकल 1
शासी 1
ंदी 1
देवताओं 1
उड़ा@@ 1
आनंद@@ 1
छिपा 1
and 1
जरलैंड 1
निषे@@ 1
संयम 1
वित्तमंत्री 1
लाश 1
H@@ 1
बीएसपी 1
दुर्घटनाओं 1
वारों 1
मसले 1
टोक्यो 1
एनआईए 1
टॉक 1
महाराष्@@ 1
कश्मी@@ 1
बंगा@@ 1
तिया@@ 1
सर्जरी 1
आठवें 1
प्रको@@ 1
सीवर 1
पोषक 1
साइंस 1
सिगरेट 1
Ab@@ 1
MB 1
पैर@@ 1
मस्ति@@ 1
कजा@@ 1
किस्तान 1
कैंपस 1
कविता 1
दम@@ 1
सिंड्रोम 1
एसि@@ 1
टाल 1
मलाइ@@ 1
149 1
शाही 1
आलोच@@ 1
गुं@@ 1
टूर 1
जबलपुर 1
यश@@ 1
वंत 1
देव@@ 1
गड़बड़ी 1
कमल 1
किशोर 1
मोइ@@ 1
ट्रेनों 1
चढ़कर 1
लैंग@@ 1
लियम 1
मुर@@ 1
मंत्रि@@ 1
मंडलीय 1
सीसीआई 1
फ्रेंच 1
आखिरकार 1
ईश्वर@@ 1
भाई 1
जू 1
नार@@ 1
देवे@@ 1
केके 1
एयरपोर्ट 1
इंजीनियर 1
दिलाने 1
जस्टिस 1
अड्@@ 1
अम्@@ 1
माँग@@ 1
टूर्नामेंट 1
प्रदीप 1
आंकी 1
सें 1
मुआवजे 1
तब्@@ 1
बहन 1
फिक्स 1
हुंडई 1
द्रव 1
फैसलों 1
खुफिया 1
स्टूडेंट 1
रेत 1
चुन 1
दिव्या@@ 1
ंभ 1
वय@@ 1
एजुकेशन 1
राष्ट्रमंडल 1
सीपीएसई 1
फैशन 1
कैब 1
फंस 1
रिजल्@@ 1
बक्@@ 1
दबद@@ 1
इल्@@ 1
कोश 1
बनेंगे 1
लः 1
ग्रेस 1
अग्नि 1
क्रैश 1
मेसी 1
बर्बाद 1
ग्स 1
वामपंथी 1
वादियों 1
तफरी 1
बैठ 1
लम्बे 1
वीर 1
शहीदों 1
चंदा 1
r 1
प्रोड्यूसर 1
de@@ 1
ed@@ 1
फ़ी 1
विचारधारा 1
दिलों 1
तमिल@@ 1
LO@@ 1
LL@@ 1
झूठी 1
ढूंढ@@ 1
छात्रा@@ 1
वासों 1
सोना@@ 1
विकला@@ 1
प्रहार 1
ग्न 1
बसें 1
गिनती 1
जीव 1
मंगलवार 1
नेवाला 1
ρ 1
छत्तीस@@ 1
गढ 1
वु@@ 1
बारा@@ 1
सिनेमा 1
अज़@@ 1
माता 1
115@@ 1
निकलकर 1
उपनगरीय 1
रेल@@ 1
विपक्ष 1
पहाड़ी 1
स्ट्रॉ@@ 1
ट्रू@@ 1
अनगिनत 1
अय्यर 1
खल@@ 1
वच@@ 1
दांव 1
इंद@@ 1
नेवाले 1
सब्जि@@ 1
ताजा 1
टार@@ 1
पर्व 1
मिकता 1
कारखाने 1
पोल 1
सिल्@@ 1
क्रिकेटरों 1
बुद्धि 1
ब्रॉ@@ 1
शारदा 1
सिद्@@ 1
ऋष@@ 1
पर्वतीय 1
समस्@@ 1
स्मरण 1
क्राफ्ट 1
हेलिकॉप्टर 1
आमंत्रण 1
सेवी 1
फ्रेंचाइजी 1
लक्ष्मी 1
भू 1
शारी@@ 1
धमकी 1
खुल्लम 1
खुल्ला 1
एकी@@ 1
उद्धार 1
पाकर 1
ma@@ 1
ail@@ 1
re@@ 1
g 1
घन 1
नान 1
लट 1
1951 1
वरण 1
10वीं 1
प्रातः 1
पेशा@@ 1
जुटे 1
सुरेश 1
तेंदुलकर 1
ब्रह्@@ 1
देशमुख 1
लियर 1
CWC 1
SW@@ 1
युवक 1
प्रायद्वीप 1
ल्क 1
माध्यमिक 1
धुंध 1
सिग्नल 1
8,000 1
वाक@@ 1
दरवाज़े 1
लाल@@ 1
ड्राइ@@ 1
गंग@@ 1
द्धा@@ 1
ंगेः 1
स्लो@@ 1
यार्क 1
शिल्प@@ 1
पांचवां 1
ंबा 1
दुकानों 1
उड़ा 1
इंटर 1
रिएबल 1
मुश्किलों 1
चौधरी 1
तस्वीरों 1
मानो 1
पैदावार 1
याओं 1
मजबू@@ 1
रंदा@@ 1
ल्टर 1
विरोध 1
प्रदर्शनों 1
मानवता 1
डिस्प्ले 1
हिंदुस्तान 1
न्यूज़ 1
पचारिक 1
मालिक 1
अप्रत्या@@ 1
लम्बी 1
गाना 1
तोड़ा 1
वेरी 1
आक्@@ 1
बौ@@ 1
एल्@@ 1
धोखे 1
मुन्@@ 1
धर्मशाला 1
पंचवर्षीय 1
जानकारि@@ 1
परिपूर्ण 1
ठिकाने 1
नाका@@ 1
पुख्ता 1
शौचालयों 1
SA@@ 1
जीवनी 1
जाम 1
सदी 1
२ 1
एँगे 1
अफवाहों 1
वेबि@@ 1
१९@@ 1
६@@ 1
१९९@@ 1
६ 1
रें 1
Is 1
सीय 1
गहरे 1
सदनों 1
महफूज़ 1
सवाल 1
वृत्ता@@ 1
पाली 1
शम 1
समस 1
मस 1
मात 1
झि@@ 1
ठु@@ 1
सबमिट 1
बराबरी 1
जेंडर 1
कान@@ 1
मैदानी 1
जख्@@ 1
on@@ 1
जना 1
परेशानियों 1
सुनता 1
हड़@@ 1
तालों 1
नाइटेड 1
जोश 1
अनिल 1
विय@@ 1
विजयी 1
उद्धव 1
डिफ़ॉल्ट 1
थर 1
साढ़े 1
हांग@@ 1
पसं@@ 1
तसवीर 1
pu@@ 1
तकलीफ@@ 1
घायल 1
तिम 1
दिमाग 1
स्वाधीनता 1
निकालना 1
नज़दीक 1
मजब@@ 1
सिम 1
स्ने@@ 1
डालें 1
इजरायल 1
AM 1
सम्मे@@ 1
गोरखपुर 1
रिले@@ 1
बेव@@ 1
चाहती 1
फीफा 1
कप 1
ंटन 1
समृ@@ 1
तव@@ 1
चिन्ता 1
कोने 1
लेश 1
संशो@@ 1
सांख्यि@@ 1
नरी 1
B 1
Is@@ 1
ays 1
वास्तु@@ 1
शिल्@@ 1
गट 1
कले@@ 1
मरी@@ 1
एथ@@ 1
नॉल 1
कने@@ 1
थों 1
उन्न@@ 1
न्द@@ 1
यर्ड 1
प्रस्थान 1
मिश्रा 1
एम्स 1
जानते 1
जायेगी 1
संपादक 1
यौ@@ 1
ौल 1
ट्वी@@ 1
लर्स 1
सरी@@ 1
ऐलान 1
जज 1
फाई 1
साझ@@ 1
सुलह 1
छात्रावास 1
विश्राम 1
अजी@@ 1
प्रेम@@ 1
याचिका@@ 1
मांगने 1
नसन 1
हिच@@ 1
कारें 1
आला@@ 1
उड़ानों 1
कोलंब@@ 1
ग्रामी@@ 1
कणों 1
कुमार@@ 1
चारी 1
जोस 1
कहाँ 1
सोच@@ 1
खान@@ 1
दूषित 1
भेजे@@ 1
व्ही@@ 1
स्के@@ 1
मैरी 1
पहुंचकर 1
चलाना 1
इले@@ 1
डेन 1
जॉर्डन 1
पूर्वो@@ 1
रिक्त 1
बिंदु@@ 1
न्याया@@ 1
१@@ 1
निराशा@@ 1
विशे@@ 1
रघुराम 1
भव@@ 1
प्रभु@@ 1
क्सिंग 1
पारा 1
त्ती@@ 1
क्षाएं 1
अब्@@ 1
पत्रि@@ 1
पुस्त@@ 1
कामयाब 1
~ 1
राजमार्गों 1
चौड़@@ 1
ऽ@@ 1
किर 1
ज्य 1
कहानियां 1
हस्तियों 1
म्र@@ 1
स्टेंट 1
वैट 1
मिलेंगी 1
प्राय@@ 1
प्रतिनिधि@@ 1
तबा 1
सेटअप 1
हॉस्पि@@ 1
शर@@ 1
खबर 1
इराक 1
जवाहरलाल 1
नेहरू 1
पढ़ाई 1
हुयी 1
मुठ@@ 1
भेड़ 1
करो 1
इंतजाम 1
मेडल 1
साथी 1
वनी 1
कृष्@@ 1
1200 1
अनंत 1
अन्ततः 1
रिश्ता 1
ट्रक 1
धर्मेंद्र 1
वैष्ण@@ 1
स्वप्न 1
देशवासियों 1
दीपा@@ 1
भट्ट 1
कोचिंग 1
लीप 1
परिप्रे@@ 1
वकी@@ 1
दिख@@ 1
येंगे 1
मां 1
वफादारी 1
सत्या@@ 1
डॉक्टरों 1
सीखा 1
येगा 1
घाटन 1
रोग@@ 1
बेंच 1
एजेंसि@@ 1
नोटिफिकेशन 1
खाद 1
अजमेर 1
आराम 1
मूवी 1
खुशहाली 1
आइसो@@ 1
विकिरण 1
क्यूबे@@ 1
एआईएम@@ 1
फरीदाबाद 1
जिम्मा 1
वैं@@ 1
243 1
My@@ 1
SB@@ 1
World 1
टकरा@@ 1
फान 1
खासा 1
उठाकर 1
भाषणों 1
स्क@@ 1
प्रजा@@ 1
गुड 1
पौधे 1
पाएंगे 1
नर्स 1
फ्रेंसिंग 1
सामंज@@ 1
स्य@@ 1
बर्थ 1
रॉस 1
कमरे 1
तलवार 1
प्रेमी 1
शीला 1
समझाने 1
साधते 1
डान 1
सोचा 1
गम्भीर 1
ध्यक्ष 1
प्रमोद 1
मसी@@ 1
ऋ 1
तरफ़ 1
पेट्रो@@ 1
काए 1
लैंडिंग 1
फोर्निया 1
ूर 1
क्वार@@ 1
रोकते 1
पटा@@ 1
आयु@@ 1
cy@@ 1
ber@@ 1
sec@@ 1
ur@@ 1
yn@@ 1
f@@ 1
आंगनवाड़ी 1
देशक 1
बलि@@ 1
लाः 1
कोल्@@ 1
हालाँकि 1
योगिक 1
आपातकाल 1
पति@@ 1
प्रदर्शनी 1
अवॉ@@ 1
र्ड्स 1
जमाने 1
व्हाट्स@@ 1
सु 1
भावनात्मक 1
तरों 1
टवेयर 1
श्रीराम 1
दिनेश 1
पेंद्र 1
नेटर 1
इच्छा@@ 1
मंदिरों 1
ाराम 1
जगन्@@ 1
लापता 1
महानिदेशक 1
साहू 1
निधन 1
टूट 1
गुण 1
डेल्@@ 1
फिया 1
दुरुप@@ 1
गेम 1
साँ@@ 1
रक्त 1
डेढ़ 1
vil@@ 1
ंग्रे@@ 1
त्वों 1
मेंट्री 1
महा 1
vill@@ 1
केआर 1
ॄ@@ 1
दिक्कतों 1
कोह@@ 1
हम@@ 1
चलाते 1
गुलाबी 1
कृष्ण@@ 1
र्ना@@ 1
IP@@ 1
उधर 1
क्यूटिव 1
सम्पत्ति 1
अका@@ 1
श्वेता 1
एय@@ 1
पढ़@@ 1
ाओं 1
प्रतिद्वंद्वी 1
कर्णी 1
अर्जें@@ 1
ारिया 1
जिलाधिकारी 1
संवाद@@ 1
व्याव@@ 1
ब्रॉड@@ 1
यान@@ 1
१०@@ 1
संपादन 1
सत 1
चन्द्र@@ 1
म्रता 1
V-@@ 1
.... 1
बनाएंगे 1
पर्व@@ 1
तिर@@ 1
बेल्ट 1
विनय 1
शाह 1
सालाना 1
इम@@ 1
ंज 1
हथकरघा 1
ंः 1
ंने 1
आलो@@ 1
दरवाजे 1
प्रवासियों 1
पवि@@ 1
साइकिल 1
2030 1
मातृ 1
माताओं 1
शिशुओं 1
चेता@@ 1
तमं@@ 1
नाड 1
ढेर 1
बिक 1
तकलीफ़ 1
ब्य@@ 1
खुलकर 1
हरें 1
रिलेशन@@ 1
मारी 1
ुक 1
सिलसिले 1
कॉले@@ 1
बॉस 1
मौके 1
प्रक्षेपण 1
राखी 1
सबका 1
फिनलैंड 1
कैटे@@ 1
गरी@@ 1
घाव 1
ओप@@ 1
घे@@ 1
र्थी 1
हार्ट 1
फानन 1
पहचाना 1
ग्रं@@ 1
विस 1
नक्@@ 1
निकलता 1
पीने 1
धानी 1
टायर 1
1986 1
लक्ष्@@ 1
नकारा@@ 1
मोस 1
अंध@@ 1
अखंड@@ 1
ज़ी 1
पीएनबी 1
portal 1
web 1
corpor@@ 1
governance 1
regul@@ 1
ator@@ 1
dis@@ 1
ures 1
आल@@ 1
साइन 1
प्या@@ 1
1965 1
त्योहारों 1
दशह@@ 1
तूफान 1
ढूंढने 1
विनाश@@ 1
गुजरने 1
ंगु@@ 1
९ 1
खाए 1
एजेंसियां 1
तलाशी 1
सहानुभूति 1
कब 1
आतंकियों 1
A@@ 1
U@@ 1
ऋतु 1
नुमान 1
झेल 1
प्रसंग 1
लाम 1
न्ना 1
रिन 1
अर्था@@ 1
धर्मी 1
सिल्वर 1
124 1
चाहेंगे 1
असंतोष 1
फायर 1
ंडन 1
मस@@ 1
मनोबल 1
ईमान 1
ध्वस्त 1
महंगी 1
आपात@@ 1
काली 1
एपि@@ 1
आसार 1
ंगल 1
देश्य 1
रोह@@ 1
रिलायंस 1
हिंदु@@ 1
नर्सिंग 1
फरी 1
रार 1
लगेंगे 1
नाव 1
लोहे 1
1962 1
फंसे 1
सील@@ 1
N@@ 1
PC@@ 1
पारस्@@ 1
ज्य@@ 1
डिवी@@ 1
पत 1
पाचन 1
तिहा@@ 1
रवींद्र 1
त्म 1
प्रेम 1
सच@@ 1
बेहि@@ 1
प्रेर@@ 1
फँ@@ 1
काउंट 1
उजा@@ 1
रज 1
क़ी@@ 1
राबी 1
मीडिया@@ 1
मतदाता 1
सेक्@@ 1
जाही 1
समिट 1
नाट@@ 1
IL 1
M@@ 1
change 1
काब@@ 1
ध्र 1
Me@@ 1
Y 1
ऊँचे 1
खदान 1
अक्षरों 1
ंगें 1
! 1
रियन 1
राष्@@ 1
केर@@ 1
शिव@@ 1
सचे@@ 1
उत्पादित 1
बैनर 1
CG@@ 1
चांदी 1
कुलकर्णी 1
भ्रम 1
घनत्व 1
मुमकिन 1
बच्चन 1
अभिनय 1
केंद्रशासित 1
म्या@@ 1
क़े 1
आईएसआई 1
लायंस 1
र्थक 1
श्वरी 1
रूख 1
SI@@ 1
P 1
दत्ता 1
नौसेना 1
तटरक्षक 1
याचि@@ 1
काएं 1
मुल्@@ 1
जवा 1
सबब 1
कहने 1
महिलाएं 1
ज़ु@@ 1
लंब@@ 1
रिकी 1
डालकर 1
आदान 1
तापमान 1
हॉट 1
सपने 1
मण 1
बंगलादेश 1
इस्रा@@ 1
सार्वभौ@@ 1
ष्टा 1
मित्रा 1
आरोप 1
ठंडे 1
blo@@ 1
an-@@ 1
sin@@ 1
min@@ 1
ut@@ 1
bo@@ 1
सेक्शन 1
न्यूयार्क 1
चौं@@ 1
ठहरा 1
Qu@@ 1
यूथ 1
भाग्यशाली 1
मच 1
मिल्@@ 1
गुर्@@ 1
हाईवे 1
उपर्@@ 1
100@@ 1
राजी 1
अम्बेडकर 1
अद्@@ 1
वोल्टेज 1
्रा 1
धाम 1
मौखिक 1
उदय@@ 1
ख्ता 1
क्रिकेट 1
टी20 1
वनडे 1
ज़मीन 1
मर@@ 1
योगी 1
महत्वाकां@@ 1
कीर्@@ 1
वयस्क 1
किग्रा 1
दवाएं 1
डिया@@ 1
ull 1
जगी 1
नेड 1
मौन 1
Polic@@ 1
ies 1
डेनमार्क 1
वालिया 1
जरा 1
ारिका 1
