के 6484197
। 5507603
में 4556331
है 4369647
, 4190109
की 3697333
और 3286015
को 2579710
से 2440481
ने 2146177
का 1996177
. 1892892
हैं 1617886
पर 1579381
कि 1469934
" 1319883
- 1269621
लिए 1194115
एक 1110834
( 1069839
) 1066227
भी 1038630
नहीं 935996
किया 917903
इस 902543
कर 834893
कहा 805490
यह 733846
करने 655530
' 638158
गया 613894
हो 604349
ही 568420
साथ 558567
था 547111
तो 505907
जो 482918
भारत 464844
उन्होंने 450982
अपने 407002
वह 406620
दिया 399755
बाद 345351
हुए 330090
थे 319473
रहे 319273
न 316725
या 310530
पुलिस 308075
लोगों 307632
हम 305519
सरकार 295232
जा 292958
गई 292898
तक 290348
कुछ 287111
दी 285492
रहा 273562
करते 271727
कोई 269815
थी 263844
रूप 259901
रही 255924
? 250530
वे 247218
मैं 245547
उनके 245490
ये 244107
गए 238533
द्वारा 236287
इसके 231810
अपनी 226166
भारतीय 222802
किसी 222567
पहले 218641
क्या 216646
एवं 213770
लेकिन 211260
तथा 209455
राज्य 208448
देश 204779
सिंह 204167
वाले 201991
दो 200984
उन्हें 200835
सभी 198332
श्री 194263
मंत्री 192313
करना 190366
लोग 189914
होने 188746
तरह 188130
जब 187323
बात 186720
फिल्म 183735
हुआ 181367
मोदी 176578
काम 174853
इन 174254
लिया 171570
समय 171471
बहुत 169986
प्रधानमंत्री 169866
हुई 167244
शामिल 165103
कई 161709
मामले 161589
क्षेत्र 161234
उसके 161058
जाता 159252
होगा 157772
फिर 157650
दोनों 157481
चाहिए 157264
कांग्रेस 156044
अन्य 155536
सकता 155488
आप 155395
अ@@ 154542
दिल्ली 153885
बीच 150507
उस 149980
व 148078
करता 146833
किए 145792
उनकी 145372
बारे 144353
दौरान 142902
सकते 142343
तुम 139142
पास 138458
विकास 138142
जाने 135926
उसे 135401
बताया 135131
ले 133399
सबसे 131995
होता 128755
खिलाफ 125840
अधिक 125708
मुझे 122509
लेकर 121138
: 120891
बार 120072
कम 119849
जारी 119093
प्रदेश 118967
पूर्व 118332
शुरू 116925
उन 116709
हूं 116174
भाजपा 115896
दिन 115083
हमारे 114143
ए@@ 113879
क@@ 112910
इससे 112457
देने 112218
जांच 111483
न@@ 111438
ऐसा 110622
मंत्रालय 110281
जाएगा 109546
म@@ 107785
कारण 107704
वाली 107082
राष्ट्रीय 106941
नाम 106851
ली 106656
टीम 105732
पाकिस्तान 105540
करें 105337
दे 104442
पार्टी 104220
/ 104057
वि@@ 103318
दर्ज 103025
हमें 102947
जैसे 102401
ना 100885
तीन 100454
हर 100043
करोड़ 99567
इसमें 99333
मुख्यमंत्री 98358
क 98215
ल@@ 96800
आज 96599
राष्ट्रपति 96031
इसे 95754
ब@@ 95024
रुपये 95013
र@@ 94864
ओर 94423
ए 94243
ऐसे 93634
जी 93337
चुनाव 92559
स@@ 92549
अगर 91598
क्योंकि 91363
प्रतिशत 91074
आ 90156
स 89361
अभी 88628
म 87287
यहां 87122
अध्यक्ष 86808
ख़ुदा 86479
हालांकि 85944
नई 85642
हमने 85625
काफी 85337
वर्ष 84876
प@@ 84696
उसकी 84318
योजना 83893
होती 83889
अपना 83483
ल 83437
ना@@ 82915
ता 82821
अलग 82587
सुरक्षा 82577
जिसमें 82243
प्रमुख 82152
होगी 81733
खान 81071
आ@@ 81004
आगे 80461
दूसरे 79125
अब 78989
करेंगे 78953
जानकारी 78905
मौत 78747
गांधी 78741
पूरी 78627
जबकि 78391
मेरे 78283
कार्य 78059
अलावा 77655
मुख्य 77516
व@@ 77216
प्राप्त 77121
कुमार 77093
इसलिए 76924
मदद 76896
तहत 76236
बड़ी 76207
त@@ 76153
र 75937
उनका 75565
1 75399
ज@@ 75351
बनाने 75313
बैठक 75251
का@@ 75101
इसका 74283
विभिन्न 74191
उसने 74042
सब 73962
बैंक 73857
बे@@ 73752
मा@@ 73679
द 73419
घर 73300
सी 73215
ः 72851
प्रदान 72824
नेता 72732
इंडिया 72676
प्रति 72643
नि@@ 72552
ला 72041
ं@@ 71860
यहोवा 71722
उत्तर 71395
कार्यक्रम 70938
घटना 70832
स्वास्थ्य 70595
ह@@ 70340
सं@@ 70316
अधिकारी 70164
द@@ 70037
ट 70007
दुनिया 69742
बा@@ 69603
जीवन 69389
ग@@ 69173
अनुसार 69060
ज्यादा 68885
को@@ 68873
स्थिति 68817
सी@@ 68619
2 68566
तब 68151
ई 68054
लाख 67947
कभी 67822
ला@@ 67819
सेवा 67490
केंद्रीय 67440
रि@@ 67362
बड़ा 67161
वाला 67140
लिये 67006
सु@@ 66955
सूचना 66710
सकती 66598
परिवार 66337
महिला 66315
संख्या 66264
विशेष 66070
कश्मीर 66068
अस्पताल 65732
वहीं 65580
पूरा 65023
रा@@ 64973
इ@@ 64849
प्रकार 64672
निर्माण 64661
ज 64613
देशों 64574
नी 63968
सा@@ 63927
व्यक्ति 63908
पिछले 63888
मीडिया 63816
मौके 63737
जहां 63731
आपको 63295
सि@@ 63228
पता 62926
केंद्र 62681
आने 62669
के@@ 62522
पहली 62434
विभाग 62357
परमेश्वर 62314
यदि 62303
अवसर 62252
तौर 62247
तैयार 62097
ई@@ 61995
! 61632
मामला 61283
होंगे 61153
होते 61030
सामने 60955
दिए 60914
विश्व 60877
अल्लाह 60794
जाती 60778
य@@ 60750
भाग 60729
च@@ 60522
जाना 60501
नए 60358
ट@@ 60291
हमारी 60209
करती 59872
केवल 59650
वा@@ 59538
ती 59213
इसकी 58918
बड़े 58814
आधार 58656
शिक्षा 58418
ड@@ 58344
मैंने 58338
चार 58009
पा@@ 57893
राज्यों 57830
स्@@ 57705
रे@@ 57418
मे@@ 57398
कंपनी 57388
बीजेपी 57214
संबंध 57022
कु@@ 56989
बि@@ 56940
स्थित 56885
प्र@@ 56840
अधिकारियों 56774
उपलब्ध 56714
इसी 56627
स्तर 56530
श@@ 56508
उपयोग 56502
आई 56475
वो 56389
लि@@ 56367
ते 56052
ता@@ 56010
बना 55976
ऑफ 55908
ताकि 55771
नरेंद्र 55542
ऐसी 55521
19 55462
ओ@@ 55376
महत्वपूर्ण 55264
उसका 55260
टी 55107
राहुल 55039
क्यों 54768
जिस 54613
चल 54520
क्षेत्रों 54424
आरोप 54314
ने@@ 54261
कपूर 53983
अमेरिका 53928
ध्यान 53928
रो@@ 53428
कैसे 53361
डि@@ 53014
शर्मा 52874
कोर्ट 52574
जीत 52424
प 52384
3 52277
मो@@ 52236
देते 52123
उ@@ 52096
करके 52095
बी@@ 51914
री 51661
मौजूद 51656
बाहर 51646
हाल 51580
सेना 51480
जिसके 51437
मुंबई 51411
10 51167
सहयोग 51089
नजर 51023
मैच 50915
विचार 50890
तुम्हारे 50734
स्थान 50526
कार 50461
पी@@ 50421
करेगा 50399
मु@@ 50309
जाए 50252
आर्थिक 50115
न्@@ 49852
वे@@ 49806
जा@@ 49787
जाएगी 49746
जिसे 49676
कृषि 49600
बयान 49592
तरफ 49511
चीन 49453
% 49388
रक्षा 49340
से@@ 49333
मि@@ 49320
संयुक्त 49146
बच्चों 49086
त 48890
मांग 48835
प्रदर्शन 48812
संबंधित 48769
क्रिकेट 48678
इस्तेमाल 48563
वीडियो 48441
जिले 48398
ड 48271
र्@@ 48247
रिपोर्ट 48188
गिरफ्तार 48185
लगा 48106
बन 48073
सचिव 48050
होना 47904
पानी 47873
वजह 47576
पिता 47567
अच्छा 47554
ले@@ 47544
रखा 47421
क्@@ 47339
जम्मू 47311
मेरी 47265
जाते 47028
लेने 46991
हिस्सा 46793
लगभग 46712
आए 46703
डी 46696
पत्र 46671
सहित 46483
पीएम 46433
फ@@ 46403
मामलों 46384
जी@@ 46288
गयी 46202
फैसला 45944
साल 45881
कार्रवाई 45662
भूमिका 45541
देता 45484
माध्यम 45146
बल्कि 45145
5 45074
रा 44988
कानून 44737
पी 44694
बनाया 44680
चाहते 44617
घायल 44595
पूरे 44576
सिर्फ 44571
जे@@ 44522
रहने 44488
ख@@ 44436
बंद 44376
दिनों 44277
यात्रा 43827
जनता 43822
कुल 43748
जिससे 43732
चर्चा 43710
मिला 43505
वहां 43504
मिल 43384
चुके 43346
लो@@ 43330
शाह 43330
जल 43292
विधानसभा 43279
सहायता 43205
दर 43024
महाराष्ट्र 42938
दक्षिण 42934
ऐ 42915
आरोपी 42909
पांच 42907
बी 42754
आयोजित 42625
वित्त 42550
वरिष्ठ 42512
डॉ 42423
बस 42392
सके 42353
समिति 42343
सदस्य 42303
जवाब 42295
जरूरत 42025
समर्थन 41957
पंजाब 41946
शहर 41825
खेल 41775
ब 41683
रखने 41636
जगह 41631
यही 41591
एस 41295
आयोग 41292
प्रक्रिया 41016
थीं 40991
मिली 40985
20 40779
किसानों 40685
कोविड 40677
ो 40555
उच्च 40508
बेहतर 40477
जल्द 40452
लगाया 40381
डी@@ 40333
हूँ 40268
करो 40260
हा@@ 40113
क्षमता 40019
सा 40010
देखा 39998
उनसे 39925
लाभ 39902
टेस्ट 39846
मा 39826
हासिल 39796
अच्छी 39756
प्रयास 39753
सरकारी 39726
पैदा 39708
लागू 39704
विश्वास 39642
आपके 39592
खुद 39561
लिखा 39561
व्यवस्था 39430
भर 39407
आया 39396
नगर 39175
भाई 39138
4 39085
दें 39054
सीमा 39004
सो@@ 38940
कहना 38736
बल 38540
करीब 38526
टी@@ 38406
गो@@ 38378
पे@@ 38330
उसी 38227
लोकसभा 38175
श 38132
पद 38093
उद्योग 38017
कहते 37943
रन 37933
दा@@ 37895
वा 37848
दूर 37841
कदम 37760
कों 37675
देना 37595
कोशिश 37580
समूह 37540
सोशल 37540
हमेशा 37531
कप्तान 37526
आदेश 37485
गंभीर 37434
पश्चिम 37421
प्रौद्योगिकी 37287
सही 37232
पेश 37168
जि@@ 36961
वृद्धि 36906
मन 36899
बोर्ड 36851
कि@@ 36830
ठीक 36813
टे@@ 36778
उत्पादन 36749
उससे 36697
राम 36681
पहुंच 36671
पि@@ 36668
2018 36627
बनाए 36597
आम 36528
बो@@ 36501
विज्ञान 36488
बिहार 36406
गु@@ 36293
नीति 36220
गृह 36164
2017 36136
महिलाओं 36129
वी 36059
जिला 36032
शिकायत 35995
भ@@ 35946
डे@@ 35909
या@@ 35905
दूसरी 35800
मुताबिक 35795
राष्ट्र 35791
ऊर्जा 35782
विदेश 35779
अमेरिकी 35668
स्कूल 35645
लगता 35644
15 35571
मध्य 35508
घोषणा 35498
वक्त 35469
मेरा 35451
पत्नी 35436
दिशा 35408
गुजरात 35332
विरोध 35233
निवेश 35204
ंग 35157
ट्वीट 35014
वालों 35014
सुनिश्चित 35012
भारी 35000
गये 34950
दल 34891
गा@@ 34863
6 34767
शा@@ 34678
बिना 34667
प्रत्येक 34644
2019 34571
सामाजिक 34566
सुधार 34519
टि@@ 34499
रसूल 34484
रेलवे 34458
स्थानीय 34455
आधारित 34447
चाहता 34414
जिन 34228
मजबूत 34084
लगे 34066
मगर 34031
12 34009
मै@@ 33990
नों 33929
ज़ 33891
थ@@ 33872
नी@@ 33852
केन्द्रीय 33823
आर@@ 33803
याद 33779
फि@@ 33714
हाथ 33702
प्रणाली 33593
राजनीतिक 33584
सवाल 33541
हों 33533
बॉलीवुड 33482
मंदिर 33468
बातचीत 33432
सम्मेलन 33420
चुकी 33415
शि@@ 33396
पो@@ 33351
ग 33333
रह 33303
संगठन 33280
हमले 33272
पहचान 33251
ली@@ 33246
सार्वजनिक 33240
हत्या 33239
शेयर 33136
पीछे 33128
यू@@ 32998
बंगाल 32992
बाजार 32976
अतिरिक्त 32867
पुरस्कार 32770
अभियान 32748
मे 32720
अदालत 32683
लगातार 32660
आर 32598
वही 32584
जु@@ 32552
महीने 32487
कह 32401
वर्तमान 32374
किये 32348
बच्चे 32281
तुम्हें 32272
समारोह 32268
स्थापित 32248
कराया 32247
विषय 32238
हरियाणा 32203
अधिकार 32170
ज़@@ 32131
रुपए 32124
इनमें 32121
परियोजना 32036
उम्मीद 32008
फोन 31970
लें 31898
राजस्थान 31880
बढ़ 31821
एम@@ 31805
परि@@ 31771
हि@@ 31771
कौन 31639
निजी 31638
व्यापार 31592
पहला 31588
रू@@ 31576
चि@@ 31561
ल्@@ 31522
अवधि 31521
कल 31521
ें 31507
यीशु 31482
पूर्ण 31475
आवश्यकता 31465
उनमें 31460
8 31341
प्रभावित 31322
2020 31298
आग 31229
प्रबंधन 31130
निर्णय 31098
भर्ती 31046
छात्रों 30938
चुका 30928
टन 30862
समाज 30709
जान 30642
मी 30616
उप@@ 30580
एस@@ 30506
शक्ति 30500
आदि 30454
विकसित 30344
पति 30332
सड़क 30328
देख 30266
रेल 30251
परीक्षा 30213
सामान्य 30134
जिसका 30126
अंतिम 30085
इं@@ 30070
यादव 30001
े 29992
अच्छे 29990
भाषा 29766
तेल 29740
बु@@ 29737
मूल्य 29733
यहाँ 29685
वी@@ 29670
ह 29649
50 29615
3@@ 29519
नेताओं 29514
बढ़ाने 29514
उद्देश्य 29501
लों 29501
हमारा 29478
एं 29414
कोहली 29352
7 29309
अमित 29269
स्पष्ट 29115
करे 29077
पाया 29058
कमी 28975
4@@ 28960
वापस 28897
धारा 28863
री@@ 28859
नो@@ 28848
विधायक 28812
मार्ग 28719
दा 28713
मिलने 28684
ओ 28638
नया 28629
संस्थान 28624
उनको 28614
बने 28535
हो@@ 28455
किस 28440
नेतृत्व 28435
प्रयोग 28432
अगले 28407
देखते 28388
रु@@ 28377
दिवस 28367
11 28337
अधिनियम 28329
कै@@ 28329
संघ 28324
30 28308
फिलहाल 28254
आवश्यक 28236
सामना 28224
मान 28151
हे@@ 28148
है@@ 28103
धर्म 28096
पर@@ 28095
य 28073
आयोजन 28028
100 27985
लक्ष्य 27963
मंजूरी 27925
न्यायालय 27878
माना 27839
एम 27830
सदस्यों 27796
महा@@ 27775
तेजी 27739
ध@@ 27731
ों 27721
लाल 27693
रों 27671
विश्वविद्यालय 27652
सांसद 27580
नरेन्द्र 27551
सीट 27533
अंतर्राष्ट्रीय 27512
तरीके 27475
अनु@@ 27474
कीमत 27458
भविष्य 27454
बेटे 27434
छ@@ 27425
उम्मीदवार 27385
राज 27347
डॉलर 27338
रहते 27308
जन 27176
ति@@ 27149
जरिए 27036
निर्देश 26958
5@@ 26954
एन@@ 26944
डा@@ 26927
तुलना 26927
गांव 26861
तों 26774
टर 26767
जन@@ 26752
व्यक्त 26719
ड़ 26674
पुर 26673
7@@ 26663
अध्ययन 26661
प्रस्ताव 26644
अनेक 26642
जुड़े 26612
ग्रामीण 26608
कहीं 26606
अंतर्गत 26558
प्रति@@ 26551
खा@@ 26498
पड़ा 26485
संबंधी 26429
कर्नाटक 26416
रखते 26315
ऊपर 26298
बढ़ावा 26274
राज@@ 26254
तेज 26234
एफ@@ 26194
एल 26182
े@@ 26178
वित्तीय 26170
सम्मान 26146
जो@@ 26145
प्@@ 26142
त्@@ 26104
18 26084
हैः 26016
रे 25966
देखने 25941
रात 25935
खिलाड़ी 25928
लाने 25908
शव 25887
अनुमति 25873
जानते 25868
दावा 25848
25 25820
अनुसंधान 25817
बाइबल 25791
पा 25772
आरोपियों 25761
की@@ 25676
टा 25659
परिषद 25614
बेहद 25605
गि@@ 25577
सुविधा 25538
दु@@ 25526
मूल 25520
संसद 25438
बनी 25380
केन्द्र 25374
16 25362
ंग@@ 25346
छोटे 25344
भेजा 25322
एल@@ 25316
पु@@ 25292
प्रभाव 25263
मी@@ 25260
सूची 25231
धन 25209
विदेशी 25204
तू 25199
9 25198
शुरुआत 25165
उपस्थित 25158
वैश्विक 25154
ईमान 25149
जैसा 25101
करेगी 25098
जैसी 25076
निदेशक 25076
शादी 25068
लो 25011
टो@@ 25001
फैसले 24981
हादसे 24976
समस्या 24975
बेटी 24952
ओं 24931
प्रशिक्षण 24924
ण 24916
उसमें 24868
म्@@ 24844
कराने 24824
सुप्रीम 24796
बता 24739
टा@@ 24736
वर्ग 24729
मानव 24689
अली 24662
समान 24637
जाएंगे 24620
बदलाव 24570
अभि@@ 24568
14 24556
प्रशासन 24556
छोड़ 24503
नीचे 24502
जिनमें 24489
अभिनेता 24469
करण 24467
फे@@ 24441
फ़@@ 24440
दिल 24438
अं@@ 24429
नियंत्रण 24416
तय 24392
युद्ध 24377
एंड 24362
संबोधित 24353
स्वीकार 24348
होकर 24348
इलाज 24296
ो@@ 24279
सर@@ 24268
कार्ड 24264
मां 24235
मुलाकात 24187
युवा 24136
8@@ 24118
शांति 24061
बिजली 24060
कंपनियों 24056
बधाई 24024
लगाने 24022
इतिहास 24001
योगदान 23983
किसान 23947
दे@@ 23919
विकेट 23887
17 23871
परिवर्तन 23869
अंतरराष्ट्रीय 23866
नुकसान 23859
राशि 23795
2@@ 23782
बारिश 23781
आई@@ 23762
घोषित 23761
वन 23759
साफ 23644
13 23623
सीटों 23610
संपर्क 23604
सीबीआई 23584
ट्रंप 23577
जिन्होंने 23574
समेत 23545
चला 23543
2016 23539
वर्षों 23505
यर 23499
मुद्दे 23494
भू@@ 23493
ते@@ 23482
ट्स 23473
डर 23437
कं@@ 23405
चरण 23373
कल्याण 23351
फोटो 23314
नागरिक 23294
परिणाम 23291
मिशन 23285
भूमि 23284
खबर 23234
सू@@ 23207
हजार 23141
केस 23133
चा@@ 23123
च 23105
मिले 23036
प्रकाश 22975
दी@@ 22954
भा@@ 22911
भेज 22907
फीसदी 22903
मत 22891
विराट 22891
कर@@ 22881
गा 22817
परवरदिगार 22812
स्थापना 22810
सलमान 22788
वर्@@ 22782
चलते 22779
पसंद 22755
मिलकर 22680
जिन्हें 22647
केरल 22640
रोजगार 22588
सफल 22574
जिसने 22549
लगी 22420
मौजूदा 22346
सारे 22345
गी 22328
भुगतान 22321
बै@@ 22305
पक्ष 22277
संभावना 22257
कोरोना 22236
प्यार 22233
ज्ञान 22173
समझ 22167
छह 22145
शीर्ष 22112
सुरक्षित 22087
एन 22059
बर@@ 22052
लिमिटेड 22030
ा 22030
इनकार 22028
उदाहरण 22024
ऑस्ट्रेलिया 21973
6@@ 21964
चिकित्सा 21926
नंबर 21924
कार्यालय 21908
पहुंचे 21878
दूसरा 21876
व्यापक 21831
ु 21827
प्रवेश 21823
फ 21804
जेल 21803
जरूरी 21796
फा@@ 21773
उप 21736
सर 21729
हमला 21695
नदी 21694
आवेदन 21646
सात 21644
संदेश 21632
हार 21626
एफ 21578
जे 21563
24 21513
अध्यक्षता 21443
अथवा 21425
पालन 21342
अरब 21321
साझा 21321
ऐ@@ 21316
कॉ@@ 21261
चे@@ 21256
पहुंची 21249
राजा 21246
मिलेगा 21215
दि@@ 21207
क्स 21203
पै@@ 21183
इंग्लैंड 21182
घ@@ 21143
याचिका 21123
अप्रैल 21120
प्रधान 21107
विमान 21099
डा 21066
शब्द 21042
हालत 21032
किताब 21022
डो@@ 21017
प्रचार 21015
संविधान 20958
नियम 20914
अभिनेत्री 20902
वर 20881
ु@@ 20874
माता 20863
दार 20856
सलाह 20850
भवन 20846
अर्थव्यवस्था 20831
ित 20771
सन 20762
दिखाई 20749
गैस 20672
खाद्य 20659
समुदाय 20645
गाँव 20638
राजनीति 20556
अव@@ 20547
जोर 20541
वेबसाइट 20521
ं 20489
इलाके 20467
परिवहन 20439
रहेगा 20438
वायरस 20424
शो 20405
कड़ी 20387
विस्तार 20386
अनुभव 20377
इन्@@ 20363
चु@@ 20328
मोबाइल 20326
प्रवक्ता 20312
चीज़ 20310
रहेंगे 20303
यु@@ 20266
समीक्षा 20258
गलत 20246
शानदार 20225
अहम 20222
उद्घाटन 20216
छात्र 20207
पर्यटन 20174
रोक 20160
कर्मचारियों 20136
ख 20136
सत्र 20128
सम@@ 20119
बनने 20100
मोहम्मद 20095
बातें 20084
अन@@ 20060
बावजूद 20034
संसाधन 19998
चाहे 19984
यो@@ 19971
संस्कृति 19943
आय 19941
ड़ा 19939
ख़@@ 19925
एँ 19919
मतलब 19903
9@@ 19894
लागत 19882
मुद्दों 19879
थ 19834
परीक्षण 19768
गैर 19766
परियोजनाओं 19681
राहत 19668
शायद 19666
मार 19663
] 19643
आपकी 19626
संजय 19609
घरेलू 19607
सेवाओं 19596
अपील 19575
गठबंधन 19541
खास 19510
महसूस 19476
हवाई 19463
प्रियंका 19451
लिंग 19438
निक 19425
संशोधन 19421
21 19394
हु@@ 19377
मिलेगी 19355
ड़ी 19339
जनरल 19308
यों 19290
सफलता 19274
शरीर 19271
लोक 19256
हेतु 19254
खुशी 19222
माल 19186
करनी 19179
देगा 19173
रहता 19170
सीएम 19135
स्वयं 19123
40 19110
ठ@@ 19102
ग्@@ 19063
19@@ 19060
मार्च 19046
एच@@ 19028
शहरी 19012
किलोमीटर 18984
ि@@ 18957
[ 18912
मं@@ 18906
ऑनलाइन 18904
शिवसेना 18904
हिंसा 18887
जमा 18873
निर्धारित 18868
आदमी 18852
वास्तव 18836
लु@@ 18829
इतना 18826
पटेल 18804
बदल 18789
रोहित 18780
यू 18749
कप 18690
देंगे 18687
मारे 18684
संरक्षण 18667
ू 18665
समाधान 18662
समाप्त 18659
रब 18641
आतंकवाद 18633
शुल्क 18633
सभा 18616
खत्म 18614
उम्मीदवारों 18585
संभव 18575
मृत्यु 18574
मौसम 18527
विवाद 18515
ल्स 18493
सीरीज 18492
राय 18484
प्रेम 18478
प्रगति 18460
बांग्लादेश 18414
कौशल 18391
ज़्यादा 18365
जिसकी 18349
जानता 18338
शे@@ 18337
प्रस्तुत 18332
नेशनल 18329
वॉ@@ 18327
2015 18293
कार्य@@ 18264
वें 18231
पर्यावरण 18214
टे 18186
श्@@ 18184
सक्रिय 18183
बजट 18181
फिल्मों 18171
सप्ताह 18159
चयन 18155
आता 18144
बा 18144
अफ्रीका 18140
वीं 18132
कार@@ 18123
हैदराबाद 18051
कॉलेज 18032
क़@@ 18024
निश्चित 18014
एजेंसी 18002
आधिकारिक 17998
नागरिकों 17994
जिलों 17987
उसको 17967
बाल 17948
लेते 17940
साबित 17922
प्रथम 17876
संस्थानों 17838
लेंगे 17811
लग 17806
वाहन 17790
लू@@ 17784
2014 17782
हिरासत 17755
स्वागत 17692
पाने 17689
खे@@ 17656
केजरीवाल 17653
तलाश 17628
शन 17597
स्वतंत्र 17581
मुस्लिम 17566
वादी 17547
खो@@ 17539
यां 17532
बेशक 17526
रंग 17496
गे@@ 17473
आपूर्ति 17459
मतदान 17434
उचित 17431
शासन 17428
चुनौती 17422
न्याय 17390
विजय 17378
डिजिटल 17352
मेडिकल 17335
ड़े 17328
अर्थ 17303
तमिलनाडु 17232
परिजनों 17225
निगरानी 17220
पूर्वी 17191
संबंधों 17184
ण@@ 17179
स्थानों 17159
उत्पाद 17154
पुष्टि 17151
प्रसाद 17135
ा@@ 17133
जन्म 17123
स्टेशन 17104
तुम्हारी 17072
कार्@@ 17057
एशिया 17055
ऑ@@ 17048
प्राकृतिक 16976
विधेयक 16941
सहायक 16922
जनवरी 16919
योग 16910
बातों 16889
पहल 16864
भरोसा 16863
पीठ 16850
शी 16840
राम@@ 16815
असम 16807
चालक 16806
मात्रा 16792
पढ़ें 16760
क्षेत्रीय 16743
संदर्भ 16743
रहती 16741
टों 16729
आते 16716
मुकाबले 16692
ज़मीन 16687
क्ष@@ 16686
ार@@ 16684
वै@@ 16680
तु@@ 16668
धा@@ 16664
स्ट 16661
जून 16645
बढ़कर 16633
मुश्किल 16608
पोस्ट 16592
नाथ 16591
इंडियन 16567
खुदा 16551
सांस्कृतिक 16527
वाद 16523
हे 16508
लाइन 16491
तीसरे 16480
झ@@ 16478
रख 16440
मई 16418
अज़ाब 16416
जीएसटी 16412
पाकिस्तानी 16412
यानी 16412
कता 16404
वहाँ 16391
ीय 16356
गतिविधियों 16342
तुरंत 16335
ब्@@ 16330
हस्ताक्षर 16316
चौ@@ 16313
प्रयासों 16307
बनाई 16297
कहने 16274
सूत्रों 16271
प्रेरित 16260
गति 16224
पड़ 16196
भीतर 16191
असर 16176
टीवी 16167
प्रा@@ 16163
दो@@ 16160
अंक 16138
तस्वीर 16129
वायरल 16127
जिम्मेदारी 16104
रूस 16089
तर@@ 16085
समझौता 16065
ंट 16061
एयर 16044
मैदान 16042
कहानी 16036
गठन 16020
मीटर 16020
राजधानी 16012
परन्तु 16004
पोस्टमार्टम 15991
खर्च 15988
मिलियन 15974
राज्यपाल 15970
अंत 15946
रखना 15937
मुक्त 15936
किरदार 15923
ी@@ 15891
धार्मिक 15888
कार्यों 15877
रखी 15877
18@@ 15864
सह@@ 15861
आपका 15852
लर 15844
पाई 15830
आंध्र 15812
ंड@@ 15804
22 15800
तकनीकी 15796
बराबर 15792
चिंता 15775
बू@@ 15774
राव 15770
देती 15767
स्वतंत्रता 15751
बल्लेबाज 15743
सामग्री 15743
राजनाथ 15738
डे 15714
अंदर 15705
हालात 15689
हिंदू 15674
निर्यात 15642
आसान 15640
लाया 15634
हिंदी 15631
शहरों 15618
यी 15608
र्स 15606
पाए 15593
सक्षम 15589
लॉन्च 15574
स्टे@@ 15545
निगम 15540
ऋण 15537
बढ़ा 15511
प्रभावी 15507
काल 15500
ी 15493
वायु 15492
लेना 15485
फै@@ 15479
लगाए 15478
जाति 15472
महान 15446
सारी 15418
नियमों 15386
रोकने 15376
जिनके 15369
ती@@ 15362
बुनियादी 15345
सकें 15341
ज्@@ 15334
नु@@ 15333
अप@@ 15325
ड़@@ 15318
घायलों 15300
कहता 15291
दौरे 15288
उपराष्ट्रपति 15274
गुणवत्ता 15273
प्रतिक्रिया 15268
लड़ाई 15263
जुलाई 15257
बहु@@ 15250
सुनवाई 15250
विकल्प 15213
स्थल 15203
तीनों 15195
तुम्हारा 15193
इलाकों 15188
ंस 15183
खारिज 15180
खुश 15175
आठ 15173
चेन्नई 15171
न्स 15161
धरती 15155
उपचार 15154
इनके 15131
घरों 15120
देकर 15112
जस्टिस 15108
नर 15101
व्यक्तियों 15092
निधन 15087
फ्@@ 15078
सैन्य 15070
पड़े 15067
मर 15063
जापान 15054
रिकॉर्ड 15051
याँ 15043
स्ट@@ 15016
नियमित 15010
मू@@ 15010
मौका 15010
कर्@@ 14998
अधीन 14995
पारी 14980
पदक 14966
पार 14922
चीनी 14917
आशा 14902
नही 14878
बाकी 14864
सरकारों 14850
एक्@@ 14844
अनुरोध 14831
मिलता 14830
पर्याप्त 14819
नेटवर्क 14818
दौरा 14788
खराब 14781
छत्तीसगढ़ 14780
मानना 14774
विशिष्ट 14767
कथित 14761
अपराध 14750
ट्@@ 14750
यात्रियों 14748
कोलकाता 14744
अन्तर्गत 14725
पृथ्वी 14718
दलों 14712
जहाँ 14709
तो@@ 14704
निया 14703
ू@@ 14702
नये 14689
मान@@ 14681
बरामद 14679
यन 14676
प्रकाशित 14674
महत्व 14670
मन@@ 14668
कारी 14660
वैज्ञानिक 14659
शासित 14654
सच 14649
31 14647
उत्पादों 14647
खरीद 14647
60 14646
खिलाड़ियों 14603
बिल 14593
सिस्टम 14586
संगठनों 14583
ट्विटर 14563
बिक्री 14552
लंबे 14538
मूसा 14520
अगस्त 14514
मॉडल 14507
अक्षय 14500
कला 14456
आतंकी 14426
सै@@ 14423
सुबह 14411
समझौते 14402
पूर्वोत्तर 14400
युवाओं 14399
वार 14393
ंगी 14391
लाए 14366
पड़ता 14361
आनंद 14345
द्@@ 14336
देखें 14327
ँ@@ 14319
औद्योगिक 14313
s 14306
लॉ@@ 14302
रिलीज 14294
उत्पन्न 14288
आती 14283
ब्रिटेन 14278
ियों 14269
मंत्रिमंडल 14261
सर्वश्रेष्ठ 14256
बनाना 14248
ढ@@ 14246
बैंकों 14237
ति 14222
दान 14180
रहना 14175
वोट 14169
अनुमान 14166
्@@ 14123
खंड 14121
शा 14100
संगीत 14094
सोच 14071
संचालन 14065
स्टार 14057
झारखंड 14023
आवास 14022
पुरुष 14020
श्रीलंका 13982
डिग्री 13973
वाई 13969
योजनाओं 13966
सत्ता 13941
पूछताछ 13937
सका 13912
भागीदारी 13909
नायडू 13901
त्मक 13893
फरार 13890
कोच 13876
महामारी 13856
निकल 13848
नियुक्त 13848
सर्@@ 13828
रोल 13813
0 13807
संकट 13805
सों 13799
भगवान 13787
पाक 13780
in 13765
रखता 13751
भोजन 13748
अक्सर 13742
कू@@ 13742
ईरान 13740
आग्रह 13732
इन्हें 13730
जाकर 13721
कही 13720
भि@@ 13702
धोनी 13692
चाहती 13671
श्रृंखला 13665
बचाव 13660
दास 13650
लता 13649
देव 13648
फायदा 13647
खाते 13646
सीटें 13635
पूछा 13576
दौर 13575
शी@@ 13543
ऐतिहासिक 13538
अंतर 13531
इन@@ 13525
डाला 13522
मैचों 13519
दों 13514
होनी 13512
निपटने 13488
राज्यसभा 13480
प्रार्थना 13479
हित 13475
हाई 13474
फो@@ 13471
28 13461
व्यक्तिगत 13459
कैमरा 13454
आतंकवादी 13453
करार 13449
नौसेना 13446
पश्चिमी 13443
पूजा 13442
चले 13428
ि 13428
अनिल 13421
छोटी 13411
सराहना 13404
दृष्टि 13400
आधुनिक 13372
23 13367
निश्चय 13354
बच्चन 13354
तैनात 13342
ग्राम 13337
सहमति 13327
शख्स 13316
सम्मानित 13312
मों 13301
दबाव 13294
बलों 13272
26 13251
सारा 13247
500 13245
योग्य 13216
सम्@@ 13214
वितरण 13205
श्रेणी 13201
जुड़ी 13180
गोवा 13164
अक्टूबर 13160
उल्लेख 13160
मार्@@ 13158
यो 13149
योगी 13143
ची 13130
जवान 13129
ताओं 13124
छोड़कर 13119
खड़े 13101
अल 13095
अधि@@ 13086
बर्@@ 13080
लग@@ 13074
कार्यक्रमों 13073
वृ@@ 13072
दस 13055
आगामी 13054
द्विपक्षीय 13034
डॉक्टर 13031
संपत्ति 13010
चोपड़ा 13004
कारोबार 12996
सेवाएं 12994
मनुष्य 12990
हा 12988
कारों 12980
नेपाल 12977
उम्र 12967
दोस्त 12964
ध 12962
:@@ 12960
फाइनल 12955
लड़की 12938
पेट्रोल 12918
हिस्से 12912
इस्तीफा 12906
शूटिंग 12905
गिरावट 12900
कर्मचारी 12895
नौ@@ 12893
सीधे 12893
जर 12889
आंदोलन 12881
चुनावों 12880
मिलते 12863
बाढ़ 12847
ै@@ 12817
त्र@@ 12809
मुकाबला 12808
मुखर्जी 12806
ंगा 12803
खु@@ 12798
कब्जे 12780
छि@@ 12775
नो 12769
गंगा 12764
दुर्घटना 12760
2013 12751
जू@@ 12740
सख्त 12730
तनाव 12719
राह 12718
टिप्पणी 12701
डेटा 12695
पवित्र 12689
उठाए 12684
रहें 12683
उल्लंघन 12682
सजा 12676
उठा 12675
तैयारी 12665
अधिकांश 12659
बहन 12657
बद@@ 12656
समाचार 12646
था@@ 12645
भाषण 12636
ऊ@@ 12624
वास्तविक 12621
़@@ 12620
परमाणु 12615
अल्@@ 12613
कानूनी 12608
न्यायाधीश 12608
लोकतंत्र 12604
निर्@@ 12599
समस्याओं 12597
मिलती 12594
कराई 12593
ीं 12587
हर@@ 12583
खूब 12568
तेलंगाना 12549
आएंगे 12538
चर 12536
व्यवहार 12528
सेट 12528
आउट 12523
ट्रेन 12522
उठाया 12517
स्व@@ 12506
दिखाया 12502
सोनिया 12499
बं@@ 12492
देर 12488
टिंग 12484
फरवरी 12483
बीमारी 12480
श्रीमती 12479
भावना 12478
चारों 12461
लन 12456
आईपीएल 12450
एक्ट्रेस 12448
एं@@ 12443
ये@@ 12443
शो@@ 12426
साइ@@ 12422
ड्स 12418
खोज 12409
इमरान 12408
निर्वाचन 12390
क्रि@@ 12385
सुझाव 12385
हिमाचल 12382
200 12377
डाल 12373
प्रश्न 12373
्र@@ 12373
विस्तृत 12370
स्वस्थ 12368
27 12363
मंत्रियों 12349
करा 12348
तापमान 12324
आसपास 12317
वार्षिक 12314
रद्द 12310
फी@@ 12305
जानी 12297
बॉ@@ 12291
इंटरनेट 12288
संक्रमण 12277
आर्@@ 12275
अंतरिक्ष 12271
ग़@@ 12261
पं@@ 12260
त्रि@@ 12227
लिखित 12224
दूसरों 12223
ौ@@ 12223
फ्रांस 12222
छा@@ 12204
अफगानिस्तान 12187
उपकरण 12176
मानी 12169
दीपिका 12166
पह@@ 12148
चौधरी 12145
अजय 12135
मंच 12134
में@@ 12123
णी 12118
तत्काल 12112
टिकट 12108
प्राचीन 12106
सवार 12106
रिया 12105
शक 12092
जै@@ 12090
पैसे 12084
तस्वीरें 12046
गढ़ 12040
अनुच्छेद 12036
धीरे 12031
44 12029
विवरण 12013
जमीन 11995
वार्ता 11990
दायर 11970
वाहनों 11952
अतः 11951
निर्माता 11951
हैंः 11945
बदला 11927
विरोधी 11926
खाने 11924
ंड 11922
विधायकों 11920
रोग 11911
80 11907
आपने 11904
जर्मनी 11888
वकील 11881
सीमित 11880
जल्दी 11872
बुरी 11869
संकेत 11849
स्वच्छ 11843
ही@@ 11837
ग्रहण 11831
डीजल 11827
पहुंचा 11826
यात्री 11817
समा@@ 11810
लै@@ 11808
मण्डल 11801
कर्मियों 11799
शुभकामनाएं 11792
प्रेस 11780
इच्छा 11773
कैबिनेट 11766
संघर्ष 11760
चीफ 11756
मसीही 11747
दर@@ 11746
बजाय 11724
1.@@ 11723
वस्तुओं 11723
0@@ 11714
बढ़ती 11707
आकार 11706
इंस्टाग्राम 11706
वान 11703
दोषी 11685
प्रे@@ 11673
रखें 11671
70 11670
ज़ि@@ 11667
चलता 11658
शपथ 11653
इतनी 11640
दिसंबर 11637
तुमसे 11623
युवक 11622
कच्चे 11620
किंग 11618
वास्ते 11618
ज़रूरत 11613
कार्यकर्ताओं 11610
धन्यवाद 11610
प्रो@@ 11608
ष्@@ 11604
उठाने 11602
दूरी 11598
जाया 11594
भीड़ 11586
नज़र 11572
जेटली 11570
ट्रे@@ 11561
कारणों 11546
िक 11542
अर्जुन 11541
खि@@ 11537
90 11535
ँ 11535
2012 11530
आरोपों 11515
29 11513
पन 11511
राजीव 11497
हिस्सों 11489
जीता 11481
बिल्कुल 11479
जरिये 11477
सिवा 11473
प्रोत्साहित 11462
35 11460
पाल 11457
भ्रष्टाचार 11455
अहमद 11441
न्यूजीलैंड 11441
संसदीय 11421
शुरूआत 11419
इकाई 11400
विद्यार्थियों 11400
जों 11395
अशोक 11394
देवी 11381
निशाना 11379
प्रभु 11369
राजमार्ग 11368
दाखिल 11364
रखे 11359
परिवारों 11356
ओडिशा 11342
गईं 11341
उत्तरी 11325
प्रतिबंध 11302
शाहरुख 11297
अरविंद 11289
शब्दों 11284
नयी 11278
कार्यकारी 11272
सेंटर 11267
वचन 11261
आबादी 11243
चलने 11232
हाउस 11230
थि@@ 11228
सिटी 11219
जलवायु 11218
खुलासा 11213
लौ@@ 11205
एच 11182
हल 11180
हद 11175
रहेगी 11172
् 11172
खाना 11139
सिन्हा 11132
्य@@ 11129
ण्@@ 11127
चोट 11125
लंबी 11117
सौ 11115
फ़ 11112
विधि 11101
स्वामी 11101
मौ@@ 11100
आयात 11099
गेंद 11099
स्वच्छता 11097
बढ़ने 11090
समर्पित 11081
जताई 11071
संचार 11071
हाईकोर्ट 11071
देश@@ 11068
छूट 11067
ंत 11066
मेल 11064
आत्मा 11060
नवंबर 11059
तंत्र 11055
मोहन 11055
शिखर 11041
रत 11031
बीमा 11028
सो 11026
नागरिकता 11023
बीसीसीआई 11015
पेट्रोलियम 11011
डॉ@@ 11007
अनिवार्य 11005
सितंबर 10990
दृष्टिकोण 10989
नौकरी 10986
इंजन 10977
कब 10970
विपक्ष 10968
लैंड 10966
मान्यता 10960
वो@@ 10951
प्रावधान 10946
मानते 10931
रैली 10922
दिये 10921
फल 10921
पल 10913
माहौल 10906
ंद@@ 10905
प्रतियोगिता 10898
क्रम 10895
खड़ा 10883
रूपये 10861
सह 10856
पुस्तक 10850
सलाहकार 10849
बजे 10845
बताते 10836
पर्@@ 10833
लेख 10826
पुत्र 10824
पीड़ित 10823
निर्मित 10820
अर्@@ 10816
2011 10815
बुरा 10813
महासचिव 10806
वनडे 10805
यूपी 10792
अमिताभ 10791
बल्लेबाजी 10791
मंडल 10790
ठाकुर 10771
ब्रिटिश 10763
लेखक 10757
निर्भर 10745
होंगी 10740
पू@@ 10739
स्कूलों 10738
१ 10736
गेंदबाज 10734
न्यूनतम 10734
इंसान 10730
कहां 10728
नियों 10725
गरीब 10721
प्रसिद्ध 10718
लीग 10715
ग्रुप 10707
टूर्नामेंट 10705
खतरा 10701
कोरिया 10693
गोयल 10693
सैनिक 10693
क़ 10691
द्र@@ 10689
ज़ा@@ 10680
जीतने 10677
सकारात्मक 10672
पौलुस 10670
महानिदेशक 10669
रो 10655
तन 10648
मह@@ 10643
ष@@ 10636
विमर्श 10623
खा 10608
लंदन 10607
हुक्म 10604
प्राथमिकता 10593
शोध 10590
ची@@ 10589
अमरीकी 10586
शाम 10583
कल@@ 10580
तें 10577
सुविधाओं 10575
पड़ी 10573
उपभोक्ता 10572
घंटे 10569
समुद्र 10569
किन्तु 10563
साझेदारी 10558
करा@@ 10551
तुमको 10551
सामान 10550
अधिकतम 10549
मैन 10540
क्यू@@ 10528
दाम 10527
न्यायमूर्ति 10516
्य 10501
ॅ@@ 10498
तुमने 10496
सिर 10495
1@@ 10492
शु@@ 10491
चौहान 10490
देखभाल 10490
घु@@ 10486
लिस्ट 10481
ारा 10475
लाइ@@ 10473
क़ौम 10467
वाणिज्य 10465
डब्ल्यू@@ 10459
विद्युत 10454
रोड 10447
नव@@ 10440
यूनिवर्सिटी 10437
जल@@ 10436
सदन 10435
फेसबुक 10430
जीबी 10427
एक्टर 10424
तोड़ 10421
शेष 10419
प्राधिकरण 10410
बनर्जी 10402
गै@@ 10395
स्वा@@ 10391
औसत 10389
सचिन 10387
पेज 10383
प्रतिनिधि 10380
लॉकडाउन 10380
अंग्रेजी 10374
निकट 10370
आयुक्त 10345
रास्ते 10340
तियां 10339
मेगापिक्सल 10339
गुप्ता 10323
वस्तु 10315
प्रदूषण 10310
चेतावनी 10306
टाटा 10298
गन 10292
प्रदेशों 10287
अन्@@ 10278
लोकप्रिय 10271
चुना 10264
व्य@@ 10262
तर 10244
बेहतरीन 10238
टो 10234
ब्याज 10231
पुराने 10225
तकनीक 10219
परिसर 10217
बे 10217
झा@@ 10216
नोटिस 10212
उत्@@ 10209
20@@ 10207
ल्ड 10207
गी@@ 10203
निर्देशक 10202
वर्ल्ड 10198
हम@@ 10197
अर@@ 10196
बनाकर 10192
न्यू@@ 10185
जाएं 10184
कहती 10176
विचारों 10176
शैतान 10165
उत्तराखंड 10159
वापसी 10151
ताकत 10137
हाँ 10134
रै@@ 10117
विशाल 10115
सैनिकों 10092
नौ 10086
न्यू 10080
दोबारा 10077
ममता 10074
पहुंचने 10055
राजस्व 10051
इंतजार 10047
जाओ 10042
कन 10028
केंद्रित 10022
आध्यात्मिक 10020
मेहनत 10019
यत 10016
बोले 10015
जिम्मेदार 10011
स्थायी 10011
डिजाइन 10010
मालूम 10009
कृष्ण 10008
पेंशन 9988
आपदा 9972
32 9971
उपाय 9967
लगने 9967
गिरफ्तारी 9963
सौ@@ 9963
हवा 9960
जमकर 9959
अवैध 9955
रणवीर 9950
आसमान 9949
अभ्यास 9944
मसीह 9944
टीमों 9941
लाई 9919
सच्चाई 9918
कमजोर 9916
कार्यान्वयन 9913
हॉ@@ 9903
10@@ 9899
कीमतों 9899
तेरे 9893
मिश्रा 9883
प्रोत्साहन 9879
ओवर 9875
प्रबंध 9873
2.@@ 9870
मार@@ 9870
तियों 9866
ंक 9849
औ@@ 9846
मुद्दा 9846
सड़कों 9844
दर्शन 9840
पदों 9829
मर@@ 9824
उपाध्यक्ष 9823
ंगे 9822
तारीख 9814
निकाल 9811
एक्स@@ 9810
मनाया 9809
प्रदर्शित 9806
# 9805
निम्नलिखित 9798
अनुष्का 9797
लघु 9792
प्रभार 9788
वैसे 9785
आसानी 9782
कठिन 9781
पॉ@@ 9779
देखकर 9778
दर्@@ 9776
स्टेट 9772
प्रमाण 9771
लियों 9771
सुनील 9770
गाने 9758
प्रतिनिधित्व 9758
गोली 9756
रह@@ 9743
सहयोगी 9741
आइ@@ 9736
झु@@ 9729
कितना 9726
आखिरी 9724
ारों 9717
करीना 9715
मुद्रा 9697
75 9695
वत 9678
गत 9676
शोक 9673
ग्रा@@ 9666
बदले 9661
निर्देशन 9658
रिजर्व 9658
समक्ष 9655
मुकदमा 9639
ढंग 9634
ज्यादातर 9628
प्रकट 9615
परेशान 9614
सर्व@@ 9614
0.@@ 9611
सिविल 9611
दुख 9610
माने 9609
क्लिक 9608
शीघ्र 9608
हरा 9594
महिलाएं 9592
महात्मा 9581
3.@@ 9579
मृत 9570
कां@@ 9568
जायेगा 9555
थोड़ा 9551
पक्षों 9551
मुसलमानों 9549
पवार 9546
साथी 9541
समूहों 9538
एकता 9534
स्तरीय 9534
कैंसर 9524
मालिक 9520
15@@ 9518
दिल्लीः 9515
उल्लेखनीय 9512
संस्था 9510
हाथों 9507
निरंतर 9506
र्ड 9497
एगा 9493
आरंभ 9491
श्री@@ 9487
जोखिम 9483
आलोचना 9482
गेंदबाजी 9481
चेयरमैन 9475
छोटा 9462
एड@@ 9456
कर्ता 9453
रेड्डी 9452
मनमोहन 9448
लिन 9442
खेलों 9439
जिनका 9429
घटनाओं 9427
वल 9424
ऐप 9408
मॉ@@ 9405
कपिल 9398
भट्ट 9373
जिंदगी 9361
भेजे 9346
धु@@ 9343
सर्वोच्च 9340
इनकी 9337
ढांचे 9336
नोट 9333
सर्वेक्षण 9329
लगाई 9326
पारित 9317
श्रम 9316
हथियार 9313
तिथि 9312
टू@@ 9305
शहीद 9305
बैठे 9302
बर 9300
& 9298
हालाँकि 9293
विजेता 9292
नामक 9287
नेवाला 9286
ंब@@ 9278
स्त 9273
मरीजों 9272
सपा 9272
टर्स 9271
परा@@ 9270
माँ 9266
त्र 9263
धवन 9262
आदित्यनाथ 9252
संस्करण 9251
17@@ 9243
गठित 9239
16@@ 9227
रानी 9227
रहो 9226
अरुण 9225
दम 9206
सागर 9200
खेलने 9197
रास्ता 9194
45 9191
फाइल 9184
डोनाल्ड 9183
ज़ा 9182
रियर 9180
अमरीका 9178
वादा 9174
स्रोत 9172
लेन 9171
कृत 9169
तमाम 9167
थाने 9159
नॉ@@ 9147
सेल 9142
संरचना 9140
बढ़ोतरी 9135
बाहरी 9132
संकल्प 9132
स्त@@ 9127
भाव 9126
विपक्षी 9123
मुहैया 9118
सत्य 9109
आंतरिक 9101
न्द्र 9100
वर@@ 9097
काबू 9092
स्मार्टफोन 9092
निधि 9088
छु@@ 9084
5.@@ 9077
महीनों 9076
प्रकृति 9070
चुनौतियों 9068
दूध 9060
ंडा 9058
ब्र@@ 9058
स्था@@ 9051
पुरी 9048
आखिर 9047
डॉक्टरों 9044
पकड़ 9030
कीजिए 9025
ज़रूर 9022
एजेंसियों 9016
यल 9013
कृ@@ 9012
1,@@ 9001
ट्रक 8998
बाप 8986
तभी 8984
नीय 8982
मुख्यालय 8971
नाज़िल 8966
ठाकरे 8956
नियुक्ति 8954
क्र@@ 8952
कितनी 8947
नेवाले 8947
7.@@ 8941
खेला 8940
प्रसारण 8937
हिसाब 8924
बदलने 8922
पुनर्@@ 8919
विवाह 8915
तरीका 8914
विभागों 8912
प्राथमिक 8910
अनुरूप 8907
करियर 8905
ज़िंदगी 8905
मानसिक 8905
माह 8905
बना@@ 8903
गे 8900
ब्रे@@ 8894
गडकरी 8890
आईसीसी 8874
स्थिर 8839
थाना 8836
6.@@ 8822
समुद्री 8822
जगत 8817
पार्क 8814
ज्ञापन 8812
उच्चतम 8810
सूचकांक 8807
वर्मा 8805
टेड 8799
दन 8799
बल@@ 8798
ारी 8798
पड़ेगा 8792
इतने 8785
यूरोपीय 8785
ज़िले 8781
चंडीगढ़ 8777
मेट्रो 8774
स्वर्ण 8770
ज़रूरी 8760
अगली 8758
चली 8758
चा 8749
दर्शकों 8745
फ्रंट 8736
नीतीश 8735
संचालित 8721
मरने 8720
ंद 8714
फू@@ 8713
विषयों 8712
जान@@ 8706
अनुकूल 8704
जवानों 8704
ऑफिस 8699
मना 8692
2010 8688
कोविंद 8685
मानक 8682
8.@@ 8675
कायम 8674
ग्राहकों 8665
प्रत्यक्ष 8659
यौन 8658
आतंकवादियों 8657
साहित्य 8642
पूंजी 8638
ऐलान 8634
तः 8633
संसार 8632
नियंत्रित 8630
प्रारंभ 8621
निंदा 8619
सच्चे 8618
कलाकार 8614
फसल 8611
शारीरिक 8610
सोने 8606
अधिकतर 8605
/@@ 8594
370 8591
वेतन 8582
कार्यकर्ता 8573
फ़िल्म 8572
इसको 8565
फ़ि@@ 8562
नै@@ 8561
प्रशासनिक 8561
300 8542
अधिकारों 8537
एक्स 8535
थे@@ 8529
यान 8523
भाषाओं 8515
देखना 8511
प्रोफेसर 8509
मिसाल 8508
आलिया 8504
आमंत्रित 8503
स्मार्ट 8495
इंजीनियरिंग 8489
कोयला 8487
किमी 8485
एशियाई 8476
मर्@@ 8476
ॉ@@ 8468
अकाउंट 8464
नर@@ 8464
लाना 8462
मित्र 8460
विरुद्ध 8460
टै@@ 8459
पार्@@ 8459
पैसा 8452
चुनावी 8442
हफ्ते 8440
बचा 8437
उड़ान 8432
पुणे 8427
एनसी@@ 8419
लखनऊ 8402
सिं@@ 8401
जमानत 8400
खतरे 8395
रेखा 8395
लड़ने 8394
खाता 8393
बचाने 8393
परेशानी 8392
लाखों 8391
सुपर 8385
विश्लेषण 8382
श्रद्धांजलि 8380
नेहरू 8377
एससी 8376
टक्कर 8368
युक्त 8363
२@@ 8363
घा@@ 8360
धा 8359
लौट 8355
टल 8354
द्वीप 8354
सन् 8339
मेंट 8337
अस्पतालों 8332
पैमाने 8332
वर्षीय 8330
समझने 8330
कम@@ 8324
१@@ 8323
वाल 8322
क़यामत 8318
जिनकी 8307
बसपा 8304
जोड़ी 8302
टैक्स 8300
हार्दिक 8297
भु@@ 8295
चीज 8293
घाटी 8284
देव@@ 8280
आमिर 8259
अहमदाबाद 8257
सूचित 8255
लिखे 8249
हिन्दी 8249
गर्व 8242
टाइ@@ 8239
दंड 8238
जयंती 8236
प्रशंसा 8232
गीत 8225
सौर 8221
दीन 8220
सां@@ 8214
सीईओ 8214
भो@@ 8213
क्रिकेटर 8212
कमेटी 8206
सिद्धांत 8200
4.@@ 8199
13@@ 8193
बोल 8185
जुड़ा 8179
दर्द 8179
एंगे 8174
दौ@@ 8174
हक़ 8166
कितने 8164
लाते 8164
यातायात 8156
नितिन 8152
चलाने 8145
आपस 8135
सक@@ 8129
जय@@ 8121
गृहमंत्री 8119
स्मृति 8118
होटल 8115
माफी 8106
रुप 8106
पीड़िता 8102
चै@@ 8100
हटा 8096
पीएम@@ 8093
सदी 8093
एक्सप्रेस 8084
दू@@ 8078
_ 8077
कोष 8077
ठ 8077
णा@@ 8075
सरदार 8075
खो 8073
वां 8070
स्टर 8064
स्त्री 8061
चैनल 8056
गांवों 8053
लेट 8053
आईटी 8050
सर्वाधिक 8044
ओलंपिक 8036
वर्षा 8036
इस्पात 8034
रॉय 8033
आह्वान 8020
ग्रे@@ 8020
सौंप 8019
आना 8018
टिक 8011
रहीं 8007
रनों 8006
खुले 8005
ॆ@@ 8002
शराब 7999
बढ़ते 7994
दशक 7992
पढ़ाई 7991
समझते 7989
इसने 7984
चू@@ 7983
भारतीयों 7977
सकेंगे 7976
झूठ 7974
पाते 7974
बह@@ 7969
बेटा 7967
परामर्श 7966
शिक्षक 7966
केंद्रों 7964
आदर्श 7963
बहस 7963
सुविधाएं 7963
भिन्न 7961
मनोहर 7961
आकर 7960
36 7958
सें@@ 7953
यूरोप 7948
संसाधनों 7946
शिकार 7945
गर 7941
हटाने 7933
लड़ 7930
कहाः 7929
सहमत 7929
33 7928
टेक 7924
मुठभेड़ 7923
पोर्टल 7922
टर@@ 7919
मध्यम 7914
आइए 7913
प्रतिनिधियों 7909
जताया 7890
12@@ 7888
एकमात्र 7883
सबूत 7883
आएगा 7879
यातना 7879
14@@ 7874
मै 7871
सीजन 7868
तट 7867
कट@@ 7864
बहुमत 7864
अप 7859
्यु@@ 7857
इस@@ 7856
उपस्थिति 7848
दिखा 7838
रणबीर 7834
संभावित 7834
संग्रह 7830
लिखी 7826
अनुसूचित 7822
आकाश 7820
परंतु 7814
गाड़ी 7813
अज्ञात 7807
मनोज 7807
कार्यवाही 7803
तीसरी 7800
घटनास्थल 7799
जॉन 7799
श्रीनगर 7798
मनो@@ 7789
ंदर 7788
उपायों 7786
सबको 7785
वायुसेना 7779
रणनीति 7775
जागरूकता 7772
राजपूत 7769
बढ़ाया 7763
दिग्गज 7758
सेक्टर 7756
समझा 7751
फ़ाइल 7744
खेती 7741
भाइयों 7739
सुशांत 7738
ब्रा@@ 7731
तीसरा 7725
संग्रहण 7725
चे 7724
अम@@ 7723
प्रस्तावित 7721
गुना 7719
पंजीकरण 7717
पूछे 7717
सुना 7716
क्टर 7711
कर्ज 7710
सुरेश 7708
डाउनलोड 7706
एनसीपी 7705
सकेगा 7703
स्वीकृति 7703
बैरल 7701
लगा@@ 7698
नें 7697
कंप्यूटर 7694
पुनः 7693
ष्ट 7691
त्री 7686
यक़ीनन 7686
निर्धारण 7681
लीटर 7680
पादुकोण 7679
जाहिर 7678
खाली 7671
सफाई 7668
ारे 7667
धमकी 7666
नू@@ 7665
रुख 7665
दत्त 7650
अयोध्या 7643
सब@@ 7637
चीजें 7632
फंड 7632
लने 7632
गं@@ 7630
मांगी 7627
ठोस 7621
विरासत 7621
सीसीटीवी 7617
दिवसीय 7616
युग 7616
विनिर्माण 7616
चित्र 7612
र्ट 7612
साक्षी 7611
नल 7607
बैंकिंग 7607
अत्यंत 7606
दृश्य 7605
डाय@@ 7603
देखो 7601
दक्षिणी 7589
यें 7582
तमिल 7576
बाज़ 7576
सल 7576
लेगा 7575
लेता 7572
विशेषज्ञ 7569
देशभर 7567
हितों 7563
नीतियों 7562
चोरी 7560
कैसा 7556
टॉ@@ 7549
संवाद 7548
स्टेडियम 7548
मूल्यांकन 7547
कल्पना 7546
२ 7545
प्रतिबद्धता 7543
वैज्ञानिकों 7538
9.@@ 7533
कटौती 7531
प्रणब 7529
उपकरणों 7528
मृतक 7528
पारंपरिक 7522
बहनों 7520
मुझसे 7517
प्रतिबद्ध 7516
ईश्वर 7513
चाहिये 7510
पोषण 7507
प्रसार 7501
सन्@@ 7496
वों 7495
ब्रि@@ 7492
एसपी 7482
चेक 7479
इंटरनेशनल 7478
करवाया 7477
शरीफ 7476
हां 7475
मोह@@ 7474
वाइ@@ 7474
गौर 7472
चिदंबरम 7472
३@@ 7466
48 7458
पत्रकार 7456
भरा 7454
पंचायत 7452
ष 7450
जिक्र 7448
स्थ@@ 7443
एसोसिएशन 7442
दस्तावेज 7441
निंग 7439
व्यय 7439
भारती 7428
न्यायिक 7427
रू 7426
परिचालन 7423
बाइक 7418
हृदय 7412
तरीकों 7410
जग@@ 7409
खेले 7408
फी 7406
जाएँगे 7405
कनाडा 7404
बॉक्स 7404
चुने 7403
ट्रा@@ 7403
जनसंख्या 7402
इस्लाम 7401
मात्र 7400
मूल्यों 7396
पे 7392
देखी 7391
एयरपोर्ट 7390
हरी 7390
टू 7389
डेविड 7388
लू 7383
वार्@@ 7383
हू@@ 7381
ऑपरेशन 7379
उपयुक्त 7378
निभा 7375
जीवित 7364
आत्महत्या 7359
व्यवसाय 7349
क्रमशः 7348
शै@@ 7345
संहिता 7343
टिव 7342
रण@@ 7342
संशोधित 7332
लिंक 7330
वेस्टइंडीज 7330
ेंगे 7330
पत्थर 7325
पेट 7325
रमेश 7319
विश्व@@ 7317
पावर 7306
इनका 7304
एफआईआर 7296
हवाले 7295
रख@@ 7292
सृजन 7290
करूंगा 7287
निवासी 7277
ल्ला 7259
सॉ@@ 7258
आपसी 7251
कक्षा 7240
कृपया 7230
मध्यप्रदेश 7227
देगी 7224
पुरुषों 7224
बां@@ 7221
शैली 7220
दरअसल 7212
शाखा 7211
आवाज 7209
भय 7206
जोशी 7204
पटना 7201
आयु 7200
पल@@ 7191
अटल 7190
मिट्टी 7190
जानने 7187
पायलट 7187
जगहों 7184
वातावरण 7180
कह@@ 7179
आजादी 7172
बताई 7168
प्रभारी 7164
संस्थाओं 7164
बोला 7161
्या@@ 7155
दीपक 7154
मद्देनजर 7154
समग्र 7152
आमतौर 7150
एयर@@ 7150
बनाते 7148
म्ब@@ 7132
प्रतीक 7131
सालों 7129
गूगल 7124
प्रारंभिक 7124
शाहिद 7124
गो 7123
रवाना 7123
स्क्रीन 7123
ट्री 7116
रिंग 7109
अचानक 7108
आईसी@@ 7108
केट 7106
टरों 7104
टने 7101
400 7096
शताब्दी 7092
रिश्ते 7090
प्रदर्शनकारियों 7086
अत्यधिक 7083
प्रि@@ 7081
हजारों 7075
आश्वासन 7073
यर@@ 7071
उद्योगों 7069
कर्मी 7064
इल 7062
ै 7061
उन्हीं 7060
स्वरूप 7060
साथियों 7058
शैक्षणिक 7054
सुश्री 7049
जमा@@ 7045
भरे 7041
पश्चात 7032
तिवारी 7028
परिस्थितियों 7026
सिफारिश 7026
सल@@ 7025
दोस्तों 7019
शुद्ध 7015
ख़ा@@ 7012
पुरानी 7012
ईंधन 7011
देखिए 7011
उद्यम 7010
गुण 6998
अभिषेक 6996
ंसी 6995
आंकड़ों 6992
प्रेरणा 6992
निकाला 6991
श्र@@ 6989
पड़ोसी 6988
बार@@ 6987
आये 6986
क्शन 6985
मो 6976
टीमें 6971
विपरीत 6964
शुभारंभ 6964
मणिपुर 6962
उन्@@ 6958
शतक 6958
राज्य@@ 6956
आकलन 6953
रु 6952
थो@@ 6950
निर्देशित 6949
आं@@ 6946
ड्@@ 6946
सरल 6943
प्स 6942
कर्म 6939
चंद 6939
चीजों 6939
कामों 6938
ग्र@@ 6938
३ 6938
उनपर 6937
ठा@@ 6928
डिंग 6927
शिक्षकों 6927
क्रेडिट 6926
कमान 6925
आएगी 6924
बिग 6924
छानबीन 6912
संदेह 6911
अभिनय 6908
डों 6906
हराया 6903
आरएसएस 6890
ड़ों 6888
नेट 6888
लीड 6885
जयपुर 6884
ढ़@@ 6883
जितना 6879
रेट 6879
नता 6877
व्यावसायिक 6875
दीप 6874
सुन 6872
बिन 6871
गिर 6870
डायरेक्टर 6870
बोली 6865
योग्यता 6865
मार्गदर्शन 6854
स्टोरेज 6854
जोड़ने 6847
अखिल 6846
ज्ञा@@ 6843
णा 6841
इ 6840
मुँह 6836
> 6829
कोर 6829
अदा 6827
फॉ@@ 6823
तहसील 6818
मुझ 6815
क्लब 6811
2009 6810
00 6809
प्रवासी 6807
शिव@@ 6807
सऊदी 6807
34 6804
ीकरण 6804
कोड 6802
37 6801
फॉर 6801
कर्ताओं 6798
I 6797
गहरा 6793
आपराधिक 6791
धान 6788
जनों 6784
रल 6782
अधिसूचना 6781
भले 6780
जहाज 6779
विशेषज्ञों 6778
4,@@ 6775
भला 6775
ड्र@@ 6774
थोड़ी 6771
सिस 6768
सकी 6767
बम 6764
जय 6756
जोड़ा 6756
स्पे@@ 6755
चौथे 6754
हुईं 6750
जू 6747
क्रा@@ 6746
सिंगापुर 6745
एकीकृत 6744
विस्फोट 6733
अकेले 6731
डु@@ 6727
ईडी 6726
पिछली 6726
ज़ाहिर 6722
मृतकों 6721
पांडे 6715
मशहूर 6714
बढ़ाकर 6709
भी@@ 6706
मस्जिद 6706
ंच@@ 6703
पीढ़ी 6702
वार@@ 6702
पदार्थ 6698
शुरु 6698
फु@@ 6694
भरी 6694
शरद 6691
+ 6690
ष्ट@@ 6689
धन@@ 6685
बादल 6685
कार्यकाल 6683
लय 6680
बढ़त 6676
दाऊद 6674
भेंट 6673
लद्दाख 6672
संग 6665
इयों 6661
खासकर 6661
म्स 6656
तथ्य 6652
पेशकश 6651
खूबसूरत 6650
लकर 6647
डाटा 6646
आत्म@@ 6642
एकल 6642
अल@@ 6641
क्रिया 6636
समृद्ध 6636
आज्ञा 6635
इंदिरा 6628
अस@@ 6625
टर्@@ 6616
बंध@@ 6615
कुलदीप 6613
उधर 6612
पाठ 6610
कैमरे 6607
सैफ 6605
दिखा@@ 6604
सोचा 6603
भार 6599
यकीन 6599
दिखाने 6597
इंटर@@ 6593
लड़कियों 6592
स्टाफ 6589
एक्शन 6588
65 6587
अग्रवाल 6586
लं@@ 6582
A@@ 6579
आकर्षित 6579
कन्@@ 6579
संक्रमित 6579
आयकर 6575
बढ@@ 6571
रस 6570
होम 6570
तेंदुलकर 6566
रॉ@@ 6559
ेगा 6555
स्मिथ 6549
डीसी 6548
तू@@ 6547
जरूर 6545
सीतारमण 6541
विधान 6535
कवर 6533
सिद्ध 6533
दुर्@@ 6530
सज़ा 6530
ऋ@@ 6528
रिजल्ट 6526
आजाद 6521
एक@@ 6521
प्रवाह 6517
संस्थापक 6516
णों 6514
किन 6511
स्वराज 6510
बायो@@ 6509
तर्क 6506
यि@@ 6506
० 6506
५ 6506
रक्त 6499
पहुंचाने 6498
प्रसंस्करण 6496
क्ट 6495
कमा@@ 6491
आशंका 6490
गौरतलब 6489
ठहराया 6485
वाई@@ 6483
कुशल 6477
निभाई 6476
ठा 6475
स्पीड 6475
भूकंप 6471
वर्ती 6465
बलात्कार 6464
कॉन्@@ 6462
नवाचार 6461
रैंकिंग 6461
अंजाम 6460
ओपन 6458
भेजने 6457
मशीन 6455
मलिक 6454
संबोधन 6454
लित 6453
नामांकन 6449
नवीन 6447
एक्ट 6439
जानें 6435
राइ@@ 6432
नन 6427
गुज@@ 6426
उठा@@ 6424
फिल्में 6423
चालू 6422
सशस्त्र 6422
निस्संदेह 6421
कारोबारी 6417
र्थ 6414
सुन@@ 6414
मजबूती 6412
निय@@ 6411
हार्@@ 6409
हिन्दू 6409
बिलकुल 6404
मारा 6399
ड़ा@@ 6397
टेक्@@ 6396
त्रा@@ 6390
नष्ट 6386
शुरुआती 6383
कंपनियां 6380
बेन 6380
पुल 6379
पों 6375
लोन 6374
बाजारों 6373
बनाये 6369
फर 6364
तारीफ 6363
भोपाल 6362
मोटर 6359
रिसर्च 6355
बुद्धि 6352
सीन 6351
55 6349
प्रत्याशी 6346
न्त 6345
ंद्र 6344
करनेवाले 6342
गों 6341
प्रतिष्ठित 6339
वानी 6339
पाठ्यक्रम 6338
फॉर्म 6338
बीर 6336
पहुंचाया 6334
सूक्ष्म 6334
इत्यादि 6332
क्रो@@ 6326
इंस्टीट्यूट 6323
परिणामस्वरूप 6319
धो@@ 6318
पूर्वक 6318
आदान 6313
150 6311
सांसदों 6302
बरकरार 6295
रं@@ 6292
जैव 6289
निर्मला 6288
मिलाकर 6282
आस्ट्रेलिया 6280
पक@@ 6280
पौ@@ 6278
ट्र@@ 6276
संस्कृत 6274
डो 6271
विद्यालय 6271
करेंगी 6266
अवश्य 6265
पीने 6262
फ़ा@@ 6261
सिनेमा 6261
ताएं 6259
कौ@@ 6255
प्ले@@ 6252
पत्रकारों 6249
ब्यूरो 6249
आतंकियों 6242
ख़बर 6241
खतरनाक 6237
तूफान 6235
गोल 6234
जुटी 6232
जाएँ 6231
दैनिक 6228
हर्षवर्धन 6228
भागों 6226
स्कोर 6226
रखो 6224
प्रोजेक्ट 6223
गवाह 6221
वीर 6220
शिव 6218
आरबीआई 6216
दवा 6216
मनी 6215
गरीबी 6212
्यू@@ 6212
99 6211
रामनाथ 6211
उपलब्धता 6209
जीतकर 6203
आस 6201
फर्@@ 6201
भूषण 6200
सुषमा 6196
24@@ 6192
गहरी 6190
आईसी 6186
सुंदर 6182
गार 6181
लाइसेंस 6178
ॉ 6178
पढ़ने 6175
दारी 6174
कॉल 6171
स्पेशल 6171
बुलाया 6170
धी 6169
वेब 6168
जाये 6167
रण 6162
व्यस्त 6159
निकाय 6158
फाइ@@ 6156
पार@@ 6155
कीय 6154
त्रिपुरा 6154
रकम 6151
रावत 6150
निर्देशों 6149
वर्णन 6149
लक्षण 6147
मय 6145
चेहरे 6144
सीधा 6144
डन 6141
42 6140
मुर्@@ 6139
अंग 6132
लती 6131
झटका 6130
दिख 6130
आईआईटी 6129
बता@@ 6122
मकसद 6118
कानूनों 6115
स्टो@@ 6115
सबके 6112
इस्राएल 6108
डै@@ 6107
भरने 6106
लालू 6106
टाइम 6104
आय@@ 6102
सामूहिक 6102
जब्त 6101
गंभीरता 6097
हिस्सेदारी 6094
सेहत 6093
नाइ@@ 6089
निका@@ 6088
पात्र 6088
हस्तक्षेप 6088
जन्मदिन 6086
मां@@ 6083
38 6078
सूत्र 6077
आंकड़े 6076
लगाते 6075
कृष्णा 6073
कामयाब 6070
संयंत्र 6070
घंटों 6066
ाई 6065
चलाया 6064
ज़रिए 6064
लड़के 6063
लेखा 6061
ग्राहक 6060
अड्डे 6059
अर्थात् 6058
गोलीबारी 6058
अंग@@ 6055
फैंस 6053
करीबी 6051
हक 6049
अकादमी 6043
प्रांत 6039
इकाइयों 6038
ारा@@ 6038
सफर 6032
कला@@ 6031
रियों 6027
समन्वय 6025
छोड़ने 6023
तटीय 6023
क्षण 6018
गलती 6018
नतीजे 6018
भलाई 6018
विशेषकर 6018
हिदायत 6018
धी@@ 6016
शुभ 6016
महेंद्र 6013
स्थलों 6013
राज्यमंत्री 6008
प्रतिनिधिमंडल 6006
इसलिये 6005
गौ@@ 6005
माम@@ 6002
आयतों 5996
ख़ास 5993
दूरसंचार 5987
छवि 5985
जाँच 5984
रोगियों 5984
लुक 5984
हट 5980
तत्व 5979
पेड़ 5978
निवेशकों 5977
कंट्रोल 5976
प्रो 5973
शमी 5973
गणराज्य 5969
जीव 5964
नबी 5963
बिजनेस 5963
अवसरों 5962
स्टेशनों 5960
लना 5958
अल्पसंख्यक 5956
खून 5956
तम 5956
किंग्स 5955
अम्@@ 5951
उपलब्धि 5948
रंग@@ 5946
प्राइवेट 5944
किनारे 5943
भर@@ 5943
६ 5943
S@@ 5940
सेंसर 5937
कौर 5933
न्यूज 5933
मसीहियों 5931
उत्तराखण्ड 5929
चो@@ 5926
स्टॉक 5926
पड़@@ 5925
प्रावधानों 5923
A 5921
बेस्ट 5920
सर्विस 5920
बोझ 5919
खी 5918
ड्राइवर 5906
टु@@ 5904
विपणन 5901
डब्ल्यू 5898
आईएस@@ 5892
पक्ष@@ 5886
वंश 5886
गौतम 5885
अधीक्षक 5883
सवालों 5883
धर 5882
बढ़ी 5881
इलेक्ट्रॉनिक 5878
सुनने 5878
अत्यन्त 5874
एमएसएमई 5873
क्रे@@ 5873
सम्बन्ध 5870
रिलायंस 5868
सिंचाई 5864
विविधता 5863
शाही 5861
मिंग 5859
फ्रे@@ 5855
अता 5852
दायरे 5852
प्राप्ति 5850
खनन 5848
स्थिरता 5848
प्रशांत 5846
साउथ 5845
८ 5844
गरीबों 5843
3,@@ 5842
तल 5842
पट@@ 5840
ढा@@ 5838
खड़ी 5834
बाजी 5834
47 5832
ब्लैक 5831
देन 5823
हरि@@ 5823
सिंग 5820
राफेल 5818
जाएंगी 5817
लियां 5817
43 5816
फायर 5815
कहो 5811
डेट 5809
अगुवाई 5808
एनआरसी 5808
शेट्टी 5808
P@@ 5805
नंद 5805
प्रतिस्पर्धा 5803
समाजवादी 5802
नवम्बर 5801
तुझे 5800
शास्त्र 5800
सुख 5800
गिर@@ 5797
स्प@@ 5797
बोलते 5793
यम 5791
विश्वविद्यालयों 5791
संदिग्ध 5787
दौड़ 5786
नात्मक 5784
अतिथि 5777
राष्ट्र@@ 5777
कपड़े 5776
नारायण 5776
नायक 5774
बैक 5771
आराम 5770
डाक 5769
बच्ची 5768
तरफ़ 5767
भूल 5763
L@@ 5758
बच्चा 5758
ंडी 5757
बाबा 5755
वर्गों 5755
यद्यपि 5754
उद्@@ 5751
पत्रिका 5745
एगी 5744
करों 5742
मना@@ 5742
मार्क 5741
कियों 5739
आएंगी 5736
कामना 5736
ख्याल 5735
ड़ने 5735
जौहर 5731
जर्मन 5728
लम 5725
चूंकि 5724
हुसैन 5723
ंच 5721
अवस्था 5721
बंदरगाह 5721
गर्म 5720
बैठ@@ 5720
मंत्रालयों 5720
घो@@ 5719
रेड 5719
४ 5719
2008 5717
गवाही 5713
जानिए 5712
टॉस 5709
्रा@@ 5709
टेक्नोलॉजी 5708
संवेदनशील 5705
मुंह 5701
रसायन 5699
दर्जा 5698
साफ़ 5698
हाइ@@ 5698
दित 5696
रोका 5696
जिंग 5695
कमाई 5691
संपन्न 5689
साइट 5689
जीते 5688
पोर्ट 5688
01 5687
यता 5687
प्रतिदिन 5686
बद्ध 5685
उत्तम 5681
गवर्नर 5680
अवगत 5679
समृद्धि 5678
सार@@ 5678
शह@@ 5675
निकालने 5668
रेडियो 5668
फा 5667
बचने 5667
शाह@@ 5665
B@@ 5664
बीते 5664
कैं@@ 5663
वाराणसी 5662
सतत 5661
असली 5660
रैम 5659
हान 5657
ईरानी 5655
अनुवाद 5654
७ 5651
लते 5649
खोल 5645
वाणिज्यिक 5645
एनएस@@ 5643
औपचारिक 5640
कठोर 5639
ऑटो 5636
खबरों 5636
मिनट 5636
राजकुमार 5636
वरुण 5636
अना@@ 5635
शों 5635
देखे 5630
T@@ 5623
इंटरव्यू 5623
पब्लिक 5620
मुसलमान 5620
बनना 5613
र्क 5613
माननीय 5610
पुलवामा 5609
बीज 5608
शिप 5608
यूनिट 5605
स्मारक 5602
मुफ्त 5596
अंबानी 5595
अपेक्षा 5594
देवेंद्र 5594
धर्म@@ 5594
नीलामी 5593
हू 5591
प्लान 5590
एसी 5586
रचना 5586
पहलुओं 5585
मरीज 5583
रता 5582
जिसको 5581
तेरी 5581
वली 5580
अति@@ 5579
प्रदर्शनी 5578
कान 5577
उल्@@ 5574
सशक्त 5573
एप 5572
संवाददाताओं 5572
गम 5570
गणना 5566
of 5565
कैफ 5564
शिक्षण 5563
मध्य@@ 5560
डू@@ 5556
निर्माताओं 5554
रियल 5553
कॉन्फ्रेंस 5552
बॉस 5550
उत्पीड़न 5547
उत्कृष्ट 5543
तुर्की 5543
मज़बूत 5542
वास 5542
सीखने 5540
इमारत 5538
गिरोह 5538
रोकथाम 5535
द्व@@ 5534
देरी 5533
बढ़ता 5533
दारों 5532
गांगुली 5530
चंद्र 5530
नेवाली 5527
इटली 5525
गुज़@@ 5525
पथ 5523
रिया@@ 5523
एफसी 5521
अखिलेश 5517
धि@@ 5517
26@@ 5516
परंपरा 5516
कैप्टन 5514
खिताब 5514
निर्दिष्ट 5514
लोकतांत्रिक 5514
सिद्धार्थ 5514
खोलने 5511
भरपूर 5511
ठी 5509
१९@@ 5509
नः 5507
सोनम 5506
करी 5501
पशु 5501
तं@@ 5496
निम्न 5495
सेंट 5493
टॉप 5491
बढ़ा@@ 5491
स्टि@@ 5491
वाड़ा 5490
अर्थात 5489
खिला@@ 5488
मनीष 5484
खरीदने 5483
उतर@@ 5482
चरणों 5482
इकट्ठा 5477
कलाकारों 5476
सदस्यीय 5474
व्@@ 5473
ंः 5472
आईपी@@ 5471
पहलू 5471
मिसाइल 5471
छोड़@@ 5470
ट्रो@@ 5470
39 5469
वजन 5465
रंजन 5464
E@@ 5461
शिविर 5459
९ 5458
साधारण 5457
ग़रज़ 5456
रणनीतिक 5452
नवाज 5450
बचत 5450
मारने 5449
मिक 5449
निभा@@ 5448
ढांचा 5447
वारदात 5446
सुभाष 5446
राजदूत 5445
पार्टियों 5444
मिलेंगे 5444
देखता 5442
यूनि@@ 5442
बुरे 5440
30@@ 5436
स्ता@@ 5434
बुक 5433
बेंगलुरु 5430
घाट 5428
संतोष 5426
M@@ 5423
मेक 5423
आयी 5422
बच 5420
हमसे 5418
़ 5418
ंस@@ 5416
कराना 5412
दिलों 5412
लड़@@ 5409
ऑफ़ 5407
हमलों 5402
ः@@ 5400
यहूदी 5400
बैं@@ 5398
2,@@ 5397
विफल 5397
समापन 5397
पीयूष 5394
पवन 5393
संपूर्ण 5393
आदित्य 5392
भावनाओं 5390
आईं 5385
आरक्षण 5385
64 5380
ऑल 5378
वायदा 5378
क्षमा 5373
50@@ 5372
सियों 5370
मकान 5368
कंगना 5366
न्या@@ 5366
कनेक्शन 5364
कैद 5364
जुट 5364
भग@@ 5364
ंज 5363
नृत्य 5361
ैं@@ 5361
पड़ने 5359
ट्रेलर 5357
भे@@ 5356
हितधारकों 5355
बुराई 5353
प्रतिभा 5352
बोलने 5352
इलाहाबाद 5351
5,@@ 5350
52 5350
भड़@@ 5349
पाप 5348
अग्रणी 5347
अग्रिम 5345
6,@@ 5344
शेख 5344
क़ा@@ 5342
ढ़ 5342
शांत 5339
चर@@ 5333
जलाशयों 5329
अस्तित्व 5328
प्लास्टिक 5328
परस्पर 5327
भार@@ 5327
मौजूदगी 5322
पहुँचा 5318
चर्च 5317
शून्य 5317
सम्मिलित 5316
सौंपा 5312
हानि 5311
प्लेटफॉर्म 5306
बीमार 5305
रेप 5305
मियों 5300
जनजातीय 5299
राजेश 5298
रोज 5297
विक 5297
वीजा 5295
असल 5294
खुफिया 5293
जेएनयू 5292
अब्दुल्ला 5290
ब्लॉक 5290
गहलोत 5288
चित 5287
सॉफ्टवेयर 5286
करे@@ 5285
अनुदान 5284
द्र 5284
2022 5276
काट 5274
पोस्टर 5273
2000 5272
भाव@@ 5271
व्हाइट 5269
श्रद्धा 5269
ज़ी 5268
परियोजनाएं 5268
बाज 5268
तेरा 5267
विकेटकीपर 5267
मजबूर 5266
दावे 5265
क्रिस 5264
25@@ 5263
लोक@@ 5263
संभा@@ 5261
सीसी 5261
द्वितीय 5260
खे 5259
पंजीकृत 5257
41 5255
स्थ 5254
दशा 5253
पूर्ति 5253
कृति 5252
सिख 5252
स्वर्ग 5251
a 5250
निलंबित 5247
धे 5245
किशोर 5244
छुट्टी 5244
पर्यटकों 5243
कहेंगे 5242
रीति 5240
न्द 5238
गुनाह 5234
आईएस 5231
भंडारण 5230
जज 5226
मुकेश 5225
डालने 5224
मास्क 5222
तिक 5221
पैकेज 5218
भ 5216
ट्रेनों 5213
पंच@@ 5211
एमएस 5210
अंकों 5209
पहुँच 5209
फोर्स 5207
दिसम्बर 5205
ंद्र@@ 5204
डाले 5204
बन्@@ 5204
ख़ुद 5200
हॉकी 5199
दिमाग 5198
जाम 5197
दया 5195
C@@ 5193
लाकर 5191
निशान 5189
85 5187
दोषियों 5186
सिक्किम 5176
लोगो 5175
साधन 5172
नेवालों 5171
शॉ@@ 5171
उपभोक्ताओं 5170
बताने 5167
शिवराज 5167
शैक्षिक 5167
संबद्ध 5167
फीस 5165
फिट 5164
मूर्ति 5164
T 5162
अब्दुल 5160
गेट 5160
द्वार 5158
हन 5156
फील्ड 5155
सीआरपीएफ 5155
केल 5151
दरों 5151
बाग 5151
व्या@@ 5149
टरी 5146
माइ@@ 5146
क्रांति 5145
वितरित 5145
वेंकैया 5141
उल@@ 5140
अख्तर 5138
घ 5137
ख्@@ 5136
ग्लोबल 5135
सपना 5134
क्ष 5133
कने 5131
राय@@ 5131
गोल्ड 5130
कार्बन 5128
राकेश 5128
देशवासियों 5127
G@@ 5124
निवास 5123
49 5122
आव@@ 5122
अमल 5121
फ़्@@ 5121
ऋ 5119
नमाज़ 5117
सार 5115
95 5114
अग@@ 5114
कट 5112
तृणमूल 5112
साक्षात्कार 5108
हें 5108
कहाँ 5107
सैं@@ 5106
उद्धव 5105
आवंटन 5104
निरीक्षण 5103
जियो 5102
उपासना 5101
फंसे 5100
कराए 5099
सच्चा 5099
पर्व 5098
उतारा 5096
यूनियन 5095
संग्रहालय 5094
मानकों 5092
सितम्बर 5092
एंड@@ 5091
सिद्धू 5091
बलिदान 5088
एआई 5087
कमरे 5087
कामकाज 5085
जोड़ 5084
मोड 5084
51 5083
आयुष 5082
वाजपेयी 5080
vs 5078
पढ़े 5078
कवि 5077
महेश 5077
सीएए 5076
हरगिज़ 5075
लगाकर 5074
हरा@@ 5071
रिक 5068
स्नातक 5068
हिंदुस्तान 5068
फार्@@ 5067
ंडर 5066
मानवीय 5063
अपनाने 5062
पीसी 5062
नवा@@ 5060
र्न 5058
६@@ 5058
इलेक्ट्रिक 5055
मछली 5048
ढेर 5047
घू@@ 5046
नोएडा 5045
समुदायों 5044
ताजा 5043
कॉर्@@ 5042
हीन 5034
ब्रांड 5033
सीए 5030
रखती 5029
लिख 5029
कॉम 5028
साम@@ 5027
सेमीफाइनल 5022
पृष्ठ 5019
त्व 5018
प्रवर्तन 5018
यूसुफ 5016
बनाता 5011
फाउंडेशन 5010
साक्षियों 5010
गल@@ 5009
स्त्रियों 5009
स्वि@@ 5009
10.@@ 5008
महत्त्वपूर्ण 5008
घोटाले 5006
देख@@ 5003
तार 5002
म्प@@ 5002
विभाजन 5002
टूट 5001
विभाजित 5000
क्ला@@ 4999
जित 4999
बनाम 4999
सेन 4997
स्वी@@ 4997
फुटबॉल 4994
४@@ 4993
खुला 4992
दिखाता 4992
संत 4992
उन्नत 4988
गर्@@ 4988
सीसी@@ 4988
तीं 4984
इंकार 4982
गू@@ 4981
लाइट 4978
भजन 4977
बाइ@@ 4976
ट्रैक 4975
27@@ 4973
उर्वरक 4971
टेली@@ 4969
संवैधानिक 4969
यहीं 4966
लगते 4966
विद्यार्थी 4966
पैनल 4964
ऊंचाई 4962
हड़ताल 4962
पिंग 4957
बीएस 4957
हेक्टेयर 4955
किंतु 4954
स्ट्र@@ 4954
शू@@ 4953
मनोरंजन 4949
ज्ञात 4948
पुलिसकर्मी 4948
मुना@@ 4948
W@@ 4947
सीनियर 4947
प्रक्रियाओं 4946
माल@@ 4945
BJP 4941
चार@@ 4937
मील 4937
35@@ 4936
इच्छुक 4935
ंट@@ 4934
आंकड़ा 4934
तौ@@ 4933
उत्साह 4928
@ 4924
इजाजत 4923
जिन्@@ 4920
सतह 4918
फडणवीस 4917
अनंतिम 4913
रिश्ता 4911
तत्@@ 4907
महिंद्रा 4907
सेंट्रल 4905
प्रोग्राम 4904
चंद्र@@ 4903
डेब्यू 4902
प्रकाशन 4902
बन्दों 4902
अर्पित 4900
सत@@ 4898
कमांडर 4896
धोखाधड़ी 4889
पस 4887
भेजी 4887
धर्@@ 4886
अधिसूचित 4885
केन्द्रों 4885
शीर्षक 4884
सीख 4882
नैतिक 4881
उपयोगी 4879
बचपन 4879
गुरु@@ 4878
पदार्थों 4876
शवों 4876
बंग@@ 4875
पूछ@@ 4872
उक्त 4871
ढ़ी 4871
यक 4870
विमानों 4869
सूर्य 4868
ध्यक्ष 4863
न्यूयॉर्क 4863
रूसी 4861
महोत्सव 4860
प्रारूप 4854
जहन्नुम 4852
सुनकर 4847
ेगी 4847
नाटक 4846
काफ़ी 4845
निदेशालय 4845
इसरो 4842
वें@@ 4842
रहमान 4841
समानता 4841
आख़िरत 4840
बारी 4840
टकर 4836
तै@@ 4836
भू 4836
उतना 4831
विज्ञापन 4831
www 4830
स्कूली 4830
कीं 4828
मिस्र 4828
लंबित 4827
हादसा 4827
चावल 4824
गंज 4823
सिलसिले 4823
करनेवालों 4822
प्रिंट 4821
टेलीविजन 4819
सद@@ 4818
2007 4817
टिस 4816
शर्त 4815
खुली 4814
i 4812
जरूरतों 4812
सुनाई 4811
जेम्स 4810
पेशेवर 4810
उमर 4809
खाड़ी 4809
उन्होने 4808
छू@@ 4806
मांग@@ 4804
मानने 4804
सचमुच 4804
व्यव@@ 4803
मद@@ 4802
जातियों 4800
फायदे 4800
लेंस 4800
46 4798
दिलचस्पी 4798
56 4797
o 4797
संतुलन 4796
मानता 4795
गल 4794
प्रताप 4794
महोदय 4794
नकारात्मक 4793
फ्री 4792
इंडोनेशिया 4790
षण 4790
दवाओं 4787
जटिल 4786
बताता 4783
दर्शाता 4780
जिनसे 4778
पात 4776
R@@ 4774
ग्रह 4772
इंदौर 4771
फसलों 4770
सेल्फी 4766
एम्स 4763
मायावती 4762
बनकर 4761
मंत्रि@@ 4759
बीमारियों 4757
ट्रस्ट 4756
तोमर 4756
असफल 4755
पहुंचकर 4755
समस्त 4754
भौतिक 4753
एनडी@@ 4752
कार्तिक 4752
मुम्बई 4752
निकलने 4750
बतौर 4750
चम@@ 4749
आख़िर 4746
तता 4746
K@@ 4743
अति 4742
अर 4742
रिय@@ 4742
लिया@@ 4742
ीन 4742
ण्ड 4741
मज़@@ 4741
साजिश 4740
लेक्@@ 4739
स्टील 4738
कविता 4733
किलोग्राम 4732
मनुष्यों 4730
मेघालय 4730
यूजर्स 4729
सफलतापूर्वक 4728
ग्रामीणों 4727
तिमाही 4727
स्कीम 4727
आवश्यकताओं 4726
दिनेश 4726
दुष्कर्म 4726
नतीजा 4725
उतार 4724
क़ुरान 4716
नाते 4714
न्याय@@ 4713
रफ्तार 4713
उपधारा 4712
भुवनेश्वर 4712
त्वरित 4710
णि@@ 4708
कमल 4707
अट@@ 4706
जंग 4705
इबराहीम 4703
शक्तिशाली 4703
आपसे 4699
तत्कालीन 4699
लंबा 4699
संदीप 4699
रखेंगे 4696
घटनाएं 4693
देवगन 4692
किम 4690
विवेक 4690
28@@ 4689
जबरदस्त 4688
रजत 4688
जेट 4687
बाँ@@ 4687
लेगी 4685
आन्ध्रप्रदेश 4682
ट्यू@@ 4682
बचा@@ 4682
रॉयल 4681
रुचि 4679
बाई 4678
छोड़ा 4674
ंगा@@ 4671
प्प@@ 4670
मतदाता 4669
कोर्इ 4667
सन@@ 4667
अध्याय 4666
स्तान 4661
गारंटी 4659
पड़ती 4659
PM 4658
विमानन 4658
ौर 4658
रिश्तों 4657
त् 4655
पड़ताल 4654
सच्ची 4654
अरुणाचल 4653
पाएंगे 4651
बैंड 4651
जोन 4649
पोर्@@ 4649
ट्रि@@ 4647
कलर 4646
वेस्ट 4646
शेयरों 4646
झो@@ 4643
शन@@ 4642
मायने 4640
ईं 4639
ज़ी@@ 4637
नियामक 4637
नड्डा 4636
दायित्व 4635
कड़े 4633
क्रियान्वयन 4633
आप@@ 4631
रूम 4624
पान 4622
वु@@ 4622
प्रणालियों 4621
लेखन 4620
कदमों 4619
gov 4616
उत्सव 4616
पहुंच@@ 4616
निष्@@ 4615
माफ 4612
मिजोरम 4609
काले 4608
तुममें 4606
मल 4606
हैरान 4603
D@@ 4601
शंकर 4601
हुये 4599
यस 4596
पाल@@ 4595
ारि@@ 4595
पॉजिटिव 4594
शांतिपूर्ण 4594
प्रसन्नता 4590
झा 4589
बन@@ 4589
जाए@@ 4588
ंदा 4587
श्रमिकों 4587
लिखने 4585
उपचुनाव 4584
छात्राओं 4584
समर्पण 4584
स्पेस 4583
पारिवारिक 4582
ज्ञ 4580
सूरत 4580
दाता 4578
गौरव 4575
घड़ी 4575
फर@@ 4575
कलीसिया 4572
मामूली 4571
मिल@@ 4571
लिख@@ 4567
चला@@ 4566
बिंदु 4566
F@@ 4565
तब@@ 4563
लक 4563
टिक्स 4559
सहकारी 4559
अरोड़ा 4558
राजनैतिक 4558
पत्रों 4557
सिद्धांतों 4557
एकजुट 4555
योजनाएं 4555
काउंसिल 4553
लगाना 4553
भेदभाव 4552
C 4550
वती 4550
झूठे 4549
पेयजल 4549
सदस्यता 4545
उपा@@ 4544
फेर 4541
मंजूर 4541
हसन 4541
अधिग्रहण 4540
आदर 4538
ंग्@@ 4536
क्वा@@ 4536
एसबीआई 4534
नवीकरणीय 4534
स्टा@@ 4534
अला@@ 4533
नियत 4532
घटक 4531
नज़@@ 4531
मानो 4529
स्थगित 4529
शक़ 4528
आभार 4526
टक 4522
णु 4520
बिया 4520
भाग@@ 4520
कार्यशाला 4519
गोपाल 4518
ऑन 4517
सुपर@@ 4517
ईमानदार 4516
खबरें 4514
ग्रस्त 4514
चीज़ों 4512
टेनिस 4512
54 4510
सीमाओं 4509
र्म 4508
लाइफ 4508
जितेंद्र 4507
बर्ग 4506
मित 4505
तत्वों 4504
वाकई 4504
जायेगी 4502
अनुपात 4501
रूपए 4499
आयुष्मान 4497
क्स@@ 4496
फांसी 4496
लम्@@ 4496
फर्जी 4495
मलेशिया 4493
वाय@@ 4492
नसीहत 4491
प्रशिक्षित 4489
शौ@@ 4489
सचिवालय 4488
धार@@ 4487
लाइव 4485
सफेद 4485
द्वि@@ 4484
प्ला@@ 4484
पर्यटक 4482
सोमवार 4482
ऑस्ट्रेलियाई 4479
चक्र 4479
सुरक्षाबलों 4478
नीत 4476
आईएम@@ 4475
250 4474
स्तरों 4474
सेनाओं 4473
त्वचा 4472
हथियारों 4472
इंडस्ट्री 4471
ल्ट 4471
टाइम्स 4470
पद्धति 4470
लगती 4469
ठि@@ 4465
तलाक 4464
India 4461
कब्जा 4460
वर्ड 4458
मतदाताओं 4457
मासिक 4456
72 4455
x 4454
चित्र@@ 4453
भूटान 4451
कानपुर 4450
बहाल 4450
टियों 4449
मुख 4449
दोष 4446
नुसार 4445
रोधी 4445
वैकल्पिक 4443
पैग़म्बर 4441
S 4438
बढ़ाना 4438
ग़ा@@ 4436
विविध 4436
सीए@@ 4436
लक्ष्यों 4430
लिहाज 4430
तलाशी 4429
नाइट 4426
परिभाषित 4426
सुधारों 4426
सला@@ 4425
प्याज 4424
फैल 4423
पुलिसकर्मियों 4421
मददगार 4421
हिम्मत 4421
पढ़ेंः 4419
गले 4416
सदैव 4416
जाधव 4415
सेवन 4413
निकले 4412
एनडीए 4411
प्लस 4411
सलामी 4409
किलो 4408
ब्लू 4408
सेवक 4407
चाय 4406
वादियों 4405
कथा 4404
वन@@ 4404
तार@@ 4401
वैसा 4398
अंतर@@ 4397
ब्राजील 4397
वस्त्र 4397
सपोर्ट 4396
7,@@ 4395
तियाँ 4394
एव@@ 4391
मजदूरों 4389
मास 4389
स्वामित्व 4386
गिनती 4385
स्टी@@ 4385
लाल@@ 4384
सीबी@@ 4384
सनी 4382
भविष्यवाणी 4381
कड़ा 4375
सभाओं 4375
29@@ 4373
गुरु 4373
करनेवाला 4372
असाधारण 4371
पैर 4370
फैलाने 4370
फीचर 4369
मारी 4368
ह्@@ 4367
दशकों 4366
नागपुर 4366
धों 4364
दबा@@ 4363
स्पेन 4362
केन 4361
हार@@ 4359
ज़े@@ 4357
सहारा 4357
सामुदायिक 4356
गतिविधि 4350
आर्मी 4349
ओबामा 4348
कार्मिक 4347
डांस 4341
बढ़िया 4338
IPL 4336
ड़ियों 4335
श्रमिक 4334
अनुबंध 4333
यार 4333
परवाह 4332
मनाने 4330
र्र@@ 4330
धाराओं 4328
चाल 4327
स्वीकृत 4325
क्षति 4323
डीज 4323
पहलों 4323
साधा 4323
दुःख 4321
रिकार्ड 4320
दोपहर 4318
फर्क 4318
लैस 4318
लॉजी 4316
त्ता 4314
दिखाते 4314
पहाड़ी 4314
साइंस 4314
छो@@ 4312
डायरेक्ट 4312
कालीन 4310
दृढ़ 4310
लत 4309
साइबर 4307
बाधा 4305
जानवरों 4304
नाग@@ 4303
चिंतित 4302
जाय@@ 4301
सैकड़ों 4300
दीजिए 4299
अवॉर्ड 4298
स्टै@@ 4297
68 4296
गेम 4296
000 4295
लांच 4295
नाम@@ 4294
2006 4293
आनन्द 4293
गुमराह 4293
पत्@@ 4293
05 4290
शुक्रवार 4289
संवर्धन 4289
अनुमानित 4287
कुमारी 4284
महल 4282
कालिक 4278
मेहता 4278
रूट 4278
हवाला 4278
बचे 4275
पकड़ने 4274
अलर्ट 4269
सल्@@ 4266
11.@@ 4264
डाइ@@ 4264
यानि 4263
चढ़ा@@ 4261
12.@@ 4260
मोर्@@ 4260
सीपी@@ 4258
करवा 4257
पाकर 4257
नदियों 4256
आँ@@ 4255
कड़@@ 4254
पीएफ 4253
58 4252
पीएस 4250
मिशेल 4250
शील 4250
नूह 4248
लगेगा 4247
सब्सिडी 4247
श्वर 4246
लिस 4244
डरते 4242
जुर्माना 4241
अनुपालन 4240
रोगी 4239
लेफ्टिनेंट 4236
मच 4233
लौटने 4233
सहज 4233
यूहन्ना 4232
दोस्ती 4231
युवकों 4228
,9@@ 4226
पुत्रा 4226
साहस 4225
पढ़ 4224
रेंज 4224
राजन 4223
अगला 4222
गणतंत्र 4221
आगरा 4220
खातों 4220
इसीलिए 4218
चलो 4218
विंग 4218
भेद 4217
रहित 4217
,000 4216
निराश 4216
62 4214
हॉल 4214
इम्@@ 4213
फ्ट 4211
मांगा 4210
र्थ@@ 4209
समझता 4208
कैटरीना 4205
राई 4205
आडवाणी 4204
क्लि@@ 4203
दिलचस्प 4203
ब्रह्@@ 4203
कक्ष 4201
पुरा@@ 4200
जेपी 4199
लियन 4197
तृ@@ 4196
पतरस 4196
कम्@@ 4194
गुर@@ 4193
पुर@@ 4191
बताए 4190
मसले 4190
लवा@@ 4190
सबका 4190
H@@ 4188
संभवतः 4188
59 4187
ज़िम्मेदारी 4187
निभाने 4185
9,@@ 4183
मल@@ 4183
नर्@@ 4182
ंक@@ 4181
सिंधु 4179
पैरा@@ 4178
शिरकत 4178
O@@ 4177
जंगल 4177
बरी 4176
बेस 4176
रोशन 4176
डिया 4173
बौद्ध 4173
कल्@@ 4171
वेल 4168
बानी 4167
लेती 4167
उत्पादक 4166
आवाज़ 4164
सत्य@@ 4164
ऑटो@@ 4163
गेंदों 4160
जावड़ेकर 4160
रेखांकित 4159
नाथन 4158
परिणामों 4158
पोत 4157
अश्विन 4156
भली 4156
उत्साहित 4154
चाह@@ 4154
जितनी 4154
चक 4152
शोधन 4152
जानना 4150
टी20 4148
खेलते 4147
चार्ज 4147
पीछा 4147
जोड़े 4144
सीधी 4144
दक्षता 4143
गें 4142
अवसंरचना 4141
पृष्ठभूमि 4141
निक@@ 4140
ढ 4139
बहादुर 4138
अस्थायी 4137
पाँच 4136
स्टन 4134
करोड़ों 4133
सेवकों 4133
ग्रीन 4132
त्योहार 4131
लापता 4131
आशीष 4128
गुप्त 4128
फोर्ड 4128
अपनाया 4127
कारियों 4127
जूनियर 4127
अखबार 4126
फिलि@@ 4126
R 4125
एकत्र 4125
फैला 4125
करवाने 4124
इबादत 4123
कॉरपोरेट 4123
दीं 4123
महज 4122
चना 4121
63 4119
माँ@@ 4119
दिनांक 4117
दूतावास 4117
शं@@ 4117
जला@@ 4116
वंचित 4116
संवाददाता 4116
पुष्@@ 4115
स्ता 4114
पारदर्शिता 4113
मेट 4113
n@@ 4112
विनोद 4112
67 4111
खों 4110
पीटीआई 4109
वं@@ 4106
डल 4105
दुआ 4105
बहरहाल 4103
खींच@@ 4100
यरूशलेम 4100
सुपरस्टार 4100
विवादित 4099
उपग्रह 4098
परिवर्तित 4095
लीला 4095
राजद 4094
देखेंगे 4093
मास्टर 4092
लड़ाकू 4092
टेबल 4091
विलय 4090
डिप्टी 4089
त्तर 4089
8,@@ 4088
कैसी 4088
आओ 4087
क्षकों 4087
ईस्ट 4086
सांस 4086
प्रतिबंधित 4084
दस्तावेजों 4083
दूर@@ 4082
आईटी@@ 4081
इस्@@ 4081
वर्धन 4081
ज़रा 4080
गर्मी 4079
मानवता 4079
टाइगर 4078
ईसाई 4077
लक्ष्मी 4077
बंदी 4076
ऊ 4075
मस्तिष्क 4074
धम@@ 4072
नाकाम 4072
व्यापारिक 4071
अपमान 4066
फॉर्@@ 4066
दुश्मन 4064
सौदे 4063
N@@ 4061
निर@@ 4061
अनुसरण 4059
पढ़ा 4057
57 4056
k@@ 4055
झील 4055
ट्रै@@ 4053
डोर 4052
धनराशि 4051
फ़ैसला 4051
ब्रिक्स 4050
महासागर 4050
मारुति 4050
रोज़ी 4047
प्रिय 4046
मचा 4044
लव 4044
गिल 4043
ट्रिक 4043
दीवार 4042
धातु 4040
रिटर्न 4040
फायरिंग 4039
53 4037
दुखद 4037
यथा@@ 4037
अर्जित 4036
लाभार्थियों 4036
ृ@@ 4036
एमसी 4035
त्य 4035
ऋषि 4034
ठे@@ 4033
मिलना 4030
निर्वाचित 4028
महामहिम 4028
तुमपर 4025
चों 4024
घोष 4023
पासवान 4022
इनसे 4021
फे 4019
खेली 4015
इजरायल 4014
विजन 4014
किस्@@ 4013
समझना 4012
जोश 4011
वाने 4010
बेचने 4009
बिहारी 4007
गणमान्य 4004
प्ले 4004
भट@@ 4003
गण@@ 4002
मजदूर 4002
नामों 4001
बुमराह 4000
संगठित 4000
तान 3999
चरित्र 3998
युद्ध@@ 3997
दल@@ 3996
दोहरा@@ 3996
91 3992
ठहरा@@ 3992
ऑफिसर 3990
प्रतिमा 3990
बैडमिंटन 3990
वश 3989
शुक्रिया 3988
सोना 3985
कांत 3984
क्लास 3984
सुशील 3984
अंतर्@@ 3982
चांदी 3982
अकबर 3979
ख़िलाफ़ 3979
घटकर 3978
संवेदना 3976
मित्रों 3974
आईपी 3973
600 3972
उन@@ 3972
शनल 3972
स्टीव 3972
खेलना 3971
बगैर 3971
तस्वीरों 3970
एका@@ 3968
एन्@@ 3968
पाटिल 3968
संग@@ 3968
पैन 3967
अपराधियों 3966
नकद 3966
नू 3966
मती 3964
त्याग 3963
X@@ 3962
चौथी 3962
द्य 3961
मिला@@ 3960
अपडेट 3959
एडी@@ 3959
जीने 3957
11@@ 3956
नाओं 3955
ट्रां@@ 3954
अभिव्यक्ति 3951
जख्मी 3951
टाइप 3951
दादा 3950
जार 3948
कप्तानी 3947
तह@@ 3947
नार 3945
टीसी 3943
ज़ुल्म 3942
डरा@@ 3942
स्पिनर 3942
मत्ती 3940
नाबालिग 3938
नकदी 3937
पीए 3937
राणा 3937
जीन 3935
फ्र@@ 3935
बाबू 3935
याह 3935
ज़ो@@ 3932
विटामिन 3932
मत@@ 3931
कार्यरत 3930
गहराई 3930
मारपीट 3930
एसटी 3928
2005 3926
66 3926
कुर्@@ 3923
फिल्@@ 3923
लैं@@ 3923
जन्@@ 3922
जैविक 3922
वैध 3922
अकसर 3921
नाश 3919
चिकित्सकों 3918
अफ@@ 3917
कारा 3916
पकड़ा 3914
गतिविधियां 3912
हताहत 3911
पहुँचा@@ 3910
मुक्ति 3910
लिय@@ 3910
प्रभावशाली 3909
मिया 3909
शोषण 3908
निकला 3907
प्रभा@@ 3906
शर्तों 3906
उद्देश्यों 3905
आफ 3903
डियों 3903
बाधित 3903
रिहा 3902
धारी 3900
किस्म 3899
स्पष्टीकरण 3899
निकायों 3898
सिर@@ 3898
अंततः 3895
पूर्व@@ 3895
प्री@@ 3895
खनिज 3894
वाना 3893
आवंटित 3890
पंजाबी 3890
खन्ना 3889
स्को 3888
िया 3888
एडमिट 3884
चार्@@ 3884
चोटें 3884
सौंपी 3884
हियों 3883
निशानियाँ 3882
ंडे@@ 3881
कारक 3881
धित 3881
इस्लामिक 3880
बताती 3880
मरे 3879
शख़्श 3878
स्टोर 3878
एँगे 3877
आपत्ति 3874
चलती 3873
त्रुटि 3873
द्दीन 3873
रम 3871
सुना@@ 3871
ज़ोर 3870
टॉम 3870
सकल 3870
शनों 3869
दिवंगत 3868
पुरा 3868
जायेंगे 3867
जितेन्द्र 3867
प्रयुक्त 3867
स्टॉ@@ 3866
स्थानांतरित 3865
युवती 3864
चपेट 3862
प्रतिभागियों 3860
विजेताओं 3857
सान 3857
शर्@@ 3856
्रे@@ 3856
पंडित 3855
धारणा 3854
प्राथमिकी 3854
औरतों 3852
आत्मनिर्भर 3851
न्य@@ 3851
उपलब्धियों 3850
ऑर्@@ 3847
हंगामा 3847
उठाना 3846
उपमुख्यमंत्री 3845
साहिब 3844
खुश@@ 3843
बत 3843
ईसा 3842
चयनित 3842
नेक 3842
बल्@@ 3840
सपने 3840
गेंदबाजों 3838
ंगें 3837
ट्रम्प 3837
माइक्रो@@ 3834
सिरे 3834
पाता 3833
मांस 3833
अमरिंदर 3831
पकड़े 3830
ऊण्श्छ्ष् 3829
रविवार 3827
दिला@@ 3822
अनुराग 3821
फूड 3821
मश@@ 3821
विचारधारा 3821
दुबई 3820
रूप@@ 3819
आईडी 3818
81 3817
आत्म 3817
कनेक्टिविटी 3816
पल्@@ 3816
बिलियन 3816
दियों 3815
काम@@ 3814
ड़ते 3814
शय 3814
हैं@@ 3814
एल्@@ 3813
मुख@@ 3812
ईमानदारों 3811
भक्त 3811
कार्यालयों 3809
तैयारियों 3809
धार 3809
विष@@ 3809
77 3807
पुरूष 3807
समस्याएं 3807
अर्थ@@ 3806
जर्@@ 3805
ज़र 3804
प्रीमियर 3803
तया 3802
सावधान 3802
s@@ 3800
एंटी@@ 3800
कोटा 3800
बांध 3800
कुमाऊँ 3798
ट्रॉफी 3798
दीक्षित 3797
आजीविका 3793
मालदीव 3793
शिमला 3792
समर्थक 3791
स्व 3791
प्रोटीन 3790
हरे 3790
थोड़े 3788
अनाज 3786
दिलाने 3784
प्पा 3782
धि 3780
स्ट्रे@@ 3779
मार्शल 3776
रौ@@ 3776
अक्तूबर 3774
तौबा 3774
लाता 3774
अपना@@ 3773
सोचते 3770
बों 3769
वासियों 3768
छापेमारी 3767
सेवानिवृत्त 3767
हॉस्पिटल 3765
श्रेष्ठ 3764
विनिमय 3763
अभाव 3762
ट्रेनिंग 3762
निष्कर्ष 3761
तैनाती 3759
ड़ना 3758
पद@@ 3756
हिंसक 3756
अंतरिम 3755
बैटरी 3755
दलित 3754
गाना 3753
प्रत्य@@ 3753
श्रेय 3751
71 3750
तैयारियां 3750
आक्रमण 3748
खट्टर 3747
निहित 3747
यूनाइटेड 3746
सोनाक्षी 3745
78 3743
संतुष्ट 3743
सुदृढ़ 3743
वां@@ 3742
जितने 3740
मेन 3740
शर@@ 3739
शिया 3739
नीरव 3738
पटा@@ 3737
नींद 3736
बनता 3735
लीजिए 3735
सना 3735
डीएस 3734
दिवाली 3734
निवासियों 3733
सावधानी 3731
एकड़ 3730
जॉ@@ 3730
नामित 3730
इरादा 3729
पित 3729
शान 3729
क्रिया@@ 3728
दिलाया 3727
स्वाभाविक 3727
विदेशों 3726
09 3725
भंडार 3725
वल@@ 3724
चं@@ 3723
मंदिरों 3723
मराठी 3723
त्रा 3722
सेंसेक्स 3721
क्लो@@ 3719
जम@@ 3718
म्यांमार 3718
शियों 3718
मधु@@ 3716
कत 3712
टुकड़े 3712
संजीव 3712
लॉग 3707
बोस 3706
इराक 3705
निचले 3704
पत@@ 3703
प्रबंधक 3702
जापानी 3701
बुद्धि@@ 3701
लपुर 3701
74 3700
B 3700
बढ़ेगी 3700
मुखी 3697
याः 3697
अपर 3696
आउट@@ 3696
चलन 3696
इंडि@@ 3695
धिक 3694
अधिकृत 3692
एलि@@ 3692
गिरी 3692
पेरिस 3692
मन्@@ 3692
73 3691
धारक 3690
गुवाहाटी 3689
प्रयोगशाला 3688
विश्@@ 3685
संस्कार 3684
कांस्य 3681
स्टिक 3681
08 3678
मोर्चा 3678
डर@@ 3677
मेहरबान 3676
800 3674
तल@@ 3674
निभाते 3674
द्ध@@ 3673
नक्@@ 3673
बारा@@ 3673
आकर्षक 3672
61 3671
परिदृश्य 3671
हर्@@ 3671
आदम 3670
तकों 3670
फुटेज 3670
करवा@@ 3669
रेशन 3669
घाटे 3668
ण्ड@@ 3668
प्रतीत 3667
माइकल 3667
मिश्रण 3667
मुस्@@ 3667
मल्होत्रा 3664
अंदाज 3663
p@@ 3662
झि@@ 3662
रेस 3662
दं@@ 3661
क्षेत्र@@ 3659
पसंदीदा 3659
07 3658
आहार 3658
एक्टिव 3658
अजित 3656
हुड्डा 3656
Hindi 3654
ख़र्च 3654
लेस 3654
विरूद्ध 3654
उसपर 3653
लोर 3653
गोगोई 3652
दर्दनाक 3651
दोनो 3651
फिटनेस 3651
डालकर 3650
अफ्रीकी 3649
संभावनाओं 3649
हमलावर 3649
फीचर्स 3647
मुद्र@@ 3647
पुराना 3646
अपराधों 3645
00@@ 3644
शे 3642
कुरान 3641
गणेश 3641
ारिया 3641
V@@ 3640
जनजाति 3640
कर्तव्य 3638
गिरने 3638
फरमा@@ 3638
गेहूं 3637
एकदम 3634
गुलाम 3634
तालिबान 3634
सुनी 3633
तु 3632
नाय@@ 3631
बिता@@ 3630
सांख्यिकी 3630
अ 3629
चिकित्सक 3627
ब्स 3625
अड्डा 3624
किट 3624
बो 3624
ल्यू@@ 3624
अजीत 3622
५@@ 3622
बल्लेबाजों 3621
वादे 3621
गहरे 3619
जब@@ 3617
फौरन 3617
साम्राज्य 3617
रखकर 3615
संध्या 3615
डीए 3614
88 3612
सलाम 3611
पट 3610
दय 3609
पॉल 3609
बढ़े 3607
व्यक्तित्व 3606
गहन 3604
प्रकरण 3601
नमक 3600
सीरिया 3600
औऱ 3598
काओं 3598
नफरत 3597
बपतिस्मा 3596
संधि 3596
खुदरा 3594
69 3590
ंश 3589
दिख@@ 3589
नाएँ 3589
दुखी 3588
= 3586
and 3586
संभावनाएं 3585
76 3584
अमृतसर 3584
चन 3582
सत्तारूढ़ 3580
ज़िक्र 3579
वासी 3579
अनि@@ 3577
उ 3577
थल 3576
आंखों 3574
कीमतें 3574
एडि@@ 3572
83 3571
क्षक 3571
84 3570
भूत 3570
सर्वर 3570
चैंपियनशिप 3568
देनी 3568
लिक 3568
समी@@ 3568
लिटी 3565
एनडीआरएफ 3564
कॉमर्स 3564
चिन्@@ 3564
बॉल 3564
याकूब 3564
कॉलेजों 3563
जिनको 3563
ंगे@@ 3562
दूंगा 3562
पेपर 3562
सीखा 3562
पहुंचा@@ 3561
बिल्@@ 3561
मुहम्मद 3560
सईद 3559
धारकों 3558
नोटबंदी 3558
रेन 3558
हेल्थ 3558
सहयोगियों 3556
मार्केट 3555
विचार@@ 3554
40@@ 3553
पहाड़ 3553
ंग्स 3552
जिट 3552
दानों 3550
वियतनाम 3550
अवधारणा 3549
कस 3549
गणित 3549
छात्रा 3549
जडेजा 3548
०० 3548
टूर 3546
इन्कार 3544
जीडीपी 3544
किरण 3543
सर्स 3542
साहब 3542
120 3541
इंच 3540
गान 3540
आखिरकार 3539
उपक्रम 3539
रजि@@ 3539
मौलिक 3537
काउ@@ 3536
न्ट 3536
आश्वस्त 3535
ऊंची 3535
हराम 3535
इस्तीफे 3534
लोड 3533
ज़िन्दगी 3532
लीय 3531
छेड़छाड़ 3529
माया 3529
वट 3529
विंडो 3529
करि@@ 3528
धक 3527
86 3526
92 3526
विनय 3526
व्याख्या 3524
स्वदेशी 3522
पीड़ितों 3521
हिंदुओं 3521
शिक्षा@@ 3520
अपराधी 3518
इस्लामी 3518
नियां 3518
प्रतीक्षा 3518
नाएं 3517
82 3516
97 3516
फोटो@@ 3516
गुण@@ 3515
क़्@@ 3512
लि 3511
साइड 3511
37@@ 3510
गीता 3509
आवाजाही 3508
आदिवासी 3507
भीषण 3507
स्रोतों 3507
कुरैशी 3506
मैने 3506
गार्ड 3505
लाहौर 3504
अवार्ड 3503
रस्@@ 3503
98 3502
ईएस@@ 3502
दिक 3502
हीरो 3502
पूर्वा@@ 3501
शरण 3501
स्ट्रीट 3501
अध@@ 3500
प्रायः 3500
सशक्तिकरण 3500
प्रस्तुति 3499
मेजबानी 3497
फूल 3495
आरआई 3494
इंतजाम 3494
कहे 3494
बहु 3494
2004 3493
जानकर 3493
वाणी 3493
ग्रेड 3492
विवादों 3492
06 3491
1000 3491
चिंग 3491
ठिकाना 3491
नम 3490
वस्@@ 3490
अपहरण 3489
आईए@@ 3488
प्रशंसकों 3488
भगत 3488
स्ट्रि@@ 3488
L 3487
कमलनाथ 3487
बान 3487
गंग@@ 3486
दलील 3486
व्यवस्थित 3484
मीटिंग 3483
स्थितियों 3483
जवाहरलाल 3481
हारी 3481
केन्द्रित 3479
पाना 3479
प्रोटोकॉल 3479
उल 3477
२००@@ 3477
कः 3476
फं@@ 3476
सुनते 3476
कामयाबी 3475
शर 3475
मक्का 3473
लह@@ 3470
मोटरसाइकिल 3468
वाशिंगटन 3468
अनुग्रह 3466
एचडीएफसी 3466
तक@@ 3466
फोकस 3465
स्मरण 3465
02 3464
E 3464
कारगर 3464
हालॉकि 3464
गुज़र 3463
अमीर 3462
पने 3462
10,000 3461
राकांपा 3461
निवे@@ 3460
रेटिंग 3460
टाई 3459
ड्रि@@ 3459
ईसी 3458
स्टार्ट 3458
काला 3457
क्षित 3456
पासपोर्ट 3456
माल्या 3455
औषधि 3454
उद्यमियों 3451
ड़कर 3451
सोच@@ 3450
मार्गों 3449
अतीत 3447
श्रेणियों 3446
नार@@ 3445
माबूद 3445
फैशन 3444
भूमिकाओं 3444
विद्या 3444
सेस 3443
उपन्यास 3441
प्रॉ@@ 3441
लिखकर 3440
गार्@@ 3435
घि@@ 3435
मुसीबत 3435
शास्त्री 3435
शिकायतों 3435
ारो@@ 3434
कालेज 3433
समावेशी 3433
बैठकों 3432
रिस 3432
रें 3432
क्यो@@ 3430
जयशंकर 3430
मज़ा 3430
} 3429
निष्पक्ष 3429
पीआई 3429
विनाश 3428
क्षमताओं 3427
यूनानी 3427
विया 3427
m@@ 3426
ज़ार 3426
डालते 3425
अनुप्रयोग 3423
एमओयू 3423
ज़्@@ 3423
संस्@@ 3423
जीती 3422
96 3421
झड़प 3420
नाराज 3420
मेजर 3420
सेल्सियस 3419
वाह 3415
बौ@@ 3413
कश्मीरी 3412
माध्यमिक 3412
पर्वत 3411
रूपा@@ 3410
इलेक्ट्रॉनिक्स 3409
उर्@@ 3409
गायक 3409
बालों 3409
मानवाधिकार 3408
ंडों 3407
आईपीसी 3407
i@@ 3406
मीट्रिक 3406
समर्थकों 3406
सदा 3405
मीन 3403
स्पीकर 3403
उद्यमों 3400
उद्यमिता 3399
ग़ालिब 3395
बेंगलुरू 3395
इन्होंने 3394
मुलायम 3394
रान 3394
निशानी 3393
बढ़ेगा 3393
रुपया 3393
र्थी 3393
हराकर 3391
ईमानदारी 3390
नग@@ 3390
कुं@@ 3389
लकड़ी 3389
भावी 3387
श्रीदेवी 3387
उपज 3386
चौथा 3385
पोल 3385
सालाना 3385
दुनियाभर 3384
प्रसारित 3384
धारण 3383
विध@@ 3383
नियोजन 3382
सर्किट 3382
मीर 3381
इंजीनियर 3379
जैश 3379
न्न@@ 3379
जादू 3378
बुद्ध 3377
125 3376
आकाशों 3376
उठ@@ 3376
कुल@@ 3376
टर्मिनल 3376
तीव्र 3375
नीतिगत 3375
ऑयल 3374
राधा 3374
वैक्सीन 3374
प्रतिस्पर्धी 3373
आयतें 3372
ग्राफ 3371
आन@@ 3370
फोरम 3370
सब्र 3370
त्रिपाठी 3369
ारी@@ 3369
अंडमान 3368
शुक्ला 3367
अध्य@@ 3366
परिजन 3366
संज्ञान 3366
संस्थागत 3365
बन्द 3364
रविशंकर 3364
शरीक 3364
कबीर 3363
ज़रुर 3363
एः 3362
रत्न 3362
शनिवार 3362
निप@@ 3361
बाल@@ 3361
केशन 3359
आरक्षित 3358
टेल 3356
बाबत 3356
राउत 3354
कअप 3353
रोजाना 3351
सर्वोत्तम 3351
आईएएनएस 3350
चाहेंगे 3350
वेस्ट@@ 3349
शक्तियों 3349
लाई@@ 3348
हटा@@ 3345
डिफेंस 3344
डिस्क 3344
नाक 3344
समझा@@ 3344
इसपर 3343
दुकान 3343
ऊंगा 3340
एसए 3339
लैंगिक 3339
घात 3338
अंश 3336
यूं 3336
विशेषता 3336
ज़ालिम 3335
खेत 3334
चैन 3334
प्रसन्न 3334
स्थि@@ 3334
टेशन 3333
उकसा@@ 3332
आंशिक 3331
उत्सर्जन 3331
डालें 3331
वृत्ति 3331
एक्सचेंज 3330
ब्रिज 3329
कुंजी 3326
विन@@ 3325
X 3323
पथ@@ 3323
भक्ति 3322
काने 3321
d@@ 3319
ईमेल 3319
म्प 3319
सर्वे 3319
स्क 3318
क्वि@@ 3317
झुठलाया 3317
हिट 3315
फार्म 3314
मुंबईः 3314
ंकी 3311
क्षी 3310
गण 3310
इरफान 3308
वंत 3308
04 3307
अंग्रेज़ी 3307
जरा 3307
डू 3307
मंडी 3307
सदर 3307
नारेबाजी 3306
ज़ु@@ 3304
७@@ 3304
उदा@@ 3302
पारदर्शी 3302
सने 3302
खरीद@@ 3301
बस्ती 3300
श्रॉफ 3300
कुफ्फ़ार 3299
आश्चर्य 3297
87 3296
चम्मच 3296
यर्स 3296
इला@@ 3295
दिक्कत 3295
प्राण 3295
इजाफा 3294
गर्भवती 3294
पीवी 3294
च्छ@@ 3293
रचनात्मक 3293
ओवर@@ 3291
मानसून 3291
हेड 3291
94 3290
e@@ 3290
घबरा@@ 3288
बढ़@@ 3286
लिं@@ 3285
अनुमोदन 3284
तालिका 3284
पंत 3284
अंडर 3283
अंसारी 3283
मेह@@ 3283
आरसी 3282
गढ 3282
अब्बास 3281
सोचने 3281
मंगलवार 3280
सिर्फ़ 3280
मरियम 3279
विन 3279
सन्तान 3278
सफ@@ 3278
लेनदेन 3275
सरकारें 3275
सिखा@@ 3274
स्पोर्ट्स 3274
ज़ों 3273
दमकल 3273
U@@ 3272
उपयोगकर्ता 3272
टीज 3272
इए 3271
ख़ूब 3271
ओवैसी 3270
गाय 3270
धोखा 3270
टस 3268
नमूनों 3268
नान 3268
बहा@@ 3268
ज़न 3267
हिंद 3267
रोशनी 3265
भव्य 3264
स्टूडेंट्स 3263
अद्भुत 3262
जोरदार 3261
डीजी@@ 3261
फिर@@ 3260
क्रू@@ 3259
मरम्मत 3259
अमर 3258
जोधपुर 3257
महबूबा 3255
विकासशील 3255
शोर 3255
आधारशिला 3254
उत्पादकता 3252
॰ 3249
एहसास 3248
प्रमाणपत्र 3247
गढ़@@ 3246
ट्रैफिक 3246
मस्@@ 3245
हता@@ 3245
अनंत 3244
कलाम 3244
वफादार 3244
बीएसएफ 3241
कोर्स 3239
प्रोसेसर 3238
देय 3236
अदा@@ 3235
सतर्क 3235
03 3234
कोह@@ 3234
पर्रिकर 3234
हालिया 3234
b@@ 3232
तालमेल 3232
शंस 3232
शान्ति 3232
गोरखपुर 3230
पंक्ति 3229
ट्रांस@@ 3226
सोसाइटी 3226
डीआर@@ 3225
I@@ 3223
कहा@@ 3223
चेहरा 3222
नजदीक 3222
संरक्षित 3222
बुल 3220
परे 3219
लीन 3219
हज@@ 3218
अनू@@ 3217
न्य 3217
पीएस@@ 3217
फाई 3217
गुणों 3215
समितियों 3214
ंगों 3213
F 3211
सीआर@@ 3211
भा 3207
राजनयिक 3207
कॉफी 3206
गेल 3206
धीन 3205
रजिस्टर 3205
ट्रेड 3204
१९९@@ 3204
2001 3203
लास 3202
समुचित 3202
उड़@@ 3201
भागने 3201
लु 3201
93 3200
निवारण 3199
पाएगा 3198
लेखा@@ 3198
लायक 3197
पक 3196
मेले 3196
नि 3194
यक़ीनी 3194
2021 3193
येंगे 3193
खपत 3192
चारा 3192
हॉलीवुड 3192
खर्@@ 3191
वज@@ 3191
दगी 3190
फार@@ 3190
मेगावाट 3190
आधारभूत 3188
मुक़र्रर 3187
ईवीएम 3186
पीसी@@ 3186
ब्रेक 3186
मतभेद 3186
संघीय 3186
साक्ष्य 3186
महिमा 3184
मुफ्ती 3184
व्यापारी 3184
्या 3182
डाली 3181
अश्@@ 3180
ऊपरी 3180
गुमराही 3180
चैंपियन 3179
लॉ 3179
समकक्ष 3178
पण 3176
पौधों 3176
यहूदियों 3176
दायक 3172
मद्रास 3172
सित 3172
जाल 3171
नवीनतम 3171
हाइड्रो@@ 3171
12वीं 3170
एनआईए 3170
काव्य 3170
फ्यू@@ 3168
मिक्स 3168
भंग 3167
रखरखाव 3167
पन@@ 3166
आईसीआईसीआई 3165
बच@@ 3165
महंगाई 3165
हल्की 3165
लापरवाही 3164
एनसीआर 3163
फायदेमंद 3162
एयरटेल 3161
स्पा@@ 3161
89 3160
चार्य 3160
तेलुगू 3160
नूर 3160
क्षतिग्रस्त 3159
दिग्विजय 3158
गॉ@@ 3157
प्रौद्योगिकियों 3157
जाओगे 3156
किफायती 3153
रांची 3153
5,000 3152
आरम्भ 3152
समाप्ति 3152
सिफारिशों 3152
इलेवन 3151
सम्पूर्ण 3151
इंडियंस 3150
जानवर 3150
धियों 3150
कवि@@ 3148
प्रमोशन 3148
D 3147
क्री@@ 3147
द्ध 3147
पेन 3147
मान्य 3147
M 3146
औलाद 3146
खोला 3146
दृ@@ 3146
परीक्षाओं 3146
आईएएस 3145
ड्यूटी 3145
ध्वनि 3144
सचिवों 3144
विक्रम 3143
आलोक 3142
ज़्यादातर 3141
बह 3141
व्यापारियों 3141
उत्तर@@ 3140
८@@ 3139
नारे 3138
विजय@@ 3138
सेवा@@ 3136
बौद्धिक 3135
एट 3134
जरी 3134
अधिवक्ता 3133
इंट 3133
अनुचित 3132
ड़ि@@ 3132
वेज 3132
बकाया 3131
उदार 3130
दुर्गा 3130
बचाया 3129
शिशु 3128
रियो 3127
संभालने 3127
इंसानों 3126
सूर 3125
ऑफिशियल 3124
नागर 3123
चलाई 3122
दूत 3120
खण्ड 3119
टें 3119
उर्दू 3118
तथ्यों 3118
्यो@@ 3118
सेना@@ 3117
23@@ 3116
अनुभवी 3114
ऐश्वर्या 3114
झग@@ 3114
पढ़ा@@ 3114
कबूल 3113
महि@@ 3110
सरत 3110
आधा 3109
कम्पनी 3109
बीएस@@ 3108
गोल@@ 3107
छे@@ 3107
पुस्तकों 3107
उत्कृष्टता 3106
हेल्@@ 3106
80@@ 3104
हरित 3104
गुस्सा 3103
जाग@@ 3103
पुनर्वास 3103
फर्म 3103
ध्या@@ 3101
संयोजन 3100
अधिकारिता 3099
शूट 3095
गोया 3094
बंधन 3094
यूजर 3094
विज्ञप्ति 3094
किले 3092
नत 3092
क्र 3091
ारियां 3090
टेलीफोन 3088
माँग 3088
अन्दर 3086
नक 3086
रोगों 3086
ईद 3085
ऑपरे@@ 3085
चन्द 3084
त्रों 3084
संख्या@@ 3083
आरोपित 3082
सिखाया 3082
उठाते 3081
मैनेजमेंट 3081
सीएसआईआर 3081
अल्पसंख्यकों 3079
गुला@@ 3079
कमीशन 3078
तस्करी 3078
नकर 3078
{ 3077
अन्त 3077
गर@@ 3077
वुड 3077
गुजर 3076
रात्रि 3076
शौचालय 3076
स्पॉट 3076
प्रतिकूल 3075
पट्@@ 3073
सतीश 3073
आमदनी 3072
लेशन 3072
ष्टता 3072
प्रासंगिक 3070
स्वीकार्य 3070
आगमन 3067
कमर 3067
निर्दलीय 3067
सूचीबद्ध 3067
नेकी 3065
टते 3064
शिक्षित 3064
ऑक्@@ 3063
निभाया 3063
उतर 3062
एमटी 3062
एसटी@@ 3062
मजिस्ट्रेट 3062
पढ़िए 3061
साउ@@ 3061
आद@@ 3060
जताते 3060
धैर्य 3060
पाउडर 3060
रुप@@ 3059
हिमा@@ 3059
जावेद 3058
पुकार@@ 3058
चहल 3056
चलेगा 3054
क्त 3053
मंदी 3053
सुर्खियों 3053
आईएफ@@ 3052
बुधवार 3052
रनौत 3052
आवा@@ 3049
जड़ 3048
जानती 3046
मेडल 3046
फ्लो@@ 3045
१० 3045
जसप्रीत 3044
किसने 3043
तोड़ने 3043
थरूर 3043
सरा@@ 3041
the 3040
रर 3040
वेरिएंट 3040
कहकर 3039
जश्न 3039
पायी 3039
सबक 3039
प्रकोप 3038
सुलझाने 3037
बू 3036
गन्@@ 3035
सम्पर्क 3034
निकल@@ 3033
रहमत 3033
Z@@ 3031
भागवत 3030
व्यावहारिक 3030
गिरा 3029
फ़र@@ 3029
मोटर्स 3028
अत्याचार 3027
आवासीय 3027
दाय 3026
विद्यालयों 3026
शशि 3026
छत 3024
दिलीप 3024
भौगोलिक 3024
रूपों 3024
जायजा 3023
देवता 3023
प्रतिष्ठा 3023
चल@@ 3022
जाह्नवी 3022
महे@@ 3020
जॉर्ज 3019
जैन 3018
प्रती@@ 3018
700 3016
सामर्थ्य 3016
सिया@@ 3016
एनआई@@ 3015
दिल@@ 3015
लूट 3014
तन@@ 3013
नाबाद 3013
बसों 3013
फ़े@@ 3012
समर्थित 3012
सेज 3012
ज्योति 3011
ंबा 3010
कना@@ 3010
क़दम 3008
नज@@ 3008
50,000 3007
to 3007
जूझ 3007
सृजित 3007
$ 3006
आईडी@@ 3005
दीर्घकालिक 3005
नेस 3005
षी 3005
कपड़ा 3004
चलना 3004
सतर्कता 3004
सुधारने 3004
ग्री@@ 3003
ध्@@ 3000
लक्षित 2999
वेट 2998
करवाई 2997
आंसू 2996
क़रीब 2996
द्य@@ 2994
टिकल 2993
दिलाई 2993
एमडी 2992
चैम्पियनशिप 2992
उन्नयन 2991
सीई@@ 2991
जनक 2989
विश्वसनीय 2989
सहे@@ 2989
मरा@@ 2988
आज़@@ 2987
उठ 2986
चिंताओं 2986
टना 2986
पसन्द 2986
बताना 2986
सृ@@ 2986
देओल 2984
राष्ट्रों 2984
झुठ@@ 2983
डीआरडीओ 2983
बंध 2983
अपरि@@ 2982
इरा@@ 2982
पतियों 2982
मूर्@@ 2982
1,000 2981
फ़ी@@ 2981
मूलभूत 2981
सिया 2981
ग्रिड 2980
परेड 2980
पुरम 2980
प्रजा@@ 2978
संक्षिप्त 2978
हल@@ 2978
तस्@@ 2977
प्रोडक्शन 2977
बुल@@ 2976
बुकिंग 2974
मुख्यमंत्रियों 2974
130 2973
पाइ@@ 2973
आशीर्वाद 2971
क्ली@@ 2971
जिहाद 2971
धीमी 2971
ऑफर 2970
एंटी 2969
बैठा 2969
दुरुपयोग 2968
निकोबार 2968
सख्ती 2968
जमीनी 2966
डिस्@@ 2965
बढ़ाई 2965
आत्मविश्वास 2964
मिश्रित 2964
संतुलित 2964
छुटकारा 2963
पोस्टमॉर्टम 2963
कॉरपोरेशन 2962
सर्च 2962
आदत 2961
खासतौर 2961
पश्चात् 2961
भ्रष्ट 2961
क़ा 2960
चुन 2960
ल्ली 2960
इस्लामाबाद 2958
अपेक्षित 2957
बटन 2957
रौशन 2957
वरि@@ 2956
वाड्रा 2956
पढ़@@ 2954
रूपरेखा 2954
हस्तांतरण 2954
P 2953
कोट 2951
प्रस्तावों 2950
छाया 2949
वक्तव्य 2949
कर्नल 2948
भागीदार 2948
दरमियान 2946
बदौलत 2946
एकत्रित 2945
संगत 2945
जन्म@@ 2944
पैग़म्बरों 2943
पीडीपी 2942
आईओ@@ 2940
एसआईटी 2940
धू@@ 2939
छी@@ 2938
एटी@@ 2937
नामा 2937
पुर्@@ 2937
यूँ 2937
वोटिंग 2937
कोशिकाओं 2936
व्यापी 2936
स्थाई 2936
अनुभवों 2933
करणों 2933
सब्@@ 2933
ंका 2932
प्रीत 2932
N 2931
अकेला 2931
उजागर 2931
लरी 2931
हैंड@@ 2930
ब्रो@@ 2929
किताबें 2928
केयर 2928
बलि 2928
सुजुकी 2927
एसिड 2926
ओम 2926
गां@@ 2926
ज़िन्दा 2926
तात्@@ 2926
सुख@@ 2926
हल्के 2926
औरत 2925
परिश्रम 2925
पर्दे 2925
विद 2924
II 2922
फुट 2922
t@@ 2920
अभिषिक्त 2920
आपात 2920
शोधकर्ताओं 2920
्यों 2920
आयुर्वेद 2919
प्राधि@@ 2918
नस्@@ 2915
क्का 2914
ख़्@@ 2914
मक 2914
लंबाई 2914
विडियो 2914
तकलीफ 2913
पूज्य 2913
काग@@ 2912
खुल 2911
काएं 2910
बज@@ 2910
बर्बाद 2910
मणि@@ 2910
यूट्यूब 2910
हस्तियों 2910
कर्स 2909
ग्राउंड 2909
हेलीकॉप्टर 2909
करोगे 2907
जोड़@@ 2907
हं@@ 2907
ड्यू@@ 2906
अरबी 2905
उत्पत्ति 2905
बीस 2905
वर्चुअल 2905
हर्ष 2904
पांचवें 2903
युवराज 2903
भंड@@ 2902
क्यू 2901
एनएच@@ 2900
खर@@ 2900
लाओ 2900
अद्यतन 2899
पॉलि@@ 2899
आकर्षण 2896
उन्हों 2896
दुष्ट 2896
एडमिरल 2895
गौड़ा 2892
टम 2892
जता@@ 2891
नवी@@ 2891
मुखिया 2891
इनपुट 2890
फिरऔन 2890
मुक़ाबले 2890
सफ़@@ 2890
हाज़िर 2889
जिसमे 2888
चिन्ह 2887
तेलुगु 2887
मुमकिन 2887
टिया 2886
माला 2886
परिचय 2885
शक्ति@@ 2885
मैनेजर 2883
हिल 2883
एसएमएस 2882
निश 2882
मंड@@ 2881
नर्स 2880
प्रबंध@@ 2880
फोर्@@ 2880
चुप 2878
पाय@@ 2878
बनेगा 2878
वसूली 2878
समर्थ 2878
साम्हने 2878
काली 2877
पीटर 2877
लेश 2877
दोहराया 2875
g@@ 2874
जीवा@@ 2874
नजदीकी 2874
राजेंद्र 2874
G 2873
नवजोत 2873
मतों 2873
सिन 2872
शिल्प 2870
सदियों 2870
अंकित 2869
एलईडी 2869
एसएस 2869
ट्रॉ@@ 2869
ताप 2869
प्रीमियम 2869
सुसमाचार 2869
उड्डयन 2868
पाठ@@ 2867
देशमुख 2866
रणदीप 2865
दुकानों 2864
ह्यू@@ 2864
वियों 2863
सितारे 2863
अपलोड 2862
खाई 2862
फुल 2861
मक@@ 2861
सुधार@@ 2861
क्रोध 2860
मार्टिन 2860
जिंदा 2858
सटीक 2858
ताज 2857
धिकार 2856
फल@@ 2855
79 2854
कमाल 2854
पढ़ते 2854
देसाई 2853
हज 2853
इंटरनल 2852
कमांड 2852
चीज़ें 2852
ूर 2852
अन्यथा 2851
बास्केट 2851
बेल 2851
कटि@@ 2850
परिभाषा 2850
मात 2850
गुल@@ 2849
चिं@@ 2849
पट्टी 2849
एमपी 2847
खेर 2847
गड़@@ 2847
ट्रेनें 2847
बदमाशों 2846
द्रविड़ 2845
९@@ 2845
आजम 2844
अड्डों 2843
उड़ानों 2843
ख्वाह 2843
मैग्@@ 2843
आया@@ 2842
ठे 2842
प्रयोगशालाओं 2842
2002 2840
लीक 2840
इंस्पेक्टर 2839
वधि 2839
पॉलिसी 2838
स्को@@ 2838
अभिनव 2837
आधे 2837
ंगर 2836
सुर@@ 2836
तीय 2835
दरी 2835
लानी 2835
वृत्@@ 2835
तिरु@@ 2834
पुतिन 2834
रोज़ 2834
झे@@ 2833
धर्मों 2833
परंपरागत 2833
सौदा 2832
आसियान 2831
तथापि 2831
पहचा@@ 2830
सुनता 2830
केएल 2829
हटाया 2828
पौधे 2827
गायब 2825
मिनी 2825
स्टोक्स 2824
रजिस्ट्रेशन 2823
सूद 2823
आक्रामक 2822
न्ना 2822
लगाम 2822
सीएस@@ 2822
रहे@@ 2821
सीबीएसई 2821
काना 2820
जुटाने 2820
बेंच 2820
चुनें 2819
नेशन 2819
प्रस्तु@@ 2819
वायु@@ 2819
घाटा 2818
जागरूक 2817
लौटे 2817
सरो@@ 2817
ट्री@@ 2816
सीआई 2815
चढ़@@ 2814
लस 2814
कोने 2813
वाइस 2811
स्वभाव 2809
शिक 2807
एपी 2806
लेख@@ 2806
विधा@@ 2806
श्त 2806
त्व@@ 2805
साकार 2804
कमिश्नर 2803
कृत्रिम 2803
n 2801
जुड़ 2800
टीएमसी 2800
प्रिया 2800
भाष@@ 2800
क्वार्टर 2798
साई 2798
पूछने 2797
बेटियों 2797
सूरज 2797
क्षा 2796
ज़िला 2796
संभाल 2795
ब्ले@@ 2792
नियाँ 2791
उपायुक्त 2790
थाईलैंड 2790
सर्विसेज 2790
पारि@@ 2789
वृक्ष 2789
सिवाय 2789
तलवार 2788
फ़ो@@ 2788
मिर्च 2788
रजनीकांत 2788
षा 2787
कामगारों 2786
जद 2786
मैक@@ 2786
इसरा@@ 2785
खाद्यान्न 2785
डु 2784
सौरव 2784
कोल 2783
क्ति@@ 2783
तिहाई 2783
खंडन 2782
गना 2782
सद 2782
वाहक 2781
कॉरिडोर 2780
झटके 2780
दरवाजे 2780
सक 2780
पारस्परिक 2779
कन्नड़ 2778
कृपा 2778
निर्णायक 2778
कुफ़्र 2777
भूख 2777
चलकर 2776
निष्पादन 2776
निर्भरता 2775
न्न 2775
पंकज 2775
मिलि@@ 2774
साहेब 2774
ब्यू@@ 2773
कार्यभार 2772
अद@@ 2771
कॉमेडी 2771
गर्भ@@ 2771
होंडा 2771
त्या@@ 2770
बाग़ 2770
लड़ेंगे 2770
संतान 2770
दुष्@@ 2769
चूक 2768
फेंक 2768
आजकल 2767
टीन 2767
बड़@@ 2767
जोस 2766
प्रकोष्ठ 2766
प्रेम@@ 2765
बुर्@@ 2765
भंसाली 2765
लड़कों 2765
नाई 2764
शत्रु 2764
d 2763
एंट्री 2763
तले 2762
दिखाए 2762
मुआवजा 2762
लौटा 2762
ारण 2762
पुरस्कारों 2759
बनाती 2759
सानिया 2759
ंट्स 2758
डिज़ाइन 2758
पशुओं 2758
मेयर 2757
अनुपम 2756
गिराया 2756
तरा 2756
भाँति 2756
रोटी 2756
निकाले 2755
निपटान 2755
संभाला 2755
क्ल@@ 2754
नतीजों 2754
गवाहों 2753
इंड@@ 2752
सेक्स 2752
पूल 2751
लम्बी 2751
सरी 2750
खोले 2749
पहने 2748
प्रचलित 2748
राष्ट्रवादी 2747
व्याख्यान 2746
वास्तविकता 2745
सास 2745
सोनी 2745
क्की 2743
पें@@ 2743
छा 2742
वर्ष@@ 2742
t 2741
ँगा 2741
बेकार 2741
ग़ौर 2740
हब 2740
भ्र@@ 2739
प्रका@@ 2738
रासायनिक 2737
वार्ड 2737
अभिन्न 2736
करी@@ 2736
कोरोनावायरस 2736
ढूं@@ 2736
थियों 2735
मजाक 2735
जुड़@@ 2734
ट्स@@ 2734
बाला@@ 2734
संरक्षक 2734
शेखर 2733
स्वर्गीय 2732
हज़ार 2732
अनक़रीब 2731
पूर्ण@@ 2731
घटनाक्रम 2730
चेतना 2730
एसडी@@ 2729
धीरज 2729
स्तानी 2729
ऋतिक 2727
चाइ@@ 2727
डेयरी 2727
मंग@@ 2727
एम्@@ 2726
निस 2726
मलाइका 2726
सकेगी 2726
साइकिल 2726
क़सम 2725
क्तियों 2725
फुट@@ 2725
बचें 2724
जरुरत 2723
तीस 2722
पत 2722
यूपीए 2722
दावों 2721
म्य 2721
षक 2721
e 2720
एनई@@ 2720
गयीं 2720
डील 2720
जहाजों 2719
फ़ा 2719
एशन 2718
फैलने 2717
वेब@@ 2716
करम 2714
लॉक 2714
अब्@@ 2713
पुलि@@ 2713
म्यू@@ 2713
रैना 2713
उतनी 2712
यश@@ 2712
K 2711
करतारपुर 2711
बर्दाश्त 2711
वाल्@@ 2711
पू 2710
मि 2710
सीएल 2710
नारा 2709
फ़ॉ@@ 2709
डेन 2708
मेजबान 2708
तुल@@ 2707
जर@@ 2706
कारी@@ 2705
जेसन 2705
गाँधी 2704
जोकि 2704
डिवाइस 2704
लिखाः 2704
साई@@ 2704
कोयले 2703
नमूने 2703
पलट 2703
प्रमाणित 2703
बर्फ 2701
ब्ला@@ 2701
क़ि@@ 2700
लां@@ 2700
सैनी 2700
ऊंचे 2699
दया@@ 2698
बख्@@ 2698
बख्शने 2698
अनुशासन 2696
तकनीकों 2696
फोटोज 2696
संपदा 2695
दर्जे 2694
मारकर 2694
वाड़ 2693
नॉर्थ 2692
महमूद 2692
संन्यास 2692
सैयद 2692
आचरण 2691
फलों 2690
फीट 2690
बुद्धिमान 2690
श्रीवास्तव 2690
स्पि@@ 2690
फाइबर 2689
स्वचालित 2689
शासक 2688
p 2686
तुझ 2686
बायोपिक 2683
बोल@@ 2683
सामरिक 2683
प्रिं@@ 2682
बनाएं 2682
क़रार 2681
पड़ोसियों 2681
आयरलैंड 2680
ख़ान 2680
सिंधिया 2680
नसी@@ 2678
फरहान 2678
ख्त 2677
एसएस@@ 2676
तेजस्वी 2676
आएं 2675
००० 2675
चाहा 2674
नीता 2674
चढ़ 2673
टिन 2673
यशायाह 2673
षों 2673
अक्@@ 2672
बिलिटी 2672
बैठ 2672
on 2671
उद्यान 2671
जिम 2671
बैग 2671
षा@@ 2671
आशा@@ 2670
थी@@ 2670
मलयालम 2670
कार्यान्वित 2669
सिंगल 2669
एग्@@ 2668
पहुँचे 2668
मेशन 2668
्यू 2665
पते 2664
रोन 2664
अभूतपूर्व 2663
कस्ट@@ 2663
बारगाह 2663
विराम 2663
ऑडियो 2662
चाहूंगा 2662
मेंट्स 2662
ौ 2662
इस्राएलियों 2661
वस्था 2660
यहूदा 2659
इधर 2658
पिक्@@ 2658
ष्टि 2658
गली 2657
चन्द्र@@ 2657
ब्लड 2657
नकवी 2656
पाती 2656
ऑर्डर 2655
पहुँच@@ 2655
पूर्वानुमान 2655
प्राइ@@ 2655
मक्@@ 2655
सिलसिला 2655
करू@@ 2654
डेवलपमेंट 2653
बीए 2653
सिम 2653
कांस्टेबल 2652
रेज 2652
बरा 2651
मांगों 2651
2,000 2650
उधार 2650
टेंट 2648
विद्वान 2648
खरीदा 2647
रवि@@ 2647
स्टल 2647
हरकत 2647
तरल 2646
2003 2645
सभ्यता 2645
हाई@@ 2645
निराशा 2644
प्लांट 2644
थाः 2642
नीतिवचन 2642
एस्@@ 2641
गृ@@ 2641
मछुआरों 2641
लड़का 2641
मरी@@ 2639
साद 2639
स्ड 2639
नोडल 2638
वर्णित 2638
दि 2637
नाजुक 2637
मेज 2637
खान@@ 2636
ज़ू@@ 2636
स्तंभ 2636
फर्ना@@ 2635
वोटों 2635
आम@@ 2634
आरएस 2634
ढुलाई 2634
राइट 2634
कित 2633
पैदल 2633
स्टोरी 2633
झू@@ 2631
होगे 2631
ढो@@ 2629
लाद 2629
सत्यापन 2629
कांफ्रेंस 2626
कुमारस्वामी 2626
बाला 2626
अपेक्षाकृत 2625
छू 2625
श्रद्धालुओं 2625
सिसोदिया 2625
एमसी@@ 2624
चैनलों 2624
जिया 2624
डार 2624
अय्यर 2623
ंके 2622
आस्था 2621
कवरेज 2621
तला 2621
चर्@@ 2620
श्य@@ 2620
नना 2619
याल 2619
लश्कर 2619
सब्जियों 2619
मणि 2618
संपादक 2618
अपशिष्ट 2617
टकराव 2617
मजदूरी 2617
लिपि 2617
विष्णु 2617
सेल्@@ 2617
कॉन 2616
सोचना 2616
चाहें 2615
काशी 2614
झूठा 2614
फ्लाइट 2614
ओवरों 2613
निवेशक 2613
सीआई@@ 2613
सेक्शन 2613
कू 2612
नही@@ 2612
भांति 2612
चिल्@@ 2611
तट@@ 2611
परिस्थिति 2611
बैन 2611
परिचित 2610
प्रजा 2610
र्य 2610
सचेत 2610
पक्षी 2609
पैरवी 2609
फेयर 2609
वर्त@@ 2609
अत्याधुनिक 2608
झगड़ा 2608
बर्फबारी 2608
लक्ष्मण 2608
निकासी 2607
फर्स्ट 2607
बेटों 2607
आभारी 2606
१५ 2606
ओपी 2605
महाराज 2605
तेज़ 2604
फ्री@@ 2604
हिमालय 2604
कहें 2603
धर्मी 2603
प्रदीप 2603
फास्ट 2603
सोसायटी 2603
ताना@@ 2602
लील 2602
फैन्स 2601
कैलाश 2600
न्यायपालिका 2600
in@@ 2599
तन्@@ 2598
सांप्रदायिक 2596
रहेंगी 2595
राउंड 2595
विधि@@ 2595
चेलों 2594
झूठी 2594
खोज@@ 2593
प्रश्नों 2592
राजकीय 2592
इस्ला@@ 2591
काल@@ 2590
मत्स्य 2590
दर्शक 2589
मंडली 2588
लौह 2588
मिश्र 2587
यं@@ 2586
काया 2585
चौके 2584
लिखते 2584
जं@@ 2583
आधुनिकीकरण 2582
योग@@ 2582
स्टाइल 2582
जुटा@@ 2581
डमी 2581
फ़ोल्डर 2581
विशेष@@ 2581
उद@@ 2580
क्ति 2580
फ्रा@@ 2580
विवे@@ 2580
स्ती 2580
होली 2580
प्रधान@@ 2578
रिटा@@ 2577
झ 2576
देशी 2576
निर्धारिती 2576
माय@@ 2576
समझे 2576
कपास 2575
144 2573
पूरक 2573
दरा 2572
एटीएम 2571
श्या@@ 2571
मिटा@@ 2570
गाया 2569
ताः 2569
ओसी 2567
अवलोकन 2566
रने 2566
चुनौतियां 2565
पक्का 2565
मानों 2565
म्यूजिक 2565
तापूर्ण 2564
सभ@@ 2564
च्च@@ 2563
सज्@@ 2562
गौरी 2561
मुख्यतः 2561
J@@ 2560
प्रवृत्ति 2559
CBI 2558
एजुकेशन 2558
गमन 2558
राशिद 2558
इन्हीं 2557
टिम 2557
लेनी 2557
छः 2556
प्राप्@@ 2556
बॉडी 2556
माँग@@ 2556
c@@ 2554
छठे 2554
क़त 2552
ताब 2552
इक्विटी 2551
मोड़ 2551
ष्टि@@ 2551
जिन@@ 2550
तरण 2550
मीरा 2550
इनाम 2549
आर्यन 2548
पूछ 2548
काई 2547
लूत 2547
आतंक 2546
घेर 2546
खुलती 2545
प्रण@@ 2545
दुल 2544
मेमोरी 2544
क्षों 2543
देह 2543
फिक 2543
मोर्चे 2543
परिकल्पना 2542
मूवी 2541
टीकाकरण 2540
डरो 2540
यड 2540
रवैया 2540
बीसी 2539
शरी@@ 2539
एसयूवी 2538
ढ़ा 2538
बनेंगे 2538
विवर@@ 2538
सबकी 2538
ट्राइ@@ 2537
अत्या@@ 2536
कॉम्@@ 2536
कागज 2535
खुराना 2535
V 2533
उज्@@ 2533
स्पर्@@ 2533
उन्मूलन 2532
पासवर्ड 2532
समझ@@ 2531
स्ट्री@@ 2530
२ः 2530
निदेशकों 2529
अजीब 2528
नगरों 2528
वरी 2528
तूने 2527
पथराव 2527
कमज़ोर 2526
सम 2526
१४ 2526
प्रेमी 2525
लयों 2525
3:@@ 2524
मंत्र 2524
सौभाग्य 2524
इल्म 2522
बैठकें 2522
योज@@ 2522
y@@ 2521
अधिवेशन 2521
मिर्जा 2521
रम@@ 2519
2.0 2518
मुकदमे 2518
ुक 2518
ख़ु@@ 2517
वाया 2517
स्ट्री 2517
क्षा@@ 2516
जॉनसन 2516
दिखायी 2516
कोच्चि 2515
नते 2515
उमेश 2514
कटरीना 2511
हटकर 2511
बाग@@ 2510
रॉबर्ट 2510
लड़ा 2510
लाभान्वित 2509
दबंग 2508
खू@@ 2507
घट@@ 2507
टैग 2507
किताबों 2506
बंगाली 2506
भयानक 2506
व्यवसा@@ 2506
नाना 2505
वीवी@@ 2505
सीओ@@ 2505
यंत्र 2504
सत 2504
गुनाहों 2503
,@@ 2502
कठिनाई 2502
दुकानें 2502
पंचायती 2502
पालने 2501
केमि@@ 2500
फ्लै@@ 2500
रखेगा 2500
SC 2499
चारी 2499
स्वयं@@ 2499
हमको 2499
कार्या@@ 2498
दर्शाया 2498
पोस्ट@@ 2498
विद्या@@ 2498
डर्स 2497
डॉट 2497
ढूँ@@ 2497
आशय 2496
जेडीएस 2495
पंचायतों 2495
फैक्@@ 2495
बनती 2495
रहकर 2495
स्टार्टअप 2495
जुड़ने 2494
राजू 2494
स्वीडन 2494
आईएल 2493
गाड़ियों 2493
चौक 2492
मला@@ 2492
डिस्प्ले 2491
दयावान 2491
ध्वज 2491
खी@@ 2490
च्@@ 2490
जात 2490
टता 2490
बराबरी 2490
स्क्रीनिंग 2490
३ः 2488
खरे 2487
देखरेख 2487
शेर 2487
ंदी 2484
अफसोस 2484
क्षे@@ 2484
नींव 2484
मशीनों 2484
ष्ठ@@ 2484
एकीकरण 2483
कलकत्ता 2483
जातीय 2483
मध्यस्थता 2483
अर्जी 2482
इंडस्ट्रीज 2479
बेच 2479
इड 2478
औरंगाबाद 2478
लैब 2478
सेके@@ 2478
छक्के 2477
देवताओं 2477
निमंत्रण 2477
अध्यादेश 2476
चंद्रबाबू 2476
सृष्टि 2475
पो 2474
बरा@@ 2473
वस्तुएं 2473
फेडरेशन 2472
मुद्@@ 2472
मुस्लिमों 2472
शिवाजी 2472
एकदिवसीय 2471
अफसर 2470
सहवाग 2469
और@@ 2468
सीमा@@ 2468
पांड्या 2467
चोर 2466
ब्रिगेड 2466
दफ्तर 2465
थै@@ 2464
बोर्@@ 2464
ंदन 2462
देहरादून 2462
आपातकालीन 2461
एलपीजी 2461
अग्र@@ 2459
पाये 2459
अप्र@@ 2458
आन 2458
एके 2458
नपुर 2458
प्रभावों 2458
लः 2458
शास्त्रीय 2458
एजेंट 2456
ग्स 2456
रुक 2456
इरादे 2455
ख्या@@ 2455
बिग@@ 2455
हरभजन 2455
दार@@ 2454
नशे 2454
बनते 2454
महागठबंधन 2454
स्ट्राइक 2453
हकदार 2453
अप्रत्यक्ष 2452
तरक्की 2452
प्रमुखों 2452
कर्म@@ 2451
थम 2451
रमन 2451
गुरुग्राम 2450
जुटे 2450
ड़िया 2450
दिखाएँ 2450
घातक 2449
बॉम्बे 2448
मुद्रास्फीति 2448
यन@@ 2447
वाह@@ 2446
विंडों 2446
सुनाया 2446
ेंगी 2446
ेक 2446
आयोज@@ 2445
एंड्रॉयड 2445
नस 2445
निग@@ 2445
समझौतों 2445
साझेदार 2445
धे@@ 2444
व्यर्थ 2443
बंदरगाहों 2442
मधुमेह 2442
सबकुछ 2442
O 2441
चुनने 2441
फिल्मकार 2441
मेर 2441
डम 2440
लची@@ 2440
सदा@@ 2440
सुलैमान 2440
चन्द्र 2439
विशेषज्ञता 2439
शहीदों 2439
अर्ध@@ 2438
खोजने 2438
चंद्रशेखर 2438
पहाड़ों 2438
रघु@@ 2437
ऑक्सीजन 2435
सूचनाओं 2434
डेरा 2431
निकाली 2431
मेगा 2431
तला@@ 2430
टैंक 2429
न्यायाधीशों 2428
पाएँगे 2428
प्रजातियों 2428
वकीलों 2428
चाल@@ 2427
तना 2427
ज़े 2425
पीओ 2425
स्टिंग 2425
ग्रि@@ 2424
रामपुर 2424
शाला 2424
बाज़ार 2423
रक्षक 2423
नव 2421
एक्टिंग 2420
क्रॉ@@ 2420
पीजी 2420
लहर 2420
सः 2420
मचा@@ 2419
वर्क 2418
हकीकत 2418
क्षि@@ 2417
मन्दिर 2417
अभिभावकों 2416
रते 2416
रोमा@@ 2416
अंतरण 2415
जीवन@@ 2415
निरस्त 2415
बदलना 2415
येगा 2415
अब्राहम 2414
प्रेरितों 2413
स्पर्धा 2413
चिट्ठी 2412
ठान 2412
पेमेंट 2412
जांच@@ 2411
लॉन्@@ 2409
बजाज 2408
कश्यप 2407
पटनायक 2407
राशन 2407
उदय 2406
कियां 2405
दीर्@@ 2405
हीं 2404
खादी 2403
स्वर 2403
पनाह 2402
फेस 2402
येदियुरप्पा 2402
करिश्मा 2401
ड्राइव 2401
ष्ठ 2400
सभा@@ 2400
अक्ष@@ 2399
अलीगढ़ 2399
कक 2398
जस@@ 2398
जीवों 2398
रोम 2398
टिकाऊ 2397
मेगा@@ 2397
रेंस 2397
चिह्न 2396
मानदंडों 2396
रोमांचक 2396
दुर्भाग्यपूर्ण 2395
लेह 2395
धर्मेंद्र 2394
प्रभाव@@ 2393
बरसा@@ 2393
माइक 2393
गोला@@ 2392
बहुतेरे 2391
बोध 2391
मेला 2391
खतरों 2390
प्रेषित 2390
अज@@ 2389
तापूर्वक 2389
व्रत 2389
सम्राट 2389
स्ट्रा@@ 2389
ठो@@ 2388
डियो@@ 2388
नरेश 2388
अवतार 2386
आरंभिक 2386
तंग 2386
दस्त@@ 2386
संलग्न 2386
डेमोक्रेटिक 2385
निःशुल्क 2385
मांगे 2385
ल्लाह 2385
सुर 2385
केंद्रशासित 2384
यूएस 2384
हां@@ 2384
इंग 2383
जवा@@ 2383
डिजा@@ 2383
हांगकांग 2383
□ 2383
अनुसूची 2382
आईएनएस 2382
खंड@@ 2382
हरेक 2382
हिन्दुस्तान 2382
द्धि@@ 2381
नगालैंड 2381
निष्ठा 2381
पक्षियों 2381
प्रत्या@@ 2381
H 2379
उलट 2379
कोवि@@ 2379
डेवि@@ 2379
त्मकता 2379
करो@@ 2378
लए 2378
गर्इ 2377
गाजियाबाद 2377
नाइक 2377
बदलकर 2377
पड़ेगी 2376
वीय 2376
अमेठी 2375
दह@@ 2375
इब्राहीम 2373
कती 2373
विंदर 2373
l 2372
धो 2372
पदाधिकारी 2372
ज़त 2369
दखल 2368
नां@@ 2368
वेल@@ 2368
कहानियों 2367
जोनस 2367
पापा 2367
फ़िल्@@ 2367
उपहार 2366
मत्@@ 2366
लाभकारी 2366
चेन 2365
मिन 2365
कम्युनि@@ 2364
पन्@@ 2364
किराया 2363
पोखरियाल 2363
सुगम 2362
मौलाना 2361
साँ@@ 2361
अहले 2360
सुरक्षा@@ 2360
सामान्यतः 2359
१२ 2359
पहि@@ 2358
ज़बरदस्त 2357
टॉर्क 2357
बेंग@@ 2357
अबतक 2356
आईबी 2356
ताल 2356
बाएं 2356
मू 2356
News 2355
ूंगा 2355
बदलते 2354
रथ 2354
रिश्तेदार 2354
तारा 2353
बनायी 2353
ंदी@@ 2352
प्रयोजन 2352
बैठने 2352
केश 2351
ट्रांसफर 2351
डीए@@ 2351
तना@@ 2351
प्रता@@ 2351
मोटे 2351
निदान 2350
औष@@ 2349
ग्रोवर 2349
ग्लो@@ 2349
सर्जरी 2349
उच्च@@ 2348
पिक 2348
पीएल 2348
मसूद 2348
महासभा 2348
डीजीपी 2347
पाठक 2347
दाख़िल 2346
निर्वा@@ 2346
जहा@@ 2345
ठंड 2345
तूर 2345
व्हाट्सएप 2345
कराता 2344
खुलकर 2344
बिर@@ 2344
उद्धार 2343
बेटियां 2343
सस्ती 2343
» 2342
मिन@@ 2342
्री 2342
अहमियत 2341
काला@@ 2340
जदयू 2340
झे 2340
बैनर 2340
वारी 2340
सैमसंग 2340
तबाही 2339
बीएसपी 2339
सजदा 2338
ंडे 2337
टीका 2337
न्द्र@@ 2337
आज्ञा@@ 2336
दोगुनी 2336
युगल 2336
राहे 2336
शु 2336
प्री 2335
हुकूमत 2335
यॉ@@ 2334
सभापति 2334
हंस@@ 2334
राष्ट्रमंडल 2333
२०@@ 2333
गुं@@ 2332
ल्डिंग 2332
एमएसपी 2331
भविष्य@@ 2331
प्रायोजित 2329
मानहानि 2329
उर्फ 2328
दिखाना 2328
वेन 2328
सील 2328
मानती 2327
रायपुर 2327
लान 2327
वेद 2327
अजहर 2326
अब@@ 2326
एफडीआई 2326
त्यौहार 2326
रेल@@ 2326
अन्याय 2325
एजेंडा 2325
मशीनरी 2325
होश 2325
विकल्पों 2324
अकाली 2323
क्रॉस 2323
प्रशंसक 2322
मिल्@@ 2322
रना 2321
सता@@ 2321
यंस 2320
वसा 2320
ारत 2319
आईजी 2318
हमे 2318
* 2317
गह@@ 2317
शिकायतें 2317
जवाहर 2316
मुझ@@ 2316
समे@@ 2316
कुशलता 2315
फैमिली 2315
13.@@ 2314
हिकमत 2314
ग़ु@@ 2313
चलाए 2312
पर्व@@ 2312
पिटाई 2312
मल्@@ 2311
थोक 2310
नैशनल 2310
बढा@@ 2310
लाश 2310
ज्म 2309
प्रवि@@ 2309
मृ@@ 2309
एमएस@@ 2308
दिखे 2308
अमीरात 2307
दयालुता 2307
फ्रांसीसी 2307
हौ@@ 2307
चित्रण 2305
अवि@@ 2304
फ़ी 2304
वार्नर 2304
सुरजेवाला 2304
U 2303
यमुना 2303
रिजिजू 2303
लेखों 2303
बस्तियों 2302
अय्यूब 2300
गरी 2300
तबाह 2300
शुक्र 2300
उच्चतर 2299
नील 2299
पुन@@ 2299
फिंच 2299
हत 2299
दमदार 2298
बीन 2298
रैंक 2298
ेय 2296
उतरे 2295
झगड़े 2295
रूख 2295
ढि@@ 2294
पंथ 2294
ट्वि@@ 2292
मांगने 2291
विं@@ 2291
पीसीबी 2290
फ़ाइ@@ 2290
क्ले@@ 2289
त्त 2288
अश्विनी 2287
ढांचागत 2287
ट्यूब 2286
डियम 2286
लेटर 2286
कम्प्यूटर 2285
भाषा@@ 2285
अपार 2284
कारोबारियों 2283
घृणा 2283
घे@@ 2283
नामी 2283
निर्दोष 2283
पुस्तकालय 2283
रोज@@ 2283
विमोचन 2282
सिलेंडर 2282
कें 2281
लीकरण 2281
उपक्रमों 2280
जानबूझकर 2280
पार्किंग 2280
ट्रैक्टर 2279
दरें 2279
मेंस 2279
उपयोगकर्ताओं 2278
२० 2278
इशारा 2277
डराने 2277
निया@@ 2277
पांडेय 2277
विद्वानों 2277
टोल 2276
थॉमस 2276
जर्नल 2275
जवाबी 2275
रिपोर्टों 2275
आरटी 2274
सम्पन्न 2274
उन्नाव 2273
फरी@@ 2273
ब्रै@@ 2273
अंतराल 2272
यु 2272
लख@@ 2272
संयंत्रों 2272
दरबार 2271
बुनियाद 2271
रिक्त 2271
MP 2270
बागी 2270
मोमिनीन 2270
हाट 2270
अन्य@@ 2269
कॉर्पोरेशन 2269
गुरुवार 2269
जना@@ 2269
बेहिश्त 2269
उठाकर 2268
प्या@@ 2268
याजक 2268
हिज@@ 2268
खाओ 2267
पद्म 2267
बेरोजगारी 2267
ब्यौरा 2267
१ः 2267
गरम 2266
गुस्से 2266
ड्रे@@ 2266
पर्सनल 2265
लियो@@ 2265
वर्गीकरण 2265
स्वतः 2265
ंडि@@ 2264
इंटी@@ 2264
इवेंट 2264
फ्रैं@@ 2264
सितारों 2264
घटा@@ 2263
ताप@@ 2263
प्रबल 2263
राना 2263
y 2262
मौतों 2262
शन्स 2262
युक्ति 2261
ऑफ@@ 2260
कार्गो 2260
किसे 2260
मादा 2260
माधुरी 2260
वसू@@ 2260
पालिका 2259
350 2257
वांछित 2257
सीबी 2257
आरजेडी 2256
पिछ@@ 2256
पूछते 2255
प्रिंस 2255
वहन 2255
सड़कें 2255
हॉट 2255
.0@@ 2254
खुशखबरी 2253
गोले 2253
जत 2252
ड्रोन 2252
दुर्लभ 2252
पुकार 2252
c 2251
अनुकू@@ 2251
दाद 2251
इम@@ 2250
मातृ@@ 2250
1:@@ 2249
जीव@@ 2249
परेशानियों 2249
पुनर्विचार 2248
पैट 2248
बार्@@ 2248
बॉर्डर 2248
लेंगी 2248
आयु@@ 2247
प्रयोजनों 2247
हेड@@ 2247
चैलेंजर्स 2246
रज@@ 2246
साह@@ 2246
बक्@@ 2245
उपरोक्त 2244
पीड़ा 2244
सुहाना 2244
1.5 2243
कास्ट 2242
गंतव्य 2242
काफिरों 2241
डेबिट 2241
लेखकों 2241
विधान@@ 2241
जैक 2240
नहरें 2240
इज्@@ 2239
कुलपति 2239
सोचता 2239
आचार्य 2238
उठे 2238
रिलीज़ 2238
लॉस 2238
काउं@@ 2237
नेंगे 2237
बयानों 2237
अमृता 2236
चुनौतीपूर्ण 2236
तकरीबन 2236
पुनर्गठन 2236
प्रया@@ 2236
प्रोड्यूस 2235
सुल्तान 2235
g 2234
कैपिटल 2234
छोर 2234
नानक 2234
र्जी 2234
हार्ट 2234
x@@ 2233
घोटाला 2233
संघों 2233
व्ही@@ 2232
संयम 2232
बजाए 2231
इंड 2230
टेलर 2230
प्रतियोगिताओं 2230
रहाणे 2230
दानी 2229
पेटेंट 2228
बली 2228
बढ़ना 2227
वेदी 2227
संघ@@ 2226
४ः 2226
आंक@@ 2225
आज@@ 2225
इनको 2225
गृह@@ 2224
ठों 2224
11,@@ 2223
असमर्थ 2223
दमन 2223
नागालैंड 2223
प्रवासियों 2221
एंडरसन 2220
तिर@@ 2220
दाय@@ 2220
राजनेता 2220
फैक्ट्री 2219
क़ायम 2218
दै@@ 2218
तस@@ 2217
लम्बे 2217
शीद 2216
स्टेप 2216
हैंडल 2216
दस्तावेज़ 2215
आश्रम 2214
वेशन 2214
समि@@ 2214
सहन 2214
डॉक्@@ 2213
ड़ें 2212
थीम 2212
रक्@@ 2212
आचार 2211
दामों 2211
लोकप्रियता 2211
अधी@@ 2210
ख़त्म 2210
हल्का 2210
कोल@@ 2209
टीके 2209
ण्य 2209
बियों 2209
माई 2209
उत्सुक 2208
जनसभा 2208
द्रव 2208
टाल 2207
दाई 2207
ंदे 2206
अटैक 2206
इंद@@ 2206
उठता 2206
मिस 2206
विषा@@ 2206
ंगल 2205
ंसि@@ 2205
गुणा 2205
रायगढ़ 2205
हित@@ 2204
प्रजनन 2203
भ्रम 2203
साक्षरता 2203
अनुमोदित 2202
एनर्जी 2202
झी 2202
तमा@@ 2202
कोल्@@ 2201
घुसपैठ 2201
बहिष्कार 2201
विद्रोह 2201
105 2199
आज़ाद 2199
जवाबदेही 2199
धरना 2199
प्रतिद्वंद्वी 2199
सत्या@@ 2199
एटी 2198
प्रणा@@ 2198
हरदीप 2198
ूत 2198
ंकि 2197
ऊंचा 2197
दिखता 2197
पाबंदी 2197
भों 2197
मसौदा 2197
इंश्योरेंस 2196
खत 2196
चक्रवात 2196
लाभों 2196
विशेषताओं 2196
शॉट 2196
उतार@@ 2195
कांग्रेसी 2195
दाताओं 2195
खड़ 2194
निकाह 2194
कते 2193
काफ़िरों 2193
केदारनाथ 2193
शुमार 2193
सिक्@@ 2193
याई 2192
ल्टी 2192
5:@@ 2191
धूप 2191
गरिमा 2190
दस@@ 2190
अपू@@ 2189
एनआर@@ 2189
द्वी@@ 2188
लें@@ 2188
मोन 2187
अक@@ 2186
पिछला 2186
ल्यूशन 2186
सिम@@ 2186
ख़ुशी 2185
जंगली 2185
झलक 2185
प्रकाशितवाक्य 2185
बाज़ी 2185
स्नैपड्रैगन 2185
एहसान 2184
कैरियर 2184
नौकरियों 2184
शियल 2184
1999 2183
क्ट्स 2183
प्रक्षेपण 2183
अपी@@ 2182
पटरी 2182
इजाज़त 2181
नमेंट 2181
न्यूज़ 2181
वीरेंद्र 2181
तेज़ी 2180
विद्यमान 2179
११ 2179
प्रोड@@ 2178
आइ 2177
सीडी 2177
रेलगा@@ 2176
उठाये 2175
मेघ@@ 2175
रंगारंग 2175
सेंगर 2175
डान 2174
बटलर 2174
धमाके 2173
कचरा 2172
रंगों 2172
चक्रवाती 2171
पाद@@ 2171
मेडि@@ 2171
यथा 2171
ا@@ 2169
कैम@@ 2169
पीपुल्स 2168
महारा@@ 2168
रिमांड 2168
पर्स 2167
सार्थक 2167
क़ानून 2166
टेन 2166
फैन 2165
लेवल 2165
करु@@ 2164
ब्रू@@ 2164
माइक्रो 2164
रक्षामंत्री 2163
आईएम 2162
पैरों 2162
विवेकानंद 2162
सुझा@@ 2162
आरपी 2161
आला 2161
ख़ुश@@ 2161
गवर्@@ 2161
जीएस@@ 2161
सिब्बल 2161
1/@@ 2160
क़त्ल 2160
शिल्पा 2160
क्वे@@ 2159
जिक 2159
जिसपर 2159
संपत्तियों 2159
पैं@@ 2157
फेड 2157
अध्या@@ 2156
कच्चा 2155
टमेंट 2155
मॉड@@ 2154
स्टूडियो 2154
ज़माने 2153
दाल 2153
प्राइमरी 2152
सीखना 2152
काश 2151
किला 2151
टाने 2151
वारिस 2151
हममें 2151
मपुर 2150
शेन 2150
सूखे 2150
सपनों 2149
कलेक्टर 2148
तीमुथियुस 2148
एएस 2146
नाराजगी 2146
पुस्तकें 2146
महाद्वीप 2146
प्रथा 2145
वृत्त 2145
नमा@@ 2144
प्रतिबंधों 2144
रोड@@ 2143
्स 2143
बुखार 2142
बैंगलोर 2142
साधनों 2142
अंत@@ 2141
गोल्@@ 2141
धर@@ 2141
बसे 2141
समझाने 2141
कोशिका 2140
प्रदर्शनों 2139
अह@@ 2137
एह@@ 2137
चक्रवर्ती 2137
निरीक्षक 2137
पिछड़े 2137
ब्लॉ@@ 2136
महाजन 2136
लाइनों 2136
शीला 2136
सातवें 2136
कारकों 2135
ठंडा 2135
आरटीआई 2134
ट्टी 2134
तने 2134
बागवानी 2134
महत्वाकांक्षी 2134
लूका 2134
जामिया 2133
r@@ 2132
इमारतों 2132
तारी@@ 2132
ब्लू@@ 2132
रॉन 2132
वादों 2132
वेल्स 2132
हस्त@@ 2131
कन@@ 2130
त्य@@ 2130
बिल्डिंग 2130
ड्रामा 2129
निम्@@ 2129
न् 2129
मोहित 2129
व्य 2129
घटित 2128
कैथोलिक 2127
दर्जन 2127
रहीम 2127
हासन 2127
ओबीसी 2126
तलब 2126
दोगुना 2126
यूएस@@ 2125
परे@@ 2124
उपबंध 2123
दशमलव 2123
नियमन 2123
बाबुल 2123
सू 2123
दृढ़ता 2122
प्रार्थ@@ 2122
अमेरिकन 2121
पार्टियां 2121
मैनुअल 2121
क्षमाशील 2120
दरवाजा 2120
परो@@ 2120
पुरस्कृत 2120
ड्रग्स 2119
नेट@@ 2119
विनिर्दिष्ट 2119
शिंदे 2119
हमलावरों 2119
अफगान 2118
कुल्@@ 2118
बनेगी 2117
मुरा@@ 2117
शॉर्ट 2117
आग@@ 2116
कम्युनिस्ट 2116
कैदियों 2116
धरने 2116
प्लेट 2116
मधु 2116
मानें 2116
तड़@@ 2115
नीज 2115
राघ@@ 2115
सराय 2115
अप्@@ 2114
निफ्टी 2114
नोबेल 2114
क़ुरआन 2113
चढ़ाव 2113
मौतें 2113
ध्य@@ 2112
प्रयोग@@ 2112
एयरलाइंस 2111
जला 2111
दिखने 2111
बन्दे 2111
आंख 2110
तेज@@ 2110
दत्ता 2110
होम@@ 2110
तादाद 2109
सेटअप 2109
अभियानों 2108
दस्ती 2108
साइन 2108
मूल@@ 2107
र्ट@@ 2107
वाक्य 2107
टाउन 2106
द्वीपों 2106
पड़ते 2106
किशन 2105
मछ@@ 2105
आरा@@ 2104
कूद 2104
जनी 2104
बरतने 2104
मिली@@ 2103
अपकमिंग 2102
गुजराती 2102
प्रतिबि@@ 2102
सिंगर 2101
ँगी 2100
निक्स 2100
मिया@@ 2100
सिक 2100
छोड़ी 2099
बनें 2099
आदेशों 2098
पहुँचने 2098
पैसों 2098
फैले 2098
म्भ 2098
यकों 2098
दुबे 2097
निकी 2097
बाह्य 2097
सीमेंट 2097
अभिनंदन 2096
कॉर्पोरेट 2096
डेड 2096
निशंक 2096
लियत 2096
डबल 2095
रहम 2095
वर्षगांठ 2095
असिस्टेंट 2094
उम@@ 2094
तोड़ा 2094
गाः 2093
राजनीति@@ 2093
10,@@ 2092
आज़ादी 2092
प्रीति 2092
मेरठ 2092
यौ@@ 2092
आईपीएस 2091
एसएसपी 2091
रियन 2091
प्रक्रिया@@ 2090
जमात 2089
जोड़ें 2089
शिलान्यास 2089
डीएनए 2088
सुझावों 2088
अस्वीकार 2087
डेंट 2087
मकानों 2087
यूएई 2087
लेक्शन 2087
सियासी 2087
आधी 2086
तरी@@ 2086
फ्रेंच 2085
17.@@ 2084
कुफ्र 2084
विनियमन 2084
वैसी 2084
चाहि@@ 2083
हॉ 2083
नीरज 2082
बदली 2082
रहनेवाले 2082
स्वे@@ 2082
आशुतोष 2081
थन 2081
बन्दगी 2081
बाक़ी 2081
f 2080
उड़ा@@ 2080
ट्रांसमिशन 2080
प्लेट@@ 2080
सिल 2080
2:@@ 2079
चुप्पी 2079
जर्स 2079
बुलाई 2079
अप्रिय 2078
ऐंड 2078
कथा@@ 2078
जाइ@@ 2078
साढ़े 2078
अदालतों 2077
प्रतिभा@@ 2077
समेकित 2077
णात्मक 2076
णे 2076
दिन@@ 2076
आगाह 2075
बेदी 2074
वर्क@@ 2074
साइज 2074
५ः 2074
ज्ञ@@ 2073
डीएसपी 2073
लगाये 2073
वेल्@@ 2072
बढ़ोत्तरी 2071
कृष्ण@@ 2070
उपराज्यपाल 2069
सीख@@ 2069
०@@ 2069
स्पी@@ 2068
अयस्क 2067
एण्ड 2067
दिशानिर्देशों 2067
दबो@@ 2066
एजेंसियां 2065
h@@ 2064
एसडीएम 2064
चक्कर 2064
छुड़ा@@ 2064
डॉन 2064
दोष@@ 2064
प्रगतिशील 2064
स्टा 2064
कॉन्फ्रेंसिंग 2063
रोकना 2063
संयोजक 2063
4:@@ 2062
ढ़े 2062
प्रतिष्ठान 2062
रखिए 2062
पूर्@@ 2061
दोहरा 2060
पुत्री 2060
शां@@ 2060
एबी 2059
पदा@@ 2059
अल्प@@ 2058
एप्पल 2058
दृष्टि@@ 2058
पहिया 2058
चंद्रयान 2057
मुल्क 2057
विवाहित 2057
अवकाश 2056
गड़बड़ी 2056
घी 2056
टीबी 2056
पॉवर 2056
दर्शी 2055
अकादमिक 2054
कंटे@@ 2054
काए 2054
याचिकाकर्ता 2054
मादक 2053
वर्जन 2053
शाखाओं 2053
शू 2053
१८@@ 2053
प्रतिभाशाली 2052
ब्या@@ 2052
थों 2050
पिन 2050
‎@@ 2050
खासी 2049
बढ़ाते 2049
उन्हे 2048
गोला 2048
टिल 2048
पीएनबी 2048
फ़ोन 2048
सांसारिक 2048
पृथक 2047
तानों 2046
तैमूर 2046
पुनरुत्थान 2046
लिप्त 2046
ारिश 2046
ड्रा@@ 2045
टीए 2044
विस्फोटक 2044
सूर्य@@ 2044
आठ@@ 2043
कथन 2043
गुफा 2043
टिका 2043
रूचि 2043
मल्टी@@ 2042
मुजफ्फरपुर 2042
अनंतपुर 2041
शाली 2041
अखंडता 2040
गिनी 2040
दाबाद 2040
विस्तारित 2040
सस्ता 2040
14.@@ 2039
जिला@@ 2039
धिकारी 2038
नीतियां 2038
पढ़ी 2038
शोएब 2038
सिलि@@ 2038
नाट@@ 2037
मशी@@ 2037
पदाधिकारियों 2036
समझाया 2036
एमओ@@ 2035
तहरीर 2035
मः 2035
सुप्रीमो 2035
nic 2034
एसोसि@@ 2034
खै@@ 2034
वीडियो@@ 2034
सप्लाई 2034
सिद्दीकी 2034
कचरे 2033
कोरियाई 2033
छिपा 2033
ठहरा 2033
देहा@@ 2033
b 2032
36@@ 2031
एसडी 2031
प्रद 2031
योजना@@ 2031
संग्राम 2031
खरीफ 2030
राजाओं 2030
रिश्तेदारों 2030
डिजि@@ 2029
तुम्हे 2029
बटो@@ 2029
मिता 2029
औरतें 2028
गियरबॉक्स 2028
परंपराओं 2028
व्यं@@ 2027
Name 2026
v@@ 2026
अंबेडकर 2026
उपाध्याय 2026
एंजे@@ 2026
गियों 2026
गुट 2026
टावर 2026
धरोहर 2026
परत 2026
सिडनी 2026
ईए 2025
कुंबले 2025
चालकों 2025
ज़ालिमों 2025
बाधाओं 2025
रोमांटिक 2025
श्याम 2024
क़ी@@ 2023
रॉयल्स 2023
आँखों 2022
दिशानिर्देश 2022
प्रयत्न 2022
बचना 2022
मुन्@@ 2022
तंज 2021
उत्तरदायी 2020
कब्@@ 2020
नेताजी 2020
पोषित 2020
वाहि@@ 2020
शियन 2020
इल्@@ 2019
एयरलाइन 2019
तत्वदर्शी 2019
बीसीएम 2019
शुभकाम@@ 2019
अक्षर 2018
दीक्षांत 2018
हनुमान 2018
110 2017
चयन@@ 2017
अंग्रेज़ीः 2016
उद्यमी 2016
असंभव 2015
दली@@ 2015
पहनने 2015
बनीं 2015
स्वैच्छिक 2015
निः@@ 2014
मानसिकता 2014
जक 2013
क़ुबूल 2012
न्यायालयों 2012
भव 2012
रिट 2012
हर्ष@@ 2012
बर्थडे 2011
ज़िम्मेदार 2010
रवी@@ 2010
फैली 2009
मिर्@@ 2009
वित्तपोषण 2008
संगम 2008
क्रिसमस 2007
गेम्स 2007
गोलियां 2007
छोड़े 2007
जेडीयू 2007
ल्ल@@ 2007
छ 2006
पिच 2006
फंस 2006
शर्मनाक 2006
स्वदेश 2005
करन 2004
क्राइम 2004
छीन 2004
तरा@@ 2004
प्राणी 2004
सियत 2004
उन्नति 2003
क्सिंग 2003
परम्परा@@ 2003
राजग 2003
अन्वेषण 2002
ऑक्साइड 2002
निष्क्रिय 2002
सम्पत्ति 2002
हारून 2002
देगें 2001
निर्भया 2001
बैच 2001
किल 2000
केंद्र@@ 2000
परी@@ 2000
सानी 2000
उस@@ 1999
जीवी 1999
मैप 1999
मॉड्यूल 1999
विशेषाधिकार 1999
हटाए 1999
अधू@@ 1998
ईल 1997
एपी@@ 1997
घटाने 1996
प्रशिक्ष@@ 1996
मर्द 1996
आसिफ 1995
निस्@@ 1995
सनराइजर्स 1995
सरा 1995
ऐक्@@ 1994
डिवीजन 1994
पुस्तिका 1994
घटी 1993
सिल्वर 1993
1961 1992
इंतज़ार 1992
ज़ल 1992
नवोन्मे@@ 1992
संजू 1992
गामी 1991
जता 1991
निपट@@ 1991
राजी 1991
समीप 1991
निरोधक 1990
मुरली 1990
गोद 1989
वर्गीकृत 1989
ंडो 1988
पुख्ता 1988
वल्ल@@ 1988
हीर 1988
ुओं 1988
बारह 1987
15.@@ 1986
आदमियों 1986
ऑप्शन 1986
सैम 1986
हाथी 1986
पोषक 1985
वैन 1985
साय@@ 1985
सेबी 1985
कायदा 1984
नशील 1984
बिगाड़ 1984
षित 1984
आर्ट 1983
उतरने 1983
चर्स 1983
बीआई 1983
भेड़ 1983
केदार 1982
घंटा 1982
यूरो@@ 1982
रेफर 1982
मेहमान 1981
असामान्य 1980
डालर 1980
नमूना 1980
काफ़िर 1979
गुरू 1979
थु@@ 1979
नारियल 1979
आमने 1978
तिया 1978
पहु@@ 1978
ईएम 1977
काजोल 1977
ग़लत 1977
परिपक्@@ 1977
रितेश 1977
छात्र@@ 1976
फ़रिश्ते 1976
एचडी 1975
जनगणना 1975
लाठीचार्ज 1975
स्वार्थ 1975
एस्टेट 1974
पायदान 1974
सिंह@@ 1974
ख़ 1973
ठु@@ 1973
चिन्हित 1972
सुलभ 1972
अक्षम 1970
जीत@@ 1970
पटियाला 1970
20,000 1969
काउंटी 1969
खानों 1969
र्ा@@ 1969
व्यवस्था@@ 1969
एलए 1968
चित्रों 1968
वैल्यू 1968
स्थापन 1968
आभूषण 1967
बताओ 1967
सिद्@@ 1967
चित्रित 1966
दलितों 1966
नैदानिक 1966
अने@@ 1965
पारिस्थितिकी 1965
वेबिनार 1965
ख़बरी 1964
लीट 1964
क्ता 1963
जें 1963
णता 1963
न्यास 1963
निचली 1962
फिकेशन 1962
बाद@@ 1962
ईश्वरीय 1961
कदापि 1961
गर्ग 1960
ंख@@ 1959
चिप@@ 1959
डऩे 1959
फूट 1959
बदमाश 1959
3,000 1958
सेले@@ 1958
16.@@ 1957
पूंजीगत 1957
उपर्युक्त 1956
कैलेंडर 1956
दाएं 1956
पना@@ 1956
ंबर 1955
कहर 1955
महाराजा 1955
उम्@@ 1954
कहेगा 1954
दवा@@ 1954
नियोजित 1954
कद@@ 1953
निका 1953
परसतिश 1953
बहुजन 1953
भूपेंद्र 1953
एनएफ@@ 1952
कैलिफोर्निया 1952
नायर 1952
पल्ली 1951
बाध्य 1951
लिंग@@ 1951
विधिक 1951
पाठ्यक्रमों 1950
माकपा 1950
स्नातकोत्तर 1950
हत्याकांड 1950
आईबी@@ 1949
कूट@@ 1949
म्म@@ 1949
m 1948
आंखें 1948
औप@@ 1948
वारि@@ 1948
बेल@@ 1947
ड्राइविंग 1946
णु@@ 1946
पचास 1946
यूरिया 1946
वेणुगोपाल 1946
अर्ज़ 1945
आवश्य@@ 1945
कंप@@ 1945
विजयी 1945
दुः@@ 1944
प्रज्ञा 1944
वक़्त 1943
सवारी 1943
हामिद 1943
अन्तिम 1942
आईआर@@ 1942
आरो@@ 1942
खरी@@ 1942
प्रश्@@ 1942
महासंघ 1942
राजे 1942
इब्@@ 1941
टैगोर 1941
तरीक़े 1941
पूर्ववर्ती 1941
दोहरे 1940
हराने 1940
अयोग्य 1939
स्वायत्त 1939
हरसंभव 1939
गला 1938
पायनियर 1938
मैसेज 1938
j@@ 1937
वसीम 1937
शिविरों 1937
128 1936
180 1936
निरा@@ 1936
पीडि़त 1936
बेल्जियम 1936
लूर 1936
भावनात्मक 1935
रसूलों 1935
लिका 1935
दिवा@@ 1934
देंगी 1934
बच्च@@ 1933
रीमेक 1933
रोहतक 1933
बीएसएनएल 1932
मित्तल 1932
म् 1932
रच@@ 1932
रीन 1932
हेमंत 1932
जयंत 1931
बर्खास्त 1931
हरों 1931
मस्ती 1930
वित्तमंत्री 1930
काटने 1929
फलस्वरूप 1929
महाभारत 1929
वारा 1929
सरकशी 1929
स्वाद 1929
आलू 1928
क्वॉ@@ 1928
बहि@@ 1928
रिश्वत 1928
रुद्दीन 1928
चंद्रमा 1927
प्रदर्शनकारी 1927
प्रशि@@ 1927
सम्भव 1927
सिंग@@ 1927
आकांक्षाओं 1926
इकोनॉ@@ 1926
कुरिन्थियों 1926
कोण 1926
ग्रेटर 1926
तीर्थ@@ 1926
नरों 1926
प्रान्त 1926
यिक 1926
अमे@@ 1925
कराची 1925
बैठकर 1925
भारद्वाज 1925
रिटी 1925
शेयर@@ 1925
आयत 1923
जना 1923
पिंक 1923
कुश@@ 1922
ग्राफी 1922
नज़दीक 1922
भोज 1922
जेड 1921
लूंगा 1921
रक्षण 1920
जानकारियां 1919
यूके 1919
वासन 1919
करदाताओं 1918
टेलि@@ 1918
दायी 1918
सदनों 1918
जबरन 1917
नशी@@ 1917
पाट 1917
प्रतिवर्ष 1917
इब्राहिम 1916
गाड़ियां 1916
चरम 1916
जैकी 1916
तुओं 1916
वॉट 1916
सिखाने 1916
ंगी@@ 1915
अंध@@ 1915
विहार 1915
सहानुभूति 1915
अनौपचारिक 1914
गीतों 1914
मित्रा 1914
च्छा 1913
डीएमके 1913
पेड़ों 1913
बनाएंगे 1913
बला 1913
समावेश 1913
सुरंग 1913
डुअल 1912
पशुपालन 1912
आए@@ 1911
क्रूज 1911
नुमा 1911
समू@@ 1911
इंद्र@@ 1910
क्रांतिकारी 1910
पीट 1910
प्रतिष्ठानों 1910
मथुरा 1910
लाती 1910
वायर@@ 1910
घट 1909
रोचक 1909
क्वीन 1908
बड़ 1908
वला 1908
अग्नि 1907
तीर्थ 1907
दक्षिण@@ 1907
लिहाजा 1907
साइना 1907
हेनरी 1907
तिया@@ 1906
प्यारे 1906
भारत@@ 1906
मसला 1906
0,000 1905
प्रेरक 1905
शिनाख्त 1905
सम्बन्धित 1905
ऋषभ 1904
प्राचीनों 1904
फरी 1903
आमाल 1902
चूर 1902
प्रतिभूति 1902
रत्@@ 1902
कोर्@@ 1901
भुग@@ 1901
्रो@@ 1901
ओमान 1900
चंदा 1900
मसा@@ 1900
6:@@ 1899
कैंप 1899
चौटाला 1899
लियाँ 1899
वाटर 1899
मतगणना 1898
मेक्सिको 1898
ल्ड@@ 1898
सुरेंद्र 1898
किराए 1897
गलियारे 1897
फैसलों 1897
बिगड़ 1897
चुनी 1896
ट्रोल 1896
ड्रेस 1896
नर्मदा 1896
मित्रता 1896
लाम 1896
चर्चित 1895
परिवर्त@@ 1895
बाहम 1895
रेजि@@ 1895
लैंड@@ 1895
हौसला 1895
घुस 1894
चुनिंदा 1894
रक्त@@ 1894
रिकवरी 1894
हानिकारक 1894
हानी 1894
आपत्तिजनक 1893
उछाल 1893
एमएल 1893
दीपावली 1893
बिपिन 1893
बुला 1893
अंडे 1892
द्यो@@ 1892
लेज 1892
वाक़ि@@ 1892
व्यायाम 1892
सुविधाजनक 1892
22@@ 1891
बिस्तर 1891
गुप्@@ 1890
सावरकर 1890
उत्तरा@@ 1889
रोध 1888
लाभदायक 1888
मंत्र@@ 1887
र्ण 1887
तारा@@ 1886
प्रतिरोध 1886
विक्की 1886
परिवर्तनों 1885
प्रभुत्वशाली 1885
सुलझा@@ 1885
आसमानों 1884
डीएम 1884
पेय 1884
er 1883
आवागमन 1883
मुश्किलें 1883
ललित 1883
वस्तु@@ 1883
सर्वो@@ 1883
सीजी@@ 1883
आसार 1882
गोपनीयता 1882
जाय 1882
खड़गे 1881
डरता 1881
समकालीन 1881
खर 1880
फरीदाबाद 1880
रोक@@ 1880
लौटा@@ 1880
अमेजन 1878
एशियन 1878
दक 1878
हत्य@@ 1878
१३ 1878
बादशाह 1877
सरे 1877
अनावरण 1876
आहत 1876
गाय@@ 1876
खुदकुशी 1875
चौकी 1875
लक्षणों 1875
सवा 1875
टें@@ 1874
पीपीपी 1874
सामंजस्य 1874
ईमानवालों 1873
वंश@@ 1873
सुशासन 1873
उपाधि 1872
निर्मा@@ 1872
मता 1872
ल्टर 1872
सौं@@ 1872
ंसिंग 1871
कोले@@ 1871
जयललिता 1871
पदभार 1871
लाभ@@ 1871
विका@@ 1871
श्रीकांत 1871
सीने 1871
परिषद् 1870
प्रभाग 1870
हुंडई 1870
एमआई 1869
द्धा@@ 1869
पवि@@ 1869
श्रे@@ 1869
सलीम 1869
उभरते 1868
गुरू@@ 1868
जियो@@ 1868
आश्रय 1867
ऊं 1867
ज़ाम 1867
नॉन 1867
एफपी 1866
गेटिव 1866
तरी 1866
त्मा 1866
पवित्रा 1866
शित 1866
समु@@ 1866
ऊँ@@ 1865
कना 1865
द्रमुक 1865
पहलवान 1865
श्वेता 1865
सुगमता 1865
प्त 1864
प्रदत्त 1864
सौरभ 1864
आयुर्विज्ञान 1863
चाह 1863
डिलीवरी 1863
ंतों 1862
कैश 1862
उदार@@ 1861
केशव 1861
घूमने 1861
धूम्रपान 1861
नम्बर 1861
हफ्तों 1861
2030 1860
असदुद्दीन 1860
बालक 1860
चोटिल 1859
द्वार@@ 1859
भूस्खलन 1859
पुजारा 1858
यक़ीन 1858
राल 1858
असे@@ 1857
नौजवान 1857
पीएफ@@ 1857
पूछो 1857
लट@@ 1857
w@@ 1856
एडम 1856
कतर 1856
खरीदारी 1856
रोष 1856
गावस्कर 1855
जहन्नम 1855
बारूद 1854
मृदा 1854
सीपीआई 1854
स्पिन 1854
ीक 1854
घेराबंदी 1853
नमन 1853
मॉल 1853
मल्टी 1852
महत्त्व 1852
स्क्रिप्ट 1852
गेशन 1851
सोवियत 1851
कीर्@@ 1850
घराने 1850
वेंद्र 1850
शुभ@@ 1850
हेल्पलाइन 1850
चतु@@ 1849
ख्तेयार 1848
ज़रूर@@ 1848
जीवंत 1848
ठिकानों 1848
प्रजाति 1848
प्रशासक 1848
वित 1848
अंग्रेजों 1847
गैरकानूनी 1847
द्धार 1847
मैसूर 1846
रावल 1846
हँसी 1846
किन्@@ 1845
ठहराए 1845
डिप्लोमा 1845
तुल्य 1845
राबी 1845
कराते 1844
चैट 1844
शियम 1844
सिक@@ 1844
पटकथा 1843
रोमन 1843
यहो@@ 1842
18.@@ 1841
ऑपरेटिंग 1841
रसोई 1841
ंदगी 1840
एंगी 1840
वाक़िफ 1840
दिव@@ 1839
पीजीआई 1839
रामायण 1839
विख्यात 1839
अफवाह 1838
एमएम 1838
ट्रायल 1838
डेवल@@ 1838
बर्ट 1838
बुजुर्ग 1838
खाया 1837
गुड 1837
मंडलीय 1837
विस 1837
शर्म 1837
संगीतकार 1837
साहित्यिक 1837
सीमावर्ती 1837
चारि@@ 1836
प्रौ@@ 1836
फेस्टिवल 1836
जेशन 1835
नारा@@ 1835
फज़ल 1835
मला 1835
रीकरण 1835
अपनाई 1834
पेशे 1834
भक्तों 1834
युजवेंद्र 1834
गांधीजी 1833
मजेदार 1833
मदन 1833
मुशर्रफ 1833
मौर्य 1833
छठी 1832
दुर्घटनाओं 1832
नवजात 1832
प्रदाता 1832
भ्रा@@ 1832
सिंध 1832
हाफिज 1832
गतिरोध 1831
सुराग 1831
हटने 1831
कीट 1829
नियंत्रक 1829
रिपोर्ट्स 1829
लॉट 1829
गिर्द 1828
लोकल 1828
सुसाइड 1828
इतर 1827
होस्ट 1827
कुश्ती 1826
ख़ुश 1826
प्राधिकारी 1826
फते@@ 1826
ंड्स 1825
एजेंडे 1825
झंडी 1824
आत्मघाती 1823
कदर 1823
स्क्वा@@ 1823
उपभोग 1822
चार्जशीट 1822
दहशत 1822
समूचे 1822
आरोपितों 1821
ग्लास 1821
बिजी 1821
वीएसएम 1821
सना@@ 1821
10वीं 1820
ब्रु@@ 1820
महंगा 1820
शांति@@ 1820
सोनू 1820
उपदेश 1819
निकालकर 1819
सार्वभौमिक 1819
20.@@ 1818
अर्थशास्त्र 1818
आरसी@@ 1818
घा 1818
मंद 1818
सिंघ@@ 1818
ईपीएफओ 1817
गवर्नेंस 1817
पैटर्न 1817
साइटों 1817
हल्@@ 1817
भावुक 1816
याना 1816
फ्रेंड 1815
मठ 1815
सुल@@ 1815
डूब 1814
दरख्@@ 1814
नाथ@@ 1814
पढ़ना 1814
एनएम 1813
मनप्रीत 1813
घने 1812
विवादास्पद 1812
स्ति@@ 1812
कमिंस 1811
कुलम 1811
फाइनेंस 1811
संवे@@ 1811
डिया@@ 1810
मोमिन 1810
रिपोर्@@ 1810
साप्ताहिक 1810
केट@@ 1809
पोजीशन 1809
वामपंथी 1809
com 1808
काव 1808
कृतियों 1808
दादी 1808
बरसात 1808
राज़ी 1808
नाव 1807
स् 1807
क़ादिर 1806
नासा 1806
पख@@ 1806
बराक 1806
मान्य@@ 1806
सीखते 1806
टिप्पणियों 1805
मैरी 1805
घटाकर 1804
मिथ@@ 1804
विभागीय 1804
विश्ले@@ 1804
160 1803
एनए@@ 1803
रवींद्र 1803
वाचा 1803
सेतु 1803
ज्य@@ 1802
बेसब्री 1802
बर्ताव 1801
मार्केटिंग 1801
सूर्@@ 1801
हड़कंप 1801
मंशा 1800
कांड 1799
पार्थिव 1799
पिया 1799
लीस 1799
किस्मत 1798
चलाते 1798
चाचा 1798
तनी 1798
परिसरों 1798
लाभांश 1798
लियोन 1798
अनन्त 1797
एएनआई 1797
काय@@ 1797
टेंशन 1797
एक्सपो 1796
टेस्टिंग 1796
अंडर@@ 1795
कमजोरी 1794
ताब@@ 1794
बहार 1794
सोलर 1794
कियारा 1793
नियल 1793
सराहनीय 1793
अनमोल 1792
आॅ@@ 1792
एंटरटेनमेंट 1792
कट्@@ 1792
गर्ल 1792
जयराम 1792
ल्क 1792
समय@@ 1792
एके@@ 1791
मनाई 1791
मूला 1791
शेर@@ 1791
कलापों 1790
क़ियामत 1790
कारा@@ 1790
किस@@ 1790
अस्प@@ 1789
कुदरत 1789
छात्रवृत्ति 1789
डोभाल 1789
प्रत्याशियों 1789
बडी 1789
बेड 1789
समन्वित 1789
किस्तान 1788
तम@@ 1788
मण@@ 1788
,999 1787
इंजीनिय@@ 1787
इश@@ 1787
एनटीपीसी 1787
खरी 1787
छिपे 1787
जलाने 1787
उड़ा 1786
कोरो@@ 1786
धु 1786
महाविद्यालय 1786
रेशम 1786
नेहा 1785
पत्य 1785
ील 1785
दुर्भाग्य 1784
प्रशस्त 1784
आरडी 1783
तिहाड़ 1783
धनी 1783
ब्रह्म@@ 1783
मजा 1783
ंटि@@ 1782
फ्लैश 1782
बंबई 1782
अध्यापक 1781
अर्थव्यवस्थाओं 1781
एग्जाम 1781
नोटिफिकेशन 1781
प्शन 1781
बूझ 1781
मनु 1781
सरपरस्त 1781
इकबाल 1780
ओगे 1780
तीव्रता 1780
न्द@@ 1780
फूलों 1780
मॉर्@@ 1779
विश्वास@@ 1779
सीपी 1779
फौ@@ 1778
हलफ@@ 1778
एनसीसी 1776
करुणा 1776
गांधीनगर 1776
ठहरे 1776
प्रतिज्ञा 1776
मांड 1776
एसई@@ 1774
चट@@ 1774
मैन्यु@@ 1774
साधते 1774
स्टैंड 1774
अधीनस्थ 1773
इज@@ 1773
घटना@@ 1773
आल@@ 1772
जिनपिंग 1772
निकली 1772
एयरो@@ 1771
आख़ेरत 1770
इकाइयां 1770
घटकों 1770
डेल 1770
बांस 1770
मंज़ू@@ 1770
रवि 1770
विश्राम 1770
उड़ानें 1769
गुंजाइश 1769
पद्मावती 1769
लड़कियां 1769
अहम@@ 1768
ज्ञा 1768
डाई 1768
थॉ@@ 1768
देवे@@ 1768
शरणार्थियों 1768
अहसास 1767
करूं 1767
शासी 1767
ेद 1767
एलसी 1766
गुल 1766
नॉल 1766
मालिकों 1766
वासों 1766
सुन्दर 1766
u 1765
अभियोजन 1765
अरु@@ 1765
एलेक्स 1765
हिना 1765
कटाई 1764
विलियमसन 1764
साध@@ 1764
GB 1763
माओ@@ 1763
वाड़ी 1763
कर्फ्यू 1762
तब्दील 1762
विलियम 1762
सहभागिता 1762
अद्वितीय 1761
अफसरों 1761
एनबी@@ 1761
पूनम 1761
मयंक 1761
नौवहन 1760
प्रोटे@@ 1760
मैक्स 1760
लगाएं 1760
वकालत 1760
श्रो@@ 1760
CAA 1759
ग्रेट 1759
पंप 1759
प्रमोद 1759
बाजवा 1759
लिफ्ट 1759
सकर 1759
स्वप्न 1759
परिणीति 1758
योग्य@@ 1758
राष्ट्री@@ 1758
समीकरण 1757
सुनो 1757
आन्@@ 1756
रणीय 1756
ंकर 1755
कमेंट 1755
डालना 1755
लेक 1755
कॉपी 1754
जनहित 1754
ट्रिब्यू@@ 1754
रतन 1754
शिष्टमंडल 1754
is 1753
तकलीफ़ 1753
त्रियों 1753
रविंद्र 1753
सजग 1753
१६ 1753
अतुल 1752
एमए 1751
दस्त 1751
प्रविष्टि 1751
उत्तराधिकारी 1750
निकलते 1750
क्रम@@ 1749
डाउन 1749
द्द@@ 1749
परम 1749
कठिनाइयों 1748
्याह 1748
38@@ 1747
जनहार 1747
पूछना 1747
विशेषताएं 1747
सारा@@ 1747
गिरिराज 1746
जया 1746
तिब्बत 1746
नर्सिंग 1746
नहर 1746
निशाने 1746
बेह@@ 1746
ख़ौफ 1745
छोड़ना 1744
न्दर 1744
भूति 1744
एनजीओ 1743
कोचिंग 1743
थिएटर 1743
धूल 1743
हड़@@ 1743
करनेवाली 1742
जापुर 1742
जौ@@ 1742
टीचर 1742
नकली 1742
फिल 1742
बहुपक्षीय 1742
सरस्वती 1742
हेल 1742
01.@@ 1741
उच्चायुक्त 1741
एल्बम 1741
कंधे 1741
कुर@@ 1741
मिट 1741
मोल 1741
रित 1741
हृ@@ 1741
कान्@@ 1740
कॉक 1740
सिगरेट 1740
अपमानजनक 1739
डब्ल्यूएचओ 1739
डाक्टरों 1739
पीटा 1739
प्रमाणन 1739
ब्राउ@@ 1739
रोमियों 1739
व्यास 1739
१९८@@ 1739
19.@@ 1738
एयरवेज 1738
चीज़े 1738
नरे@@ 1738
संकाय 1738
किरदारों 1737
चाकू 1737
जन्नत 1737
जीवनसाथी 1737
धाम 1737
फ्रांसि@@ 1737
हिंद@@ 1737
12,@@ 1736
आदि@@ 1736
कल्चर 1736
पत्र@@ 1736
रिहाई 1736
सोनाली 1736
इकट्ठे 1735
जीरो 1735
दिखाती 1735
पार्षद 1735
बूथ 1735
इंग्लिश 1734
घेरे 1734
बाल्@@ 1734
मानदंड 1734
माप 1734
कतें 1733
कैदी 1733
घुटने 1733
मरा 1733
इलेक्ट्रो@@ 1732
इसराईल 1732
गोवि@@ 1732
घास 1732
विद्रो@@ 1732
किब 1731
नीदरलैंड 1731
सुंद@@ 1731
ंगु@@ 1730
उच्चस्तरीय 1730
कोचर 1730
दीवारों 1730
बनाएगा 1730
बहुमूल्य 1730
क़िस्म 1729
नगरपालिका 1729
नवाजुद्दीन 1729
लाएगा 1729
लिखना 1729
एनटी@@ 1728
किर्@@ 1728
डाक्टर 1728
बॉन्ड 1728
शुरूआती 1728
ारोपण 1728
चालित 1727
ज्यू@@ 1727
लड़ते 1727
वन्य 1727
संगोष्ठी 1727
स्कूटर 1727
हाद 1727
आवेदक 1726
गति@@ 1726
चश्@@ 1726
टकों 1726
धारा@@ 1726
यी@@ 1726
सद्भाव 1726
इट 1725
फिरौ@@ 1725
फ्लिपकार्ट 1725
लॉजि@@ 1725
सिपाही 1725
हवा@@ 1725
अलबत्ता 1724
पांच@@ 1724
औसतन 1723
ताला@@ 1723
स्वयंसेवक 1723
त्ति 1722
मेनन 1722
रेस्ट 1722
लयी 1722
गार@@ 1721
झी@@ 1721
नाले 1721
मूल्य@@ 1721
रहूंगा 1721
स्कॉ@@ 1721
अमन 1720
नं 1720
चढ़ा 1719
जिं@@ 1719
जेंडर 1719
दौलत 1719
मैक्@@ 1719
मैट 1719
लोहे 1719
चाई 1718
प्रमाण@@ 1718
भाग्यशाली 1718
रविचंद्रन 1718
श्रीराम 1718
भास्कर 1717
रहू@@ 1717
ंद्रा 1716
उन्होनें 1716
कौल 1716
भीम 1716
कन्हैया 1715
जीना 1715
परिवार@@ 1715
पर्यावरणीय 1715
येगी 1715
सत्रों 1715
इच्छा@@ 1714
गलतियों 1714
ग्वालियर 1714
निकलता 1714
मण्ड@@ 1714
अनदेखी 1713
अली@@ 1713
उम्मीदें 1713
यश 1713
सुखद 1713
स्टडी 1713
निस्तान 1712
बरदार 1712
भाग्य 1712
मुख्यातिथि 1712
राजमार्गों 1712
विक्रेताओं 1712
शाऊल 1712
सस्ते 1712
इंटेलिजेंस 1711
त्यों 1711
शीट 1711
स्नान 1711
IS@@ 1710
आजीवन 1710
बेच@@ 1710
मिटा 1710
अज़ी@@ 1709
ईयों 1709
ऑं@@ 1709
घं@@ 1709
लीं 1709
एग्री@@ 1708
पंड्या 1708
ज़बान 1707
टॉक 1707
वण 1707
सामान्य@@ 1707
हुनर 1707
गढ़वाल 1706
ग्रंथ 1706
पाली 1706
स्कै@@ 1706
हरीश 1706
अफरीदी 1705
आपातकाल 1705
मरी 1705
संगति 1705
लिश 1704
वेश 1704
हवाओं 1704
हैरी 1704
आईसीएमआर 1703
उभरती 1703
पूर्णता 1703
पेशेवरों 1703
बदतर 1703
सता 1703
कंड@@ 1702
पुनः@@ 1702
प्रोफाइल 1702
मनाते 1702
लाभार्थी 1702
हज़ारों 1702
अन्ततः 1701
जोड़ना 1701
डीन 1701
मिड@@ 1701
मिलीं 1701
हसीना 1701
काः 1700
क्रिकेटरों 1700
ड़ियां 1700
परेश 1700
पेंशन@@ 1700
विल 1700
क्सि@@ 1699
चमत्कार 1699
जॉनी 1699
निशानियों 1699
शमन 1699
सीआर 1699
गार्डन 1698
मैं@@ 1698
उपर 1697
ओएस 1697
खेतों 1697
चार्जिंग 1697
टीडीपी 1697
तह 1697
शिकस्त 1696
सँ@@ 1696
दपुर 1694
फॉर@@ 1694
नतम 1693
बीएचपी 1693
विदों 1693
सीता 1693
एलान 1692
तृतीय 1692
त्रता 1692
प्लेटफार्म 1692
स्किन 1692
गैंगरेप 1691
बाउ@@ 1691
1990 1690
खं@@ 1690
ज़कात 1690
पड़ोस 1690
मस 1690
पैक 1689
मेल@@ 1689
शॉ 1689
1,0@@ 1688
यादगार 1688
वयस्क 1688
शिक्षाओं 1688
आरओ 1687
मूल्यवान 1687
रैं@@ 1687
अग्रसर 1686
सुविधा@@ 1685
आकस्मिक 1684
इस्राएली 1684
किग्रा 1684
खातिर 1684
सौंपने 1684
ओली 1683
ग्लेन 1683
जजों 1683
महा 1683
अभ्यर्थी 1682
एजे@@ 1682
कीन 1682
चलाना 1682
क्रियाओं 1681
जेब 1681
ड़े@@ 1681
पर्यवे@@ 1681
पुडुचेरी 1681
वैधानिक 1681
हलाल 1681
अर्चना 1680
किर@@ 1680
टीओ 1680
शर्तें 1680
अमी@@ 1679
भै@@ 1679
क्सन 1678
डेनमार्क 1678
सूर@@ 1678
प्रवीण 1676
मंचों 1676
रिसा@@ 1676
ल्य 1676
हिस्@@ 1676
अध्यापकों 1675
अवतरित 1675
केबल 1675
टेज 1675
बाग़ों 1675
इनकम 1674
बीम@@ 1674
मस@@ 1674
व्याप्त 1674
गर्दन 1673
घनिष्ठ 1673
कैप्@@ 1672
गिन 1672
तियार 1672
स्टार्क 1672
नम्रता 1671
प्ति 1671
विवा@@ 1671
स्त्र@@ 1671
900 1670
कृत्य 1670
भगो@@ 1670
लीज 1670
लुधियाना 1670
फोसिस 1669
बवाल 1669
सौंपे 1669
दृढ़@@ 1668
ध्रु@@ 1668
पाइप 1668
प्रोग्रा@@ 1668
बुरा@@ 1668
वरना 1668
उड़ीसा 1667
एप्लीकेशन 1667
ओरि@@ 1667
कुर 1667
फाय@@ 1667
शालाएं 1667
आंधी 1666
मुख़@@ 1666
सिद्धि 1666
a@@ 1665
अंगों 1665
जेने@@ 1665
संक्र@@ 1665
स्टेंट 1665
उभर 1664
टैक्सी 1664
फारूक 1664
मुश्किलों 1664
हास 1664
टिक@@ 1663
ध्व@@ 1663
पक्षीय 1663
पार्टनर 1663
फ़रिश्तों 1662
कैप 1661
स्टार्स 1661
णित 1660
नियमा@@ 1660
पुकारा 1660
ाराम 1660
Y@@ 1659
ट्रा 1659
दिव्यांग 1659
संग्र@@ 1659
अपवाद 1658
नैतिकता 1658
पन्न 1658
पीढ़ियों 1657
मोटर@@ 1657
आंग@@ 1656
आइडिया 1656
एससीओ 1656
डोमेन 1656
पढ़कर 1656
पैके@@ 1656
भौ@@ 1656
खल@@ 1655
ग्रैंड 1655
यिका 1655
स्की@@ 1655
ारे@@ 1655
ज्या@@ 1654
तेहैं@@ 1654
राजकोट 1654
राज़ 1654
श्वर@@ 1654
आनन 1653
कार्यवाहक 1653
चढ़कर 1653
चुरी 1653
जोसेफ 1653
डीएफ 1653
मम्मी 1653
सं 1653
समस्या@@ 1653
हिंदुत्व 1653
o@@ 1652
किताब@@ 1652
जीते@@ 1652
धौ@@ 1652
पूंजी@@ 1652
पोरेशन 1652
बंटवारे 1652
2.5 1651
इसहा@@ 1651
दर्शाती 1651
सें 1651
4,000 1650
ंडरों 1650
आईआरसीटीसी 1650
रॉक 1650
पारा 1649
प्रोड्यूसर 1649
बालिका 1649
योजक 1649
नेहवाल 1648
प्रस@@ 1648
मंत्री@@ 1648
आएँ 1647
यूक्रेन 1647
शिपिंग 1647
उतरी 1646
जासूसी 1646
बख्श 1646
सोचिए 1646
स्क्र@@ 1646
स्तुति 1646
होगें 1646
कपड़ों 1645
मल्लिकार्जुन 1645
यूरो 1645
वाम 1645
संदर्भित 1645
समझकर 1645
एड 1644
वाक@@ 1644
आलम 1643
रॉकेट 1643
गोरि@@ 1642
घोर 1642
स्पॉ@@ 1642
हत्या@@ 1642
ST 1641
वरीयता 1641
वरों 1641
संब@@ 1641
सेरे@@ 1641
हैसियत 1641
गोविंद 1640
डीपी 1640
ढे 1640
पार्ट@@ 1640
शत 1640
सहा@@ 1640
सिद्धा@@ 1640
आयामी 1639
जलि 1639
नानी 1639
प्रख्यात 1639
लजी 1639
लेबल 1639
आर्टिकल 1638
चिह्नित 1638
जनादेश 1638
फिल्म@@ 1638
यास 1638
रोमांस 1638
World 1637
ंडेंट 1637
इंडिगो 1637
खरा 1637
गायिका 1637
दम@@ 1637
ड्डी 1636
तारों 1636
मुहर 1636
ऍ@@ 1635
लाः 1635
विदा 1635
समीर 1635
आख़ि@@ 1634
एरिया 1634
खड़@@ 1634
खेद 1634
फानन 1634
बृ@@ 1634
वज़ह 1634
विल्@@ 1634
सद्@@ 1634
III 1633
अत 1633
असीम 1633
एकजुटता 1633
क़ों 1633
जंगलों 1633
जीतना 1633
शंघाई 1633
ष्कृत 1633
आंदो@@ 1632
कोंक@@ 1632
टीआरएस 1632
भूमि@@ 1632
गैर@@ 1631
छापे 1631
निशाने@@ 1631
भय@@ 1631
स्के@@ 1631
एली@@ 1630
खैर 1630
तफ@@ 1630
तापसी 1630
बीजिंग 1630
क़े 1629
किरा@@ 1629
गंगा@@ 1629
चरि@@ 1629
तपुर 1629
अरे 1628
यीं 1628
वास्तुकला 1628
सूचनाएं 1628
एमजी 1627
जुर्@@ 1627
नल्ड 1627
सूरी 1627
सेल@@ 1627
आदिल 1626
इन्सान 1626
ऑलराउंडर 1626
टीई 1626
मैक्सवेल 1626
एनपी@@ 1625
कार्यबल 1625
नवाब 1625
वोडाफोन 1625
स्किल 1625
क़ाबू 1624
गर्मियों 1624
चिकित्सा@@ 1624
चेता@@ 1624
तली 1624
पत्रकारिता 1624
प्रचारक 1624
फिया 1624
लिप@@ 1624
सकने 1624
सम्बद्ध 1624
चौंकाने 1623
ढ़ि@@ 1623
पहिले 1623
सूच@@ 1623
गंवा 1622
डीडी@@ 1622
तम्@@ 1622
नाया 1622
बीती 1622
ब्रायन 1622
अप्रत्याशित 1621
आयाम 1621
टनी 1621
नेपाली 1621
योन 1621
ल्डर 1621
वॉर्नर 1621
100@@ 1620
कण 1620
झार@@ 1620
डेढ़ 1620
विक्र@@ 1620
सामग्रियों 1620
जमाने 1619
बांटने 1619
भागीदारों 1619
सान@@ 1619
स्वर्गदूत 1619
दांव 1618
देसी 1618
पीडि़@@ 1618
माधव 1618
शहद 1618
ईशा 1616
जुड़ाव 1616
टरिंग 1615
निवेदन 1615
नुक़सान 1615
फिल्मी 1615
योगा@@ 1615
रायबरेली 1615
जन्मभूमि 1614
तिन 1614
पुट 1614
लाइब्रेरी 1614
सेकंड 1614
ॊ@@ 1614
उपरांत 1613
कॉलिंग 1613
पला@@ 1613
जमी@@ 1612
दुर@@ 1612
चलें 1611
पीएचडी 1611
राबाद 1611
स्ति 1611
st@@ 1610
इब्रानी 1610
एनकाउंटर 1610
चलिए 1610
ताएँ 1610
संतोषजनक 1610
५० 1610
कमा 1609
ठुकरा 1609
रिएबल 1609
रीज 1609
रें@@ 1609
कार्ति 1608
किन@@ 1608
णिक 1608
नेअमत 1608
न्ग 1608
प्रोजे@@ 1608
लाइफ@@ 1608
वक्ता 1608
सड@@ 1608
एड्स 1607
एमटी@@ 1607
जफर 1607
टंडन 1607
ढाका 1607
नीति@@ 1607
बंट@@ 1607
सामी 1607
हाईवे 1607
करोड 1606
क्षाओं 1606
चावला 1606
नवरात्रि 1606
मिठा@@ 1606
्रि@@ 1606
सिन्@@ 1605
स्थानांतरण 1605
स्विट्जरलैंड 1605
एकाद@@ 1604
चांद 1604
प्रथाओं 1604
वनस्पति 1604
ंद्रे 1603
ख़ैर 1603
रिपब्लिकन 1603
वीसी 1603
सके@@ 1603
स्टारर 1603
जगन्नाथ 1602
ड्रग 1602
ड्राइ@@ 1602
मधुर 1602
रिन 1602
हैरानी 1602
तालि@@ 1601
बीवी 1601
राइडर्स 1601
राग 1601
रेस्@@ 1601
लड़े 1601
विन्यास 1601
ारियाँ 1601
अजमेर 1600
अरूण 1600
नामजद 1600
निको@@ 1600
लैंडिंग 1600
वरन 1600
कष्ट 1599
काबि@@ 1599
णीय 1599
विक्रय 1599
विजे@@ 1599
सेशन 1599
देशीय 1598
लोकपाल 1598
ष्ण@@ 1598
जगन 1597
दिव्य 1597
प्रवास 1597
माओं 1597
हादसों 1597
हारों 1597
खासा 1596
खोलकर 1596
बितर 1596
रिफंड 1596
सम्बन्धी 1596
हाशि@@ 1596
कमि@@ 1595
जोंग 1595
पठान 1595
वॉच 1595
सील@@ 1595
आउटपुट 1594
गिरा@@ 1594
जहाजरानी 1594
जहाज़ 1594
तंबाकू 1594
बंसल 1594
ब्ध 1594
108 1593
an@@ 1593
आईसीयू 1593
कथ@@ 1593
क़ी 1593
क्लस्टर 1593
चांसलर 1593
पुनरा@@ 1593
रिक्शा 1593
कुक 1592
कुणाल 1592
टः 1592
दाहिने 1592
महानिदेशालय 1592
1998 1591
तटरक्षक 1591
तबीयत 1591
दंड@@ 1591
बॉय@@ 1591
कल्प@@ 1590
गणि@@ 1590
जरुरी 1590
सक्सेना 1590
आईजी@@ 1589
उजा@@ 1589
दीर्घ@@ 1589
धमाल 1589
नार्@@ 1589
माइक्रोएसडी 1589
मालि@@ 1589
450 1588
दां@@ 1588
बोल्ड 1588
मुआवजे 1588
यूजीसी 1588
वक्फ 1588
1947 1587
ख़री@@ 1587
सूट 1587
CM 1586
ंचा@@ 1585
उर्वरकों 1585
एनि@@ 1585
कियाः 1585
द् 1585
निर्णयों 1585
भाषी 1585
याचिकाओं 1585
on@@ 1584
एलडी 1584
चोटी 1584
फड़@@ 1584
फुटबाल 1584
सैन 1584
हंसी 1584
प्रेशर 1583
रचा 1583
कर्नूलु 1582
नोटों 1582
भ्रमण 1582
सर्टिफिकेट 1582
स्पेक्ट्रम 1582
अकेली 1581
किशो@@ 1581
डेटाबेस 1581
सर्व 1581
कूट 1580
णुओं 1580
त्तों 1580
दिलजीत 1580
संप्रभुता 1580
हावी 1580
एससी@@ 1579
विफलता 1579
६ः 1579
ंचल 1578
अभ्यर्थियों 1578
एनजी@@ 1578
प्रत्यक्ष@@ 1578
मंड 1578
मैग@@ 1578
विस्@@ 1578
१७ 1578
जोड़कर 1577
तितर 1577
200@@ 1576
अगरचे 1576
इमाम 1576
कड@@ 1576
कानी 1576
कोशिशों 1576
पीआर 1576
फिल्म्स 1576
मद 1576
व्युत्@@ 1576
कारबार 1575
मदी@@ 1575
रपुर 1575
सुरे@@ 1575
स्टोन 1575
31.@@ 1574
W 1574
टसन 1574
दरिया 1574
निकालना 1574
फली 1574
राधिका 1574
कर्तव्यों 1573
कान@@ 1573
कीमती 1573
टमाटर 1573
नौका 1573
बदलावों 1573
यूनेस्को 1573
विद्युतीकरण 1573
३० 1573
ंजी@@ 1572
दंगों 1572
नेटर 1572
पहचाना 1572
an 1571
मसलन 1571
राउ@@ 1571
स्टैंडर्ड 1571
खरीदी 1570
नती 1570
नियो 1570
मंजिल 1570
माउंट 1570
चैलेंज 1569
मॉनसून 1569
वक्ताओं 1569
वाट 1569
वैरिएंट 1569
सम्बोधित 1569
34@@ 1568
गतिशील 1568
गन्ना 1568
पराजित 1568
पीएमओ 1568
रियां 1568
विधियों 1567
समी 1567
l@@ 1566
इस्रा@@ 1566
जबलपुर 1566
नियु@@ 1566
ज्ञान@@ 1565
ढी@@ 1565
पक्की 1565
फरिश्ते 1565
विज@@ 1565
सम्बंधित 1565
परिवेश 1564
प्रतिस्पर्@@ 1564
ॆ 1564
१८ 1564
प्टर 1563
बोलना 1563
सिक्योरिटी 1563
The 1562
अथॉरिटी 1562
कौन@@ 1562
खंगा@@ 1562
ग्रीन@@ 1562
क्सो 1561
लानत 1561
हरिद्वार 1561
गिस्तान 1560
घरवालों 1560
डाक@@ 1560
पत्तियां 1560
बेचा 1560
आत्मिक 1559
आपूर्ति@@ 1559
डब्ल्यूडी 1559
नौकरियां 1559
बारीक 1559
वि 1559
शिफ्ट 1559
ब्रांच 1558
वगैरह 1558
शायर 1558
AAP 1557
कंटेनर 1557
केन्द्र@@ 1557
चिकित्सीय 1557
जुटा 1557
लांग 1557
संक@@ 1557
सेक्@@ 1557
उदयपुर 1556
पहा@@ 1556
बॉबी 1556
याचि@@ 1556
ंध@@ 1555
उत्तरप्रदेश 1555
गुणवत्तापूर्ण 1555
द्रो@@ 1555
पश्चा@@ 1555
ंप 1554
इंतज़ाम 1554
करारा 1554
पुनर्निर्माण 1554
जगदीश 1553
दहेज 1553
दृश्यों 1553
बढ़ाता 1553
स्सी 1553
किक 1552
चोरों 1552
फत 1552
मुश्@@ 1552
किशोरी 1551
जटि@@ 1551
तुषार 1551
नवाजा 1551
पृष्ठ@@ 1551
वेग 1551
क्रियान्वित 1550
जल्दबाजी 1550
देशभक्ति 1550
मनोवैज्ञानिक 1550
लड़ा@@ 1550
वोल्@@ 1550
एलपी 1549
क्ताओं 1549
जाति@@ 1549
ड़ो 1549
रहस्य 1549
लड@@ 1549
गर्भ 1548
बांटा 1548
बिता 1548
शुदा 1548
संचालक 1548
स्तीन 1548
छात्रा@@ 1547
जरूर@@ 1547
जाँ@@ 1547
प्लेयर 1547
मक़@@ 1547
राष्ट्रवाद 1547
स्वाय@@ 1547
ँगे 1546
एना@@ 1546
फेल 1546
बुलाने 1546
लाएं 1546
वारंट 1546
सोर्@@ 1546
डीएम@@ 1545
बल्ले 1545
वर्द्धन 1545
हलाक 1545
चमक 1544
पॉप 1544
प्रतिफल 1544
मेमोरियल 1544
सहकारिता 1544
सूचक 1544
एनए 1543
क्वालिटी 1543
नजरअंदाज 1543
बर्लिन 1543
अज़@@ 1542
नाः 1542
नामे 1542
बनाएगी 1542
॰@@ 1542
अफवाहों 1541
चटर्जी 1541
सर्दियों 1541
अवय@@ 1540
आयरन 1540
सुचारू 1540
ंशियल 1539
आत्@@ 1539
गर्लफ्रेंड 1539
वाए 1539
विज़न 1539
शौच 1539
समारोहों 1539
स्पै@@ 1539
गिक 1538
दिलाता 1538
दोहरी 1538
परम्परा 1538
पहुँ@@ 1538
भरें 1538
मृतका 1538
नम@@ 1537
पेड 1537
मिलनी 1537
सुधीर 1537
ग्रेजुएट 1536
प्रयो@@ 1536
बजा@@ 1536
भवनों 1536
मुख्य@@ 1536
मेनका 1536
रहिए 1536
इंडेक्स 1535
किसके 1535
जनजातियों 1535
पैथी 1535
प्रभास 1535
हवाईअड्डे 1535
ट्टा 1534
राजकोषीय 1534
श्वरी 1534
स्टेज 1534
कल्स 1533
दुर्व्यवहार 1533
नन्@@ 1533
रियाय@@ 1533
रूपांतरण 1533
रेगा 1533
स्कर 1533
स्ट्रो@@ 1533
कुत्ते 1532
चकित 1532
विजयन 1532
हस्तशिल्प 1532
अंतः@@ 1531
ढाई 1531
नजर@@ 1531
फ्लि@@ 1531
बल्स 1531
बाघ 1531
म्ब 1531
सर्जिकल 1531
स्टो 1530
v 1529
ंजलि 1529
उपेक्षा 1529
कहानियां 1529
जपा 1529
निर्यातकों 1529
प्वाइंट 1529
र्थियों 1529
वाही 1529
अनुप@@ 1528
काबुल 1528
खिड़की 1528
गोल्डन 1528
ग्यार@@ 1528
दरा@@ 1528
पोलैंड 1528
बीबी 1528
विशाखापत्तनम 1528
रिवा@@ 1527
स्तं@@ 1527
Q@@ 1526
अनुपस्थिति 1526
कुंभ 1526
ङ@@ 1526
मुन@@ 1526
al@@ 1525
उपबंधों 1525
ज्योतिरादित्य 1525
दोज़ख़ 1525
पांचवीं 1525
भयंकर 1525
लाह 1525
विरोधियों 1525
विश्वसनीयता 1525
सीआईएल 1525
13,@@ 1524
खींच 1524
चड्ढा 1524
नरम 1524
नस्ल 1524
बँ@@ 1524
बटालियन 1524
अंपायर 1523
पत्नियों 1523
रिकॉर्@@ 1523
5000 1522
कारावास 1522
जलमार्ग 1522
परा 1522
पाकीज़ा 1522
मांड@@ 1522
लार्@@ 1522
आंध्रप्रदेश 1521
ऊंचा@@ 1521
चक्र@@ 1521
परोक्ष 1521
वीरता 1521
साम्@@ 1521
हम्@@ 1521
08.@@ 1520
f@@ 1520
कप@@ 1520
किंगडम 1520
क्या@@ 1520
गीर 1520
पेडनेकर 1520
मौखिक 1520
सर्वसम्मति 1520
उमा 1519
तंत्रिका 1519
प्राइम 1519
प्रिय@@ 1519
वह@@ 1519
आईएसआई 1518
इंटर 1518
एथलीट 1518
गेंद@@ 1518
ट्रो 1518
ताहिर 1518
बिन्दु 1518
शक्तियां 1518
स्पोर्ट 1518
बहनें 1517
बैक@@ 1517
मुश@@ 1517
पंजी@@ 1516
बित 1516
बोनी 1516
मिनि@@ 1516
रोज़गार 1516
सीआईआई 1516
होल्डर 1516
ताकतवर 1515
लार्ड 1515
BCCI 1514
उत्पादित 1514
एएम 1514
जिलाधिकारी 1514
त्सव 1514
मकर 1514
संवेदनशीलता 1514
हवीं 1514
अनन्या 1513
इब्रानियों 1513
गुरुद्वारा 1513
मनन 1513
कृष्णन 1512
नृ@@ 1512
साहसिक 1512
छाप 1511
पेशा@@ 1511
बछ@@ 1511
रोकते 1511
सब्जी 1511
सराहा 1511
GST 1510
RBI 1510
टीपी 1510
प्ट 1510
महानिरीक्षक 1510
वाइड 1510
दांत 1508
देखती 1508
प्रारम्भ 1508
कारें 1507
मुनाफा 1507
सीडेंट 1507
1980 1506
ट्रांसपोर्ट 1506
तरों 1506
बत्@@ 1506
ब्राह्मण 1506
उतारने 1505
चमोली 1505
चव्हाण 1505
लेग 1505
सुलेमान 1505
जायें 1504
नंदा 1504
शीतकालीन 1504
सिंधू 1504
अस्थ@@ 1503
पिछड़ा 1503
मौद्रिक 1503
ंव 1502
अंश@@ 1502
आइस@@ 1502
गानों 1502
टाइन 1502
मिलान 1502
सबूतों 1502
कीर्ति 1501
केन्या 1501
खिलाडि़यों 1501
दंपति 1501
मानवाधिकारों 1501
रखनी 1501
हिं@@ 1501
अभिलेख 1500
अर्धशतक 1500
कहलाता 1500
घोड़े 1500
झांसी 1500
तुरन्त 1500
प्राथमिकताओं 1500
बदनाम 1500
यथास्थिति 1500
स्टुअर्ट 1500
09.@@ 1499
तमं@@ 1499
बंधक 1499
सिफारिशें 1499
अमरनाथ 1498
गौर@@ 1498
प्रतिपक्ष 1498
प्रशं@@ 1498
बोबडे 1498
मग़@@ 1498
al 1497
u@@ 1497
पात्रता 1497
विलास 1497
शार्@@ 1497
उपयोक्ता 1496
गिरकर 1496
जिया@@ 1496
दिक्कतों 1496
दिखे@@ 1496
दुल्@@ 1496
निविदा 1496
पीसीएल 1496
यार्ड 1496
सिंहासन 1496
टिकटों 1495
फ्लैट 1495
मैके@@ 1495
ऑडि@@ 1494
कनेक्ट 1494
ग्रह@@ 1494
फ्रेम 1494
स्लो@@ 1494
इका@@ 1493
इसमे 1493
कावट 1493
खजू@@ 1493
ट्रिक्स 1493
पैड 1493
बीएम@@ 1493
विक्रेता 1493
सुदूर 1493
हंस 1493
हाफ 1493
ंची 1492
एबीवीपी 1492
कटो@@ 1492
निर्गम 1492
परम@@ 1492
फ्रेंचाइजी 1492
मानकर 1492
राजभवन 1492
कारतूस 1491
पूर्ववर्ष 1491
बतायी 1491
राह@@ 1491
शियां 1491
आश्र@@ 1490
गतिशीलता 1490
बांड 1490
es 1489
कुबूल 1489
ड्रन 1489
सैट 1489
for 1488
द्दी 1488
मेडिसिन 1488
वक 1488
उल्लिखित 1487
कोश 1487
जुनून 1487
संकलन 1487
हैक 1487
कृतज्ञता 1486
चिन्ता 1486
भतीजे 1486
स्ते 1486
अंगू@@ 1485
तकलीफ@@ 1485
हेली@@ 1485
140 1484
ख़ि@@ 1484
फार्मा 1484
मुख्यधारा 1484
सेवकाई 1484
सोरेन 1484
आज्ञाकारी 1483
उग्र@@ 1483
मांगें 1483
शिवकुमार 1483
षकों 1483
णन 1482
पुर्तगाल 1482
पोरेट 1482
फरमाया 1482
फिंग 1482
वान@@ 1482
हथकरघा 1482
हस्तांतरित 1482
1996 1480
चैम्पियन 1480
पांव 1480
पैरा 1480
बैंग@@ 1480
मोटी 1480
लानेवालो 1480
सगाई 1480
सप्ता@@ 1480
अंदरूनी 1479
कसा 1479
कारगिल 1479
ट्रिपल 1479
वक्@@ 1479
इलाका 1478
एहद 1478
कैच 1478
पहुँची 1478
सोल 1478
असं@@ 1477
कतई 1477
नैनो 1477
रोधक 1477
वेयर 1477
वॉशिंगटन 1477
शर्ट 1477
150वीं 1476
इज 1476
बसें 1476
सिस्ट@@ 1476
or 1475
or@@ 1475
अंधे@@ 1475
इन्स 1475
उपलब्धियां 1475
कराएगा 1475
दण्ड 1475
नक्सलियों 1475
पीटी 1475
मुख्तार 1475
रबी 1475
संहार 1475
सावंत 1475
सीना 1475
स्तन@@ 1475
750 1474
खंडों 1474
छाई 1474
डालता 1474
परीक्षणों 1474
लीडर 1474
लुटे@@ 1474
सते 1474
चौबे 1473
मोर 1473
शाहीन 1473
k 1472
आरबी 1472
उगा@@ 1472
घोषणा@@ 1472
टेंगे 1472
मसलों 1472
संघर्ष@@ 1472
मृत्यु@@ 1471
रहा@@ 1471
वैधता 1471
ंको 1470
अमेरि@@ 1470
अविश्वास 1470
आकां@@ 1470
इंग@@ 1470
गैलेक्सी 1470
घिरा 1470
अगुआई 1469
धर्मनिरपेक्ष 1469
बघेल 1469
माइक्रोसॉफ्ट 1469
वेरी 1469
सांकेतिक 1469
करारी 1468
पौराणिक 1468
प्रोटो@@ 1468
07.@@ 1467
अदिलाबादु 1467
अरा@@ 1467
आगंतु@@ 1467
आदर्शों 1467
उम्मीदों 1467
एआई@@ 1467
ऑस्कर 1467
पैलेस 1467
प्रैक्@@ 1467
पलटवार 1466
पांड@@ 1466
संविदा 1466
धन्य 1465
प्रहरीदुर्ग 1465
प्रेरणा@@ 1465
फॉलो 1465
बनारस 1465
यूपी@@ 1465
http 1464
त्यागी 1464
पत्तियों 1464
पात्रा 1464
प्रतिक्रिया@@ 1464
ब्लैक@@ 1464
सेफ 1464
कंप्यू@@ 1463
दालों 1463
पानीपत 1463
मिका 1463
सन्देह 1463
1992 1462
बेहश्त 1462
भरोसे 1462
महापौर 1462
विचाराधीन 1462
पना 1461
बहू 1461
मुद्रा@@ 1461
वास@@ 1461
ईन 1460
कताएं 1460
मिशनरी 1460
स्टी 1460
चाइना 1459
बंदूक 1459
104 1458
1950 1458
दर्ज़ 1458
लैक्@@ 1458
आक्रोश 1457
ऑटोमोबाइल 1457
बिक 1457
विधवा 1457
ऊँ 1456
कमाने 1456
क्लीन 1456
दय@@ 1456
धक्का 1456
वृत्ता@@ 1456
हाउस@@ 1456
14,@@ 1455
अनु 1455
एचआईवी 1455
क्रमा@@ 1454
छावनी 1454
बाबरी 1454
माने@@ 1454
सैनिटाइ@@ 1454
गज@@ 1453
मनरेगा 1453
15,@@ 1452
21.@@ 1452
अनुप्रयोगों 1452
ऊँची 1452
गुरदासपुर 1452
दार्शनिक 1452
दुश्मनों 1452
पूजन 1452
बनाओ 1452
बरस 1452
भौतिकी 1452
रेस्तरां 1452
विनष्ट 1452
श्रद्धालु 1452
दर्शा@@ 1451
देनेवाला 1451
पहुंचीं 1451
प्रौद्योगि@@ 1451
बिज@@ 1451
महिला@@ 1451
मुह@@ 1451
लाठी 1451
विमान@@ 1451
en@@ 1450
ंघ@@ 1450
आल 1450
क्टरों 1450
चने 1450
जादूगर 1450
तब्बू 1450
भयावह 1450
जॉय 1449
डीएसटी 1449
बनाएँ 1449
इसे@@ 1448
ऊँचे 1448
प्रसंग 1448
मुक्के@@ 1448
शृंखला 1448
शोरूम 1448
हाला@@ 1448
आईफोन 1447
करेंः 1447
जवानी 1447
बाबर 1447
बेहतरी 1447
भीत 1447
मौकों 1447
वांग 1447
सफल@@ 1447
तोहफा 1446
लनी 1446
शर्मि@@ 1446
अर्जेंटीना 1445
आनेवाले 1445
इलेक्ट्रि@@ 1445
गाम 1445
डिजाइनर 1445
दामाद 1445
पचा@@ 1445
बिगड़@@ 1445
रवीश 1445
201@@ 1444
Cup 1444
ar 1444
कराधान 1444
काउंटर 1444
पियन 1444
भटक 1444
रामदेव 1444
्री@@ 1444
तर्@@ 1443
तालाब 1443
फ़िरऔन 1443
योद्धा 1443
सीरीज़ 1443
स्की 1443
1962 1442
दाना 1442
नज़रिया 1442
पीपीई 1442
प्रदाताओं 1442
सरी@@ 1442
US 1441
एप्@@ 1441
नाइजीरिया 1441
बिताने 1441
लड़ना 1441
अनंतनाग 1440
गाइ@@ 1440
जाम@@ 1440
जिन्ना 1440
जीवनी 1440
नकल 1440
सौंदर्य 1440
सौहार्द 1440
हिरा 1440
06.@@ 1439
एंगल 1439
बहाली 1439
मर्या@@ 1439
अम्बेडकर 1438
इकल@@ 1438
वोल्टेज 1438
शासकीय 1438
नेल 1437
मिलाया 1437
लक्षद्वीप 1437
शरणार्थी 1437
सरपंच 1437
सिल्@@ 1437
काइ@@ 1436
गिरफ्त 1436
गोपनीय 1436
ग्लै@@ 1436
टोनी 1436
दर्शाते 1436
दिशा@@ 1436
भड़क 1436
अनावश्यक 1435
अभियुक्त 1435
आमंत्रण 1435
आरोप@@ 1435
काल्पनिक 1435
किरेन 1435
चंद@@ 1435
बुझाने 1435
सुब्रमण्यम 1435
भट्टाचार्य 1434
रामपाल 1434
संरचनात्मक 1434
ICC 1433
अर्ध 1433
अहं@@ 1433
ऊँगा 1433
ककर 1433
कैंडि@@ 1433
राठौड़ 1433
21वीं 1432
तमन्ना 1432
दूँगा 1432
म्स@@ 1432
एनपीआर 1431
चढ़ाई 1431
तलाशने 1431
दवाएं 1431
फाल 1431
आधार@@ 1430
उपयोगिता 1430
ऋष@@ 1430
कत@@ 1430
कुरि@@ 1430
प्रचंड 1430
फ़त 1430
यॉर्क 1430
1997 1429
ंटल 1429
ईटी 1429
ठाणे 1429
णः 1429
पटल 1429
प्रिंसिपल 1429
रचना@@ 1429
रहस्य@@ 1429
वृद्ध 1429
सहारे 1429
हार्डवेयर 1429
हिप 1429
अनियमि@@ 1428
तिर 1428
नं@@ 1428
बड़ौदा 1428
राइफल 1428
वर्स 1428
सरकश 1428
सर्दी 1428
स्नेह 1428
हाजिर 1428
अंकुश 1427
खंडपीठ 1427
त्ता@@ 1427
बादी 1427
लौटना 1427
ओएनजीसी 1426
ग्राफर 1426
ज़िंदा 1426
फँ@@ 1426
मर्रा 1426
वीएस 1426
समेंट 1426
सवाब 1426
एसएम@@ 1425
गोपी@@ 1425
तलाक़ 1425
एचएस 1424
करूँ 1423
मदर@@ 1423
शब्द@@ 1423
हिंदु@@ 1423
कक्षाओं 1422
पावन 1422
प्रतिरक्षा 1422
रास्त 1422
विला@@ 1422
आस@@ 1421
टियां 1421
मलबे 1421
मानव@@ 1421
मियां 1421
म्बर 1421
म्मा 1421
शिल्प@@ 1421
60@@ 1420
आरोग्य 1420
निशा@@ 1420
निश्@@ 1420
शिरो@@ 1420
श्वेत 1420
सोर्स 1420
30.@@ 1419
अभ्या@@ 1419
उठाई 1419
क्लिंटन 1419
टेक्नो@@ 1419
भाज@@ 1419
कुर्सी 1418
जिये 1418
समिट 1418
ीकृत 1418
आला@@ 1417
आश्चर्यजनक 1417
काले@@ 1417
अपनाना 1416
एनएल 1416
संक्रामक 1416
क़ुदरत 1415
किया@@ 1415
घन 1415
चॉ@@ 1415
निराशाजनक 1415
पठानकोट 1415
उठकर 1414
चार्ट 1414
धर्मेन्द्र 1414
पद्म@@ 1414
भेड़ों 1414
समुद्र@@ 1414
हटाना 1414
ईशान 1413
एएस@@ 1413
कारीगरों 1413
टैक्@@ 1413
तर्कसंगत 1413
पीस 1413
बदलती 1413
मुं@@ 1413
लापन 1413
सत्ताधारी 1413
अंशदान 1412
दिग्@@ 1412
धनुष 1412
नगरीय 1412
न्नी 1412
फिनलैंड 1412
बैठी 1412
रॉय@@ 1412
सला 1412
लग्@@ 1411
विगत 1411
विविध@@ 1411
स्त्रियाँ 1411
मौनी 1410
लाइसे@@ 1410
सूखा 1410
ख्वाजा 1409
जोड़ता 1409
टैं@@ 1409
तत्व@@ 1409
फ़ैसले 1409
फिली@@ 1409
भावनाएं 1409
हरि 1409
22.@@ 1408
रियो@@ 1408
हीरा 1408
उठने 1407
दोहन 1407
परिपूर्ण 1407
मैने@@ 1407
विज्ञापनों 1407
संयोग 1407
१९ 1407
कीपर 1406
ख़राब 1406
टिप्पणियां 1406
धरा 1406
नरी 1406
बिट 1406
बीबीसी 1406
वान् 1406
श्रेयस 1406
23.@@ 1405
खुशहाली 1405
झुठला 1405
पन्नू 1405
प्लेस 1405
समयबद्ध 1405
आईए 1404
काबिल 1404
गिरफ़्तार 1404
डरे 1404
ड्यूल 1404
तारीखों 1404
दिखेंगे 1404
समन 1404
सांख्यिकीय 1404
सेवानिवृत्ति 1404
देशा@@ 1403
पोम्पि@@ 1403
ब्री@@ 1403
भूमिगत 1403
माध्यमों 1403
मुजाहि@@ 1403
रिफाइनरी 1403
शिवपाल 1403
चट्टान 1402
जानेवाले 1402
धूम 1402
परक 1402
मानु@@ 1402
ल्फ 1402
सहाय 1402
एंबुलेंस 1401
टीजर 1401
तद@@ 1401
पिताजी 1401
सेटिंग 1401
ंबली 1400
एनएच 1400
कटा 1400
दूरस्थ 1400
परामर्@@ 1400
फार्मास्@@ 1400
कार्यक्षेत्र 1399
खिलाडिय़ों 1399
चिंताजनक 1399
टीआई 1399
पीएसयू 1399
फिंगरप्रिंट 1399
नौकर@@ 1398
मार्ग@@ 1398
य्य@@ 1398
इलेक्ट्रा@@ 1397
ध्वस्त 1397
नाबार्ड 1397
फिलीपींस 1397
कुलर 1396
गुलाबी 1396
ग्रीष्@@ 1396
बांग्ला 1396
भव@@ 1396
सर्वि@@ 1396
सावधा@@ 1396
स्टाइ@@ 1396
डं@@ 1395
फाइन@@ 1395
विशि@@ 1395
श्ती 1395
सॉलि@@ 1395
उखा@@ 1394
दुग्ध 1394
न्ड 1394
पत्रिकाओं 1394
यिर्मयाह 1394
अभिभावक 1393
अश्लील 1393
एफआई 1393
जाद 1393
पाओगे 1393
बुजुर्गों 1393
भत्ता 1393
मुकु@@ 1393
मुताबिक़ 1393
हार्य 1393
पिघ@@ 1392
योगे@@ 1392
राजेन्द्र 1392
वालो 1392
संपाद@@ 1392
सरसों 1392
चतुर्वेदी 1391
जुर्म 1391
नामांकित 1391
आनु@@ 1390
ऊर्@@ 1390
कारखाने 1390
कार्यकारिणी 1390
गाँ@@ 1390
थर्मल 1390
फीफा 1390
मुलाक़ात 1390
रुझान 1390
लाएँ 1390
सक्रियता 1390
सेमिनार 1390
हिन्दुओं 1390
औषधीय 1389
कनेक्@@ 1389
काँ@@ 1389
स्रा@@ 1389
04.@@ 1388
कोहरे 1388
गर्भा@@ 1388
ठहराते 1388
ताज़ा 1388
रक@@ 1388
वंशी 1388
अच्छ@@ 1387
इत्ते@@ 1387
ज्योति@@ 1387
टोक्यो 1386
पीड़@@ 1386
सत्यापित 1386
सूबे 1386
अभिनेताओं 1385
आईएसएफ 1385
उत्साह@@ 1385
ज्ड 1385
दुर्घटनाग्रस्त 1385
प्रतिभागी 1385
फ्लू 1385
एक्सिस 1384
क़ौ@@ 1384
जंक्शन 1384
टर्न@@ 1384
पतन 1384
पाइपलाइन 1384
मौजिज़े 1384
शोभा 1384
संवेदनाएं 1384
आर्थ@@ 1383
एक्सेस 1383
जूट 1383
बायो 1383
रिकॉर्डिंग 1383
वेस्टमेंट 1383
शालाओं 1383
COVID 1382
FIR 1382
थलग 1382
याद@@ 1382
वास्तु@@ 1382
हमी 1382
इंफ्रास्ट्रक्चर 1381
तकनी@@ 1381
मांजरेकर 1381
ंं 1380
ओमी 1380
कता@@ 1380
डील@@ 1380
नजीर 1380
नित 1380
प्रोसे@@ 1380
सेल्स 1380
काफिर 1379
ख़ू@@ 1379
फाइने@@ 1379
बान्@@ 1379
भेजकर 1379
कल्याणकारी 1378
छापा 1378
तिका 1378
मैथ्यू 1378
लगीं 1378
लार 1378
हाद@@ 1378
घोषणापत्र 1377
डिटे@@ 1377
ताक 1377
पाला 1377
मनु@@ 1377
संदेशों 1377
48@@ 1376
बलूचिस्तान 1376
बाहुबली 1376
मिलन 1376
मेकर 1376
लिकाओं 1376
सप्@@ 1376
साझी 1376
ईएस 1375
जिंद@@ 1375
त्याग@@ 1375
निगमों 1375
बीत 1375
व्स 1375
अमर@@ 1374
एवाई 1374
दुरुस्त 1374
बल्ले@@ 1374
ेगें 1374
2025 1373
दायित्वों 1373
रियलिटी 1373
विस्त@@ 1373
कबड्डी 1372
कोठ@@ 1372
निकलकर 1372
महीना 1372
ar@@ 1371
उड़ 1371
एनएसजी 1371
लड़ी 1371
स्या@@ 1371
am@@ 1370
जहर 1370
डांसर 1370
ड्राफ्ट 1370
भाई@@ 1370
हड्डी 1370
ंटी 1369
अत्याचारी 1369
आलोचकों 1369
आविष्कार 1369
इफि@@ 1369
एपिसोड 1369
कली@@ 1369
कीटना@@ 1369
कोलंबिया 1369
ग्न 1369
जेएन@@ 1369
भेजना 1369
वचन@@ 1369
सब्जियां 1369
असंवैधानिक 1368
ढील 1368
पट्टे 1368
पीपीएसी 1368
लोस 1368
विज 1368
वीके 1368
वॉर 1368
शेड्यूल 1368
बेर 1367
सीओ 1367
अफ़@@ 1366
एला 1366
कूटनीतिक 1366
चूँकि 1366
दीस 1366
निष@@ 1366
बत@@ 1366
वाक़@@ 1366
us 1365
अप्स 1365
उम्रकैद 1365
ठंडे 1365
शिता 1365
सुथ@@ 1365
उपल@@ 1364
एक्सप्रे@@ 1364
नाई@@ 1364
बग@@ 1364
साजिद 1364
1993 1363
27.@@ 1363
आकाशवाणी 1363
ग़ 1363
जर्सी 1363
तोड़फोड़ 1363
दर्जनों 1363
राइड 1363
वाहा 1363
हिन्दु@@ 1363
05.@@ 1362
at 1362
कैल्शियम 1362
कोमल 1362
पंचवर्षीय 1362
विलंब 1362
समैन 1362
स्तों 1362
कुलभूषण 1361
गन@@ 1361
चम्@@ 1361
छाए 1361
राजा@@ 1361
28.@@ 1360
अधिकरण 1360
आंबेडकर 1360
ख्वाहिश 1360
मंडप 1360
ज्वा@@ 1359
तख्@@ 1359
तटों 1359
नम्र 1359
निभाती 1359
न्तों 1359
पूर्णतः 1359
फौज 1359
रिव्यू 1359
सु 1359
प्रांतीय 1358
मार्श 1358
यांत्रिकी 1358
सेक्रेटरी 1358
उतने 1357
उम्दा 1357
कच्छ 1357
ख्वा@@ 1357
ग्रै@@ 1357
बाय@@ 1357
मुगल 1357
ूं 1357
इत्@@ 1356
इमरजेंसी 1356
इर@@ 1356
उग्रवाद 1356
कराकर 1356
गुर्@@ 1356
डिपार्टमेंट 1356
धं@@ 1356
बिंदुओं 1356
संतुष्टि 1356
संप्र@@ 1356
सरे@@ 1356
सर्जन 1356
१९७@@ 1356
झोंक 1355
ट्राई 1355
मुल्@@ 1355
मैटिक 1355
रेखा@@ 1355
रॉस 1355
सूजन 1355
आवृ@@ 1354
टीएस 1354
तिलक 1354
बर्तन 1354
लेम 1354
क्षाएं 1353
वय@@ 1353
हाना 1353
अध्ययनों 1352
इतिहासकार 1352
ओलम्पिक 1352
नजात 1352
बहने 1352
भविष्यवक्ता 1352
लक्@@ 1352
वसुंधरा 1352
हैप्पी 1352
कम्पनियों 1351
ताइवान 1351
पैदावार 1351
बगल 1351
रिसेप्शन 1351
हेमा 1351
24.@@ 1350
कमो@@ 1350
गिरि 1350
डेस्कटॉप 1350
निर्मल 1350
प्रस्ता@@ 1350
मॉरीशस 1350
अभिनीत 1349
काबा 1349
घनत्व 1349
टोयोटा 1349
नेगी 1349
प्लेक्स 1349
बुला@@ 1349
भरत 1349
स्कॉटलैंड 1349
चुनावः 1348
टलर 1348
बरबाद 1348
मैन@@ 1348
सले 1348
साड़ी 1348
अवशेष 1347
इलेक्ट्रॉ@@ 1347
एप्लिकेशन 1347
कॉन्ग्रेस 1347
पुकारते 1347
प्रकाशना 1347
लनों 1347
h 1346
इण्@@ 1346
ईस 1346
कव@@ 1346
ट्यूट 1346
डियन 1346
तबाद@@ 1346
दान@@ 1346
दृष्टा@@ 1346
आर्य 1345
क्य 1345
क्विंटल 1345
डेल्@@ 1345
फोटोग्राफी 1345
बालाकोट 1345
रोहि@@ 1345
विंडो@@ 1345
ॉन 1345
25,000 1344
उद्धृत 1344
ट्रिलियन 1344
साझी@@ 1344
सुनना 1344
स्मा@@ 1344
अजीज 1343
आइसोलेशन 1343
इंसाफ 1343
कैश@@ 1343
ख्य@@ 1343
चार्ल्स 1343
परीक्षाएं 1343
पादरी 1343
पोर 1343
मून 1343
संदिग्धों 1343
सेन्@@ 1343
SBI 1342
अपनाए 1342
अवमानना 1342
कटा@@ 1342
कैमरों 1342
पिस्टल 1342
मेटिक 1342
रामविलास 1342
आयातित 1341
गम्भीर 1341
ढूंढ@@ 1341
प्य@@ 1341
प्राणियों 1341
बाह 1341
भाटिया 1341
समाहित 1341
एचओ 1340
ज्यादती 1340
झंडा 1340
ट्रैक्ट 1340
पोते 1340
मज@@ 1340
170 1339
उंग@@ 1339
उत्पादकों 1339
दूरदर्शन 1339
रिचर्ड 1339
लैण्ड 1339
दानिय्येल 1338
निन 1338
सैद्धांतिक 1338
ंज@@ 1337
अस्थिर 1337
एमबी@@ 1337
तदनुसार 1337
वफादारी 1337
वेंटिलेटर 1337
सर्वा@@ 1337
सीमाएं 1337
सुमन 1337
अख@@ 1336
गेट्स 1336
जनल 1336
तैयबा 1336
यमन 1336
विकार 1336
ीम 1336
आस्ति 1335
ऎ@@ 1335
क़ै@@ 1335
काएँ 1335
खाएं 1335
ब्ल@@ 1335
लॉन्ड्रिंग 1335
अगर@@ 1334
करूँगा 1334
कीकरण 1334
डि़@@ 1334
तेहैं 1334
नैनीताल 1334
बडे 1334
बिड़ला 1334
रन@@ 1334
सुनाने 1334
होम्यो@@ 1334
आपदाओं 1333
इनोवेशन 1333
इल@@ 1333
देखोगे 1333
ज़रु@@ 1332
नियन 1332
पहुंचाना 1332
बोल्ट 1332
र्ो 1332
विलियम्स 1332
सिद्धान्त 1332
VI@@ 1331
अनुयायियों 1331
कन्या 1331
चमक@@ 1331
छिपी 1331
झेल 1331
बेयर@@ 1331
माइश 1331
माणिक 1331
मैत्रीपूर्ण 1331
रक्तचाप 1331
ललए 1331
शेखावत 1331
सरफराज 1331
साहा 1331
श्रा@@ 1330
कोय@@ 1329
नॉर्@@ 1329
पालक 1329
मंगे@@ 1329
जाज 1328
डरने 1328
नकारी 1328
प्रयागराज 1328
सिखों 1328
इको@@ 1327
उत्थान 1327
कतार 1327
फॉलो@@ 1327
बद्धता 1327
बाध्य@@ 1327
मंथन 1327
करुणा@@ 1326
कॉलम 1326
फ्ले@@ 1326
रिज 1326
शासकों 1326
सस 1326
सेवी 1326
चालान 1325
चिंतन 1325
त्त@@ 1325
पोर्टफोलियो 1325
मोस 1325
हेल@@ 1325
03.@@ 1324
जॉब 1324
डि 1324
पाओ 1324
हारे 1324
1,4@@ 1323
175 1323
खुराक 1323
दाब 1323
दिखाकर 1323
निकोलस 1323
नीकरण 1323
रणजी 1323
रेंट 1323
वर्धित 1323
संकेतों 1323
उस्मान 1322
टेकर 1322
धिकृत 1322
निष्कर्@@ 1322
पाटी@@ 1322
पुंछ 1322
पेंटिंग 1322
बशर्ते 1322
मुंहतोड़ 1322
ष्टा@@ 1322
अन्ना 1321
ग्रन्@@ 1321
निर्वहन 1321
मार्कस 1321
मिड 1321
रक्षा@@ 1321
रखाव 1321
25.@@ 1320
r 1320
अपरा@@ 1320
अा@@ 1320
गारों 1320
प्रार@@ 1320
लगाव 1320
विधायी 1320
शिष्य 1320
अल्मोड़ा 1319
कमांडिंग 1319
डीबीटी 1319
निए 1319
रियायत 1319
ऑन@@ 1318
प्रोफेशनल 1318
छलांग 1317
दायरा 1317
प्रू@@ 1317
मिलों 1317
मोचन 1317
वैष्ण@@ 1317
उबर 1316
क्षणों 1316
गोस्वामी 1316
डब्ल्यूसी 1316
मुक़@@ 1316
वेडिंग 1316
सिय@@ 1316
स्तू@@ 1316
कलंक 1315
एआईएमआईएम 1314
तौभी 1314
नाका@@ 1314
नियो@@ 1314
बढाने 1314
म्मे 1314
शादीशुदा 1314
शुष्क 1314
स्टूडेंट 1314
एनएस 1313
करायी 1313
किराये 1313
टार@@ 1313
डेट्स 1313
निर्देशिका 1313
फिक्की 1313
विज्ञानी 1313
` 1312
अथक 1312
आदिवासियों 1312
कपल 1312
तरे 1312
तांत्रिक 1312
थोरा@@ 1312
नियाम@@ 1312
पत्थरों 1312
बहुल 1312
मोटा@@ 1312
यूआई 1312
स्तन 1312
1995 1311
26.@@ 1311
In@@ 1311
खौ@@ 1311
भं@@ 1311
भुला 1311
रज 1311
लड़ेगी 1311
आगाज 1310
एंव 1310
तुम्@@ 1310
प्रगट 1310
स्य 1310
हरे@@ 1310
इज़@@ 1309
केसः 1309
शीलता 1309
ईः 1308
ऑडिट 1308
चुकाने 1308
डालो 1308
फॉर्मेट 1308
शकर 1308
शत्रुघ्न 1308
जूते 1307
दावेदार 1307
शौचालयों 1307
आँखें 1306
कोशिशें 1306
क्षेत्रफल 1306
टैरिफ 1306
दुचेरी 1306
नौजवानों 1306
परिसंघ 1306
लाइड 1306
वेंशन 1306
साया 1306
हावड़ा 1306
ईं@@ 1305
डेंगू 1305
प्लेइंग 1305
मालिनी 1305
शोपियां 1305
सोनोवाल 1305
तानी 1304
पहना 1304
भिन्नता 1304
भेजे@@ 1304
यंग 1304
सद्भावना 1304
ंगि@@ 1303
उत्तरदायित्व 1303
क्रीम 1303
मुकुल 1303
लक्ष@@ 1303
वनों 1303
विनि@@ 1303
वैं@@ 1303
संके@@ 1303
केवी@@ 1302
निटी 1302
निरंतरता 1302
रश्मि 1302
लेड 1302
्व@@ 1302
अय@@ 1301
क्के 1301
पापों 1301
रुख़ 1301
नेश 1300
फ़्रा@@ 1300
मच्छ@@ 1300
समझदार 1300
हस्तियां 1300
30,000 1299
चिकित्सकीय 1299
पां@@ 1299
राजे@@ 1299
विक्टोरिया 1299
एव 1298
डिफ़ॉल्ट 1298
लालच 1298
वनी 1298
सनसनी 1298
साहि@@ 1298
ل@@ 1297
क्सी 1297
डमैन 1297
पियो 1297
माउ@@ 1297
राख 1297
श्ले@@ 1297
1956 1296
1991 1296
उद्देश@@ 1296
खिल 1296
पुरूषों 1296
मौन 1296
शप 1296
ठहर@@ 1295
प्रगाढ़ 1295
फ़ंक्शन 1295
फुल्@@ 1295
बक@@ 1295
भरोसेमंद 1295
शिय@@ 1295
संस्कृतियों 1295
https 1294
अस्थाना 1294
पीडी 1294
सीएनजी 1294
एनएसएस 1293
ऑपरेटर 1293
ख़बरदार 1293
दिव्यांगजनों 1293
नैनो@@ 1293
ब्रॉड 1293
मगध 1293
खदे@@ 1292
खुला@@ 1292
चेले 1292
नकार 1292
पोज 1292
मेश्वर 1292
मैत्री 1292
एहतिया@@ 1291
कारि@@ 1291
ग्रं@@ 1291
भोजपुरी 1291
राठौर 1291
अनोखी 1290
एचए@@ 1290
ऑब्@@ 1290
केक 1290
बदलें 1290
भाईचारे 1290
सिनेमा@@ 1290
ओबे@@ 1289
ओम@@ 1289
गनी 1289
डिविलियर्स 1289
प्रच@@ 1289
रः 1289
संक्षेप 1289
असुरक्षित 1288
आईटीसी 1288
चाहेगा 1288
तनु@@ 1288
निकटतम 1288
पोरा 1288
मोशन 1288
सबमिट 1288
NH@@ 1287
कल्प 1287
कोशिका@@ 1287
मंडा@@ 1287
मज़ा@@ 1287
राजनेताओं 1287
अग्निशमन 1286
अभ@@ 1286
आईसीटी 1286
आलो@@ 1286
खालिद 1286
शुक्ल 1286
32@@ 1285
दुर्ग 1285
पीसीआर 1285
वास्त@@ 1285
00,000 1284
किं@@ 1284
पर्वतीय 1284
लुत्फ 1284
सार्क 1284
एसएससी 1283
क्तियां 1283
तर्ज 1283
नारी 1283
संस्थाएं 1283
650 1282
अगु@@ 1282
आद 1282
एबी@@ 1282
नोई 1282
लव@@ 1282
संपादित 1282
हेलिकॉप्टर 1282
अत@@ 1281
अन्तर्राष्ट्रीय 1281
डरा 1281
पांचों 1281
रेख 1281
39@@ 1280
as@@ 1280
उत्त@@ 1280
ध्य 1280
बांध@@ 1280
रेंगे 1280
इश्@@ 1279
कोविन्द 1279
परफॉर्@@ 1279
पीय 1279
यान@@ 1279
रिलेशनशिप 1279
वांस 1279
india 1278
उड़ाया 1278
एलएमटी 1278
कदा@@ 1278
गिंग 1278
नाहक़ 1278
ससु@@ 1278
जीपुर 1277
पड@@ 1277
पीड@@ 1277
मक्खी 1277
म्बर@@ 1277
राने 1277
लाओं 1277
स्वरा 1277
एएसआई 1276
काफि@@ 1276
टुकड़ों 1276
ताकतों 1276
पाम 1276
पीते 1276
माफ़ 1276
यूनिवर्@@ 1276
हैऔर 1276
आईएमडी 1275
कॉन्फ़ि@@ 1275
जॉर्डन 1275
ठप 1275
थुन 1275
निराधार 1275
बुवाई 1275
मंडलों 1275
रिक्@@ 1275
ल्म 1275
विश्वासी 1275
स्विच 1275
कश्@@ 1274
काया@@ 1274
टास्क 1274
डिजी@@ 1274
डेली 1274
नमी 1274
बहती 1274
बुले@@ 1274
अदरक 1273
आड़े 1273
एडिशन 1273
रियाई 1273
वर्ण@@ 1273
साइंसेज 1273
Home 1272
अर्थशास्त्री 1272
अलं@@ 1272
खुलने 1272
पद्धतियों 1272
भेजें 1272
सत्@@ 1272
तीखी 1271
फटकार 1271
फिरते 1271
स्त्रों 1271
ंगेः 1270
एंड्रयू 1270
कड़ 1270
कर्ण 1270
धड़क 1270
पमेंट 1270
फ्रॉ@@ 1270
बापू 1270
महावीर 1270
लिए@@ 1270
श्रृ@@ 1270
स्तीनी 1270
क्वाली@@ 1269
त्तम 1269
थानों 1269
न्योता 1269
वैदिक 1269
होनेवाली 1269
महाप्रबंधक 1268
लगाता 1268
अलवर 1267
परेशा@@ 1267
मासूम 1267
श्चि@@ 1267
२५ 1267
एंटर@@ 1266
जीपीएस 1266
निष्ठ 1266
पॉली@@ 1266
बेल्ट 1266
राधा@@ 1266
लैपटॉप 1266
वैवाहिक 1266
शुक्रगु@@ 1266
संबंध@@ 1266
स्कू@@ 1266
स्त्र 1266
हता 1266
z 1265
एएम@@ 1265
खने 1265
ट्रेंट 1265
म्या@@ 1265
इंजीनियरों 1264
झंडे 1264
लैंडर 1264
वादन 1264
टेलीकॉम 1263
दिखती 1263
मिसाइ@@ 1263
लूस 1263
आस्ट्रेलियाई 1262
कार्र@@ 1262
धोखे 1262
नोड 1262
पछता@@ 1262
हला@@ 1262
पुरातत्व 1261
16,@@ 1260
जाबाद 1260
पंचा@@ 1260
भर्@@ 1260
याज@@ 1260
लंबन 1260
सेलि@@ 1260
एआर 1259
एनपीएस 1259
कलाप 1259
बीपी 1259
रोके 1259
हीत 1259
हॉट@@ 1259
इच्छाओं 1258
कम्प@@ 1258
ढे@@ 1258
तसवीर 1258
धुंध 1258
नेटवर्किंग 1258
शस्त्र 1258
दरवा@@ 1257
प्रारू@@ 1257
बब्बर 1257
ब्लास्ट 1257
रती 1257
वोटर 1257
सिव 1257
सीएफ@@ 1257
स्टीन 1257
हवेली 1257
क्वालकॉम 1256
गुहार 1256
दोसांझ 1256
द्रा@@ 1256
पूज@@ 1256
पेटीएम 1256
फ्रा 1256
बहरीन 1256
माही 1256
मूर्ति@@ 1256
रक 1256
लज्@@ 1256
जोनास 1255
संगणित 1255
ED 1254
इक@@ 1254
चैं@@ 1254
नीले 1254
श्रीनिवास 1254
सीएस 1254
सूक्ष्@@ 1254
अँ@@ 1253
कोतवाली 1253
टाया 1253
ब्रह्मास्त्र 1253
मुहिम 1253
सुसज्जित 1253
स्वाधीनता 1253
हारने 1253
एहकाम 1252
चोकसी 1252
तीर 1252
पकड़कर 1252
पेश@@ 1252
मोहलत 1252
हिफाज़त 1252
कौशिक 1251
खुर्@@ 1251
छुट्@@ 1251
जाल@@ 1251
दयाल 1251
निभाएंगे 1251
फातिमा 1251
सीनेट 1251
कराती 1250
डसे 1250
नक@@ 1250
मसौदे 1250
एनएचएआई 1249
त्यो@@ 1249
परिप्रेक्ष्य 1249
पारे@@ 1249
मोदी@@ 1249
करनाल 1248
कानों 1248
चालीस 1248
टार 1248
बहादुरी 1248
बुलेट 1248
चाहो 1247
दबा 1247
देनेवाले 1247
पत्तन 1247
प्रहार 1247
बेकिस्तान 1247
बेसिक 1247
भोग 1247
माली 1247
सीएसआर 1247
स्र@@ 1247
हुओं 1247
ंब 1246
मेसी 1246
म्यूजियम 1246
संशोधनों 1246
एजें@@ 1245
गजे@@ 1245
चेतन 1245
प्रत्यर्पण 1245
बरेली 1245
रवैये 1245
रोज़े 1245
सुलह 1245
ोली 1245
जागरण 1244
टर्न 1244
हेरा@@ 1244
अनुकरण 1243
गायन 1243
थर 1243
पोप 1243
साख 1243
हरी@@ 1243
चाँद 1242
दीनदयाल 1242
निकलती 1242
निष्पा@@ 1242
भूतपूर्व 1242
रुके 1242
उभरी 1241
क्री 1241
दूँ 1241
पाएँ 1241
वना 1241
शुद्धता 1241
समूद 1241
अहिंसा 1240
जिद 1240
डकै@@ 1240
तारे 1240
बाड़ी 1240
लेपन 1240
शकों 1240
अचल 1239
खेलेंगे 1239
गिराने 1239
चुपके 1239
विज्ञा@@ 1239
संरचनाओं 1239
सामयिक 1239
अड़@@ 1238
तून 1238
दुष्यंत 1238
पीडिया 1238
बढ़ाए 1238
मुकद@@ 1238
शत्रुओं 1238
स्वास्थ्य@@ 1238
ia 1237
अन्तर्@@ 1237
गाली 1237
नक्सली 1237
नदार 1237
निपटारा 1237
पूर्णिमा 1237
बखूबी 1237
बिठा@@ 1237
बृहस्पतिवार 1237
भूमिकाएं 1237
विकला@@ 1237
सस्पेंड 1237
ऑफि@@ 1236
झुंड 1236
टोन 1236
पहुंचना 1236
पॉपुलर 1236
प्रचारकों 1236
प्राधिकार 1236
प्रोसेसिंग 1236
र्ड्स 1236
सबर्ग 1236
समझी 1236
हकी@@ 1236
15,000 1235
कैंपस 1235
ठिकाने 1235
फोटोः 1235
बिनती 1235
रिवर्स 1235
समझदारी 1235
सम्मेलनों 1235
ंडरी 1234
खाद 1234
दिला 1234
यात्राओं 1234
लेडी 1234
हैरिस 1234
ितों 1234
अंधेरे 1233
पीना 1233
भेजता 1233
सुन्नी 1233
७ः 1233
आबे 1232
कजा@@ 1232
खाए 1232
तीर्थयात्रियों 1232
देशियों 1232
पश्@@ 1232
सरों 1232
ृ 1232
घाव 1231
चंद्रचूड़ 1231
तथाकथित 1231
नजरिया 1231
निर्बाध 1231
मण 1231
सीबीडीटी 1231
NRC 1230
उतारी 1230
खुदाई 1230
जहाँ@@ 1230
नक़@@ 1230
फीसद 1230
बाती 1230
बैक्टीरिया 1230
ब्योरा 1230
जॉर्@@ 1229
नट@@ 1229
सिक्का 1229
अपर्@@ 1228
ट्रैकिंग 1228
नाता 1228
्रा 1228
कोटक 1227
थक 1227
पहचानने 1227
२२ 1227
उर्जा 1226
उलझ@@ 1226
जैकलीन 1226
तौरेत 1226
धिकारियों 1226
नींबू 1226
रियम 1226
सांग@@ 1226
हक़ी@@ 1226
ंजी 1225
अल्प 1225
ग्ले@@ 1225
धार्मिकता 1225
धूमल 1225
वता 1225
विदर्भ 1225
इताअत 1224
क्षतिपूर्ति 1224
टायर 1224
दाँ@@ 1224
पेस्ट 1224
क्रैश 1223
जेनरे@@ 1223
पक्के 1223
बचाओ 1223
बनो 1223
रंजीत 1223
वाईएसआर 1223
64@@ 1222
आलोच@@ 1222
दड़ 1222
पीपी 1222
समझो 1222
स्त्रो@@ 1222
1970 1221
अशुद्ध 1221
कथाओं 1221
क्ष्य 1221
ग़ै@@ 1221
चुंबकीय 1221
चुअल 1221
दूषित 1221
रोह@@ 1221
लौटकर 1221
विश्वासयोग्य 1221
समया@@ 1221
तिरुवनंतपुरम 1220
नक्शे 1220
नीला@@ 1220
प्रदर्श@@ 1220
लैटिन 1220
सैटेलाइट 1220
हिसार 1220
िा@@ 1220
ठेस 1219
संचयी 1219
साधना 1219
सेफ्टी 1219
हाय 1219
एचसी 1218
जाऊंगा 1218
न्या 1218
प्रवा@@ 1218
मूवमेंट 1218
सांत्वना 1218
हारा 1218
ंकन 1217
अजिंक्य 1217
अरेस्ट 1217
इबरत 1217
कॉमन 1217
खुल्ला 1217
घमंड 1217
जीवनशैली 1217
तफरी 1217
न्यूटन 1217
बेथ 1217
ब्राउन 1217
मार्गदर्शक 1217
रिटेल 1217
षणों 1217
समानांतर 1217
सुपरहिट 1217
ैंस 1217
288 1216
अभियं@@ 1216
उपवास 1216
एलवी 1216
करूंगी 1216
डायरेक्शन 1216
धूमधाम 1216
नात 1216
नायें 1216
निर्यातक 1216
बेवकू@@ 1216
मिग 1216
रिज़र्व 1216
अनुक्रम 1215
आईएफएफआई 1215
केवीआईसी 1215
कॉलोनी 1215
पर्सन 1215
पल्स 1215
लोकार्पण 1215
सूत्र@@ 1215
कैडर 1214
गठजोड़ 1214
जरूरतमंद 1214
नली 1214
नासिक 1214
रचनाओं 1214
हाउसिंग 1214
आघात 1213
ऋण@@ 1213
जीएस 1213
डीओ@@ 1213
बगा@@ 1213
मजबू@@ 1213
अभय 1212
घूम 1212
छत्रपति 1212
जबर्@@ 1212
जीकरण 1212
तनावपूर्ण 1212
प्रचुर 1212
ल्ले 1212
विशाखा@@ 1212
व्यवस्थाओं 1212
हवाई@@ 1212
अभिप्रेत 1211
एफटी 1211
कर्मों 1211
छात्रावास 1211
नेतन्याहू 1211
संगी 1211
102 1210
क्राफ्ट 1210
क्वालीफाई 1210
जेक्शन 1210
फारसी 1210
लीवुड 1210
श्रेष्ठ@@ 1210
सज@@ 1210
सिक्के 1210
एथलेटिक्स 1209
क़्त 1209
त्रासदी 1209
पिस्तौल 1209
बची 1209
बास 1209
बॉय 1209
मुबारक 1209
विधा 1209
शियाई 1209
संपादन 1209
हव्वा 1209
गिरीश 1208
गीगा@@ 1208
चतुर्थी 1208
जीएसटी@@ 1208
जेनि@@ 1208
दंगे 1208
पकर 1208
बादः 1208
राधाकृष्णन 1208
व्यभिचार 1208
शीत 1208
संभ@@ 1208
साबु@@ 1208
अराज@@ 1207
एकतरफा 1207
गुड़गांव 1207
जील 1207
टूरिज्म 1207
परमिट 1207
प्रधाना@@ 1207
रोमी 1207
विजयवर्गीय 1207
साक्ष@@ 1207
उद्धरण 1206
नाईक 1206
मेहुल 1206
रिकी 1206
श्य 1206
अन्त@@ 1205
उज्ज्वल 1205
घृ@@ 1205
दीव 1205
भरपाई 1205
यहू@@ 1205
साम्रा@@ 1205
अलगाववादी 1204
जावडेकर 1204
फ़ै@@ 1204
बग़ैर 1204
सिम्@@ 1204
सुसंगत 1204
अग्@@ 1203
फेज 1203
बुश 1203
भिड़ंत 1203
अपे@@ 1202
आइये 1202
गंध 1202
पीपी@@ 1202
लाइन@@ 1202
विकलांग 1202
विनिवेश 1202
उदाहरणों 1201
जामा 1201
नह@@ 1201
निभाता 1201
मलि@@ 1201
अखबारों 1200
अधर्म 1200
कहूंगा 1200
च्यू@@ 1200
टैब 1200
तेजस 1200
त्सा@@ 1200
परिस्थितियां 1200
वग़ैरह 1200
वस्तुतः 1200
वापिस 1200
संपर्@@ 1200
सीज 1200
अंग्रेज 1199
कुवैत 1199
फैक्टरी 1199
योद्धाओं 1199
वाजिब 1199
शिंग 1199
शिकागो 1199
समन्व@@ 1199
सुंदरता 1199
1989 1198
खरीदे 1198
नवीकरण 1198
पहन 1198
भती@@ 1198
मेहरबानी 1198
साझीदार 1198
आनंद@@ 1197
बारीकी 1197
उद्योग@@ 1196
कोणीय 1196
छिड़@@ 1196
टुकड़ा 1196
तोड़कर 1196
धमाका 1196
नंब@@ 1196
नियोक्ता 1196
प्राय@@ 1196
फैलाव 1196
बसा 1196
सीएम@@ 1196
हिर 1196
होटलों 1196
1,5@@ 1195
एंटनी 1195
कसौ@@ 1195
कैपिटल्स 1195
खले 1195
तीर्ण 1195
पेरि@@ 1195
प्रसव 1195
फान 1195
बस@@ 1195
मिस्टर 1195
विकिरण 1195
विश्वकप 1195
आईएन@@ 1194
आरके 1194
आवेदकों 1194
कैप्शन 1194
घिरे 1194
दशह@@ 1194
पागल 1194
फट 1194
फ्रि@@ 1194
मता@@ 1194
साझेदारों 1194
सेक्सी 1194
हरिया@@ 1194
हुयी 1194
ï@@ 1193
ंगता 1193
क़समें 1193
कैरी 1193
जम 1193
बंदू@@ 1193
भेजते 1193
लेटेस्ट 1193
लोगे 1193
संस्थापित 1193
अभिभाषण 1192
कमे@@ 1192
छुट्टियां 1192
ताज्जुब 1192
म्भिक 1192
सबब 1192
अफ़्री@@ 1191
आरसीबी 1191
कट्टर@@ 1191
ज़िम्मे@@ 1191
टीसीएस 1191
ढाँ@@ 1191
दिक्@@ 1191
नाइजेशन 1191
फर्नी@@ 1191
मलेरिया 1191
स्कि@@ 1191
डायबिटीज 1190
डि़यों 1190
थियेटर 1190
रातों 1190
लेखिका 1190
सटे 1190
अन्जाम 1189
घेरा 1189
तालीम 1189
पुरु@@ 1189
पृथ@@ 1189
मसी@@ 1189
वंदे 1189
सफा@@ 1189
सौहार्@@ 1189
स्य@@ 1189
ारू@@ 1189
उड 1188
एलियों 1188
क्रमिक 1188
क्लिप 1188
तिरू@@ 1188
बदलता 1188
वू@@ 1188
संचा@@ 1188
1500 1187
230 1187
sc 1187
अटकल@@ 1187
उबर@@ 1187
एकसाथ 1187
ड्रॉ 1187
दिली 1187
मतभेदों 1187
याओं 1187
1971 1186
re@@ 1186
अटॉर्नी 1186
किता 1186
नने 1186
पॉजि@@ 1186
भड़काने 1186
मिटाने 1186
मुशरेकीन 1186
व्यू@@ 1186
शिकायतकर्ता 1186
हाइब्रिड 1186
उठते 1185
क्रू 1185
प्लै@@ 1185
फिक्स 1185
फैं@@ 1185
वेरि@@ 1185
कीः 1184
प्रेसिडेंट 1184
बेबी 1184
मूलतः 1184
मेट्रो@@ 1184
सिंघवी 1184
हास्य 1184
कात 1183
निरूप@@ 1183
पारियों 1183
मध@@ 1183
मांसपेशियों 1183
अकाल 1182
गलियारा 1182
ताजमहल 1182
दू 1182
बें@@ 1182
रेलगाड़ी 1182
वर्ण 1182
ation 1181
कस्बे 1181
चौकसी 1181
छपाक 1181
थ्र@@ 1181
दीक़ 1181
पोलियो 1181
फ्रेंसिंग 1181
राजभाषा 1181
समायोजित 1181
बहाने 1180
1994 1179
खाकर 1179
दरवाज़े 1179
फेंकने 1179
मंगोलिया 1179
रिपोर्टिंग 1179
२१ 1179
२४ 1179
आईआई@@ 1178
कब्र 1178
काऊ 1178
गुर्जर 1178
मानस 1178
मैदानी 1178
राष्ट्रव्यापी 1178
शशांक 1178
सिद्ध@@ 1178
सिफ़@@ 1178
आकाश@@ 1177
इंगित 1177
कट्टरपंथी 1177
ठहरने 1177
ध्रुव 1177
परिसंपत्तियों 1177
म्र 1177
लगायी 1177
लॉगिन 1177
व्यवसायों 1177
सिल@@ 1177
हैंड 1177
Boss 1176
नेह@@ 1176
शिष्ट@@ 1176
साथि@@ 1176
स्टैं@@ 1176
ारिका 1176
असमानता 1175
कमिटी 1175
जीपी 1175
जीवि@@ 1175
पाएगी 1175
पारा@@ 1175
प्रायोगिक 1175
मनीषा 1175
मॉनि@@ 1175
सामानों 1175
उठाएं 1174
केला 1174
जिम्मेद@@ 1174
तिल 1174
दाने 1174
प्रातः 1174
रेत 1174
वाज 1174
विपत्ति 1174
सुलझा 1174
अविश्वसनीय 1173
क्त@@ 1173
गिलानी 1173
जेश 1173
ड़ता 1173
डिस्काउंट 1173
परिष@@ 1173
पहुँचाने 1173
प्रशासकों 1173
सातवीं 1173
साध्वी 1173
अनुभाग 1172
क़ब्ल 1172
चारियों 1172
तुच्छ 1172
पत्ति 1172
पूरब 1172
बिलासपुर 1172
महफूज़ 1172
रोज़@@ 1172
अनोखा 1171
अभिने@@ 1171
अरूणाचल 1171
कवायद 1171
जमशे@@ 1171
ढ़ा@@ 1171
दफा 1171
निरपेक्ष 1171
फ्लॉ@@ 1171
बागेश्वर 1171
विरोधाभा@@ 1171
सवाई 1171
सुमित 1171
िए 1171
एलबी 1170
गाइड 1170
चिट 1170
पठ@@ 1170
मख़@@ 1170
महंगी 1170
लोकेश 1170
शल 1170
सुनाते 1170
खिये 1169
ढा 1169
पुनर्जीवित 1169
बन्धन 1169
बीकानेर 1169
भाईयों 1169
मुजफ्फरनगर 1169
रचने 1169
लीवर 1169
लुप्त 1169
१०@@ 1169
6,000 1168
आराम@@ 1168
इमार@@ 1168
गाह 1168
जानलेवा 1168
बंदर 1168
मुंडे 1168
स्टीवन 1168
हमीरपुर 1168
जरु@@ 1167
जिम्बाब्वे 1167
धारणाओं 1167
नाफर@@ 1167
फेंका 1167
सागर@@ 1167
49@@ 1166
देशद्रोह 1166
पीडीएफ 1166
प्रतियोगी 1166
शौक 1166
सीरियल 1166
1,6@@ 1165
Bigg 1165
एथलीटों 1165
जह@@ 1165
ठ्@@ 1165
दिता 1165
ब्लूटूथ 1165
भरकर 1165
महत्व@@ 1165
मौजि@@ 1165
रजा 1165
हनी@@ 1165
1984 1164
आरती 1164
इने@@ 1164
त्योहारों 1164
दवाइ@@ 1164
ब्लॉग 1164
अग्नि@@ 1163
आन्दोलन 1163
कल्पित 1163
कुपोषण 1163
डीके 1163
ढ़ने 1163
ताराम 1163
महानगर 1163
लुभा@@ 1163
संचरण 1163
सेंजर 1163
value 1162
उठाएंगे 1162
एडवाइ@@ 1162
कैट@@ 1162
पढ़े@@ 1162
पर्यवेक्षक 1162
शख्@@ 1162
सेगमेंट 1162
20,@@ 1161
अनिवार्@@ 1161
ईमानवाले 1161
क्वारंटाइन 1161
नाईं 1161
बांग्लादेशी 1161
मूर्ख 1161
रशिप 1161
व्यक्ति@@ 1161
जेक्ट 1160
ड़ित 1160
डालेगा 1160
बियन 1160
बेरोजगार 1160
लट 1160
वेंचर 1160
ंटन 1159
चिली 1159
तसबीह 1159
पीएमसी 1159
बेटियाँ 1159
संकेतक 1159
स्ट्रीम 1159
स्ताना 1159
302 1158
IN@@ 1158
ऑक्स@@ 1158
टिया@@ 1158
निपटा 1158
परवेज 1158
पहाड़ियों 1158
फैसल 1158
2024 1157
चर्या 1157
टिस्ट 1157
दूं 1157
पाचन 1157
प्रभुत्व 1157
बॉलिवुड 1157
अपमानित 1156
करवाकर 1156
कुफ्फार 1156
चरिंग 1156
ढूंढने 1156
ढेरों 1156
बिताया 1156
मॉडलों 1156
र्ग@@ 1156
स्मि@@ 1156
हराई 1156
हिन्@@ 1156
ंदना 1155
खेल@@ 1155
गड्@@ 1155
परवरिश 1155
भाड़ 1155
कोषा@@ 1154
चट्टा@@ 1154
जाली 1154
निकट@@ 1154
भाइ@@ 1154
रेंद्र 1154
वाड़े 1154
शिवा@@ 1154
इतालवी 1153
क्रूर 1153
घटन 1153
जवाबदेह 1153
दराज 1153
नशीलता 1153
प्रायद्वीप 1153
मेटा@@ 1153
मेड 1153
हिच@@ 1153
अनुमानों 1152
उग्र 1152
क्षता 1152
प्र 1152
प्रस्थान 1152
वले 1152
शॉपिंग 1152
अवज्ञा 1151
आति@@ 1151
इनो@@ 1151
केसी 1151
मर्डर 1151
le@@ 1150
अधिकारिक 1150
उड़ाने 1150
ज्वाला@@ 1150
ध्दि 1150
पेट्रो@@ 1150
रोहन 1150
विशा@@ 1150
स्कोप 1150
हाइड्रे@@ 1150
ौती 1150
कार्टू@@ 1149
खुल्लम 1149
जाएँगें 1149
तक़@@ 1149
तनत 1149
दबद@@ 1149
न्यूयार्क 1149
पति@@ 1149
रिचर्डसन 1149
अपो@@ 1148
ताल्लुक 1148
नीः 1148
न्यायाधिकरण 1148
फिल्मफेयर 1148
बर्थ 1148
लॉजिकल 1148
कमी@@ 1147
केन्द्रशासित 1147
ख़िला@@ 1147
ताने 1147
बूती 1147
शिष्ट 1147
3000 1146
अज्र 1146
अभियुक्तों 1146
कम्प्यू@@ 1146
निसान 1146
बेड़े 1146
मरज़ी 1146
वैगन 1146
सुन्@@ 1146
सैर 1146
अकार@@ 1145
इयां 1145
एयरक्राफ्ट 1145
कियाँ 1145
गर्मजोशी 1145
गुजरने 1145
तफ्तीश 1145
पद्मावत 1145
परिधान 1145
फ्लाइ@@ 1145
मज़दूरी 1145
महंगे 1145
मित्त 1145
विश्लेषकों 1145
हस्ताक्षरित 1145
ऋतु 1144
क़ु@@ 1144
काबिज 1144
कामगार 1144
प्रतिभूतियों 1144
मिलाने 1144
IND 1143
as 1143
उभरा 1143
कमज़ो@@ 1143
कराये 1143
किसकी 1143
चाहू@@ 1143
च्छा@@ 1143
मले@@ 1143
वाक 1143
वियर 1143
इंस्टि@@ 1142
कार्बो@@ 1142
गुनाह@@ 1142
तत्त्व 1142
परहेज़गारों 1142
पाठकों 1142
बुढ़ा@@ 1142
भ्रू@@ 1142
मीना@@ 1142
मोनो@@ 1142
व्हील 1142
सात्मक 1142
जस 1141
डाटाबेस 1141
नेत्र 1141
पाउंड 1141
मुक्केबाजी 1141
यामी 1141
रीढ़ 1141
सबरीमाला 1141
हार्ड 1141
तृत्व 1140
दाखिला 1140
निजता 1140
मातृ 1140
मारि@@ 1140
सरीही 1140
सिद्धारमैया 1140
स्ट्रॉल 1140
कृषक 1139
दिव्यांग@@ 1139
नरसिम्@@ 1139
मेधा@@ 1139
वाक़िफ़ 1139
विश्वस्@@ 1139
वीरभद्र 1139
शिम@@ 1139
श्रीलंकाई 1139
ओपनर 1138
तनों 1138
द्योगि@@ 1138
निरन्तर 1138
पैकेट 1138
मानचित्र 1138
मोइ@@ 1138
रेख@@ 1138
होनेवाले 1138
1986 1137
आईटीआई 1137
आईसीएआर 1137
आसाराम 1137
ऊँचाई 1137
ग्रैंड@@ 1137
ऩ@@ 1137
नाटकीय 1137
बृह@@ 1137
भत्ते 1137
मुरली@@ 1137
मुला@@ 1137
मेश 1137
यूएन 1137
सउ@@ 1137
हाने 1137
आंकी 1136
आक@@ 1136
एकाउंट 1136
एनएम@@ 1136
ऑप्टिकल 1136
चौथाई 1136
त्या 1136
नवान्वेषण 1136
बचाए 1136
मिमी 1136
मीडिया@@ 1136
मूर्तियों 1136
मोती 1136
रखनेवाले 1136
रेक 1136
वात 1136
वैट 1136
समाज@@ 1136
स्कॉट 1136
1988 1135
अनुयायी 1135
आयो@@ 1135
क़ब्@@ 1135
काठमांड@@ 1135
डिय@@ 1135
प्रबन्ध 1135
मेंट्री 1135
लिनी 1135
श्वसन 1135
संस्था@@ 1135
सीमांत 1135
सीसीआई 1135
स्टालिन 1135
आकांक्षा 1134
दस्ते 1134
नफ़@@ 1134
प्रचालन 1134
बती 1134
मेहर 1134
रिए@@ 1134
रोबोट 1134
सवा@@ 1134
हथ@@ 1134
अशरफ 1133
उतारे 1133
कनी 1133
किस्त 1133
कोट@@ 1133
क्रय 1133
जें@@ 1133
फेक्ट 1133
समझें 1133
इजराइल 1132
केके 1132
निब@@ 1132
पुजारी 1132
मने 1132
रखनेवालों 1132
निश्चि@@ 1131
नीर 1131
पाएं 1131
पावर@@ 1131
फॉक्स 1131
सुरक्षाकर्मियों 1131
ंदा@@ 1130
अक्षरों 1130
केशंस 1130
निजात 1130
फकार 1130
New 1129
ंदु@@ 1129
अपोजिट 1129
अरशद 1129
इंटरफेस 1129
ओसा@@ 1129
करवाना 1129
कुलकर्णी 1129
कैमि@@ 1129
थाइ@@ 1129
द्दा@@ 1129
न्यौता 1129
प्रेषण 1129
बताएं 1129
बसु 1129
भुज 1129
भूपेश 1129
विकास@@ 1129
शोधकर्ता 1129
सुखबीर 1129
स्टीफन 1129
हिन्द 1129
कलेट 1128
कविताओं 1128
क्लार्क 1128
गुटों 1128
चेतेश्वर 1128
दार्@@ 1128
पराली 1128
प्तता 1128
भाषणों 1128
माई@@ 1128
स्पद 1128
आनेवाली 1127
किंग@@ 1127
मैक्सिको 1127
व्याख्या@@ 1127
शमूएल 1127
NW 1126
अलगा@@ 1126
गम@@ 1126
ट्रेस 1126
तव@@ 1126
बाली 1126
बुलाए 1126
छठा 1125
पण@@ 1125
पदोन्नति 1125
मेहमानों 1125
राशि@@ 1125
1,7@@ 1124
अरबों 1124
असहमति 1124
ओस 1124
गर्भावस्था 1124
टिंग्स 1124
दिवाला 1124
पांचवां 1124
मेलबर्न 1124
लगेंगे 1124
वई 1124
वाकिफ 1124
वादक 1124
विक@@ 1124
सूस 1124
29.@@ 1123
इर्द 1123
एश्@@ 1123
गुरमीत 1123
यर्ड 1123
रावण 1123
विधे@@ 1123
ोगे 1123
256 1122
वर्तक 1122
18,@@ 1121
कीर्ण 1121
ध्या 1121
प्रदूषित 1121
मिता@@ 1121
मिनिस्टर 1121
राक 1121
अभयार@@ 1120
आठवें 1120
आवेदनों 1120
जालंधर 1120
जीः 1120
टुक@@ 1120
थकान 1120
प्रमुख@@ 1120
बोपन्ना 1120
बोलता 1120
मजलिस 1120
साहू 1120
112 1119
70@@ 1119
अंदाज़ 1119
अन्न 1119
उपनगरीय 1119
धर्मशाला 1119
नोम 1119
पंख 1119
प्राइस 1119
फोरेंसिक 1119
बीएसई 1119
सवे 1119
जस्टि@@ 1118
बीएमसी 1118
महामंत्री 1118
मोहाली 1118
रमा@@ 1118
वैचारिक 1118
कैरे@@ 1117
निवार@@ 1117
नीतू 1117
नेटिक 1117
फ़िल्मों 1117
फाइड 1117
बजरंग 1117
रुकता 1117
रोकता 1117
शब्दा@@ 1117
शिंगटनः 1117
1948 1116
उन्हो@@ 1116
ओपनिंग 1116
कस्बों 1116
तारें 1116
प्राय 1116
बताइए 1116
बांद्रा 1116
राजौरी 1116
अनिश्चितता 1115
अर्द्ध@@ 1115
एलएन@@ 1115
ग्रता 1115
दुश्@@ 1115
नाफ़र@@ 1115
बैठते 1115
बोडिया 1115
रैलियों 1115
वन्यजीव 1115
शुल्@@ 1115
सीवर 1115
1,9@@ 1114
खली@@ 1114
धरन 1114
बनवाया 1114
साल्@@ 1114
अपर्याप्त 1113
असफलता 1113
उठी 1113
जोरों 1113
दामन 1113
बैर 1113
मूर्त 1113
वेने@@ 1113
षड्यंत्र 1113
सुपुर्द 1113
्यता 1113
आवे@@ 1112
कम्यू@@ 1112
ग्रेनेड 1112
जड़ा 1112
डिस्चार्ज 1112
नंद@@ 1112
पड़ा@@ 1112
पारम्परिक 1112
प्रतिब@@ 1112
प्लानिंग 1112
रघुराम 1112
वीकरण 1112
शम@@ 1112
सीपीएसई 1112
ad@@ 1111
एसएम 1111
तसवी@@ 1111
प्रज्@@ 1111
बेसिन 1111
वेद@@ 1111
सम्भावना 1111
सहारनपुर 1111
आर्किटेक्@@ 1110
चेन्न@@ 1110
यूरे@@ 1110
सरदारों 1110
126 1109
qu@@ 1109
उज्जैन 1109
चैंपियंस 1109
जहरी@@ 1109
पर्या@@ 1109
फ़ायदा 1109
मसाला 1109
स्ट्रिया 1109
उप्र 1108
कश्मीरियों 1108
खोलें 1108
पंच 1108
सवीं 1108
करणीय 1107
घुसपै@@ 1107
चलेगी 1107
पृथ्वीराज 1107
पोशाक 1107
फोड़ 1107
मोह 1107
रोहिंग्या 1107
साइं@@ 1107
1960 1106
अतिथियों 1106
ऋणों 1106
खला 1106
नवीनीकरण 1106
ब्रॉडबैंड 1106
विनाश@@ 1106
संप्रग 1106
सुल्@@ 1106
JNU 1105
अंबाला 1105
आबंटन 1105
उभार@@ 1105
ऊँचा 1105
कोटि 1105
निरं@@ 1105
परहेज़गारी 1105
पुत्रों 1105
मंगल 1105
व्लादिमीर 1105
हल्दी 1105
अरि@@ 1104
टीएम 1104
डीसीपी 1104
नॉट 1104
प्राची@@ 1104
बालन 1104
भिजवा@@ 1104
एत@@ 1103
खार 1103
जोल 1103
धमाकेदार 1103
धारावाहिक 1103
पशु@@ 1103
सफदरजंग 1103
सेलिब्रे@@ 1103
स्थितियां 1103
अदिति 1102
कुशा@@ 1102
जीप 1102
डियर 1102
निन्दा 1102
यूआईडीएआई 1102
वसीयत 1102
खारी 1101
ख्य 1101
गौरवान्वित 1101
दाविद 1101
नदियां 1101
निंद@@ 1101
पीओ@@ 1101
बिगा@@ 1101
मैनचेस्टर 1101
रोनाल्@@ 1101
लर्स 1101
सशक्तीकरण 1101
स्वामी@@ 1101
खरीदारों 1100
चर्चाओं 1100
तिज 1100
धानों 1100
प्रदर्@@ 1100
मसीहा 1100
मास्टर्स 1100
मुंडा 1100
es@@ 1099
ic@@ 1099
आनुवंशिक 1099
जिम्मा 1099
पहुंचते 1099
बोनस 1099
रंदा@@ 1099
उच्चायोग 1098
एसए@@ 1098
कक्षों 1098
कश्मीरः 1098
गोदावरी 1098
चार्टर्ड 1098
चौड़ाई 1098
फेमस 1098
फेरबदल 1098
बाइन 1098
सड़@@ 1098
होइए 1098
ing 1097
उद्यमशीलता 1097
कोचों 1097
टाइल 1097
दंगल 1097
दबिश 1097
निष्कासित 1097
बोतल 1097
माथुर 1097
ल्लत 1097
विकि@@ 1097
श्रृंख@@ 1097
झल@@ 1096
पाँव 1096
य्या 1096
रोग@@ 1096
शुभार@@ 1096
इशांत 1095
कांगड़ा 1095
खां 1095
ग्रंथों 1095
नारायण@@ 1095
पीजी@@ 1095
मर्सि@@ 1095
मोमिनों 1095
info 1094
ईआर 1094
कली 1094
खूबसूरती 1094
जाट 1094
दर्शाने 1094
प्रेशन 1094
फिजिकल 1094
याक़ूब 1094
सुर्खियां 1094
हरसिमरत 1094
अनूप 1093
एमसीजी 1093
एम्बु@@ 1093
कुछ@@ 1093
गिरजा@@ 1093
प्यारी 1093
फतेह@@ 1093
मिले@@ 1093
व्यतीत 1093
सिखा 1093
हड्डियों 1093
अब्दु@@ 1092
आशि@@ 1092
गाई 1092
चौकी@@ 1092
भाषाएं 1092
१९४@@ 1092
J 1091
अंतरि@@ 1091
अनगिनत 1091
आईओसी 1091
कैब 1091
कॉप्@@ 1091
माप@@ 1091
यूथ 1091
लोहिया 1091
उठाएगा 1090
दस्@@ 1090
दागे 1090
निहाल 1090
पायलटों 1090
लात 1090
वायनाड 1090
विद्यु@@ 1090
विहित 1090
शिशुओं 1090
सोमनाथ 1090
हण 1090
हिलेरी 1090
▪ 1090
44@@ 1089
चरणबद्ध 1089
जलस्तर 1089
दलीय 1089
दुबारा 1089
धारियों 1089
नवदीप 1089
बढ़ेंगे 1089
लुरु 1089
श्रेणीः@@ 1089
हेगड़े 1089
आक्@@ 1088
ओडि@@ 1088
केकेआर 1088
खोई 1088
जाये@@ 1088
दादाओं 1088
पीओके 1088
पोंटिंग 1088
बंगलादेश 1088
मानद 1088
मेंटल 1088
श्रीनि@@ 1088
उपग्रहों 1087
जनित 1087
टीय 1087
टेप 1087
डरर 1087
तहरीक 1087
नडाल 1087
परिपत्र 1087
फानी 1087
बंधों 1087
रबा@@ 1087
सिटर 1087
अँग्रेज़ी 1086
उत्तेज@@ 1086
कठ@@ 1086
चय 1086
तत्पर 1086
नु 1086
पट्टनम 1086
एहतियात 1085
जत्@@ 1085
बेस्ड 1085
भीम@@ 1085
म्पा 1085
लुईस 1085
लुढ़@@ 1085
ूल 1085
ऊतक 1084
क्षेप 1084
जायज़ 1084
टिकल्स 1084
निजा@@ 1084
निषेध 1084
पूर्वजों 1084
बुज़ुर्ग 1084
बोइंग 1084
भीतरी 1084
मास्ट@@ 1084
यापन 1084
→ 1084
अंदाजा 1083
अनुशं@@ 1083
अनुशंसा 1083
असंतोष 1083
आईटीबीपी 1083
उद्दीन 1083
काब@@ 1083
जिम्मेदारियों 1083
टैंकर 1083
पत्ते 1083
यांग 1083
Y 1082
अवसाद 1082
आभासी 1082
कृतज्ञ 1082
ग्रोथ 1082
जाकिर 1082
पाटनी 1082
पात्रों 1082
मिस्@@ 1082
लर्निंग 1082
वेंक@@ 1082
एविएशन 1081
थेरेपी 1081
नगर@@ 1081
परहेज 1081
मनोबल 1081
महर्षि 1081
संगठ@@ 1081
Google 1080
चेयर@@ 1080
ऩे 1080
रमा 1080
विय@@ 1080
विषय@@ 1080
समाधानों 1080
सिंड्रोम 1080
सुनामी 1080
स्कैन 1080
उत्पा@@ 1079
डीएस@@ 1079
डीजी 1079
निगाह 1079
पलायन 1079
पाबन्दी 1079
पुर्तगा@@ 1079
बलि@@ 1079
रेटर 1079
पनडुब्बी 1078
पोतों 1078
फूँ@@ 1078
बहा 1078
र्पण 1078
सघन 1078
आबाद 1077
इंस्टी@@ 1077
एटीएस 1077
एलन 1077
पेन@@ 1077
मानवजाति 1077
रैपिड 1077
लॉजिस्टिक्स 1077
शारदा 1077
संधू 1077
अंतर्निहित 1076
करेगें 1076
छे 1076
जीएम 1076
दरगाह 1076
दाह 1076
दिष्ट 1076
माताओं 1076
यार@@ 1076
समझती 1076
सायना 1076
सालेह 1076
स्वी 1076
हँ@@ 1076
क्यूटिव 1075
चैतन्य 1075
ड़ियाँ 1075
देल 1075
नवी 1075
बाकू 1075
लटका 1075
शाखा@@ 1075
सात@@ 1075
१५@@ 1075
दिरा 1074
नरमी 1074
शिर्क 1074
सिग्नल 1074
45@@ 1073
आर्टिफिशियल 1073
गिरे 1073
जलकर 1073
डिब्बों 1073
थ्रि@@ 1073
परहेज़गार 1073
फंडिंग 1073
बचाना 1073
भां@@ 1073
रामचंद्र 1073
राष्ट्रपिता 1073
वालिया 1073
समायोजन 1073
सेनानी 1073
114 1072
अनुसंधान@@ 1072
आंगनवाड़ी 1072
केर@@ 1072
कैटे@@ 1072
दूरदराज 1072
बडा 1072
10:@@ 1071
er@@ 1071
अदाय@@ 1071
अर्जन 1071
कन्या@@ 1071
डिब्बे 1071
ड्रा 1071
फेड@@ 1071
रिमोट 1071
चुकता 1070
तरजी@@ 1070
निर्देश@@ 1070
पशुधन 1070
फ़रमा@@ 1070
मुक़ा@@ 1070
अनैतिक 1069
उम्मीदवारी 1069
कोलंब@@ 1069
ट्रकों 1069
डिनर 1069
बन्ध 1069
रेपो 1069
शुगर 1069
ष्टा 1069
सरोवर 1069
de 1068
ओला@@ 1068
ग्रेजु@@ 1068
डूबने 1068
द्रव्य@@ 1068
रवीन्द्रनाथ 1068
लोहा 1068
शनरी 1068
षि@@ 1068
सत्यपाल 1068
स्म@@ 1068
ईशांत 1067
उद्योगपति 1067
एसबी@@ 1067
कणों 1067
क्यूबे@@ 1067
चलाता 1067
जीरा 1067
जोड़ते 1067
प्रपत्र 1067
भ्यास 1067
रखेगी 1067
वीर@@ 1067
हत्यारों 1067
अशांति 1066
कार्यप्रणाली 1066
केविन 1066
खनि@@ 1066
ट्रू@@ 1066
दही 1066
देशक 1066
परीक्षा@@ 1066
प्पी 1066
प्रॉपर्@@ 1066
प्लेन 1066
वारों 1066
स्फो@@ 1066
हज़@@ 1066
\@@ 1065
अफ़ग़ा@@ 1065
आफ@@ 1065
गेस्ट 1065
ड़ी@@ 1065
दिखी 1065
फ्रेमवर्क 1065
संतप्त 1065
सहभा@@ 1065
सहिष्णुता 1065
घर@@ 1064
देन@@ 1064
ध्यान@@ 1064
मस्जिदों 1064
योजित 1064
ष्टमी 1064
स्कों 1064
स्टेबल 1064
17,@@ 1063
खटख@@ 1063
तल्@@ 1063
दर्भ 1063
नवो@@ 1063
बातिल 1063
बीएच@@ 1063
भागे 1063
मनाली 1063
मार्ट 1063
मॉरि@@ 1063
रौशनी 1063
ष्यों 1063
हाय@@ 1063
40,000 1062
अतिक्रमण 1062
अफ़सोस 1062
आकृति 1062
आशीषें 1062
कक्कड़ 1062
करियों 1062
ट्रेडिंग 1062
डिफे@@ 1062
तंजा@@ 1062
तार्किक 1062
धीर 1062
मिलें 1062
हिम@@ 1062
आईएनएक्स 1061
जरी@@ 1061
तबा 1061
रि 1061
रोज़ा 1061
शासनकाल 1061
आर्चर 1060
आसन 1060
कार्यस्थल 1060
खदान 1060
तिलहन 1060
प्लाज्@@ 1060
बुलंद@@ 1060
मरो@@ 1060
राजन@@ 1060
लय@@ 1060
शबाना 1060
हलचल 1060
आतिथ्य 1059
आरएल 1059
आहूजा 1059
क्राइ@@ 1059
गाथा 1059
ङ्@@ 1059
तुलसी 1059
त्रुटिः 1059
नॉर्वे 1059
पार्ट 1059
रिडा 1059
लयन 1059
संगीत@@ 1059
सम्मुख 1059
अनिश्चि@@ 1058
घटा 1058
फेफड़ों 1058
फेम 1058
बीवियों 1058
भविष्यद्व@@ 1058
श्रीमान 1058
आरएफ 1057
उमंग 1057
कठु@@ 1057
जन्मे 1057
जल्@@ 1057
जोगी 1057
झेलनी 1057
डीज़ 1057
द्विवेदी 1057
नीलम 1057
पहुंचाई 1057
प्रतिद्वं@@ 1057
बैट@@ 1057
बैल 1057
भूजल 1057
12:@@ 1056
at@@ 1056
अवरुद्ध 1056
एनालि@@ 1056
जेईई 1056
जेज 1056
पाँ@@ 1056
पुण@@ 1056
मुसी@@ 1056
रूए 1056
स्वर्गदूतों 1056
एनडीएमए 1055
कालि@@ 1055
भावना@@ 1055
साल@@ 1055
साहसी 1055
स्मारकों 1055
आनन्दित 1054
इमो@@ 1054
उपन्या@@ 1054
जली 1054
ट्वीटर 1054
पार्श्@@ 1054
बिस्तरों 1054
महो@@ 1054
मिलेंगी 1054
मोटिव 1054
राइफल्स 1054
रियाद 1054
संचित 1054
सोयाबीन 1054
स्टॉल 1054
am 1053
आब@@ 1053
खेलो 1053
घटने 1053
देवा 1053
नती@@ 1053
पाकि@@ 1053
पुष्ट 1053
बत्रा 1053
बिरा@@ 1053
भरना 1053
मापद@@ 1053
यूनी@@ 1053
लिंपिक 1053
वेन्यू 1053
1.2 1052
एफआई@@ 1052
चौड़ा 1052
बूल 1052
बेचे 1052
राखी 1052
लक्ष्मी@@ 1052
सीओए 1052
स्क्री@@ 1052
हेम@@ 1052
कैरो@@ 1051
नील@@ 1051
पत्थर@@ 1051
पहचाने 1051
प्रक्षे@@ 1051
फ़ाय@@ 1051
महाराष्@@ 1051
रंगमंच 1051
सीएन@@ 1051
109 1050
नुक@@ 1050
संर@@ 1050
नेंट 1049
115 1048
ब्रॉ@@ 1048
ँगें 1047
गीत@@ 1047
दायि@@ 1047
ष्य@@ 1047
कप्@@ 1046
दावे@@ 1046
मैथ@@ 1046
रिफ 1046
ic 1045
प्रदू@@ 1045
CO@@ 1044
धड़@@ 1043
रकार 1043
फन 1040
बिल@@ 1040
ंत्रिक 1039
इस्ती@@ 1039
महत्@@ 1039
स्वर्@@ 1038
लियम 1037
02.@@ 1035
आईआर 1035
सिने@@ 1035
ेंद्र 1035
z@@ 1034
फ्रास्ट्रक्चर 1033
ंसिल 1032
1,8@@ 1031
दृश्य@@ 1031
1951 1029
डनी 1029
ग्वा@@ 1028
MO@@ 1027
तुर्@@ 1027
जियम 1026
सक्रि@@ 1026
en 1025
चर्चा@@ 1025
शत्रु@@ 1025
ंचित 1024
इंग्@@ 1024
ईई 1024
प्रश@@ 1024
1,3@@ 1023
Khan 1023
अजी@@ 1023
आतं@@ 1023
गांधी@@ 1023
124 1022
दस्तावे@@ 1022
ऑप्@@ 1021
बंधित 1021
135 1019
उपे@@ 1019
ध्र 1019
तकर्ता 1018
0.5 1017
इसी@@ 1016
प्रै@@ 1016
लोकन 1016
प्रोफे@@ 1015
जिम्@@ 1014
ारियों 1014
पेक्ष 1013
लहाल 1013
101 1012
75@@ 1012
गुस्@@ 1012
चेंज 1012
19,@@ 1011
दारियों 1011
ri@@ 1010
असि@@ 1010
दियां 1010
प्रभु@@ 1008
up@@ 1007
जोखि@@ 1006
पठा@@ 1006
रीना 1006
376 1005
ब्राह्@@ 1005
ताल@@ 1002
पद्@@ 1002
झड़@@ 1001
वाद@@ 1000
्र 1000
आशं@@ 999
सित@@ 999
RSS 998
ac@@ 998
मुर@@ 998
वच@@ 998
साव@@ 998
एमआर 997
माण 997
साहित्य@@ 997
ंने 996
अनुष्@@ 996
एडमि@@ 996
लिम 996
CA@@ 995
UP 995
क्यो 994
डेमोक्रे@@ 994
145 993
टीना 993
प्रमो@@ 993
गरों 991
डायरे@@ 989
दिव्या@@ 989
बास्@@ 989
विभा@@ 989
उत्सु@@ 988
64.@@ 987
शस 987
क्तों 986
जूद 986
तरस 986
यूसु@@ 986
इले@@ 985
बाजों 985
मनी@@ 985
मानत 984
ब्यौ@@ 983
विस्फो@@ 983
स्ट्रॉ@@ 983
In 982
नाल 982
सच्@@ 982
स्टू@@ 982
टली 981
धनों 981
धारित 981
प्रकाश@@ 981
122 980
फिट@@ 980
21@@ 979
IM@@ 979
नीपत 979
182 977
ग्र 977
तेश 977
मिकता 977
सैम@@ 977
ैर 977
it@@ 976
ज़रि@@ 975
तिहा@@ 975
पूर 975
यूए@@ 975
णियों 974
प्रोत्सा@@ 973
शिला@@ 973
हंगा@@ 973
सर्वे@@ 972
हड्@@ 972
जैक@@ 971
पुनरु@@ 971
फाउ@@ 971
व्हाट्स@@ 971
पार्टमेंट 970
क्वारं@@ 969
गैंग@@ 969
चेरी 969
मिकों 969
स्मार्ट@@ 969
106 968
IP@@ 968
इंडीज 968
107 967
IC@@ 967
दुनिया@@ 967
धियां 967
शेल 967
इनर 966
नियर 965
1972 963
प्पल 963
बाधा@@ 963
रूर 963
Read 962
117 960
ज़बर@@ 960
मंगल@@ 959
खाद्या@@ 958
तीकरण 958
ap@@ 955
आयुर्@@ 955
निषे@@ 954
लिमि@@ 954
स्ना@@ 953
निर्दे@@ 952
श्व@@ 951
स्म 951
1987 950
कूल 950
दूतों 950
लूम 950
ंछ 949
शेय@@ 949
किलो@@ 948
कच्च@@ 946
गठ@@ 946
ग्रेस 946
पाउ@@ 946
360 944
मति 944
क्वार्@@ 942
खिड़@@ 941
णी@@ 941
चिद@@ 940
बीटी 940
w 939
क्षम@@ 939
यात 939
घुस@@ 938
मैया 938
रणों 938
सम्बन्@@ 938
नेटवर्@@ 937
इलेक्@@ 936
घाटन 936
जिम्मे@@ 936
भट्@@ 936
ञ@@ 934
तित 934
तिब्@@ 934
दिमा@@ 934
धता 934
थि 933
लेन@@ 933
झट@@ 932
वैश्@@ 930
बला@@ 928
लिहा@@ 928
तरि@@ 927
सचे@@ 926
उपलब्@@ 925
33@@ 924
8,000 924
थान 924
नजी@@ 924
मंत्रा@@ 924
सिग्@@ 924
अंग्रे@@ 923
एथ@@ 923
लियो 921
सॉफ्ट 921
190 919
कठि@@ 919
तरफा 919
वित्@@ 919
क़ू@@ 918
क्रै@@ 918
गांठ 918
जेंस 918
el@@ 917
कने@@ 917
लॉक@@ 917
बाव@@ 916
118 915
बले 915
राज़@@ 915
तमंद 914
is@@ 913
ot 913
त्रु@@ 913
रेंसिक 913
103 912
वाता@@ 912
2,0@@ 911
घोटा@@ 911
द्रोह 911
सत्ता@@ 911
47@@ 909
नेर 909
गिरि@@ 908
शार@@ 908
शिल्@@ 908
आश्चर्य@@ 905
गरि@@ 905
डकर 904
नाइटेड 904
क्वी@@ 903
जेडी 903
फेफ@@ 903
कांग@@ 902
क्रमों 902
ग्रहों 902
220 901
1952 900
चतुर्@@ 900
115@@ 899
तुम@@ 899
م@@ 898
र्फ 898
2,9@@ 897
जपेयी 897
नोट@@ 896
माद 896
अथ@@ 895
गिरफ्@@ 894
विरा@@ 894
24,@@ 893
90@@ 893
ii 893
सोम@@ 893
गिरो@@ 892
चालन 890
तमिल@@ 890
धमा@@ 890
विच@@ 889
संसा@@ 889
9,000 888
ec@@ 888
व्यू 888
हाव@@ 888
ौफ 888
एएन@@ 887
शीर्ष@@ 887
ंडो@@ 886
जवा 886
ठी@@ 886
नाडु 886
कारिता 885
NCP 884
om@@ 884
उच्चा@@ 884
कस्@@ 883
याचिका@@ 883
वर्तन 883
उभर@@ 882
अलगाव@@ 881
दाश्त 881
बीह 881
यं 881
उत्सा@@ 878
कृत@@ 878
दाहि@@ 878
प्रतियोगि@@ 878
ंडन 877
आधि@@ 877
क्रो 877
गेश्वर 877
न्तर 877
म्पि@@ 877
समर्थ@@ 877
शम 876
श्रद्धा@@ 876
116 875
1985 875
त्कार 875
ol@@ 874
th@@ 874
प्रचार@@ 874
स्पोर्@@ 874
One@@ 873
आवि@@ 873
कड़ों 873
पंथी 873
मनों 873
मुकाब@@ 873
128GB 871
65@@ 871
कले@@ 871
174 870
तरित 868
तव्य 867
DEO 865
गाहों 865
रिज़@@ 865
ईश्वर@@ 864
132 863
et 863
षि 863
Singh 862
क्चर 862
ंतरित 861
ईमान@@ 861
कॉले@@ 861
7,000 860
टेनमेंट 860
न्दा 860
मस्जि@@ 859
23,@@ 858
SMS 858
डीयू 858
ुति 858
एंड्रॉ@@ 857
कामका@@ 856
चैम्पि@@ 856
जबर@@ 856
हारिक 856
67@@ 855
un@@ 854
पारिस्थि@@ 854
TV 853
ر@@ 853
सुब्र@@ 853
स्ट्राइ@@ 853
‎ 853
id@@ 852
ग्रो@@ 852
सलाह@@ 852
Modi 851
तारी 851
त्म 851
िकी 851
46@@ 850
च्छिक 850
पिक्सल 850
बरें 849
एब 848
कपा 848
प्राथमि@@ 848
मुख्या@@ 848
वमेंट 848
फेर@@ 846
शब्@@ 846
121 845
mAh 845
छेड़@@ 845
मर्स 843
युव@@ 843
माल्@@ 841
राउंडर 840
रिश्@@ 840
वार्ष@@ 840
म्रता 839
याम 839
शीघ@@ 839
एचडी@@ 838
di@@ 837
tion 837
शताब्@@ 837
चाँ@@ 836
Ind 835
अय्य@@ 835
किर 835
1957 834
3.5 834
org 834
दाओं 834
प्रदायिक 834
स्क@@ 834
111 833
फेंक@@ 833
स्टार@@ 833
मपंथी 832
हिद 832
1965 831
4.5 831
महत्वाकां@@ 831
लेक्स 831
2,7@@ 830
Re@@ 830
सस्पे@@ 830
हरण 830
000@@ 829
टकरा@@ 828
पत्रि@@ 828
post 826
क़ात 825
7.5 823
धान@@ 823
सामा@@ 823
अनो@@ 822
ग़ैर 822
रीब 822
र्ना@@ 822
सुले@@ 822
1976 821
णियां 820
हिया 820
वर्ग@@ 819
1200 818
मुक्@@ 818
द्या@@ 817
म्र@@ 817
Comment 815
बोट 815
अंदा@@ 814
टियाँ 814
1983 813
तोह@@ 813
प्रशा@@ 813
बुझा@@ 813
फिन@@ 812
वेशी 812
यद 811
क्टो@@ 810
भित 810
संरच@@ 810
240 809
स्ने@@ 809
अन्तर@@ 807
जहन्नु@@ 807
भद्र 807
ha@@ 806
चिट्@@ 806
वारे 806
ून 806
दुर्भाग्य@@ 805
54.@@ 804
णाल 804
Delhi 802
खियों 802
सेमी@@ 802
पूर्वो@@ 801
हाउ@@ 801
लैंग@@ 800
119 798
ag@@ 798
पोर्ट@@ 798
कारो@@ 797
वीपी 797
1975 796
पीएन@@ 796
टाला 795
र्द 794
एसो@@ 793
लायंस 793
प्रतिनि@@ 792
ब्रॉड@@ 792
शीत@@ 792
able 790
ï 790
क्कर 790
चारे 789
चिह्@@ 789
वाओं 788
शोध@@ 788
2,6@@ 787
प्रतिनिधि@@ 787
ID 786
पराज@@ 786
मूर 786
ers 784
प्रयोगों 784
योजन 784
Video 783
Z 783
et@@ 783
समे 783
माबू@@ 782
मुक 782
बारी@@ 781
तथ@@ 780
नास 780
1930 778
गड@@ 778
जाव@@ 778
ैल 777
~ 776
139 775
हरें 775
420 774
ch@@ 774
इतिहा@@ 774
घन@@ 774
तैय@@ 774
सम्बो@@ 774
0.1 773
डीओ 773
Al@@ 772
आसि@@ 772
तेंदु@@ 772
69@@ 771
ak@@ 771
T20 770
तुल 770
वारदा@@ 770
कंग@@ 769
विभाज@@ 769
ख्वाहि@@ 768
तोड़@@ 768
हने 768
स्वच्छ@@ 767
320 766
ine 766
ti@@ 766
टूरि@@ 766
संस्थाप@@ 766
डसन 765
संवेद@@ 765
क्ष्@@ 763
परी 763
153 761
64GB 761
स्तियों 761
वीएम 760
शिला 760
▫ 760
थर्@@ 759
लाव 758
हिम 758
1982 757
आध्यात्@@ 757
क़ीन 757
घोष@@ 757
निकों 757
डियो 756
हमी@@ 756
1.0 755
1914 754
कांग्रे@@ 754
ट्वी@@ 753
क्कड़ 752
लब 752
1977 751
लाइंस 750
113 749
ro@@ 749
पैदा@@ 748
ॅ 748
कैलि@@ 747
लिखा@@ 747
स्त्रि@@ 747
पृ@@ 746
ध्याय 745
ite 744
ंबु@@ 744
दिल्ली@@ 744
राष्@@ 744
hi 743
क्रमण 743
ताइ@@ 743
नेंस 743
26,@@ 742
आपत्@@ 742
कतों 742
हिता 742
अमरी@@ 741
न्ति 741
2,5@@ 740
शिर@@ 740
25,@@ 739
उज्ज्@@ 738
कश 738
देही 738
ारिज 738
उल्लेख@@ 737
ारित 737
99.@@ 736
गू 736
स्ट्रेशन 736
44.@@ 735
4GB 735
de@@ 735
त्तरी 735
पों@@ 735
सामं@@ 735
स्क्रि@@ 735
ृत 735
mo@@ 734
भेज@@ 734
☻@@ 734
SA@@ 733
2023 732
जरि@@ 732
कठो@@ 731
लीप 731
1973 730
55@@ 730
दती 730
शुक्र@@ 730
1949 729
एसई 729
क्रिके@@ 729
खें 729
मकता 729
12,000 728
अके@@ 728
हाजि@@ 728
ड्रो@@ 727
स्थाप@@ 727
भेद@@ 726
शख़्@@ 726
im@@ 725
निम्न@@ 725
Ó 724
ख्यात 724
नाराय@@ 724
मछुआ@@ 724
शें 724
us@@ 723
टिप्प@@ 723
1981 722
भिड़@@ 722
रिंदर 722
energy 721
तव्यों 721
550 720
ंडिंग 720
त्ल 720
ब्रिगे@@ 720
सुप्री@@ 720
ौता 720
1974 719
58@@ 719
गलिय@@ 718
मुबार@@ 718
ॊ 718
चंडी@@ 717
1979 716
32.@@ 716
पंजा@@ 716
प्रभुता 716
मद्दे@@ 716
ूक 716
op@@ 715
टवेयर 715
ट्रल 715
थाम 715
स्टार्ट@@ 715
अज़ा@@ 714
न्वित 714
फ्रेंस 714
स्था 714
1955 713
ंत@@ 713
खालि@@ 713
123 712
AN@@ 712
ate 712
पदा 712
वॉर्@@ 712
समस्@@ 712
अनं@@ 711
सटी@@ 711
176 710
1946 710
अभ्य@@ 710
कृष्@@ 710
बटा@@ 710
बने@@ 710
वांछ@@ 710
ab@@ 709
कसी 709
जंग@@ 709
न्द्रनाथ 709
वेली 709
59@@ 708
नसन 708
कताओं 707
च्छ 707
रद्@@ 707
ac 706
सचि@@ 706
50.@@ 705
READ 705
कानू@@ 705
असहम@@ 704
weather 703
परिणा@@ 703
AT@@ 702
डेन@@ 702
प्रासं@@ 702
सकों 702
€ 702
66.@@ 701
कॉलो@@ 701
कपि@@ 700
रीज़ 700
सुग@@ 700
सौंद@@ 700
1,500 699
यनों 698
1978 697
3,4@@ 697
37,@@ 697
165 696
MI 696
अरो@@ 696
गोर 696
णवीस 696
सुर्@@ 696
हैदरा@@ 696
कुश 695
ul@@ 694
ध्र@@ 694
रोजग@@ 694
ॉप 694
2,4@@ 693
अका@@ 693
पर्य@@ 693
57@@ 692
कशी 692
ग्रा 692
म्बई 692
310 690
खट@@ 690
बधा@@ 690
47.@@ 689
जोत 689
द्धि 689
यंत्रों 689
33.@@ 688
ओलं@@ 688
ज्यो@@ 688
दित्य 688
गु 687
1.3 686
variable 686
छत्तीस@@ 686
ग्ध 685
प्रतिद्व@@ 685
रुझा@@ 685
रसा@@ 684
28,@@ 683
ex@@ 683
काय 683
दश@@ 683
रार 683
वश्यक 683
2.2 682
ODI 682
रदार 682
फार 681
व्र@@ 681
त्वों 679
120@@ 677
RS 676
जब्@@ 676
सहम@@ 676
270 675
56@@ 675
و@@ 675
2,8@@ 674
NE@@ 674
Test 674
कच@@ 674
गुजरा@@ 674
नवान्@@ 674
Pro 673
दाखि@@ 673
िता 673
डाउन@@ 672
दिर 672
142 671
oc@@ 671
ँच 671
डीआई 671
0.4 670
46.@@ 670
चुना@@ 670
टमा@@ 670
हानि@@ 670
ेश 670
IIT 669
um 669
चुंब@@ 669
it 668
ङ 668
दिना@@ 668
155 667
166 667
bi@@ 667
द्धा 667
मजा@@ 667
138 666
151 666
38.@@ 666
CBSE 666
Indian 666
li@@ 666
दस्ता@@ 666
तीश 665
En@@ 664
कुफ्@@ 664
चंद्रन 664
धारणा@@ 664
4000 663
NIA 663
घाय@@ 663
दुका@@ 663
पश्चि@@ 663
ंसर 662
लखन@@ 662
धरी 661
वित्त@@ 661
131 660
समाजवा@@ 660
IP 659
गतिविधि@@ 659
श्यो@@ 659
सबुक 659
टल्स 658
संत@@ 658
48.@@ 657
RE@@ 657
se@@ 656
ऑल@@ 656
निर्ण@@ 656
पोख@@ 656
स्नैप@@ 656
चय@@ 654
रुद्ध 654
1.1 653
377 653
ग्री 653
श्मा 653
27,@@ 652
SI@@ 652
ps 652
यूवी 652
35.@@ 650
ed 650
डेकर 650
रिले@@ 650
साजि@@ 650
304 649
Kapoor 649
av@@ 649
ड्डा 649
Vari@@ 648
ज़िल 647
224 646
मतें 646
हाली 646
हुक्@@ 646
जीरिया 645
पाठ्य@@ 645
हाबाद 645
CP@@ 644
खद 644
थाई 644
विलिय@@ 643
il@@ 642
1800 641
° 641
°@@ 641
कन्न@@ 641
जख्@@ 641
2500 640
2,500 639
टिविटी 639
लाभा@@ 639
सव 639
पेंद्र 638
बंगा@@ 638
बहादु@@ 638
os@@ 637
आर्कि@@ 637
केन्@@ 637
चट्@@ 637
रजनी@@ 637
आइसो@@ 636
ललिता 636
सिक्यो@@ 636
147 635
कल्याण@@ 635
चेन्@@ 635
137 634
गुनी 634
1963 633
MeToo 633
साब 633
सिपा@@ 632
स्ट्रक्चर 632
1967 631
CRPF 631
ta 631
ंदो@@ 631
0.3 630
3,0@@ 630
6000 630
National 630
उल्लं@@ 630
ड्रै@@ 630
बर्न 630
सक्@@ 630
280 629
4.0 629
ौल 629
1945 627
DC 627
एसएमई 627
न्याया@@ 627
मद्@@ 627
संलग@@ 627
45.@@ 626
पि 626
शास्त्र@@ 626
3,7@@ 625
Live 625
SA 625
ne@@ 625
न्यो@@ 625
स्वप्@@ 625
1969 624
FI@@ 624
Fir@@ 624
le 624
ts 623
डिय़@@ 623
भाल 623
वर्गीय 623
1.4 622
त्ते 622
29,@@ 621
65.@@ 621
कमजो@@ 621
्युनि@@ 621
मंजू@@ 620
यत्न 620
98@@ 619
पनों 619
हेलि@@ 618
3,9@@ 617
NDA 617
आदर्@@ 617
पास@@ 617
मानजनक 617
1.6 616
predic@@ 616
तव्य@@ 616
विद्@@ 616
by 615
DA 614
Q 614
age 614
वस्त 614
195@@ 613
260 613
आसमा@@ 613
इंत@@ 613
नियंत्र@@ 613
पुस्@@ 613
0.2 612
1.8 612
49.@@ 612
परंपरा@@ 612
पीछ@@ 612
ن@@ 611
रसो@@ 611
र्च 611
68@@ 610
St@@ 610
66@@ 609
PNB 609
ed@@ 609
धै@@ 609
1920 608
55.@@ 608
6.5 608
RA@@ 608
औ 608
3.0 607
203 606
कारिक 606
फ्टवेयर 606
मही@@ 606
वपूर्ण 606
136 605
1940 605
आश्@@ 605
बिंद@@ 604
ब्रह्मा@@ 604
सेवानि@@ 604
अफगा@@ 603
धू 603
नीदर@@ 603
भागी@@ 603
77@@ 602
आभा@@ 602
mm 601
संदर्@@ 601
सून 601
225 600
this 600
अफ्री@@ 600
एसि@@ 600
ढ़ियों 600
143 599
गज 599
बूझकर 599
सेक्रे@@ 599
354 598
se 598
ढू@@ 598
मैनु@@ 598
सूची@@ 598
63.@@ 597
क़ुर@@ 597
सार्@@ 597
तिल@@ 596
र्व 596
वरी@@ 596
स्तु@@ 596
1968 595
vi@@ 595
अदाल@@ 594
जिकल 594
· 593
1942 591
NT@@ 591
तर्क@@ 591
हिए 591
ाओं 591
67.@@ 590
शिका@@ 590
154 589
37.@@ 589
243 588
ैं 588
1966 587
60,000 587
अनै@@ 587
जीविका 587
पब्लि@@ 587
स्ती@@ 587
हथि@@ 587
IV 586
ष्टाचार 586
161 585
जमेंट 585
बेव@@ 585
वेंट 585
188 584
ur@@ 584
सुब्रमण्य@@ 584
ुता 584
36.@@ 583
ML 583
न्व@@ 583
स्टैंड@@ 583
हिस्से@@ 583
tr@@ 582
दीकी 582
सैनि@@ 582
Ar@@ 581
सार्वभौ@@ 581
60.@@ 580
वाकि@@ 580
एसआर 578
डिब्@@ 578
पंक@@ 578
मुख्@@ 578
4,9@@ 577
electr@@ 576
em@@ 576
घु 576
मंगो@@ 575
वसु@@ 575
An@@ 574
FC 574
NAME 574
न्नता 574
पन्ना 574
व्यावसा@@ 574
127 573
52.@@ 573
LED 573
Nm 573
ant 573
स्टिक्स 573
148 572
1958 572
210 572
30,@@ 572
BC 572
ंचर 572
हमे@@ 572
2,3@@ 571
506 571
EC 571
अपेक्षा@@ 571
Con@@ 570
जिल 570
149 569
1964 569
आक्रो@@ 569
र्ग 569
षड@@ 569
स्तियां 569
Des@@ 568
IRCTC 568
MS@@ 568
To 568
\ 568
स्वै@@ 568
हिष्णुता 568
PA@@ 567
कांग 567
ळ@@ 567
टिवि@@ 566
मीत 566
DS 565
अंद@@ 565
गारी 565
जरिया 565
र्थक 565
08@@ 564
ter 564
न्यु@@ 564
बन्दी 564
बैक्टी@@ 564
मांसपे@@ 564
Mo@@ 563
ST@@ 563
ig@@ 563
कुमार@@ 563
स्पेक्@@ 563
MS 562
SP 562
जरलैंड 562
अवॉ@@ 560
दख@@ 560
मुता@@ 560
ोड़ 560
OS 559
तुर@@ 559
वाणि@@ 559
40,@@ 558
ance 558
gm 558
si@@ 558
SE@@ 557
चौं@@ 557
छुट@@ 557
53.@@ 556
HT@@ 556
खिए 556
पार्ष@@ 556
सरण 556
साक्षा@@ 556
35,@@ 555
CA 555
ख्या 555
ज़िर 555
रव 555
लंब@@ 555
32GB 554
34.@@ 554
फ्रां@@ 554
गट 553
ग्रु@@ 553
होंने 553
with 552
ب@@ 552
ي@@ 552
तिहासिक 552
AN 551
चि 551
नर्म@@ 551
38,@@ 550
PS 550
ur 550
दूता@@ 550
मेन@@ 550
307 549
5.0 549
उद्य@@ 549
162 548
164 548
निष्का@@ 548
वाहों 548
1857 547
256GB 546
Pakistan 546
UN 546
तरिक 546
नीयता 546
युस 546
ष्य 546
स्मृ@@ 546
4G 545
दफ्@@ 545
रवै@@ 545
Cricket 544
डिट 544
मुजफ्@@ 544
युक्तों 544
सुचार@@ 544
CE@@ 543
ent 543
टीकरण 543
0.6 542
Mar@@ 542
ak 542
be 542
42.@@ 541
co 541
डिज़ा@@ 541
धुरी 541
129 540
2.4 540
इलेक्ट्र@@ 540
ज्र 540
भाग्य@@ 540
Bank 539
भारती@@ 539
पंचाय@@ 538
श्रेणी@@ 538
1959 536
पनडुब्@@ 535
महबू@@ 535
मुम@@ 535
एंड्र@@ 534
चरण@@ 534
हस्ता@@ 534
Ch@@ 533
IT 533
band 533
me 533
क्रेन 533
पदो@@ 533
पद्ध@@ 533
भूत@@ 533
लकॉम 533
शाला@@ 533
IT@@ 532
ंगाई 532
निरी@@ 532
ब्बर 532
कोशि@@ 531
भाष 531
संग्रहा@@ 531
185 530
201 530
con@@ 530
कसा@@ 530
1919 529
cov@@ 529
VI 528
WHO 528
tic 528
छाड़ 528
जीसी 528
मिश्@@ 528
ad 527
भिक 527
ET 526
पर्स@@ 526
मुंब@@ 525
1939 524
AS@@ 524
NZ 524
ra 524
इब@@ 524
NO@@ 523
नेवालो 523
म्मी 523
॥ 523
133 522
74.@@ 522
उपभो@@ 522
टिफिकेशन 522
तिकता 521
1.7 520
134 520
146 520
ICICI 520
आवेद@@ 520
प्रेसि@@ 520
स्वतं@@ 520
्रास 520
PO@@ 519
टूर्ना@@ 519
action 518
टि 518
इस्ते@@ 517
ब्यो@@ 517
यरी 517
tor 516
अधिकां@@ 516
शिका 516
system 515
उद्या@@ 515
बपतिस्@@ 515
ष्णु 515
RC 514
ity 514
कल्या@@ 514
मुठ@@ 514
ai@@ 513
1954 512
275 512
380 512
ताजी 512
तोष 512
जनन 510
जुन 510
199 509
to@@ 509
पक्@@ 509
गिरफ़्@@ 508
जेंसी 508
ics 507
62.@@ 506
डेंट्स 506
वाणिज्य@@ 506
80,000 505
Day 505
temperature 505
नून 505
फट@@ 505
61.@@ 504
Ex@@ 504
II@@ 504
Qu@@ 504
bsp 504
س@@ 504
आउ@@ 504
इकट्@@ 504
फिलीपी@@ 504
चिंता@@ 503
जिस@@ 503
रूद्ध 503
सकारा@@ 503
PM@@ 502
up 502
बिला@@ 502
एशि@@ 501
गुणवत्ता@@ 501
तीत 501
स्नै@@ 501
Bi@@ 500
CSK 500
data 500
एवि@@ 500
डिवी@@ 500
one 499
space 499
एपि@@ 499
घ्न 499
सच@@ 499
TMC 498
ढांच@@ 498
बारा 498
वरण 498
ाधिकार 498
बलू@@ 497
लभ 497
3,6@@ 496
AL@@ 496
ph@@ 496
कॉर@@ 496
ख्ते@@ 496
500@@ 495
54@@ 495
el 495
सीम 495
BS@@ 494
हस्ताक्ष@@ 494
ूद 494
आधुनि@@ 493
सुपुर्@@ 493
hats@@ 492
ंत्र@@ 491
त्यौ@@ 491
त्री@@ 491
योगियों 491
र्नी 491
ai 490
ons 490
धीय 490
अब्रा@@ 489
तेल@@ 489
नाड 489
प्रशास@@ 489
सेट@@ 489
कवरी 487
पुस्तका@@ 487
• 487
sp@@ 486
इंडोने@@ 486
फ्तार 486
वानों 486
सिग@@ 486
IB@@ 485
मिर 485
NC@@ 484
West 484
उदय@@ 484
खलन 484
पिका 484
जादू@@ 483
co@@ 482
त्रि 482
case 481
001 480
IS 480
bhp 480
मेहर@@ 480
उम्र@@ 479
प्रतिभू@@ 479
व्याव@@ 479
सीय 479
स्पर 479
AI 478
HC 478
आशी@@ 478
ंकित 477
क्टे@@ 477
प्रयोज@@ 477
माध्य@@ 477
रप्पा 477
रसन 477
AIMIM 476
do@@ 476
नलों 476
बांग्ला@@ 476
बात@@ 476
My@@ 475
टेलाइट 475
ताल्@@ 475
पदार्थ@@ 475
म्बे 475
स्थता 475
AP@@ 474
ent@@ 474
indi@@ 474
तब्@@ 474
निर्या@@ 474
ब्लै@@ 474
लादेश 474
सदस्@@ 474
सबरी@@ 474
Of 473
os 473
नीतिक 473
त्ती@@ 472
रियाल 472
समृ@@ 472
11,000 471
इजा@@ 471
जपे@@ 471
ANI 470
MLA 470
craft 470
ir@@ 470
र्ष 470
England 469
TP 469
अटै@@ 469
देश्य 469
बूझ@@ 469
RCB 468
परिणाम@@ 468
AP 467
खिक 467
च्छेद 467
पर्यावर@@ 467
भागीय 467
ep@@ 466
प्रोड्यू@@ 466
मछु@@ 466
संभव@@ 466
ma 464
डेमो@@ 464
सम्मति 464
INX 463
अस्ति@@ 463
जाहि@@ 463
विरो@@ 463
द्धता 462
हन्ना 462
IF@@ 461
har@@ 461
गोष्ठी 461
design 460
काता 460
International 459
me@@ 459
जारा 459
सकार 459
सिलसि@@ 459
बाग़@@ 458
मलया@@ 458
विचारा@@ 458
ISIS 457
Pre@@ 457
th 457
खट्@@ 457
चैंपि@@ 457
मण्य@@ 457
वः 457
Jio 456
Times 456
तस्वी@@ 456
पके 456
ISRO 455
RJD 455
technology 455
तंत्रि@@ 454
रिचर्@@ 454
भुत 453
pl@@ 452
मण्@@ 452
स्टु@@ 452
iii 451
SO@@ 450
be@@ 450
ंति 450
पात@@ 450
सूचकां@@ 450
टिश 449
नफ@@ 449
सार्व@@ 449
NCR 448
ग्य@@ 448
ञ 448
PR@@ 447
aj@@ 447
ढु@@ 447
धुं@@ 447
um@@ 446
चुनौ@@ 446
CB@@ 445
UN@@ 445
ans@@ 444
water 444
गुना@@ 444
मग@@ 444
DM@@ 442
Technology 442
man 442
प्रवी@@ 442
रिली@@ 442
वाय 442
De@@ 441
gl@@ 441
sh@@ 441
मुआव@@ 441
а@@ 440
डेक्स 440
प्रभ@@ 440
रिफाइन@@ 440
वारा@@ 440
AIIMS 439
शांक 439
8GB 438
AR 438
अरू@@ 438
परमाण@@ 438
बाह@@ 438
मानद@@ 438
AT 437
BMW 437
Mi 437
name 437
त्न 437
शने 437
जीलैंड 436
र्डर 436
CC@@ 434
are 434
विकल्@@ 434
د@@ 433
किय@@ 433
सीतार@@ 433
more 432
ताव 432
नाल्@@ 432
Redmi 431
पुरू@@ 431
मोड़ा 431
कब@@ 430
मारियों 430
विप@@ 430
5G 429
त्रित 429
दून 429
199@@ 428
PA 428
core 428
la 428
शुरु@@ 428
Un@@ 427
MC@@ 426
ka 426
ya 426
जगी 426
डोने@@ 426
दूसर@@ 426
ंसलर 425
बेल्@@ 425
योगि@@ 425
कित्@@ 424
रसू@@ 424
विश्रा@@ 424
बौद्ध@@ 423
विवि@@ 423
स्ट्रेलि@@ 423
CEO 422
उदाह@@ 422
चाप 422
माया@@ 422
सामर्थ@@ 422
हिक 422
Police 421
WhatsApp 421
पुनरुत्@@ 421
cription 420
ज्य 420
150@@ 419
Sh@@ 419
ology 419
pp@@ 419
यानों 419
Asia 418
HD 418
हॉस्पि@@ 417
UI 416
ड्रैगन 416
पकों 416
बाहु@@ 416
माबाद 416
रखा@@ 416
विनो@@ 416
AI@@ 415
har 415
प्रतिष्ठा@@ 415
यामत 415
SR@@ 414
मार्टम 414
हीम 414
Sports 413
आकर्@@ 413
व्हा@@ 413
WE 412
निष्क्रि@@ 412
बुज़ु@@ 412
Election 411
UP@@ 411
अख्@@ 411
उछा@@ 411
मस्ति@@ 411
Ad@@ 410
ability 410
अत्य@@ 410
tors 409
ut@@ 409
BSF 408
au@@ 408
field 408
ical 408
ग्राह@@ 408
न्वयन 407
UC@@ 406
Up@@ 406
धनु@@ 406
परिव@@ 406
शि 406
DE@@ 405
HDFC 405
NA@@ 405
Now 405
ैन 405
PS@@ 404
TC 404
इक्वि@@ 404
जवाब@@ 404
प्रां@@ 404
फस@@ 404
मिनल 404
pur 403
डिय़ों 403
राजपू@@ 403
वैक्@@ 403
RR 402
मास्@@ 402
श्वे@@ 402
हथिय@@ 402
া@@ 402
ys 401
स्तर@@ 401
Sharma 400
UIDAI 400
दुर्घटना@@ 400
प्वा@@ 400
विकेट@@ 400
व्यभि@@ 400
6GB 399
SS@@ 399
od@@ 399
अभिन@@ 399
SIT 398
ख्ता 398
all 397
ang@@ 397
ations 397
अवै@@ 397
क्रांति@@ 397
पस@@ 397
OD@@ 396
त्रुटि@@ 396
मार्के@@ 396
ABS 395
कुरिन्@@ 395
भाषित 395
लेंडर 395
Gandhi 394
sem@@ 394
Pro@@ 393
cc 393
दीक 393
शनि@@ 393
ci@@ 392
चेस्टर 392
Air 391
RO@@ 391
ंगाबाद 391
तथा@@ 391
दूरों 391
संतो@@ 391
सिंगा@@ 391
Vo@@ 390
XI 390
og@@ 390
बूत 390
लिब 390
शबा@@ 390
Australia 389
EC@@ 389
Im@@ 389
str@@ 389
te@@ 389
वन्य@@ 389
Sp@@ 388
do 388
res 388
र्जा 388
लर्@@ 388
आधु@@ 387
सदस्य@@ 387
iPhone 386
ov@@ 386
ren@@ 386
μ@@ 386
चैलें@@ 386
स्वामि@@ 386
ala 385
and@@ 385
जिए 385
Cl@@ 384
South 384
aw@@ 384
ha 384
मंत 384
मसन 383
००@@ 383
LO@@ 382
मूल्यां@@ 382
यियों 381
सम्मि@@ 381
हूर 381
ke 380
पूर्णि@@ 380
हिफा@@ 380
अर्था@@ 379
व्लादि@@ 379
श्न 379
ारस 379
अनुसं@@ 378
3GB 377
And 377
Di@@ 377
ie 377
इच्छ@@ 377
डायबि@@ 377
दील 377
धिकारों 377
BS 376
SSC 376
Vivo 376
IN 375
ay@@ 375
bi 375
id 375
द्योगिक 375
स्विट्@@ 375
ओप@@ 374
रिसे@@ 374
लाह@@ 374
AM@@ 373
KKR 373
Th@@ 373
गड़े 373
मित्@@ 373
वसी@@ 373
विशे@@ 373
ष्कार 373
SS 372
इंस्टा@@ 372
end@@ 370
from 370
गंभी@@ 370
शासन@@ 370
िम 370
For 369
lo@@ 369
परं@@ 369
IA@@ 368
LTE 368
PF 368
hi@@ 368
not 368
says 368
धार्@@ 368
पायर 368
रज़ 368
रभ 368
More 367
ंतरण 367
संतु@@ 367
ter@@ 366
type 366
गोरख@@ 366
घाती 366
BSP 365
CD 365
ER@@ 365
High@@ 365
PTI 365
ari 365
उन्न@@ 365
जयं@@ 365
नाश@@ 365
रिकॉ@@ 365
सिफ@@ 365
Se@@ 364
ऐश्वर्@@ 364
टान 364
नाबालि@@ 364
पहर 364
DVD 363
ative 363
ens@@ 363
ra@@ 363
निराशा@@ 363
न्दु 363
om 362
हमला@@ 362
उम्मी@@ 361
कृतिक 361
वकों 361
स्रो@@ 361
CO2 360
NS@@ 360
Narendra 360
विटा@@ 360
वेंटि@@ 360
On 359
ist@@ 359
उस्@@ 359
HIV 358
son 358
जाइश 358
2nd 357
AR@@ 357
ana 357
é@@ 357
ˈ@@ 357
अकाद@@ 357
कैल्@@ 357
box 356
प्रको@@ 356
फड@@ 356
रश्@@ 356
US@@ 355
ati@@ 355
j 355
state 355
NA 354
ts@@ 354
दक्षि@@ 354
मुसल@@ 354
AC@@ 353
TS 353
han 353
खूब@@ 353
बेडकर 353
AC 352
Tr@@ 352
architecture 352
ence 352
आह्@@ 352
उपरा@@ 352
कुमा@@ 352
नेश्वर 352
शिकाय@@ 352
com@@ 351
खूबी 351
◆ 351
net 350
उद्ध@@ 350
मुज@@ 350
ललि@@ 350
उत्पाद@@ 349
गरी@@ 349
रूनी 349
सानों 349
ی@@ 348
रेली 348
लंब 348
ح@@ 347
ैव 347
CJI 346
Co@@ 346
Man@@ 346
Realme 346
TR@@ 346
iconduc@@ 346
डब्ल@@ 346
पार्थ@@ 346
विलियर्स 346
3rd 345
BSNL 345
प्रथा@@ 345
मजिस्ट्रे@@ 345
Xiaomi 344
iv 344
Congress 343
line 343
ann@@ 342
ch 341
man@@ 341
मेज@@ 341
ेल 341
als 340
खुद@@ 340
थेरे@@ 340
माण@@ 340
वैल@@ 340
साझे@@ 340
IC 339
IV@@ 339
Previous 339
condition 339
par@@ 339
per@@ 339
phase 339
ंबू 339
उंड 339
क्षिप्त 339
पैग़म्ब@@ 339
आका@@ 338
नजदी@@ 338
ME@@ 337
Wedding 337
no@@ 337
st 337
ver@@ 337
फ़िर@@ 337
्न 337
CCTV 336
Photo 336
नकारा@@ 336
É@@ 335
आनुवं@@ 335
ड्ड@@ 335
हार्ड@@ 335
RT@@ 334
TDP 334
पियां 334
बेसब@@ 334
Le@@ 333
he@@ 333
ing@@ 333
ت@@ 333
अमृत@@ 333
सपे@@ 333
सब्सि@@ 333
सम्रा@@ 333
PL@@ 332
app 332
artic@@ 332
रिजर्@@ 332
Mag@@ 331
Team 331
ain@@ 331
q@@ 331
te 331
Am@@ 330
भोज@@ 330
ligh@@ 329
magnetic 329
per 329
खब@@ 329
सांझ 329
Match 328
eg@@ 328
ة 328
कृप@@ 328
नेअ@@ 328
प्रगा@@ 328
हौल 328
reg@@ 327
अंड@@ 327
ग्य 327
ide 326
Par@@ 325
अदि@@ 325
भरता 325
Deepika 324
Plus 324
Rahul 324
क्वार@@ 324
श्योरेंस 324
स्वास्थ@@ 324
Global 323
RC@@ 323
pr@@ 323
pre@@ 323
लीकेशन 323
²@@ 322
पुरस्@@ 322
बराम@@ 322
1st 321
TB 321
ly 321
DA@@ 320
Inter@@ 320
Minister 320
UK 320
dis@@ 320
ma@@ 320
q 320
कुरै@@ 319
atta 318
forecast 318
о@@ 318
म्यां@@ 317
HO@@ 316
तिम 316
्राष्ट्र@@ 316
NI@@ 315
out 315
pro@@ 315
time 315
च्चे 315
फैस@@ 315
ष्टीकरण 315
mail 314
सोचि@@ 314
Apple 313
SP@@ 313
जारों 313
दोज़@@ 313
म्मे@@ 313
form 312
BI 311
Court 311
DR@@ 311
JDU 311
NG 311
Photos 311
mi 311
डमि@@ 311
दब@@ 311
सकर्@@ 311
समें 311
सियस 311
FT@@ 310
NG@@ 310
PC 310
TE@@ 310
iOS 310
ن 310
जरू@@ 310
न्नति 310
CS@@ 309
ER 309
Virat 309
ast@@ 309
my@@ 309
ow@@ 309
धिया 309
नीन 309
पेशे@@ 309
बारियों 309
भाविक 309
सिफारि@@ 309
स्खलन 309
For@@ 308
MT 308
ع@@ 308
कश्मी@@ 308
सांस्@@ 308
Indies 307
ator 307
ud@@ 307
आड@@ 307
पत्त@@ 307
IL 306
MC 306
SCO 306
URL 306
mar@@ 306
values 306
र्ष@@ 306
लीम 306
काठ@@ 305
कार्ट 305
दीदा 305
सकीय 305
App 304
BH@@ 304
Dis@@ 304
ष्ट्र@@ 304
John 303
PC@@ 303
ery 303
mod@@ 303
pe@@ 303
Act 302
FA 302
ari@@ 302
क्टेयर 302
पिड 302
Ma@@ 301
Per@@ 301
University 301
conduc@@ 301
गम्भी@@ 301
मिश्र@@ 301
Budget 300
UPSC 300
ob@@ 300
rec@@ 300
पुस्त@@ 300
शद 300
शनी 300
3D 299
ME 299
Next 299
Today 299
all@@ 299
carbon 299
उम्मीद@@ 299
परहे@@ 299
भेदों 299
मैत्री@@ 299
लक्ष्@@ 299
Com@@ 298
IAS 298
Rs 298
Star 298
Vs 298
ंगर@@ 298
गुमरा@@ 298
CC 297
GS 297
ND 297
UR@@ 297
ash@@ 297
az@@ 297
class 297
sector 297
su@@ 297
कमल@@ 297
तेश्वर 297
नाल्ड 297
राजी@@ 297
HE@@ 296
Kohli 296
ay 296
hab@@ 296
tive 296
val@@ 296
पंड@@ 296
मासू@@ 296
Microsoft 295
Shah 295
We@@ 295
लुत्@@ 295
हफ्@@ 295
USB 294
Windows 294
ah@@ 294
Chro@@ 293
Trump 293
cor@@ 293
निदेश@@ 293
BO@@ 292
Ranveer 292
dr@@ 292
ge@@ 292
लिकेशन 292
India@@ 291
टीका@@ 291
पट्ट@@ 291
Health 290
car@@ 290
connectivity 290
sil@@ 290
पब्@@ 290
बेरोजग@@ 290
IPS 289
UV@@ 289
एथले@@ 289
जरे@@ 289
मुखि@@ 289
Result 288
Si@@ 288
United 288
sub@@ 288
Card 287
Mumbai 286
ating 286
खियां 286
बेंगलु@@ 286
मुआ@@ 286
br@@ 285
function 285
model 285
title 285
इंजी@@ 285
एआईएम@@ 285
एजु@@ 285
बिनेट 285
GS@@ 284
NDRF 284
NP@@ 284
over 284
и@@ 284
घरेल@@ 284
IM 283
YSR 283
ated 283
pm 283
world 283
ंभ 283
डिप्लो@@ 283
स्फीति 283
क्षमा@@ 282
AB@@ 281
ISI 281
ness 281
आत्मह@@ 281
पीयू@@ 281
NPR 280
NSA 280
ell@@ 280
fi@@ 280
प्रचु@@ 280
मदनी 280
संवाद@@ 280
BE@@ 279
आशु@@ 278
मुना 278
Institute 277
af@@ 277
allo@@ 277
innovation 277
res@@ 277
पेय@@ 277
शिक@@ 277
San@@ 276
Vir@@ 276
लियर 276
शाक 276
स्पति 276
Pay 275
est 275
ir 275
अद्@@ 275
डुचेरी 275
धूम@@ 275
बर्खा@@ 275
♪ 275
Interior 274
ani 274
la@@ 274
test 274
करियां 274
मंग 274
वाकां@@ 274
North 273
label 273
po@@ 273
power 273
कॉप्टर 273
Ne@@ 272
One 272
क्षम 272
च्च 272
जगदी@@ 272
Ali 271
China 271
PP@@ 271
icon 271
re 271
way 271
लेरी 271
हाइट 271
PE@@ 270
Padukone 270
ks 270
उपयोग@@ 270
निदेशा@@ 270
मुक़र्र@@ 270
हुल 270
SL@@ 269
Sam@@ 269
बाब्वे 269
संतोष@@ 269
Bharat 268
IO@@ 268
President 268
ah 268
bl@@ 268
item 268
level 268
प्ता@@ 268
राब 268
स्फी@@ 268
AM 267
BD 267
SC@@ 267
SD 267
ans 267
ber 267
ou@@ 267
र्म@@ 267
Playing 266
Ser@@ 266
ary 266
ج@@ 266
मेर@@ 266
SE 265
TA 265
Tax 265
अद्य@@ 265
महम@@ 265
सोना@@ 265
্@@ 265
Coronavirus 264
IAF 264
pi@@ 264
चक्रवा@@ 264
ड्ढा 264
पत्थ@@ 264
भया@@ 264
IA 263
ess@@ 263
केआर 263
जद@@ 263
धारि@@ 263
सामंज@@ 263
NEET 262
tic@@ 262
षड्य@@ 262
साली 262
As@@ 261
FATF 261
Op@@ 261
gn@@ 261
ill@@ 261
na 261
नरेगा 261
मोबाइ@@ 261
हाटी 261
ऽ@@ 261
Bihar 260
DI@@ 260
DNA 260
Innovation 260
cr@@ 260
चीत 260
विवेकान@@ 260
स्वर्ग@@ 260
< 259
ice 259
min@@ 259
work 259
α 259
हक@@ 259
Gu@@ 258
Open 258
del@@ 258
sha@@ 258
आयर@@ 258
सहानु@@ 258
; 257
विद्य@@ 257
Kabaddi 256
SL 256
आनन्@@ 256
टलैंड 256
नाबा@@ 256
ष् 256
सफे@@ 256
CR@@ 255
LE@@ 255
Pl@@ 255
gr@@ 255
×@@ 255
ंडई 255
आजा@@ 255
धानी 255
मृत@@ 255
रुस्त 255
सच्च@@ 255
सेव@@ 255
Be@@ 254
Business 254
CP 254
Har@@ 254
development 254
il 254
inter@@ 254
आपूर्@@ 254
उत्कृ@@ 254
ब्रिड 254
RRB 253
ot@@ 253
ted 253
अँग्रे@@ 253
Facebook 252
Time 252
ND@@ 251
T20I 251
काल्@@ 251
ताज@@ 251
त्वपूर्ण 251
प्रदर्शन@@ 251
सायनिक 251
ABVP 250
Po@@ 250
YS 250
ting 250
नामां@@ 250
पसं@@ 250
Covid 249
DM 249
IB 249
ICJ 249
Prob@@ 249
concentration 249
end 249
land 249
tional 249
ट्र 249
धर्मे@@ 249
विज्ञ@@ 249
स्ट्रेलिया 249
ATM 248
Char@@ 248
Gov 248
IG@@ 248
MG 248
Media 248
Online 248
Tata 248
ally 248
dia 248
ev@@ 248
group 248
making 248
Africa 247
Bollywood 247
Diwali 247
ICMR 247
गिता 247
As 246
Car@@ 246
IPC 246
ends 246
mon@@ 246
р@@ 246
उर्वर@@ 246
तबा@@ 246
Research 245
ft 245
gu@@ 245
option 245
·@@ 245
आत 245
तुम्ह@@ 245
हिरा@@ 245
☻ 245
CW@@ 244
LA 244
Punjab 244
Su@@ 244
VC 244
techn@@ 244
अनुभ@@ 244
लुओं 244
EVM 243
High 243
Kumar 243
new@@ 243
ous 243
इंस 243
चीज़@@ 243
शुरू@@ 243
सत्तार@@ 243
Development 242
GDP 242
TO@@ 242
Ter@@ 242
^ 242
air 242
ri 242
set 242
ंति@@ 242
भाँ@@ 242
ES 241
Priyanka 241
rate 241
फायदे@@ 241
Chopra 240
IR@@ 240
Sc@@ 240
Women 240
दार्श@@ 240
ब्य@@ 240
व्ला@@ 240
साझ@@ 240
AD@@ 239
Mon@@ 239
UAE 239
ism 239
ms 239
ong@@ 239
online 239
tivity 239
बदला@@ 239
IMF 238
So@@ 238
YS@@ 238
ong 238
use 238
Case 237
Solar 237
der 237
oo@@ 237
vi 237
काउंट 237
ट्रम 237
− 237
CR 236
HA@@ 236
will 236
अधिक@@ 236
उद्यो@@ 236
चस्@@ 236
न्तु 236
AK 235
FIFA 235
RI 235
SI 235
ang 235
bo@@ 235
fin@@ 235
iz@@ 235
king 235
ه@@ 235
दिरों 235
फलता 235
मोमि@@ 235
लद्दा@@ 235
PMC 234
ath@@ 234
date 234
hal@@ 234
ik@@ 234
li 234
module 234
ty 234
ق@@ 234
निमंत्र@@ 234
मेमो@@ 234
मेह 234
Br@@ 233
DO@@ 233
Pradesh 233
Sony 233
WF 233
du 233
ru@@ 233
uc@@ 233
ر 233
रोमांच@@ 233
198@@ 232
the@@ 232
с@@ 232
मामू@@ 232
FS@@ 231
Final 231
Is 231
No 231
Ti@@ 231
Trans@@ 231
With 231
atic 231
sc@@ 231
л@@ 231
मुँ@@ 231
ach@@ 230
ane 230
ens 230
ric@@ 230
गोली@@ 230
जिस्ट्रे@@ 230
पैर@@ 230
रीश 230
Games 229
MA 229
Sha@@ 229
UPI 229
ina 229
£@@ 229
कलं@@ 229
तिकी 229
पाठी 229
RTI 228
गराज 228
जाह्@@ 228
तेलंगा@@ 228
फ्रेंचाइ@@ 228
वनंतपुरम 228
First 227
Li@@ 227
Sar@@ 227
its 227
ium 227
ti 227
ors 226
í@@ 226
चौड़@@ 226
छान@@ 226
बॉलि@@ 226
EPFO 225
Twitter 225
umb@@ 225
इमर@@ 225
कैपि@@ 225
नागरि@@ 225
पेड@@ 225
Commission 224
Me@@ 224
PoK 224
ds 224
number 224
ue 224
जिते@@ 224
साहे@@ 224
ara 223
ecosystem 223
new 223
ton 223
यालय 223
सश@@ 223
ল@@ 223
Ac@@ 222
State 222
hy@@ 222
ib@@ 222
आखि@@ 222
Cha@@ 221
Ste@@ 221
ion@@ 221
ki 221
uk@@ 221
चयी 221
चिस्तान 221
माम 221
Bar@@ 220
Gujarat 220
ax@@ 220
ओल 220
छ्@@ 220
रख्@@ 220
विक्टो@@ 220
ates 219
दर्द@@ 219
पड़ो@@ 219
Min@@ 218
Sri 218
Tri@@ 218
bu@@ 218
est@@ 218
has 218
tu@@ 218
प्रेर@@ 218
भट्टा@@ 218
शर्ते 218
सपुर 218
Assembly 217
DMK 217
PG 217
ding 217
no 217
ve 217
रिजल्@@ 217
dioxide 216
नेड 216
वर्द्@@ 216
ॢ@@ 216
Amazon 215
Asian 215
MP@@ 215
ip@@ 215
results 215
आहू@@ 215
धरो@@ 215
धिकरण 215
मदद@@ 215
Data 214
MSME 214
SUV 214
YouTube 214
sic 214
د 214
फोर्निया 214
सऊ@@ 214
eng@@ 213
health 213
house 213
ne 213
आध्या@@ 213
East 212
Go@@ 212
LG 212
Salman 212
int@@ 212
than 212
चूड़ 212
सज्जित 212
du@@ 211
कोत@@ 211
पॉपु@@ 211
बामा 211
ATE 210
ali 210
ce 210
cl@@ 210
dec@@ 210
ment 210
mp@@ 210
ple 210
उपयोगि@@ 210
तरीन 210
GH@@ 209
NASA 209
Ra@@ 209
ies 209
ā@@ 209
लेक्सी 209
सिर्@@ 209
change 208
रिच@@ 208
RA 207
Zealand 207
ement 207
ern@@ 207
view 207
™@@ 207
.@@ 206
35A 206
HD@@ 206
Hu@@ 206
LD 206
MB@@ 206
Rajasthan 206
Review 206
Ver@@ 206
आन्दो@@ 206
हरलाल 206
ौदा 206
CT@@ 205
ID@@ 205
VS 205
ants 205
ass@@ 205
ler 205
red 205
ف@@ 205
तहरी@@ 205
द्रवि@@ 205
हासि@@ 205
ौरी 205
DGP 204
ack 204
network 204
vol@@ 204
â@@ 204
तियात 204
थिए@@ 204
शही@@ 204
Group 203
Rec@@ 203
Step 203
ash 203
ect 203
high 203
ick@@ 203
pol@@ 203
we@@ 203
पितों 203
बेहि@@ 203
Government 202
Highlights 202
current 202
istic 202
ization 202
menu 202
off 202
उच्@@ 202
ताछ 202
दिल्@@ 202
बुध@@ 202
्यां@@ 202
AA 201
Lanka 201
Lo@@ 201
Paytm 201
Sonam 201
tt@@ 201
ual 201
β 201
जासू@@ 201
दासपुर 201
der@@ 200
ering 200
side 200
social 200
ँकि 200
ख़े@@ 200
वरु@@ 200
া 200
CH@@ 199
DG@@ 199
JEE 199
MB 199
Mov@@ 199
Prime 199
Tag 199
फ्टी 199
PF@@ 198
PU@@ 198
WS 198
dates 198
hol@@ 198
sen@@ 198
थाई@@ 198
पारस्@@ 198
► 198
DRDO 197
Digital 197
Met@@ 197
ological 197
н@@ 197
लेफ्@@ 197
शिवि@@ 197
Bo@@ 196
New@@ 196
Ro@@ 196
Science 196
ages 196
ant@@ 196
iv@@ 196
डिप्@@ 196
फेस्टि@@ 196
CL@@ 195
NSG 195
TRS 195
od 195
oo 195
खुल्@@ 195
मानित 195
ळ 195
List 194
fl@@ 194
ian 194
our 194
ंग्रे@@ 194
इंटेलि@@ 194
टिफि@@ 194
तृ 194
नियमि@@ 194
CII 193
aren@@ 193
ker 193
ression 193
е@@ 193
कलक@@ 193
ज़िन्@@ 193
भागियों 193
रेस्तरा@@ 193
संशो@@ 193
सोसाइ@@ 193
iver 192
waste 192
बैडमि@@ 192
Fi 191
IMD 191
Launched 191
Office 191
global 191
कैथो@@ 191
छत्र@@ 191
197@@ 190
Pan@@ 190
Policy 190
board 190
check 190
ecture 190
ni 190
tro@@ 190
क्षति@@ 190
पाकी@@ 190
बई 190
श्वर्@@ 190
समझौ@@ 190
ॉफ 190
ব@@ 190
196@@ 189
Donald 189
Note 189
asp@@ 189
district 189
io 189
ख्ती 189
रिजि@@ 189
ृंख@@ 189
ational 188
ca 188
day 188
des@@ 188
infrastructure 188
ments 188
ode 188
raj@@ 188
ram 188
video 188
ंत्र 188
इत्या@@ 188
शिंग@@ 188
संसद@@ 188
Infrastructure 187
Kashmir 187
Log@@ 187
NB@@ 187
Royal 187
Social 187
ab 187
alloy 187
cha@@ 187
domain 187
first 187
gh@@ 187
tri@@ 187
Compl@@ 186
FT 186
Or@@ 186
Power 186
Report 186
bit 186
variables 186
दीपा@@ 186
सोसाय@@ 186
AS 185
Pres@@ 185
SH@@ 185
You 185
media 185
that 185
गोप@@ 185
पहल@@ 185
यरूश@@ 185
Archit@@ 184
DR 184
Dre@@ 184
How 184
Make 184
Maruti 184
PAN 184
ο@@ 184
ش@@ 184
वगै@@ 184
He@@ 183
Mal@@ 183
Mobile 183
Res@@ 183
सुष@@ 183
Hon@@ 182
Honda 182
NS 182
PN@@ 182
Pr@@ 182
TM 182
ents 182
gas 182
lin@@ 182
गुड़@@ 182
धन्य@@ 182
बर्थ@@ 182
राइफ@@ 182
El@@ 181
Mur@@ 181
Price 181
bul@@ 181
climate 181
ho@@ 181
states 181
ut 181
ə@@ 181
к@@ 181
गित 181
नवाड़ी 181
भग 181
Ren@@ 180
Sur@@ 180
ass 180
kar 180
les 180
ol 180
structure 180
wi@@ 180
तेलु@@ 180
परवरदि@@ 180
पैग़@@ 180
वाप@@ 180
सैद्धा@@ 180
NDTV 179
Series 179
Seva 179
ard 179
glass 179
two 179
unit 179
प्राव@@ 179
র@@ 179
AD 178
Also 178
Kar@@ 178
Stre@@ 178
dic@@ 178
material 178
sion 178
§ 178
× 178
अड्@@ 178
कर्णी 178
कोरोना@@ 178
चिकित्@@ 178
ज्ञता 178
पटिया@@ 178
Most 177
RO 177
card 177
cc@@ 177
mission 177
ς 177
م 177
आतंक@@ 177
इब्रा@@ 177
वैज्ञा@@ 177
ি@@ 177
Do@@ 176
ale 176
ber@@ 176
ley 176
ster 176
Amit 175
KYC 175
Launch 175
Ni@@ 175
TE 175
against 175
aming 175
ings 175
tions 175
सत्तारू@@ 175
सरपर@@ 175
्रिकर 175
FDI 174
INS 174
Summit 174
Col@@ 173
GT@@ 173
MA@@ 173
MSP 173
System 173
crafts 173
economy 173
अयो@@ 173
पादु@@ 173
प्रेत 173
लुस 173
America 172
CL 172
Energy 172
Ge@@ 172
RT 172
SW@@ 172
ial 172
ist 172
ome 172
she@@ 172
ta@@ 172
ve@@ 172
ó@@ 172
ंगत 172
ंतिक 172
तालों 172
वर्गी@@ 172
शिना@@ 172
AMU 171
Board 171
Kal@@ 171
Service 171
Supreme 171
ali@@ 171
ast 171
aya 171
business 171
fication 171
over@@ 171
security 171
sk@@ 171
ک@@ 171
आगा@@ 171
नारे@@ 171
भुव@@ 171
मिनार 171
रीदी 171
समारो@@ 171
सांख्यि@@ 171
्राष्ट्रीय 171
CO 170
OF 170
Ob@@ 170
ain 170
ni@@ 170
दाऊ@@ 170
पीड़न 170
सामु@@ 170
1B 169
CPI 169
Council 169
Instagram 169
Post 169
Space 169
cricket 169
digital 169
ection 169
ind@@ 169
rastructure 169
so@@ 169
α@@ 169
फ़ार 169
ে@@ 169
DD@@ 168
Fr@@ 168
Mahindra 168
Te@@ 168
col@@ 168
da 168
ins 168
war 168
न्नू 168
Pal@@ 167
Ran@@ 167
Sector 167
acy 167
alism 167
anti@@ 167
ge 167
news 167
plot 167
sol@@ 167
विमर्@@ 167
सोवि@@ 167
DC@@ 166
que 166
ste@@ 166
मोट 166
विनी 166
LIC 165
Skill 165
Web 165
environment 165
he 165
hon@@ 165
ials 165
ome@@ 165
solar 165
sw@@ 165
ड्रोम 165
❑ 165
Airtel 164
EX@@ 164
FS 164
Hy@@ 164
LoC 164
Rel@@ 164
Sk@@ 164
Tal@@ 164
The@@ 164
micro@@ 164
rail@@ 164
ular 164
za 164
नोए@@ 164
व्वा 164
सामू@@ 164
Att@@ 163
Cam@@ 163
City 163
Galaxy 163
Indi@@ 163
OBC 163
RAM 163
atest 163
bank 163
file 163
ise 163
ore@@ 163
ree 163
इंडस्ट्री@@ 163
विस्ता@@ 163
Bangladesh 162
Hyundai 162
NT 162
Nick 162
Ram 162
air@@ 162
ase 162
court 162
hypo@@ 162
management 162
particles 162
ry 162
ك@@ 162
आईआरसी@@ 162
कंप 162
बाध 162
ॐ 162
Bre@@ 161
Kes@@ 161
View 161
ack@@ 161
ae 161
non 161
record 161
ul 161
अथॉ@@ 161
तीव्र@@ 161
पोजी@@ 161
Army 160
Div@@ 160
Gr@@ 160
PMO 160
Pat@@ 160
Sal@@ 160
Web@@ 160
ators 160
code 160
don@@ 160
ess 160
ff@@ 160
ied 160
study 160
छत्ती@@ 160
थिये@@ 160
धोखाध@@ 160
AL 159
All 159
Bal@@ 159
English 159
Na@@ 159
UGC 159
ik 159
ion 159
list 159
sing@@ 159
ρ@@ 159
नमू@@ 159
परिक 159
विंद 159
CAG 158
Date 158
Em@@ 158
LE 158
Man 158
Sub@@ 158
Vol@@ 158
elements 158
els 158
iti@@ 158
my 158
people 158
persons 158
tree 158
बुजुर्@@ 158
रंगार@@ 158
सराह@@ 158
BBC 157
Fi@@ 157
ICU 157
ath 157
book 157
for@@ 157
open 157
ret@@ 157
अनुमो@@ 157
मियत 157
वैधा@@ 157
शिशु@@ 157
₹ 157
Cr@@ 156
FA@@ 156
States 156
Vi@@ 156
object 156
tical 156
ub@@ 156
न्नु@@ 156
मुंह@@ 156
समुदा@@ 156
AG@@ 155
AIADMK 155
Ap@@ 155
CE 155
Hi@@ 155
Jonas 155
Sa@@ 155
TikTok 155
after 155
ner 155
ग्रैं@@ 155
Anushka 154
Central 154
Chief 154
Dhoni 154
RF 154
Results 154
Rev@@ 154
San 154
Watch 154
att@@ 154
police 154
training 154
un 154
कमिंग 154
शयों 154
सम्मे@@ 154
Prav@@ 153
RE 153
Ram@@ 153
Sch@@ 153
arg@@ 153
fer@@ 153
ke@@ 153
mor@@ 153
nan@@ 153
table 153
thesis 153
डेब@@ 153
त्राओं 153
पिस 153
सोनो@@ 153
জ@@ 153
Governance 152
act 152
ज्जु@@ 152
बैक्@@ 152
♫ 152
General 151
Good 151
Mis@@ 151
Nan@@ 151
Yadav 151
ata 151
back 151
bri@@ 151
effect 151
process 151
¶ 151
गोष्@@ 151
डीटी 151
लाइब्रे@@ 151
2G 150
Bu@@ 150
Centre 150
Fe@@ 150
analysis 150
au 150
cell@@ 150
ency 150
ick 150
ili@@ 150
ro 150
you 150
काफ़ि@@ 150
लश्@@ 150
Happy 149
Hindustan 149
Ministry 149
NCB 149
PV 149
Says 149
ada 149
ets 149
ff 149
portal 149
Aadhaar 148
Ab@@ 148
COVID19 148
PO 148
Rece@@ 148
River 148
Trophy 148
ail 148
bar 148
sec@@ 148
ː@@ 148
्यूटर 148
Ben@@ 147
Bengal 147
DL 147
Fl@@ 147
LAC 147
MH@@ 147
Mi@@ 147
TVS 147
adi@@ 147
ank@@ 147
gap 147
hel@@ 147
ine@@ 147
असदु@@ 147
कोलं@@ 147
क्तिकरण 147
स्मिक 147
BR@@ 146
Exam 146
Nok@@ 146
eas@@ 146
ental 146
ids 146
ora 146
pi 146
treatment 146
कोच्च@@ 146
प्रिंसि@@ 146
बिंदु@@ 146
श्नर 146
Birthday 145
CNG 145
EU 145
My 145
SU@@ 145
bb@@ 145
command 145
fr@@ 145
ination 145
ital 145
less 145
ography 145
ow 145
potential 145
वश्य@@ 145
ন@@ 145
CWC 144
ars 144
ater@@ 144
election 144
pe 144
section 144
tics 144
uri 144
т@@ 144
ی 144
अखि@@ 144
रिडोर 144
BMC 143
BSE 143
Elections 143
Mac@@ 143
Pol@@ 143
SO 143
Samsung 143
amb@@ 143
anc@@ 143
ba 143
def@@ 143
ros@@ 143
series 143
tim@@ 143
½ 143
ंगू 143
घाई 143
शता@@ 143
CM@@ 142
GE 142
Kerala 142
La@@ 142
SR 142
TI 142
intr@@ 142
sample 142
square 142
vis@@ 142
vision 142
ɪ@@ 142
एय@@ 142
डिली@@ 142
At 141
Def@@ 141
Education 141
Fo@@ 141
Ms 141
PCB 141
Pak 141
Suzuki 141
Wi@@ 141
ati 141
ell 141
her 141
mat 141
our@@ 141
research 141
sm@@ 141
¨@@ 141
ओलम्@@ 141
तकली@@ 141
दीन@@ 141
मेघा@@ 141
लिमों 141
श्रीलं@@ 141
Daily 140
EF 140
Eng@@ 140
Fac@@ 140
Network 140
POCSO 140
TRA@@ 140
Vis@@ 140
era 140
mer@@ 140
ood@@ 140
tra 140
á@@ 140
ه 140
अर्जें@@ 140
जगन्@@ 140
युरप्पा 140
 140
ATS 139
CI 139
Dem@@ 139
LL@@ 139
LS 139
MT@@ 139
Tourism 139
Water 139
ap 139
face 139
force 139
odi 139
ok@@ 139
ose 139
pos@@ 139
tw@@ 139
कोष@@ 139
ब्बल 139
वाजि@@ 139
हेज 139
CN@@ 138
DI 138
ES@@ 138
House 138
ML@@ 138
Mat@@ 138
interior 138
ix@@ 138
policy 138
project 138
quality 138
sa 138
ug@@ 138
wa 138
wk 138
ö@@ 138
तर्गत 138
तार्@@ 138
रिश्ते@@ 138
हामि@@ 138
₹@@ 138
Ban@@ 137
CISF 137
People 137
Ph@@ 137
building 137
comp@@ 137
cre@@ 137
ext@@ 137
help 137
ini 137
law 137
low 137
mat@@ 137
outcome 137
user 137
Bha@@ 136
Building 136
Comp@@ 136
Ko@@ 136
MD 136
Security 136
ere 136
fac@@ 136
his 136
ines 136
ld 136
lu@@ 136
ters 136
в@@ 136
у@@ 136
वीस 136
ॄ@@ 136
Cor@@ 135
HAL 135
Ke@@ 135
Lok@@ 135
Mission 135
VA 135
Whats@@ 135
ato 135
fe@@ 135
trans@@ 135
ंडेय 135
इंस्पे@@ 135
कपड़@@ 135
तिश 135
सनराइ@@ 135
[...]
