the 7419944
. 7146878
, 6374978
of 4311675
and 3719707
to 3152403
in 2928711
" 2298824
a 2122607
is 1723673
The 1370259
for 1272179
that 1073316
on 1003684
has 845473
was 811758
be 793872
with 787010
( 754053
) 753593
are 721833
will 717395
by 700067
have 692385
as 670587
said 633172
from 609562
at 568144
this 547486
it 545353
not 545325
: 537377
India 522170
also 478181
I 472932
been 456704
an 449315
his 438674
you 427260
he 403614
He 392758
were 384474
's 349629
Minister 345887
their 344791
or 327492
had 319539
they 308082
all 307064
' 306958
? 299242
which 295351
who 288511
- 280819
them 275826
we 254407
people 247163
It 237328
This 232658
We 231415
one 229065
can 226741
In 225366
Indian 217981
its 217464
police 210985
A 207174
but 199005
Singh 192637
about 190344
other 189734
against 188075
our 185948
government 184614
BJP 180167
him 176951
time 176499
two 175065
out 174853
would 172427
up 169405
there 168068
after 168017
over 167549
Modi 166808
no 166297
your 166017
her 161959
do 161209
s 159926
case 156893
Delhi 155562
first 154628
Congress 152597
-@@ 151649
under 150299
state 145295
being 143828
/ 142953
any 141810
country 141248
so 140317
more 138370
should 136731
And 135559
Prime 134277
new 132818
when 132319
into 132226
us 130824
made 130820
Shri 129902
what 129359
But 127382
these 125344
such 124207
film 123554
They 122993
my 120113
like 118135
those 117251
only 116292
during 115882
if 115130
Police 113320
then 110996
Chief 110667
between 110634
There 110068
per 109239
some 108688
un@@ 108185
very 107264
Government 107255
B@@ 106350
D@@ 106195
S@@ 106107
than 105548
in@@ 105384
President 104911
God 104398
day 103793
Pakistan 102306
me 102227
ing 101664
State 101342
& 101257
through 101096
am 98402
% 98247
Allah 97815
work 96845
K@@ 96356
L@@ 96309
! 95032
re@@ 95007
Pradesh 93749
P@@ 93560
take 92827
es 92497
Rs 92405
er 92078
A@@ 91621
many 91276
world 90453
Ministry 90092
while 89735
Narendra 88810
M@@ 88606
taken 88585
i 88391
So 88074
ers 87556
T@@ 87327
R@@ 87275
three 87193
well 86294
life 85287
Khan 85243
New 84993
accused 84957
1 84455
did 84423
F@@ 83410
d@@ 83169
shall 82718
You 81325
National 81194
good 81192
s@@ 81069
C@@ 81025
G@@ 80829
b@@ 80563
p@@ 80506
here 80462
Gandhi 80316
k@@ 79879
make 79477
she 78782
ed 78697
Union 78450
before 77913
t@@ 77821
incident 77276
t 77190
get 76620
What 76545
Kumar 76079
party 75982
district 75739
meeting 75729
y@@ 75505
However 75493
where 75150
come 75056
family 74991
crore 74856
may 74616
present 74110
2 73966
number 73943
could 73735
al 73631
including 73601
H@@ 73443
both 72802
most 72788
last 72543
ation 72182
given 71704
way 71422
E@@ 71316
today 71027
N@@ 70836
years 70171
e@@ 70017
part 69886
chief 69781
year 69270
o 69152
J@@ 68934
e 68131
need 67998
man 67866
m@@ 67792
minister 67767
know 67472
place 66844
As 66440
W@@ 65735
US 65704
PM 65225
water 65003
among 64982
al@@ 64937
All 64853
On 64709
l@@ 64596
en@@ 64006
even 63935
help 63892
g@@ 63829
She 63391
each 63273
n@@ 63194
If 63087
team 62961
ar@@ 62941
how 62898
development 62604
registered 62594
women 62561
His 62466
used 62140
an@@ 61778
set 61584
say 61551
ar 61033
Kashmir 60998
Lord 60453
injured 60421
down 59957
former 59895
court 59833
i@@ 59557
because 59507
3 59360
social 59199
children 58845
just 58738
media 58614
Sabha 58561
able 58432
ated 58137
c@@ 57877
For 57839
V@@ 57815
Mumbai 57592
see 57547
various 57085
back 56896
same 56866
due 56329
leader 56074
every 55776
arrested 55719
r@@ 55475
took 55465
held 55204
cases 55142
sent 55054
spot 54930
10 54793
too 54784
y 54750
ate 54717
going 54559
matter 54457
information 54093
occasion 54069
w@@ 53942
Sharma 53777
f@@ 53722
v@@ 53669
] 53565
[ 53564
Court 53509
students 53462
Kapoor 53415
go 53357
After 52873
says 52853
others 52827
son 52546
use 52492
hospital 52287
Shah 52165
right 52069
dis@@ 51860
called 51841
must 51781
th@@ 51685
power 51583
countries 51466
ad@@ 51367
told 51074
different 50963
Rahul 50903
members 50728
started 50469
lakh 50391
as@@ 50370
important 50355
't 50333
order 50156
ating 49790
does 49697
want 49624
O@@ 49574
When 49279
am@@ 49139
u 49074
days 49071
security 49057
added 49055
support 48900
action 48883
No 48472
further 48279
president 48254
give 48235
seen 48177
5 48169
area 48100
four 47905
body 47807
issue 47777
cent 47360
second 47314
ts 47200
public 47192
o@@ 46963
on@@ 46937
own 46886
st@@ 46779
... 46706
u@@ 46691
great 46644
along 46511
health 46404
er@@ 46342
several 46253
much 46158
done 46054
leaders 45974
Bank 45917
death 45890
next 45839
h@@ 45677
now 45675
ab@@ 45668
across 45639
States 45571
ted 45570
ting 45482
killed 45438
Maharashtra 45196
away 45105
How 45041
Secretary 44899
U@@ 44761
another 44737
de@@ 44638
system 44456
yet 44421
things 44317
off 44252
4 44246
Jehovah 44149
land 44017
long 43924
won 43850
situation 43829
j@@ 43814
areas 43804
Central 43776
role 43619
These 43581
I@@ 43437
name 43437
home 43420
came 43419
men 43413
become 43297
found 43297
end 43200
age 43115
ag@@ 43100
farmers 43051
around 43004
asked 42878
Punjab 42877
en 42829
official 42771
states 42745
Act 42716
persons 42409
Jammu 42224
es@@ 42138
never 42080
led 42059
decision 42051
World 41892
at@@ 41850
later 41668
upon 41580
a@@ 41171
city 41159
Development 41123
based 40948
far 40826
high 40705
national 40462
el@@ 40459
Lok 40365
West 40146
best 40115
political 40004
m 39876
officials 39867
is@@ 39649
im@@ 39567
In@@ 39494
Day 39324
ha@@ 39291
five 39110
soon 39105
ti@@ 39101
One 39094
already 39063
ent 39026
elections 38921
available 38865
Gujarat 38829
making 38814
or@@ 38804
To 38769
sector 38696
video 38654
O 38553
together 38473
period 38409
person 38301
known 38218
General 38153
it@@ 37999
provide 37998
attack 37989
got 37776
That 37712
China 37670
few 37570
level 37567
ant 37329
z@@ 37297
total 37012
law 36915
.@@ 36847
wife 36803
love 36773
At 36692
visit 36663
reached 36593
working 36550
Jesus 36488
without 36474
e-@@ 36354
month 36255
Ram 36231
report 36231
house 36075
South 36058
6 35997
Bihar 35974
form 35973
20 35961
special 35947
Home 35946
investigation 35911
Indias 35804
k 35769
services 35673
Our 35584
died 35491
village 35476
company 35289
senior 35187
seats 35186
ly 35155
be@@ 34986
statement 34955
ch@@ 34931
fire 34918
towards 34875
think 34847
regard 34817
informed 34806
better 34777
le@@ 34719
15 34665
b 34529
ap@@ 34517
issues 34490
reported 34407
times 34398
put 34397
still 34353
Department 34335
Haryana 34177
since 34174
12 34132
S 34074
again 34049
process 34002
Party 33952
Uttar 33916
Affairs 33888
received 33773
ro@@ 33773
lot 33755
believe 33753
4@@ 33379
di@@ 33378
large 33316
cannot 33253
education 33244
n 33230
currently 33161
lead 33156
According 33155
let 32997
father 32952
major 32952
earth 32939
woman 32923
ia 32884
d 32859
series 32828
show 32733
7 32696
Rajasthan 32618
always 32583
Bollywood 32569
th 32535
3@@ 32511
movie 32509
change 32505
taking 32476
however 32337
Its 32323
issued 32185
8 32154
C 32020
Re@@ 31995
ations 31988
saying 31966
cricket 31953
less 31923
international 31915
growth 31763
actor 31709
Z@@ 31610
play 31569
Y@@ 31557
money 31541
Bengal 31469
2019 31463
nation 31431
P 31397
increase 31351
ur@@ 31309
include 31231
following 31208
top 31186
An@@ 31184
ul@@ 31177
local 30989
Then 30948
food 30931
look 30931
Why 30911
People 30875
R 30828
ak@@ 30774
event 30774
ine 30761
Centre 30690
M 30690
news 30677
group 30646
sh@@ 30645
2018 30604
My 30602
launched 30578
match 30558
Test 30482
p 30347
service 30342
Yadav 30330
business 30310
king 30224
project 30144
why 30105
announced 30050
ya 30013
side 30011
Health 29951
100 29836
als 29804
shared 29793
bring 29780
ic@@ 29767
MP 29753
5@@ 29687
ter 29664
Supreme 29661
7@@ 29621
2020 29459
University 29398
ac@@ 29204
ates 29141
human 29054
av@@ 29042
il@@ 29042
Amit 29041
provided 29036
went 29027
em@@ 29019
brought 29001
50 28999
Commission 28815
economic 28810
ad 28806
l 28742
future 28737
within 28688
Assembly 28630
efforts 28549
third 28447
treatment 28423
Both 28391
account 28389
Army 28387
ex@@ 28372
dont 28359
Kohli 28295
candidates 28261
g 28244
comes 28215
ra 28203
price 28194
ri@@ 28115
filed 28113
B 28074
ensure 28014
With 27993
During 27980
li@@ 27967
keep 27875
United 27866
doing 27842
High 27839
war 27837
con@@ 27787
ani 27780
region 27758
ana 27753
ans 27730
post 27672
11 27668
ol@@ 27646
Con@@ 27612
hand 27602
view 27564
full 27526
ally 27511
ic 27477
field 27472
ance 27470
left 27466
sp@@ 27417
entire 27397
International 27395
CBI 27379
election 27375
Australia 27368
le 27352
complaint 27339
released 27333
9 27306
scheme 27254
An 27242
directed 27234
Al@@ 27156
decided 27137
played 27101
win 27024
2017 27005
free 26999
find 26996
Karnataka 26944
mother 26944
Finance 26926
Committee 26920
market 26911
Justice 26908
projects 26877
continue 26874
using 26856
having 26838
Air 26786
30 26782
industry 26675
member 26664
runs 26660
T 26647
h 26611
meet 26603
gave 26573
Bible 26504
Director 26437
us@@ 26400
global 26394
means 26388
related 26379
ous 26337
earlier 26304
data 26298
small 26273
programme 26265
old 26261
face 26245
qu@@ 26206
school 26200
L 26196
road 26174
8@@ 26123
written 26119
6@@ 26098
control 25995
live 25973
workers 25966
K 25928
list 25924
CM 25890
ye 25857
possible 25839
office 25745
rate 25734
big 25729
production 25701
financial 25685
2@@ 25633
cause 25626
coming 25626
Sh@@ 25596
Tamil 25552
clear 25550
Two 25470
open 25453
daughter 25448
dead 25447
25 25428
op@@ 25314
Rs.@@ 25220
peace 25219
technology 25163
officers 25092
Trump 25087
became 25054
parties 25054
till 25045
Ali 25002
D 24993
he@@ 24993
policy 24878
interest 24826
se@@ 24766
Board 24735
Parliament 24702
building 24654
might 24642
Par@@ 24609
parts 24590
pl@@ 24587
ment 24578
result 24567
cost 24533
accident 24525
Council 24512
million 24486
energy 24456
date 24449
recently 24421
ings 24409
needs 24388
COVID-19 24387
Madhya 24383
true 24336
um@@ 24251
medical 24218
tion 24203
ones 24196
private 24156
nor 24125
Ar@@ 24115
etc 24086
Defence 24079
created 24072
pro@@ 24025
et@@ 24015
captain 24012
air 23990
14 23962
North 23959
De@@ 23916
hi@@ 23893
truth 23836
ity 23776
Some 23761
19@@ 23748
final 23699
ah 23696
par@@ 23679
question 23610
whom 23601
lives 23597
basis 23592
om@@ 23508
getting 23469
places 23442
example 23435
knowledge 23432
activities 23430
society 23427
bl@@ 23395
Do 23389
oil 23377
Dr 23365
x 23341
week 23332
ever 23326
While 23231
se 23182
Gods 23123
strong 23093
problems 23075
forces 23060
six 23060
community 23019
Kerala 22943
fight 22936
ist 22932
condition 22909
Andhra 22902
13 22879
Many 22825
Is 22799
E 22795
pur 22769
ed@@ 22767
lost 22765
near 22752
temple 22723
ors 22716
hi 22689
address 22687
Hindi 22574
Virat 22564
24 22514
stars 22505
districts 22431
expected 22412
thing 22337
head 22336
stated 22336
ir@@ 22331
England 22326
problem 22326
claimed 22316
general 22273
bank 22265
Man@@ 22208
young 22208
quality 22202
id@@ 22190
heart 22175
likely 22135
call 22106
expressed 22106
est 22089
child 22061
book 22009
Former 21983
alleged 21983
amount 21970
attended 21953
respect 21938
up@@ 21937
unto 21936
himself 21897
something 21875
training 21841
increased 21838
close 21805
line 21801
Cabinet 21793
percent 21788
higher 21784
nothing 21776
start 21767
sub@@ 21761
foreign 21721
ur 21676
prices 21665
share 21658
Meanwhile 21655
ec@@ 21651
capital 21629
really 21608
ha 21583
station 21572
co@@ 21559
months 21542
tions 21537
Mar@@ 21532
Ch@@ 21502
aw@@ 21463
companies 21447
9@@ 21446
history 21441
act 21413
point 21404
os@@ 21403
end@@ 21375
run 21328
Vice 21313
happy 21305
faith 21300
trade 21300
Jehovahs 21294
N 21293
Salman 21278
don 21277
parents 21260
largest 21246
behind 21228
red 21214
connection 21198
18 21192
films 21148
phone 21148
cooperation 21108
study 21088
Rs. 21058
ne@@ 21057
past 21052
Who 21046
economy 21000
research 20994
works 20990
mind 20986
themselves 20986
el 20962
fear 20912
tax 20908
capacity 20897
poor 20879
night 20862
wrote 20854
current 20850
light 20846
test 20834
ai@@ 20829
main 20802
mis@@ 20760
16 20754
words 20750
youth 20730
happened 20697
17 20678
position 20663
for@@ 20649
Bharat 20641
remain 20564
over@@ 20484
common 20477
Institute 20460
car 20442
central 20432
read 20424
section 20406
Sena 20363
bi@@ 20356
reports 20353
details 20313
ma 20293
ents 20283
management 20276
kind 20251
per@@ 20236
key 20233
ing@@ 20195
ji 20195
return 20161
Mo@@ 20155
least 20103
language 20083
benefit 20082
forward 20058
according 20054
Bangladesh 20048
once 20013
Public 19976
though 19966
storage 19960
ds 19944
front 19875
reason 19831
whole 19830
Him 19768
required 19768
no@@ 19727
and@@ 19722
c 19720
Un@@ 19684
girl 19669
often 19648
met 19645
ering 19637
results 19623
rec@@ 19603
ent@@ 19579
anything 19543
pay 19530
Railways 19482
conducted 19458
hit 19450
husband 19436
District 19415
violence 19399
understand 19395
tr@@ 19389
release 19381
Sri 19375
feel 19372
um 19370
Ministers 19369
hold 19362
force 19358
course 19350
officer 19341
Also 19335
Ram@@ 19327
2016 19318
declared 19308
18@@ 19270
40 19232
$ 19215
ons 19212
ch 19199
above 19189
teams 19180
serious 19130
move 19062
developed 19017
admitted 19004
products 18992
friends 18944
active 18928
F 18921
infrastructure 18911
whether 18905
construction 18898
Hindu 18891
House 18877
'@@ 18873
personnel 18873
pe@@ 18854
Twitter 18849
man@@ 18841
fl@@ 18839
fact 18823
Education 18818
ish 18737
positive 18735
care 18708
19 18682
players 18642
playing 18621
game 18617
progress 18610
ou@@ 18595
brother 18542
immediately 18542
affected 18541
ks 18540
East 18534
Ad@@ 18523
driver 18508
deal 18500
allowed 18487
investment 18481
Mr 18476
har 18473
May 18456
create 18453
identified 18450
single 18446
Technology 18440
la@@ 18396
Sanjay 18379
Africa 18370
Shiv 18345
committee 18340
early 18340
ut@@ 18337
assembly 18324
certain 18287
message 18284
online 18280
previous 18271
Priyanka 18231
si@@ 18231
cities 18230
U 18219
Am@@ 18216
Raj@@ 18200
ness 18199
br@@ 18181
raised 18154
ala 18145
income 18145
seat 18145
Sha@@ 18144
ways 18115
terms 18098
value 18091
Pro@@ 18079
story 18056
candidate 18052
Hyderabad 18039
living 18035
turn 18032
Nadu 18015
seven 17998
steps 17976
Cup 17974
named 17970
success 17961
citizens 17945
relationship 17919
charge 17916
ary 17908
murder 17904
Muslim 17876
res 17860
indeed 17843
de 17837
sources 17836
non-@@ 17830
sha@@ 17818
oc@@ 17809
et 17792
began 17781
hope 17773
rushed 17767
ka 17743
Israel 17714
points 17694
plan 17691
ang@@ 17679
families 17674
population 17674
features 17658
GST 17648
upcoming 17622
Har@@ 17619
har@@ 17614
recovered 17607
little 17600
included 17576
ite 17565
Patel 17563
Sar@@ 17537
town 17525
institutions 17469
paid 17466
Se@@ 17453
experience 17404
especially 17391
G 17354
Your 17342
term 17335
demand 17323
website 17312
mon@@ 17296
Dr. 17294
director 17289
ants 17288
trying 17273
Rohit 17230
patients 17220
ay 17199
followed 17197
te@@ 17188
esh 17180
word 17169
responsibility 17157
until 17144
Rajya 17141
passed 17120
opportunity 17111
huge 17108
politics 17094
str@@ 17090
necessary 17085
lo@@ 17083
April 17079
f 17071
rights 17059
letter 17057
hard 17046
board 17013
personal 16995
21 16979
spread 16977
appointed 16976
Now 16975
March 16954
Sam@@ 16947
Su@@ 16936
ful 16936
ys 16906
low 16868
res@@ 16862
gr@@ 16860
leave 16846
Governor 16818
me@@ 16815
ence 16809
bodies 16803
r 16793
St@@ 16777
Chairman 16772
Of 16771
Th@@ 16751
ties 16745
MLA 16736
od@@ 16728
wrong 16707
car@@ 16694
Most 16677
Cha@@ 16676
IPL 16675
ator 16675
spirit 16630
heavy 16618
Assam 16616
km 16613
measures 16613
regarding 16595
providing 16589
22 16588
involved 16586
produced 16586
tic 16574
job 16572
fully 16566
Research 16561
2015 16555
hands 16551
class 16531
Railway 16526
ak 16525
polls 16520
gold 16506
su@@ 16502
Ex@@ 16501
Those 16497
camera 16488
tweeted 16483
approved 16431
religious 16430
ai 16415
located 16409
loss 16366
Force 16343
facilities 16300
recent 16295
z 16258
application 16250
rural 16239
kar 16230
ay@@ 16224
Kejriwal 16222
religion 16196
secretary 16176
2014 16168
ud@@ 16168
reach 16165
rest 16148
ators 16143
Ra@@ 16102
Prasad 16098
schools 16090
ren@@ 16064
banks 16048
considered 16042
ies 16038
Hospital 16004
leading 15999
ask 15952
ready 15942
Earlier 15933
except 15929
UP 15927
outside 15921
response 15919
either 15918
-- 15895
movement 15880
June 15855
century 15854
probe 15853
ative 15847
border 15847
performance 15833
vehicles 15820
function 15819
gone 15814
a-@@ 15810
follow 15788
highest 15780
record 15777
governments 15776
wanted 15769
campaign 15738
ve 15705
els 15704
ty 15699
Constitution 15682
roles 15681
stand 15681
out@@ 15674
includes 15649
ali 15616
Besides 15601
completed 15595
Bill 15594
culture 15589
Indians 15584
giving 15577
operation 15575
Security 15568
blood 15558
ob@@ 15544
actress 15530
ahead 15522
committed 15520
concerned 15506
V 15476
ling 15445
groups 15427
war@@ 15421
worked 15421
s. 15409
needed 15394
anyone 15385
ra@@ 15384
mar@@ 15378
Corporation 15373
ground 15372
thought 15365
English 15340
October 15337
looking 15332
ens 15331
Group 15310
effect 15305
sl@@ 15298
revealed 15296
presented 15272
similar 15272
Chennai 15265
Cricket 15251
lodged 15245
relations 15230
MLAs 15228
whose 15228
og@@ 15223
difficult 15221
November 15216
conference 15213
wickets 15212
pre@@ 15191
re 15184
ara 15175
na 15167
administration 15164
department 15159
ari 15150
Muslims 15147
questions 15141
Bi@@ 15138
ev@@ 15138
En@@ 15129
bo@@ 15121
Rajnath 15117
Deputy 15107
train 15103
successful 15100
focus 15094
opportunities 15082
military 15071
therefore 15068
ati@@ 15064
card 15059
real 15051
December 15043
mobile 15041
Asia 15023
Medical 15002
employment 14983
com@@ 14982
cultural 14970
ter@@ 14948
ability 14947
formed 14929
built 14913
cor@@ 14878
ge 14867
session 14863
SP 14860
search 14856
try 14855
Chinese 14852
ep@@ 14851
ism 14844
ministry 14839
employees 14832
joined 14816
supply 14804
Scheme 14802
defence 14776
September 14745
ow@@ 14737
makes 14730
cr@@ 14720
conditions 14712
implementation 14684
ver@@ 14678
to@@ 14675
British 14664
By 14661
doctors 14656
60 14649
viral 14649
purpose 14646
season 14608
step 14594
ats 14592
Women 14585
Nath 14584
ministers 14580
os 14579
complete 14578
mo@@ 14578
ri 14574
saw 14571
thou 14569
Information 14567
safety 14564
Co@@ 14556
launch 14555
ath 14543
tell 14538
ath@@ 14535
po@@ 14505
sed 14504
talk 14504
environment 14481
quite 14472
Mission 14471
takes 14463
ard 14459
space 14453
terrorism 14453
improve 14444
operations 14443
authorities 14440
gh@@ 14435
Special 14428
houses 14361
July 14347
Science 14347
addition 14337
Speaking 14327
changes 14303
Kolkata 14297
0@@ 14293
passengers 14292
American 14246
ding 14236
Pakistani 14227
Under 14223
ir 14221
David 14212
surely 14212
Y 14206
prime 14159
ig@@ 14152
cl@@ 14143
the@@ 14114
examination 14108
Jharkhand 14103
1.@@ 14078
Three 14076
investigating 14071
Kar@@ 14068
Following 14066
opposition 14042
Foreign 14031
x@@ 14016
Commissioner 14015
itself 14006
Bar@@ 14001
ely 13992
Instagram 13986
signed 13974
ical 13953
fast 13948
carried 13945
all@@ 13939
site 13939
Paul 13937
everyone 13933
500 13929
Bal@@ 13924
ann@@ 13917
birth 13903
Ma@@ 13889
deep 13882
Raj 13877
han 13872
il 13863
worship 13836
domestic 13812
kept 13807
established 13800
stop 13788
Services 13782
TV 13757
thy 13754
ses 13722
der 13721
January 13720
constituency 13711
underway 13710
everything 13705
late 13690
hours 13683
Christian 13682
evil 13674
discussed 13672
file 13671
offer 13670
leadership 13662
turned 13653
under@@ 13640
les 13623
gets 13622
additional 13601
married 13590
ill@@ 13585
ments 13573
access 13556
assistance 13552
Let 13550
freedom 13536
morning 13527
terrorists 13518
tive 13517
wants 13517
fall 13505
popular 13502
23 13486
IC@@ 13464
ship 13464
direction 13456
Road 13453
School 13450
star 13447
Bachchan 13436
compared 13434
talks 13434
Even 13433
strength 13431
published 13412
organised 13411
natural 13406
presence 13393
changed 13378
potential 13366
schemes 13366
Mal@@ 13342
rise 13331
protest 13328
disease 13326
status 13321
sought 13319
Senior 13316
nations 13303
ph@@ 13293
Agriculture 13265
X@@ 13265
gives 13265
au@@ 13248
lower 13246
river 13232
speak 13227
Dhoni 13226
rain 13214
ry 13213
bus 13204
ari@@ 13203
att@@ 13196
inter@@ 13192
sides 13191
26 13185
alliance 13182
promote 13165
caused 13148
Anil 13143
importance 13140
gl@@ 13124
Say 13120
short 13106
Naidu 13102
28 13099
Since 13094
happen 13084
stay 13082
evidence 13081
Service 13078
August 13077
effective 13072
ying 13067
picture 13061
ery 13058
manner 13051
vehicle 13049
SC 13048
charges 13041
dr@@ 13031
cha@@ 13013
J 13012
FIR 12991
Odisha 12977
increasing 12972
bad 12951
Later 12949
ast@@ 12948
Their 12940
bilateral 12940
Russia 12928
continued 12926
ality 12922
legal 12917
pressure 12906
stage 12897
born 12891
brothers 12881
fi@@ 12869
tri@@ 12856
Chopra 12854
phase 12850
200 12837
IN@@ 12825
Several 12804
alone 12788
source 12780
award 12774
Chhattisgarh 12769
Kingdom 12766
1@@ 12763
bench 12763
ess@@ 12757
ball 12749
music 12745
didnt 12741
Japan 12740
Goa 12723
hal@@ 12723
handed 12703
impact 12684
ta 12678
Water 12663
shot 12663
answer 12662
Not 12651
Telangana 12636
mentioned 12634
sure 12629
agriculture 12619
BCCI 12607
hearing 12603
terror 12598
responsible 12590
Vijay 12589
ci@@ 12587
ash@@ 12564
rich 12562
H 12557
sons 12550
heard 12531
prepared 12530
agency 12529
College 12524
significant 12520
Article 12510
ten 12510
ended 12493
demanded 12492
Di@@ 12488
victory 12483
ics 12476
funds 12474
ches 12473
From 12471
model 12468
laws 12463
10@@ 12451
deceased 12451
e. 12446
victim 12441
facing 12439
challenges 12436
programmes 12422
af@@ 12419
relief 12417
Management 12403
NCP 12397
justice 12392
joint 12387
tu@@ 12385
serve 12376
seized 12375
dec@@ 12365
Election 12353
gas 12349
Christians 12345
speed 12344
names 12343
critical 12342
knows 12337
eight 12331
easy 12329
learn 12325
worth 12319
injuries 12310
punishment 12305
resources 12304
confirmed 12299
rules 12293
eyes 12274
particular 12263
greater 12261
press 12258
tried 12250
sel@@ 12248
review 12204
bu@@ 12199
spokesperson 12195
ceremony 12194
room 12188
staff 12187
below 12186
initiative 12181
Welfare 12171
27 12170
participated 12156
enter 12148
Sonia 12147
conduct 12145
arrest 12143
roads 12141
Q@@ 12140
ational 12136
Akshay 12132
ars 12128
ked 12126
John 12108
proposed 12106
majority 12105
Apart 12101
ru@@ 12099
nature 12090
denied 12084
Afghanistan 12067
Students 12064
Sa@@ 12056
existing 12053
centre 12052
marriage 12047
mark 12046
la 12045
half 12032
anti-@@ 12031
ita 12031
As@@ 12021
daily 12015
16@@ 12008
ge@@ 12003
Uttarakhand 12000
du@@ 11981
inside 11979
thee 11979
offered 11968
biggest 11952
Zealand 11949
coronavirus 11915
San@@ 11901
heavens 11900
trust 11899
Be@@ 11897
recorded 11891
benefits 11890
ps 11884
Civil 11870
Her 11849
jail 11849
villages 11849
target 11841
vision 11840
ages 11834
Bha@@ 11821
Ab@@ 11817
growing 11815
safe 11811
fans 11810
Iran 11808
plays 11807
save 11806
Dis@@ 11802
Arvind 11800
First 11795
Lanka 11793
Republic 11786
modern 11779
sports 11776
seeking 11775
Conference 11768
ke 11758
ah@@ 11756
failed 11751
matches 11750
Ltd 11749
hand@@ 11749
urged 11748
allow 11742
moved 11733
elected 11732
35 11721
NC@@ 11716
referred 11716
thousand 11709
2013 11708
build 11707
Nepal 11704
Sinha 11701
Janata 11700
democracy 11696
range 11695
Book 11693
claim 11685
shows 11685
Rao 11672
closed 11668
path 11656
systems 11655
travel 11637
Other 11633
ess 11631
ms 11630
lies 11626
31 11617
provides 11615
ED 11614
Association 11611
IS@@ 11607
90 11605
art 11605
material 11599
billion 11589
Power 11583
equal 11577
attention 11574
spiritual 11572
friend 11568
rule 11558
gu@@ 11557
80 11556
Indeed 11554
CO@@ 11552
Governments 11550
pictures 11544
ble 11542
Ajay 11540
science 11539
Section 11530
goods 11528
railway 11525
id 11512
challenge 11507
credit 11503
70 11497
approach 11483
sc@@ 11481
sk@@ 11481
ology 11476
thus 11474
Office 11473
join 11472
ise 11469
Himachal 11461
subject 11461
fourth 11456
felt 11441
suicide 11433
individual 11423
Deepika 11395
provisions 11389
aircraft 11387
stations 11383
ends 11377
receive 11372
ore 11371
Such 11367
certainly 11351
payment 11342
def@@ 11341
sing 11338
digital 11337
network 11335
February 11333
Rukh 11330
consider 11328
External 11318
matters 11318
20@@ 11308
seek 11304
speech 11304
Food 11303
duty 11303
neither 11297
trains 11288
we@@ 11287
teachers 11272
Thus 11270
type 11251
reasons 11237
platform 11233
almost 11232
strengthen 11230
allegations 11229
Witnesses 11228
Economic 11223
crores 11223
IT 11222
0 11206
visited 11206
Donald 11203
sur@@ 11198
enough 11196
notice 11195
property 11192
risk 11188
ement 11184
actually 11183
believed 11183
air@@ 11182
army 11182
generation 11181
spoke 11167
festival 11156
Pr@@ 11154
attend 11150
besides 11148
Sur@@ 11146
Mr. 11144
Tr@@ 11135
rally 11123
Im 11120
develop 11120
inv@@ 11118
RBI 11115
Pre@@ 11114
2.@@ 11113
pandemic 11100
note 11099
placed 11095
Industry 11089
opened 11088
average 11074
j 11073
soldiers 11073
ago 11072
ian 11072
receiving 11072
Im@@ 11071
career 11069
ant@@ 11068
Thats 11065
numbers 11064
crime 11061
ched 11059
events 11053
ist@@ 11052
custody 11045
rape 11040
Officer 11036
deployed 11031
initiatives 11031
PTI 11024
fin@@ 11023
agreement 11012
unit 11011
plans 11007
clean 11002
signs 10999
ded 10998
do@@ 10990
London 10984
co-@@ 10974
opening 10966
cut 10963
Today 10955
player 10949
corruption 10940
urban 10929
selected 10915
page 10908
confidence 10900
judge 10894
sw@@ 10885
Read 10875
check 10874
moment 10870
organized 10869
29 10865
books 10857
ised 10857
2012 10855
sense 10844
Moses 10842
contest 10842
goes 10839
meetings 10830
hearts 10827
remember 10817
Yogi 10809
More 10807
ret@@ 10799
accounts 10798
min@@ 10777
agencies 10758
Com@@ 10749
eth 10744
om 10736
setting 10731
az@@ 10727
bar@@ 10724
song 10718
direct 10711
approval 10704
girls 10703
Imran 10700
send 10691
ell@@ 10684
ern@@ 10681
City 10676
remained 10671
agreed 10664
ists 10661
oo@@ 10660
reply 10660
Sports 10657
accepted 10657
units 10656
cur@@ 10652
Muhammad 10651
apply 10648
rejected 10648
vs 10640
BSP 10635
levels 10633
so@@ 10628
contribution 10627
black 10626
Gupta 10624
Here 10624
attacks 10624
shown 10620
bill 10615
category 10613
ular 10610
traffic 10608
celebrated 10600
ass@@ 10598
Kal@@ 10589
extended 10588
exercise 10586
ial 10583
t-@@ 10583
produce 10581
ind@@ 10577
mission 10573
uses 10562
Asian 10554
Limited 10551
helped 10547
_ 10537
shooting 10522
ously 10511
Car@@ 10508
student 10500
era 10499
ODI 10488
normal 10487
rates 10487
Pat@@ 10485
ered 10484
sectors 10478
15@@ 10454
vote 10453
sea 10452
round 10450
inder 10441
er-@@ 10434
ening 10433
respectively 10417
ICC 10414
Will 10414
Best 10410
physical 10403
cast 10397
uk@@ 10393
Facebook 10390
ins 10390
aid 10381
coach 10380
Law 10379
forth 10379
ure 10359
achieve 10351
Krishna 10349
votes 10338
deaths 10337
extremely 10336
diesel 10334
completely 10330
civil 10324
17@@ 10321
returned 10318
Amitabh 10317
whatever 10315
3.@@ 10310
partnership 10309
sign 10309
Ashok 10301
tics 10297
ordered 10293
tw@@ 10290
iv@@ 10288
UN 10282
Ne@@ 10275
st 10274
latest 10270
y-@@ 10267
essential 10261
stone 10258
Mon@@ 10255
ain 10255
ending 10249
Tata 10246
remains 10243
wish 10243
Mad@@ 10225
Yes 10219
maintain 10209
mat@@ 10209
Br@@ 10208
Family 10208
Gu@@ 10205
sister 10191
petition 10180
via 10168
Pan@@ 10161
Banerjee 10160
someone 10153
accept 10146
UK 10145
ul 10144
lockdown 10141
effort 10138
scored 10128
fled 10109
discussion 10099
ot@@ 10098
Award 10095
specific 10094
facility 10081
die 10080
des@@ 10078
innings 10076
ie 10074
Jaitley 10066
Arun 10064
airport 10063
directly 10053
keeping 10052
wise 10046
ain@@ 10043
Therefore 10041
couple 10039
hear 10032
running 10031
associated 10030
hospitals 10030
concern 10029
reduce 10028
fine 10026
Actor 10020
ade 10020
manufacturing 10012
ama 10009
Le@@ 10003
France 10001
ho@@ 10000
Authority 9998
particularly 9996
sections 9989
carry 9983
terrorist 9983
photo 9979
Sal@@ 9973
fac@@ 9970
Eastern 9965
Arjun 9956
Energy 9944
proposal 9939
v 9939
Christ 9937
regular 9937
maximum 9928
ns 9926
aj@@ 9922
AT@@ 9918
testing 9906
creation 9899
ste@@ 9899
markets 9890
served 9890
developing 9878
ice 9876
chaired 9864
ances 9854
CA@@ 9833
ters 9833
inquiry 9825
believers 9817
Farmers 9813
idea 9809
Mukherjee 9806
cover 9806
comp@@ 9802
ali@@ 9801
internal 9792
protect 9790
plant 9781
Control 9775
ban 9773
healthy 9773
self 9773
winning 9773
Germany 9772
temperature 9765
ab 9762
crisis 9761
trans@@ 9760
75 9754
del@@ 9750
ov@@ 9748
are@@ 9744
Sub@@ 9743
ines 9739
Chandigarh 9736
Kareena 9735
forms 9733
plea 9731
exchange 9729
ened 9725
12@@ 9724
languages 9723
ash 9717
soul 9714
degree 9709
initiated 9708
tweet 9705
fe@@ 9704
ati 9703
CEO 9692
cre@@ 9691
pr@@ 9687
Commerce 9684
holding 9676
Tourism 9674
pol@@ 9674
evening 9669
Nar@@ 9666
posted 9664
Pradhan 9662
cash 9660
base 9653
nearly 9652
implemented 9651
II 9645
Nagar 9644
Anushka 9640
separate 9640
sts 9634
ba 9625
understanding 9621
allegedly 9618
AAP 9616
Mah@@ 9614
mean 9613
authority 9611
Prakash 9597
ders 9594
introduced 9593
throughout 9591
Transport 9588
regional 9587
users 9581
character 9573
acy 9572
learning 9567
ently 9562
victims 9561
Additional 9551
anda 9551
tournament 9551
Kovind 9546
Adityanath 9535
arrived 9533
reg@@ 9511
firm 9508
Per@@ 9501
King 9494
Cl@@ 9493
Ac@@ 9486
calls 9485
strike 9485
Another 9484
Ganga 9484
Qu@@ 9477
32 9473
Sachin 9473
cap@@ 9470
emb@@ 9466
're 9465
pur@@ 9461
loan 9454
Sunil 9452
SA@@ 9445
annual 9444
aries 9431
wal 9428
protection 9422
becomes 9408
decisions 9397
transport 9395
instead 9392
ose 9391
journey 9384
Tax 9383
Mishra 9375
dies 9373
screen 9372
atic 9369
aware 9366
welfare 9346
avoid 9334
cant 9331
provision 9329
vi@@ 9329
ang 9313
ls 9313
Manmohan 9310
speaking 9307
submitted 9300
Bhatt 9299
north 9294
45 9293
Social 9292
Ranveer 9291
chairman 9282
5.@@ 9279
headed 9279
7.@@ 9275
Mahatma 9274
PM@@ 9271
q@@ 9271
laid 9265
El@@ 9263
pass 9259
ongoing 9254
seriously 9253
basic 9248
Me@@ 9247
ning 9241
eat 9234
table 9230
Where 9227
Fund 9223
AN@@ 9217
ished 9216
south 9215
ale 9214
For@@ 9213
Project 9211
iting 9208
wide 9207
ging 9198
technical 9196
wh@@ 9193
un 9185
Bharatiya 9181
continues 9181
hu@@ 9173
actors 9168
invited 9164
Reddy 9152
values 9146
batsman 9139
hath 9139
proper 9139
sharing 9138
> 9130
uc@@ 9127
discuss 9121
Pawar 9118
ships 9117
13@@ 9115
appeared 9114
sec@@ 9108
Urban 9105
ching 9102
refused 9102
Opposition 9093
orders 9089
0.@@ 9080
ear@@ 9073
8.@@ 9066
competition 9065
MS 9056
form@@ 9050
sion 9046
ach@@ 9044
Lal 9043
Pl@@ 9041
Bengaluru 9029
priority 9028
14@@ 9027
awareness 9012
dev@@ 9006
Kapil 8998
posts 8998
Team 8992
supported 8982
suspended 8980
noted 8979
request 8973
despite 8962
6.@@ 8956
America 8955
ile 8947
rather 8944
IP@@ 8943
suffered 8943
design 8937
petrol 8936
primary 8928
RSS 8924
Bhavan 8919
watch 8914
feature 8900
fighting 8894
proud 8890
Fire 8889
00 8888
inf@@ 8878
beginning 8869
structure 8867
IT@@ 8865
commitment 8865
granted 8865
ill 8861
inaugurated 8858
happiness 8856
witness 8852
Policy 8849
claims 8844
lines 8844
300 8839
voice 8838
Gur@@ 8837
acc@@ 8836
Thakur 8833
dedicated 8833
Bo@@ 8831
re-@@ 8830
iti@@ 8826
ward 8821
33 8820
Rural 8814
ays 8814
inc@@ 8814
guidance 8813
mer@@ 8813
Karan 8808
Sp@@ 8807
estimated 8802
te 8794
documents 8783
Dev@@ 8781
wishes 8780
budget 8779
Joint 8777
2011 8776
ina 8758
industrial 8758
centres 8757
Rajiv 8755
servants 8755
tourism 8755
jobs 8754
none 8753
wi@@ 8751
ast 8749
participation 8749
Only 8744
ruling 8741
scale 8735
ancient 8727
appropriate 8727
Amendment 8722
Global 8721
W 8720
partner 8720
unique 8712
truck 8702
acting 8697
addressed 8697
Shi@@ 8693
ited 8685
ped 8680
Go@@ 8679
fresh 8676
deeds 8671
Nitish 8665
ising 8659
Pur@@ 8657
ban@@ 8657
ium 8651
rel@@ 8649
ke@@ 8643
creating 8642
practice 8641
thinking 8638
Film 8634
activity 8631
looked 8631
Navy 8630
bul@@ 8627
gen@@ 8626
trial 8625
bs 8623
Gr@@ 8622
Indies 8617
reporters 8604
entered 8600
honour 8599
League 8596
ail@@ 8593
shi@@ 8590
appeal 8578
exp@@ 8577
Yojana 8576
Programme 8570
Over 8560
minimum 8560
sin 8557
acts 8555
marks 8555
else 8554
beyond 8552
est@@ 8550
370 8547
Ahmedabad 8545
Among 8543
Dr.@@ 8542
debut 8542
guidelines 8542
der@@ 8541
carrying 8539
amb@@ 8538
Vi@@ 8536
tic@@ 8532
Yoga 8530
raise 8528
knew 8527
awarded 8526
representatives 8525
immediate 8524
RE@@ 8505
Open 8495
Roy 8492
Anand 8489
ce 8488
false 8487
European 8486
shares 8486
fell 8485
mercy 8484
link 8483
ber 8481
Make 8480
program 8470
Pune 8462
ST@@ 8460
image 8459
kg 8457
holy 8456
pan@@ 8455
interview 8451
w 8451
alism 8448
About 8447
Col@@ 8447
beautiful 8447
ental 8447
imp@@ 8431
prevent 8429
Korea 8428
System 8426
wedding 8420
bail 8418
ically 8412
X 8404
36 8400
weight 8398
virus 8396
Candidates 8388
faced 8388
Dhawan 8387
enti@@ 8385
behalf 8382
traditional 8382
shifted 8380
app 8377
Ak@@ 8372
rains 8366
goal 8363
sol@@ 8360
criminal 8354
MoU 8353
ber@@ 8353
Char@@ 8352
communication 8351
appear 8346
green 8345
Mohan 8336
corresponding 8329
assured 8319
organisation 8312
ti 8305
Gadkari 8302
incidents 8300
tor@@ 8298
ram 8295
Are 8292
Dar@@ 8291
finance 8290
rescue 8290
'm 8289
Kha@@ 8288
dispute 8288
4.@@ 8287
talking 8287
1st 8284
ute 8283
ze 8283
RA@@ 8282
individuals 8279
planning 8278
severe 8271
sitting 8269
suffering 8269
French 8268
Further 8263
encounter 8263
in-@@ 8263
sive 8257
ft 8255
exam 8254
tour 8254
worlds 8250
article 8238
cont@@ 8235
contact 8232
limited 8227
battle 8220
adi@@ 8216
Every 8214
postmortem 8213
addressing 8204
congregation 8202
helps 8202
flow 8197
wicket 8195
wa 8194
Padukone 8191
cricketer 8186
participate 8185
aim 8183
described 8175
famous 8175
becoming 8169
aya 8163
pollution 8162
mental 8159
foundation 8158
isation 8155
Islamic 8154
York 8140
rupees 8138
eg@@ 8128
treated 8126
views 8125
eng@@ 8121
Mor@@ 8115
arrangements 8114
Ap@@ 8105
anniversary 8099
commercial 8096
flight 8095
9.@@ 8092
box 8092
1,@@ 8090
Alia 8089
Thackeray 8080
promise 8066
ner 8064
simple 8063
offers 8053
multiple 8050
solution 8050
female 8047
milk 8045
nine 8044
Rai 8043
Lucknow 8040
Yet 8039
holds 8039
independent 8039
size 8039
hel@@ 8036
ish@@ 8036
our@@ 8036
monitoring 8035
Youth 8029
ran 8026
actions 8025
desire 8023
reward 8022
Four 8021
CP@@ 8013
requested 8013
ST 8008
fication 8008
Pal@@ 8007
connected 8006
Nitin 8005
door 8004
Li@@ 8001
bit 7994
Nehru 7993
Tal@@ 7993
electricity 7992
scheduled 7990
covered 7989
standards 7983
writing 7975
int@@ 7974
bas@@ 7972
Mantri 7971
engine 7971
med 7969
und@@ 7968
sisters 7961
ion 7957
ring 7951
ping 7945
India-@@ 7937
games 7937
verdict 7936
ect 7934
doubt 7932
aging 7926
promoting 7922
product 7921
promised 7910
tered 7907
Games 7905
Sector 7905
dic@@ 7904
sexual 7903
Petroleum 7901
Google 7899
Inter@@ 7897
reality 7894
version 7894
objective 7892
birthday 7891
ada 7890
ank@@ 7888
showed 7886
standing 7882
policies 7880
observed 7877
difference 7870
interests 7868
ets 7866
all-@@ 7864
Nav@@ 7863
fund 7861
endra 7856
Ro@@ 7853
silver 7853
remaining 7851
mor@@ 7848
o-@@ 7847
relevant 7840
ass 7838
ster 7833
bur@@ 7827
Have 7826
ham@@ 7824
Because 7822
SE@@ 7817
ately 7811
Mamata 7804
skipper 7795
ual 7785
sha 7779
ious 7774
stopped 7774
write 7772
powerful 7770
threat 7765
begin 7757
climate 7752
CCTV 7750
advised 7748
prayer 7747
happening 7742
sale 7740
-based 7738
Covid-19 7736
+ 7735
ena 7732
2010 7729
Ahmed 7726
Tendulkar 7726
accompanied 7725
command 7716
coal 7712
ee 7712
gar@@ 7710
ably 7709
ini 7708
iz@@ 7705
Ranbir 7702
rainfall 7699
achieved 7698
permission 7693
track 7690
je@@ 7689
Srinagar 7688
River 7687
mankind 7676
usually 7676
break 7675
pat@@ 7675
Ban@@ 7673
ains 7673
bat 7672
affairs 7670
super@@ 7670
Children 7666
damage 7664
sti@@ 7662
Budget 7661
Human 7658
weather 7656
ized 7650
practices 7649
studies 7649
ick@@ 7648
ik@@ 7646
Mur@@ 7644
college 7644
negative 7641
bringing 7639
doesnt 7639
add 7632
Pandey 7629
37 7628
stands 7628
friendly 7627
DC 7626
abroad 7626
customers 7624
agricultural 7623
patient 7623
He@@ 7621
rem@@ 7620
managed 7613
fr@@ 7610
respective 7609
serving 7607
Super 7606
Russian 7604
34 7600
MPs 7598
stri@@ 7598
righteous 7597
Be 7594
Bri@@ 7586
plants 7584
fied 7579
Mohammad 7577
delegation 7574
feet 7572
hol@@ 7571
Goyal 7568
atory 7568
al-@@ 7566
educational 7566
Europe 7564
umb@@ 7558
equipment 7557
nuclear 7557
Ayodhya 7556
removed 7553
Ran@@ 7549
enable 7548
paper 7544
chi@@ 7539
reduced 7538
ths 7536
discussions 7535
Hindus 7534
anc@@ 7533
original 7532
protests 7531
bed 7530
engaged 7523
university 7523
Jitendra 7522
alized 7522
score 7522
24@@ 7516
tested 7516
ation@@ 7508
hy@@ 7508
didn 7506
nagar 7497
on-@@ 7494
double 7493
ight 7493
Suresh 7492
mod@@ 7487
spent 7486
white 7484
hur@@ 7482
ites 7482
Telugu 7481
Manohar 7476
poll 7474
boost 7470
Sw@@ 7469
ple 7468
notification 7467
attacked 7465
transfer 7456
hon@@ 7447
Man 7445
drive 7439
Pranab 7433
ged 7433
IM@@ 7432
Saudi 7431
prov@@ 7430
fields 7428
ma@@ 7428
bri@@ 7425
self-@@ 7424
Business 7420
Ko@@ 7420
beat 7417
ire 7414
Messenger 7412
ton 7412
loved 7411
sen@@ 7404
weeks 7400
killing 7395
dem@@ 7394
0-@@ 7391
host 7388
connectivity 7387
stakeholders 7387
items 7386
kill 7385
nearby 7383
OF 7378
GB 7376
War 7373
Addressing 7366
destroyed 7365
Trade 7358
hurt 7355
user 7355
stock 7351
Plan 7349
Shar@@ 7349
homes 7347
tree 7339
congratulated 7337
entry 7332
400 7330
text 7329
balance 7328
ot 7327
Mohammed 7323
tests 7323
Ramesh 7321
loans 7321
ture 7320
ker 7319
demands 7317
moving 7311
scientific 7310
garh 7308
Patna 7307
fuel 7305
distribution 7304
cancer 7301
attempt 7296
waste 7295
UTs 7293
000 7292
bear 7288
powers 7287
boy 7286
abad 7284
Bangalore 7283
fee 7280
ong@@ 7280
content 7278
Manoj 7276
han@@ 7268
rising 7264
aj 7263
industries 7258
ata 7257
comments 7254
ens@@ 7254
enjoy 7250
scientists 7249
option 7248
News 7246
Chidambaram 7241
ams 7239
experts 7238
Sitharaman 7237
smartphone 7237
comm@@ 7236
Lo@@ 7232
Tri@@ 7232
ane 7229
enhance 7228
Reserve 7224
lack 7220
arms 7214
mal@@ 7211
rap@@ 7208
Aamir 7207
grant 7197
Financial 7196
yourself 7196
imposed 7194
Te@@ 7193
< 7190
technologies 7188
Principal 7186
Rec@@ 7181
Nations 7174
partners 7171
options 7168
resolution 7167
Awards 7166
Po@@ 7166
joy 7164
col@@ 7162
Express 7159
ram@@ 7159
Rashtrapati 7155
lakhs 7155
da 7153
registration 7153
relating 7147
Chouhan 7144
illegal 7144
aspects 7143
residents 7143
Abraham 7141
tonnes 7137
grow 7135
ow 7133
applications 7130
massive 7130
Islam 7124
anti@@ 7124
S. 7122
30@@ 7119
Industries 7114
44 7111
favour 7102
her@@ 7102
ideas 7097
squad 7097
historic 7095
ong 7094
faces 7093
ind 7093
NRC 7089
Shahid 7085
pain 7085
Australian 7084
guilty 7081
Western 7080
insurance 7075
decide 7073
Joshi 7071
Aadhaar 7065
Rajput 7062
strategic 7060
ender 7054
Peter 7050
diseases 7050
ily 7048
multi@@ 7047
ek@@ 7045
jit 7044
organization 7044
Mil@@ 7042
Bas@@ 7041
task 7039
ures 7038
app@@ 7036
forced 7036
hat@@ 7036
computer 7033
judicial 7030
defeat 7026
title 7023
II@@ 7022
ric@@ 7020
Is@@ 7011
skills 7007
aria 7004
Sushant 7003
announcement 7003
resolve 7003
stood 7003
videos 7002
tion@@ 7000
ities 6999
thousands 6992
Last 6991
ishing 6987
ements 6984
vis@@ 6983
standard 6982
solar 6981
spend 6981
Kh@@ 6978
ization 6976
fellow 6974
Jag@@ 6971
constituted 6971
residence 6971
sometimes 6969
apex 6968
remarks 6967
ide 6966
spoken 6965
awards 6961
daughters 6956
communities 6955
wealth 6955
Kam@@ 6952
planned 6951
Five 6949
Chandra 6948
rivers 6948
fair 6947
RJD 6945
CAA 6941
cabinet 6941
char@@ 6941
comment 6941
touch 6935
highly 6931
reforms 6931
Actress 6923
facilitate 6922
hom@@ 6922
off@@ 6922
concerns 6921
yesterday 6920
ty@@ 6915
German 6914
collaboration 6913
falls 6913
JD 6910
Member 6910
lie 6909
welcome 6907
NDA 6906
overs 6906
govt 6903
Gang@@ 6901
overall 6898
scene 6897
dream 6896
Code 6895
display 6890
tors 6889
of@@ 6888
window 6885
CC@@ 6884
Res@@ 6878
eds 6872
Environment 6871
ley 6869
fixed 6868
Manipur 6867
ail 6866
ned 6863
strategy 6854
circumstances 6850
hundred 6848
begun 6845
thr@@ 6845
tur@@ 6845
go@@ 6843
animals 6841
longer 6839
Sol@@ 6838
Vardhan 6836
broke 6835
designed 6834
row 6834
tt@@ 6834
Do@@ 6831
Post 6830
looks 6830
television 6827
waiting 6826
divided 6825
sions 6825
changing 6824
union 6822
tional 6817
az 6812
route 6810
Company 6809
improving 6804
assets 6800
polling 6795
Can 6786
dy 6785
offering 6783
Sharif 6781
mode 6778
Swaraj 6770
65 6763
NI@@ 6763
pri@@ 6761
ami 6760
DA@@ 6758
seems 6756
passing 6752
conc@@ 6751
Dont 6748
HA@@ 6746
formation 6745
Mun@@ 6742
medal 6738
Kamal 6737
ours 6736
suggested 6736
colleges 6730
sustained 6729
governance 6723
Ajit 6722
chance 6722
meaning 6718
mutual 6717
Kings 6715
hor@@ 6715
bridge 6713
missing 6713
recovery 6712
Out 6711
Us 6708
conf@@ 6704
detained 6704
opinion 6703
Gas 6702
Hence 6701
strengthening 6700
influence 6692
organisations 6691
heaven 6687
mi 6687
colour 6684
ame 6678
forest 6675
occurred 6668
Temple 6665
division 6665
ta@@ 6662
Saif 6658
Ladakh 6656
innovation 6655
James 6654
Verma 6654
pen@@ 6653
departments 6651
ological 6651
Although 6648
NA@@ 6648
audience 6646
ensuring 6646
doctor 6638
tha 6637
bre@@ 6636
trac@@ 6636
limit 6632
ake 6631
prove 6624
contesting 6622
li 6622
Maha@@ 6620
injury 6615
48 6609
ils 6609
Ps 6608
compl@@ 6604
d-@@ 6601
firing 6599
distance 6597
00@@ 6596
down@@ 6596
Everyone 6594
ey 6591
trading 6590
ans@@ 6586
can@@ 6586
Or 6583
bar 6583
atmosphere 6581
Washington 6580
post-mortem 6579
Surely 6576
performed 6576
Due 6575
syn@@ 6575
encourage 6571
photos 6566
improved 6560
COVID 6559
happens 6559
Satan 6557
Des@@ 6556
42 6554
Jan@@ 6553
ten@@ 6550
bal@@ 6549
38 6545
clearly 6545
delivered 6539
panel 6537
ap 6534
Speaker 6533
busy 6533
55 6532
internet 6530
skill 6528
Yahweh 6525
opposed 6522
por@@ 6521
Fadnavis 6519
availability 6517
uddin 6515
minor 6514
Life 6511
countrys 6508
delivery 6506
anger 6505
charged 6503
Please 6499
Similarly 6499
writer 6494
Sun@@ 6493
tly 6493
skin 6492
sold 6487
constructed 6485
Foundation 6482
Action 6479
Steel 6479
east 6479
sustainable 6479
ve@@ 6479
lin@@ 6478
stand@@ 6476
apart 6469
Region 6465
association 6464
Before 6454
successfully 6452
Vir@@ 6451
appreciated 6451
apur 6448
style 6445
Father 6443
CRPF 6442
exc@@ 6442
identity 6441
survey 6440
50@@ 6435
regions 6434
ack 6431
steel 6430
tomorrow 6430
selection 6429
core 6427
tical 6422
medi@@ 6418
Nag@@ 6416
Word 6416
establish 6414
band 6413
2-@@ 6412
IS 6411
itation 6411
ja 6408
uring 6408
unity 6405
Station 6399
faithful 6395
proved 6395
debate 6394
Internet 6391
race 6390
Devi 6389
peoples 6387
teaching 6387
complex 6382
Indira 6380
infection 6377
taught 6376
Staff 6373
Bl@@ 6372
Dal 6371
Kan@@ 6370
ard@@ 6368
bound 6368
aims 6367
professional 6366
revenue 6366
Chand@@ 6364
Sad@@ 6364
ree 6363
JNU 6361
declined 6361
damaged 6359
types 6358
apostle 6357
therein 6357
ran@@ 6356
secure 6355
myself 6354
identify 6353
lived 6353
back@@ 6352
Training 6350
prominent 6349
linked 6347
10.@@ 6346
Smith 6346
Sou@@ 6346
Govt 6345
99 6344
val@@ 6342
4,@@ 6339
quoted 6336
ves 6332
2009 6331
owned 6331
showing 6331
Airport 6329
cold 6321
Summit 6320
aining 6320
Abhishek 6318
banking 6315
deb@@ 6315
pending 6302
Kuldeep 6300
requirements 6300
Ter@@ 6299
th-@@ 6298
ards 6297
ined 6297
guide 6293
Wh@@ 6292
processing 6292
remove 6292
Singapore 6291
Ju@@ 6289
speci@@ 6289
troops 6288
drinking 6286
extend 6286
Op@@ 6284
advice 6284
head@@ 6284
ory 6280
i.e. 6276
25@@ 6275
Em@@ 6273
Oil 6270
amongst 6270
No@@ 6267
tra 6265
deputy 6264
truly 6262
submit 6261
za 6261
ok@@ 6259
ip@@ 6258
ows 6254
DA 6253
Tan@@ 6251
adequate 6251
es. 6251
Bhopal 6250
drug 6250
institution 6244
Gold 6239
SBI 6239
ize 6239
crops 6238
ex-@@ 6238
gain 6237
confident 6236
asking 6234
We@@ 6225
fifth 6225
Katrina 6224
fathers 6223
measure 6221
ush@@ 6221
investors 6218
sm@@ 6218
Ge@@ 6214
150 6211
port 6211
namely 6204
sets 6200
Space 6192
dance 6189
Cs 6188
visiting 6187
Sharad 6186
che@@ 6186
ila 6186
Digital 6184
wa@@ 6184
adopted 6183
supporting 6183
ne 6182
collection 6181
contribute 6175
rear 6175
War@@ 6174
undertaken 6173
electric 6171
BJPs 6170
kids 6169
aged 6165
calling 6155
toward 6152
detailed 6151
Canada 6142
angels 6138
pres@@ 6135
assessment 6134
ourselves 6131
finally 6130
Jaipur 6129
Jam@@ 6129
All-@@ 6128
batting 6126
Verily 6124
comprising 6124
camp 6122
crude 6120
Sim@@ 6119
offices 6118
sound 6117
Nirmala 6116
ES 6115
ming 6115
ler 6114
export 6109
ruled 6109
choice 6108
device 6106
feeling 6104
've 6101
perform 6100
ecting 6098
jan 6098
ket 6097
easily 6093
tradition 6091
principles 6090
pu@@ 6087
songs 6087
Well 6086
grief 6085
ki 6085
43 6083
militants 6081
index 6076
hat 6075
emergency 6074
Parliamentary 6070
Each 6066
wisdom 6066
Malik 6061
wara 6061
western 6059
error 6058
weapons 6058
adding 6055
reportedly 6054
Sara 6053
literature 6051
prayers 6051
courts 6048
IPC 6046
stories 6046
defeated 6044
Min@@ 6042
files 6042
undergoing 6039
Az@@ 6034
ND@@ 6028
Varanasi 6027
Take 6024
records 6019
executive 6017
Heavy 6014
healthcare 6013
balls 6008
surface 6007
toll 6007
elling 6006
Just 6005
Highways 6004
resignation 6003
Child 5997
species 5996
Ash@@ 5995
LORD 5995
Hon@@ 5994
location 5992
statements 5987
Once 5986
NE@@ 5985
que 5984
caught 5983
wait 5983
Industrial 5975
seeing 5974
Theres 5970
gre@@ 5967
counsel 5966
operating 5965
drugs 5960
strongly 5959
concerning 5958
spokesman 5949
Natural 5945
flights 5943
SI@@ 5942
pre-@@ 5941
causes 5939
verily 5939
headquarters 5936
net 5934
cars 5932
47 5930
pray 5924
leaving 5923
listen 5923
Boss 5919
citizen 5919
Mis@@ 5918
belongs 5916
expenditure 5915
ive 5914
i-@@ 5913
middle 5912
questioned 5911
RAM 5910
wor@@ 5910
please 5908
humans 5901
poverty 5900
Smt 5898
two-@@ 5894
@ 5892
inspired 5890
ext@@ 5889
struggle 5888
trees 5888
MC@@ 5887
lets 5886
Devendra 5884
tension 5883
Si@@ 5881
bbl 5881
ination 5874
ingly 5873
teacher 5873
youths 5868
armed 5867
draw 5864
Shetty 5863
Kaur 5862
Arunachal 5860
gathering 5855
26@@ 5854
EC 5853
Reliance 5852
ela 5850
ency 5847
heads 5847
producer 5846
rac@@ 5846
stable 5845
Mahendra 5839
engineering 5835
code 5833
alongside 5831
constituencies 5831
drink 5829
sacrifice 5826
situated 5823
Cor@@ 5822
ences 5822
sal@@ 5822
Bureau 5821
Prophet 5821
Ravi 5819
Samajwadi 5819
K. 5816
passenger 5809
reservoirs 5809
Shivraj 5808
relatives 5808
transferred 5807
listed 5806
voters 5806
Royal 5803
cour@@ 5798
guided 5794
memory 5792
cell 5791
oned 5788
Dutt 5787
conducting 5785
tribal 5785
solutions 5779
She@@ 5777
witnessed 5777
prosperity 5776
dra@@ 5774
pped 5773
11.@@ 5771
sufficient 5771
Indi@@ 5770
participants 5770
crowd 5769
Park 5765
blast 5763
cu@@ 5762
purposes 5762
scam 5762
See 5756
welcomed 5755
lose 5754
FC 5752
greatest 5752
ue 5752
Show 5750
theme 5749
Ob@@ 5748
AR@@ 5747
arg@@ 5747
booked 5746
ff 5743
length 5742
reading 5741
raising 5738
tor 5738
Modis 5737
Though 5737
eye 5737
follows 5736
recommendations 5735
crucial 5734
adi 5732
cards 5732
AI 5731
Varun 5725
White 5724
figure 5722
hour 5721
labour 5719
2008 5716
gathered 5715
millions 5715
Currently 5714
Bombay 5712
promotion 5712
wards 5709
2nd 5707
5-@@ 5703
independence 5703
fruits 5702
brings 5701
sub-@@ 5699
ables 5696
gi@@ 5696
ER@@ 5694
returns 5693
eve 5691
Forest 5690
heritage 5687
context 5686
Independent 5685
dialogue 5685
ick 5683
Members 5678
Bigg 5677
Good 5676
portal 5676
installed 5675
Diwali 5673
phones 5673
2000 5672
Tiwari 5671
simply 5671
Sardar 5670
controversy 5668
perhaps 5664
Pulwama 5662
strict 5661
buy 5660
elements 5658
broad@@ 5655
Kaif 5654
PC 5654
non 5653
believes 5649
eastern 5648
warning 5648
MT 5647
starting 5647
ub@@ 5647
west 5647
agree 5645
ut 5644
esh@@ 5642
tro@@ 5640
Time 5638
aram 5638
200@@ 5637
fa@@ 5637
fur@@ 5636
Olympic 5635
larger 5635
lawyer 5632
stressed 5631
Ba@@ 5630
sky 5629
Azad 5627
wind 5627
centuries 5626
recommended 5625
unknown 5622
Media 5619
exports 5618
leaves 5618
helping 5615
Rem@@ 5614
walk 5614
Bur@@ 5612
warm 5609
multi-@@ 5608
rail 5605
Bab@@ 5604
lu@@ 5604
territory 5604
41 5603
my@@ 5601
THE 5599
alised 5595
channel 5595
pos@@ 5595
villagers 5595
express 5594
Tripura 5591
wan 5591
eligible 5590
Jo@@ 5589
ore@@ 5588
IAF 5586
Mu@@ 5586
Society 5582
Mand@@ 5579
Rawat 5577
Executive 5574
generally 5574
ury 5574
possession 5573
39 5571
male 5571
Au@@ 5569
# 5568
maintained 5567
procurement 5567
Sea 5566
arm@@ 5566
Shiv@@ 5562
medium 5562
chosen 5561
appointment 5558
vital 5557
12.@@ 5552
although 5551
Nor@@ 5549
Metro 5547
Red 5547
Around 5545
degrees 5545
Ev@@ 5541
praise 5541
investigations 5540
decades 5538
Sec@@ 5535
advantage 5535
appealed 5535
ush 5535
cat@@ 5533
sight 5532
admit 5527
tation 5525
Earth 5520
Forces 5520
parliamentary 5518
Cooperation 5516
Meeting 5515
operational 5514
investments 5508
feels 5507
block 5505
fil@@ 5501
Mat@@ 5500
Shankar 5500
ff@@ 5499
sugar 5499
animal 5497
locations 5494
advance 5485
US@@ 5483
caste 5483
properties 5483
ises 5482
lay 5482
amm@@ 5479
god 5478
oath 5478
leg@@ 5476
wont 5473
27@@ 5472
Citizenship 5466
mainly 5465
purchase 5464
challenging 5463
akes 5462
Engineering 5461
| 5461
run@@ 5460
author 5458
beneficiaries 5458
water@@ 5456
followers 5452
software 5452
Sciences 5450
La@@ 5449
ticket 5449
Rashtriya 5444
distributed 5443
contract 5437
Shah@@ 5435
determined 5435
interesting 5434
closely 5433
ni@@ 5433
Academy 5430
filled 5429
The@@ 5427
alization 5426
judgment 5426
alert 5425
organizations 5425
crop 5424
Photo 5421
quickly 5421
ment@@ 5419
TMC 5415
P. 5412
stress 5411
Jerusalem 5410
new@@ 5409
28@@ 5408
oun@@ 5408
MS@@ 5406
Mag@@ 5405
mal 5404
rep@@ 5404
demanding 5401
igh@@ 5401
profit 5399
any@@ 5398
doesn 5396
regularly 5395
Agreement 5394
plus 5393
tal@@ 5392
dated 5389
pace 5389
Vis@@ 5387
ians 5387
fore@@ 5386
forget 5384
CE@@ 5381
Festival 5381
deliver 5381
pi@@ 5380
affect 5377
courage 5377
hal 5377
notified 5373
proof 5373
cas@@ 5372
fo@@ 5372
File 5368
Officers 5368
peaceful 5368
Bad@@ 5366
Crore 5366
Sup@@ 5366
ef@@ 5362
mass 5362
ges 5361
specified 5361
vo@@ 5361
complaints 5358
toss 5358
examples 5357
sup@@ 5356
farm 5355
spe@@ 5355
clause 5350
ME@@ 5349
ell 5349
CA 5347
ock 5347
soil 5344
ven@@ 5342
Municipal 5338
Das 5335
compensation 5334
Rajesh 5331
wins 5329
Joseph 5328
ris@@ 5328
seed 5328
contains 5326
2017-18 5323
entation 5321
advanced 5319
Allahabad 5318
administrative 5317
movies 5317
ANI 5316
extent 5315
Recently 5313
alist 5313
Div@@ 5312
Aviation 5311
Organisation 5306
goals 5306
fought 5305
learned 5303
aming 5301
thank 5299
harmony 5298
outstanding 5298
Nobody 5295
Price 5295
ected 5295
ented 5295
Investigation 5294
plane 5292
Division 5291
Nawaz 5291
filing 5290
spec@@ 5289
wing 5289
ni 5288
thoughts 5287
expect 5285
yan@@ 5284
reference 5283
At@@ 5282
Income 5282
saved 5281
Total 5280
moral 5280
Mc@@ 5279
ony 5279
cells 5278
explained 5278
av 5275
ham 5273
49 5272
fish 5271
Captain 5269
s-@@ 5268
heat 5267
perfect 5265
handle 5261
cancelled 5260
litre 5259
suppl@@ 5259
DE@@ 5257
Year 5255
electronic 5254
iy@@ 5251
den@@ 5247
hear@@ 5245
prepare 5245
ome@@ 5242
proceedings 5242
protesters 5242
ease 5240
participating 5239
selling 5237
ine@@ 5235
2022 5233
DS 5233
consideration 5233
ection 5233
ug@@ 5233
Sushma 5232
Hu@@ 5231
Major 5231
Or@@ 5231
im 5231
ums 5231
aff@@ 5227
facts 5227
Monday 5226
investigated 5222
AL@@ 5220
blessings 5220
Abdullah 5219
Hel@@ 5219
journalist 5217
policemen 5216
tre@@ 5216
ace 5215
vi 5214
corporate 5213
85 5211
} 5211
land@@ 5208
ly@@ 5205
begins 5204
ung 5202
BS@@ 5193
Deepak 5193
academic 5193
Federation 5192
categories 5191
intelligence 5189
Atal 5188
rit@@ 5188
antly 5187
flood 5187
permanent 5185
95 5182
eness 5181
Arabia 5176
Friday 5173
pointed 5169
rin@@ 5169
whereas 5169
Rafale 5168
52 5165
cle@@ 5165
Watch 5164
Comp@@ 5162
Dev 5162
bowling 5162
sem@@ 5162
younger 5162
anta 5161
Bhushan 5160
ora 5158
there@@ 5153
brand 5152
MC 5149
Sonam 5148
PS 5147
Adam 5144
aan 5143
Despite 5136
Mahindra 5133
4-@@ 5132
Change 5132
deny 5131
Johar 5127
men@@ 5124
one-@@ 5123
functioning 5122
sanctioned 5121
35@@ 5120
ID 5119
Japanese 5119
reaching 5117
ids 5116
interested 5114
Gautam 5113
appears 5113
choose 5112
temples 5112
Chris 5111
Press 5110
div@@ 5109
Harsh 5108
PO@@ 5108
materials 5108
Lalu 5107
excellent 5107
leads 5107
Trans@@ 5106
founder 5106
Times 5105
opposite 5105
boys 5104
historical 5101
sad 5100
upto 5100
iron 5098
Class 5097
trained 5095
thi@@ 5094
Skill 5092
storm 5092
trav@@ 5092
attitude 5091
loo@@ 5091
Sanskrit 5090
eshwar 5090
sex 5090
Manish 5088
Ranjan 5088
guest 5088
dismissed 5082
unless 5082
rupee 5081
establishment 5080
baby 5079
promises 5079
failure 5077
Ms 5075
banned 5074
Naval 5072
twice 5072
Dhan@@ 5070
Tha@@ 5069
,000 5068
AC@@ 5068
Akhilesh 5068
ports 5068
Jews 5066
Housing 5065
Independence 5065
Labour 5065
but@@ 5065
fake 5065
thanked 5065
ature 5064
rose 5064
sort 5064
Akhtar 5063
effects 5061
highlighted 5061
iness 5061
resident 5060
warned 5060
So@@ 5059
aimed 5058
Ganguly 5056
stat@@ 5054
factors 5051
democratic 5050
'll 5048
celebrations 5048
Piyush 5047
Valley 5047
Puri 5046
gn@@ 5045
Disaster 5044
Sum@@ 5044
celebrate 5043
soci@@ 5042
cal@@ 5040
greetings 5040
tough 5038
thats 5037
sted 5036
6-@@ 5034
initial 5033
completion 5029
1-@@ 5028
Report 5027
Ed@@ 5026
sa 5025
sign@@ 5025
3,@@ 5024
ust 5021
Up@@ 5019
household 5018
ound 5018
costs 5017
Did 5014
Nir@@ 5014
ISRO 5012
Regional 5012
comprehensive 5011
improvement 5011
housing 5010
sensitive 5010
belief 5009
sleep 5009
EC@@ 5008
connect 5008
sales 5007
explo@@ 5006
reli@@ 5006
probably 5005
emerged 5004
summit 5002
prof@@ 4999
tourists 4999
51 4993
grateful 4993
Sikkim 4991
Pakistans 4990
notes 4989
farmer 4985
where@@ 4985
Dec@@ 4984
classes 4984
definitely 4983
pe 4982
ser@@ 4981
5,@@ 4980
40@@ 4979
existence 4974
ained 4973
q 4973
Sab@@ 4972
wal@@ 4971
mi@@ 4968
lying 4967
efficient 4966
high-@@ 4965
Ambani 4964
Resources 4964
GDP 4963
ros@@ 4962
Ministries 4958
honoured 4958
whoever 4957
Soon 4956
46 4954
Gar@@ 4953
PA@@ 4953
Directorate 4951
ashed 4948
Ay@@ 4947
belonging 4947
Capital 4943
ails 4943
fulfilled 4943
WhatsApp 4942
possibility 4942
Don 4941
Keep 4940
dev 4939
3rd 4938
Assistant 4938
CB@@ 4938
aying 4938
dangerous 4938
numerous 4937
fy 4936
Friends 4934
analy@@ 4934
yourselves 4934
Ben@@ 4931
rent 4929
hun@@ 4927
method 4925
winners 4923
atives 4920
meant 4918
Javadekar 4916
slogans 4916
earned 4912
represented 4912
requirement 4910
Bhar@@ 4909
singer 4909
universities 4908
implement 4907
sit 4907
collected 4906
powered 4898
Gul@@ 4897
ories 4897
Great 4894
Ke@@ 4894
conflict 4894
provisional 4894
read@@ 4894
loving 4892
enemy 4890
fit 4889
sun 4888
bat@@ 4887
eting 4887
Vish@@ 4886
reviewed 4884
willing 4884
Mary 4880
56 4879
Nam@@ 4879
Tur@@ 4879
branch 4879
Sidhu 4878
bid 4877
ayed 4876
MO@@ 4873
Culture 4871
dom@@ 4871
judges 4871
tim@@ 4870
yan 4870
NO@@ 4869
Bharti 4867
kers 4867
AS@@ 4866
ions 4865
{ 4864
Ambedkar 4862
pac@@ 4862
Indore 4860
itors 4860
picked 4860
ol 4854
three-@@ 4853
consumers 4852
Mang@@ 4851
ese 4851
commission 4849
document 4849
transactions 4848
IAS 4847
Mizoram 4845
ech@@ 4842
DR@@ 4840
RO@@ 4838
Sang@@ 4838
seem 4838
Noida 4837
competitive 4837
experienced 4837
external 4836
tou@@ 4835
premises 4834
correct 4832
trouble 4830
ach 4829
hair 4829
Jay@@ 4828
sa@@ 4828
tru@@ 4828
29@@ 4826
Legislative 4826
require 4826
Mahesh 4823
RS 4822
African 4821
Agency 4821
Like 4821
edition 4820
suggestions 4820
pivotal 4819
resolved 4819
Abdul 4818
Uddhav 4818
citizenship 4818
pride 4817
tain 4817
clash 4811
isnt 4809
widely 4809
forever 4808
t. 4808
kinds 4807
respond 4807
ners 4803
Ver@@ 4802
2007 4801
Port 4801
Kur@@ 4799
straight 4799
Honble 4797
Sunday 4797
harm 4795
resulted 4790
afraid 4789
contain 4788
Click 4786
don@@ 4786
principal 4786
Bh@@ 4781
Sat@@ 4781
gate 4780
Mukesh 4779
Protection 4778
oning 4774
applied 4772
ier 4772
thi 4772
ank 4768
Matthew 4767
courses 4764
instructions 4764
ous@@ 4760
AI@@ 4757
elled 4757
deeply 4756
Ste@@ 4755
Ag@@ 4750
Kangana 4749
resigned 4744
sub-section 4743
jointly 4740
efficiency 4738
eh@@ 4738
ide@@ 4737
framework 4735
HC 4733
USA 4733
suffer 4732
Fe@@ 4731
medicines 4728
expression 4727
norms 4727
capable 4726
AIIMS 4725
Centres 4725
devices 4724
guard 4724
ack@@ 4722
messages 4720
wasnt 4719
rice 4718
rou@@ 4718
kets 4717
Tests 4716
chain 4715
Meh@@ 4713
Thereafter 4712
hari 4712
concept 4711
visible 4711
Av@@ 4710
covering 4709
positions 4705
Stadium 4702
Je@@ 4701
secret 4700
Private 4699
broken 4697
debt 4697
mir@@ 4697
inst@@ 4695
edi@@ 4693
agenda 4691
NT@@ 4690
driving 4687
6,@@ 4686
acted 4686
dig@@ 4682
shops 4681
wall 4678
54 4677
belong 4676
vol@@ 4676
3-@@ 4675
Maj@@ 4675
requires 4675
subsequently 4674
finished 4668
quarter 4668
sell 4666
swe@@ 4664
IL 4663
province 4663
IIT 4662
Olympics 4662
Pand@@ 4662
Fi@@ 4661
fighter 4661
format 4661
samples 4661
bowler 4660
ika 4660
Sen@@ 4659
cinema 4659
gener@@ 4659
sites 4654
Arora 4652
integrated 4652
64 4651
Coal 4648
Quran 4648
Rakesh 4647
DG@@ 4643
travelling 4643
Bel@@ 4642
ep 4637
Aditya 4636
Moreover 4636
Sikh 4635
Meghalaya 4634
pal 4633
Indo-@@ 4631
buildings 4631
Android 4630
ere 4630
Far@@ 4624
tives 4624
directions 4623
plic@@ 4622
2,@@ 4621
st-@@ 4619
conservation 4618
recognised 4618
interaction 4617
models 4617
lock 4616
Vikas 4612
S.@@ 4610
Head 4606
concluded 4605
gan@@ 4602
oll@@ 4602
Chi@@ 4601
constantly 4601
stability 4601
gri@@ 4600
mag@@ 4597
Ud@@ 4595
alive 4595
hundreds 4595
dollar 4594
fruit 4592
devotees 4590
Infrastructure 4589
wood 4589
Gehlot 4588
pleasure 4587
prescribed 4585
Amarinder 4584
Sindhu 4583
innovative 4583
variety 4583
spotted 4582
disciples 4581
owner 4577
reduction 4576
trailer 4574
Nagaland 4571
focused 4571
Bengali 4566
schedule 4566
Based 4565
Jawaharlal 4563
eff@@ 4563
marketing 4561
Banks 4560
friendship 4560
peri@@ 4559
allows 4558
medicine 4558
tal 4558
au 4557
voting 4557
zone 4553
Du@@ 4552
Ph@@ 4552
gun@@ 4551
maintenance 4550
machine 4549
beneficial 4544
prison 4543
avail 4540
bor@@ 4540
torment 4539
Mark 4538
Which 4538
achievement 4537
figures 4537
Dinesh 4535
witnesses 4535
Chaudhary 4534
Bor@@ 4533
Sk@@ 4533
teach 4533
causing 4532
thereafter 4531
year-old 4530
drama 4529
Mi@@ 4527
mechanism 4526
alls 4525
channels 4524
Pa@@ 4521
Survey 4521
sins 4521
Dh@@ 4518
condemned 4517
kingdom 4517
si 4516
250 4513
Indonesia 4513
differences 4513
disaster 4511
istic 4510
vaccine 4510
approached 4507
real@@ 4507
Egypt 4503
copy 4502
Kul@@ 4501
Myanmar 4501
Pass@@ 4501
football 4501
ues 4501
PS@@ 4500
print 4500
Trust 4499
mine 4499
72 4498
opens 4493
Consumer 4488
Pacific 4488
Cam@@ 4486
Green 4486
bro@@ 4486
doers 4486
register 4486
Patil 4485
kar@@ 4484
weak 4484
putting 4480
cross 4478
vegetables 4478
tells 4477
moon 4476
eless 4475
mostly 4474
older 4474
Pe@@ 4471
makers 4470
assault 4469
ple@@ 4469
eding 4468
Brazil 4464
ices 4464
wherein 4464
searching 4463
thereby 4463
lands 4461
Maruti 4460
escape 4460
rence 4460
Bul@@ 4459
Italy 4459
floor 4459
approximately 4458
danger 4458
sil@@ 4458
ron 4457
herself 4455
platforms 4455
qualified 4455
reducing 4455
,9@@ 4452
constant 4452
grand 4452
2006 4451
Al 4449
Ji 4447
disbelieve 4447
dates 4446
integrity 4446
reserved 4445
Ti@@ 4444
anti 4444
uni@@ 4444
ession 4443
ond@@ 4443
condolences 4439
cro@@ 4438
Asked 4437
northern 4437
Dha@@ 4436
learnt 4435
talent 4435
producing 4434
threatened 4432
experiences 4431
burden 4429
cameras 4429
wives 4429
Merciful 4428
owing 4428
functions 4427
micro@@ 4427
tourist 4427
Resource 4422
gods 4422
campus 4421
Line 4420
bel@@ 4420
presently 4418
sun@@ 4418
ads 4417
involving 4417
ounded 4417
stones 4417
Advani 4416
Tar@@ 4416
answered 4416
Investment 4415
absconding 4415
import 4415
em 4414
tribute 4414
Att@@ 4413
ailing 4413
ll 4413
Kanpur 4411
consumption 4411
mu@@ 4411
Superintendent 4410
5th 4407
drawn 4406
pilot 4406
replied 4406
tab@@ 4406
worthy 4406
Mak@@ 4405
constitution 4405
kings 4405
worshi@@ 4405
Raja 4404
analysis 4404
Premier 4400
certificate 4400
tically 4400
Bil@@ 4399
duties 4398
talked 4398
VI@@ 4397
mining 4397
titled 4397
cul@@ 4396
Armed 4395
knowing 4395
Nadda 4394
show@@ 4393
tan@@ 4393
implementing 4392
Rail 4391
sin@@ 4391
currency 4390
IC 4388
regime 4388
useful 4388
ired 4387
mp@@ 4386
destination 4384
gift 4383
Sandeep 4380
ok 4380
Command 4379
instance 4377
law@@ 4377
governor 4375
On@@ 4373
prec@@ 4373
Shri@@ 4372
hotel 4372
recognized 4372
tioned 4372
amid 4371
suff@@ 4371
Right 4369
til@@ 4369
ER 4367
sn@@ 4367
worldwide 4366
Corona 4365
Pad@@ 4365
finals 4363
Rules 4362
Devgn 4361
Son 4361
Hal@@ 4360
unable 4360
seeks 4359
comprises 4355
SO@@ 4354
ective 4354
preparations 4353
vice 4351
advocate 4350
dry 4350
ever@@ 4349
Tir@@ 4348
expansion 4348
draft 4346
exist 4346
600 4344
stake 4342
van@@ 4341
principle 4339
63 4338
ector 4338
turns 4338
controlled 4337
port@@ 4337
Pol@@ 4336
forgive 4336
sor@@ 4334
achievements 4333
Talking 4332
va 4332
CPI 4331
five-@@ 4331
highway 4330
Tomar 4327
enhanced 4324
co 4323
2018-19 4321
raj 4319
payments 4318
fol@@ 4316
load 4315
ool 4315
plastic 4315
shape 4315
Steve 4314
sentence 4314
inj@@ 4313
missile 4313
day@@ 4312
Del@@ 4311
8-@@ 4308
IO@@ 4308
Pri@@ 4307
Administration 4305
hot 4304
penalty 4304
pp@@ 4304
Scheduled 4301
starts 4299
southern 4297
68 4295
List 4295
approves 4295
emp@@ 4295
feelings 4295
tual 4295
delay 4294
ck@@ 4293
Swachh 4291
Corporate 4289
di 4289
novel 4289
thereof 4288
zing 4288
equity 4287
oom 4287
mention 4286
FI@@ 4285
aji 4285
wake 4284
cer@@ 4283
2016-17 4282
ew@@ 4281
Planning 4280
Haz@@ 4277
SA 4277
Selection 4277
NH@@ 4276
RC 4275
IA@@ 4273
IN 4273
conversation 4272
Tom 4270
ounds 4269
ula 4269
environmental 4266
God@@ 4263
fired 4263
minutes 4262
procedure 4262
alists 4261
expanded 4261
prin@@ 4260
post@@ 4259
meets 4258
wicked 4257
emerging 4255
preaching 4255
relation 4255
medals 4251
Tiger 4250
Gl@@ 4248
Me 4247
dered 4247
izing 4247
Elections 4246
Pharaoh 4246
origin 4246
Mehta 4245
vast 4245
67 4242
Mas@@ 4242
stronger 4242
reservation 4241
Fl@@ 4240
disbelievers 4240
d. 4238
mouth 4238
thanks 4236
transmission 4234
trend 4234
wearing 4232
Can@@ 4229
contributed 4226
hu 4226
web 4225
council 4223
grace 4222
iled 4222
conspiracy 4221
mail 4221
59 4220
Sud@@ 4219
mountains 4218
NIA 4217
bowlers 4217
rat 4216
mighty 4214
destroy 4213
increases 4213
Insurance 4211
Employment 4210
infl@@ 4210
accordance 4209
od 4209
buses 4207
obtained 4207
targeted 4206
2005 4205
58 4205
astray 4204
coalition 4203
maintaining 4203
Nagpur 4202
fundamental 4201
kha 4201
shut 4201
01 4200
Agarwal 4199
Son@@ 4199
generations 4198
smart 4197
starred 4197
Ham@@ 4196
grown 4195
poet 4193
retired 4193
panchayat 4192
Climate 4191
Val@@ 4190
download 4190
Pres@@ 4189
difficulties 4188
enting 4188
ODIs 4187
consumer 4187
qui@@ 4187
gains 4186
UPA 4181
Aaron 4180
des 4180
odi@@ 4180
ography 4180
posi@@ 4180
encouraged 4179
visits 4179
Iraq 4178
floods 4178
NS@@ 4177
if@@ 4177
Go 4175
effectively 4175
inal 4175
loc@@ 4174
processes 4173
IF@@ 4172
sessions 4172
Hussain 4170
elders 4169
imports 4168
losses 4168
restrictions 4167
sev@@ 4164
dre@@ 4163
quit 4162
beauty 4161
lac@@ 4161
ICICI 4160
dly 4160
gram 4160
mishap 4160
66 4159
sixth 4159
Ass@@ 4158
Her@@ 4158
RC@@ 4158
mol@@ 4158
performing 4158
Obama 4157
engagement 4157
termed 4157
tis 4156
clim@@ 4155
MSME 4154
ith 4154
symptoms 4154
AP@@ 4153
Som@@ 4152
owed 4152
Coun@@ 4151
ced 4151
violation 4151
Def@@ 4150
tom@@ 4150
considering 4149
pot@@ 4149
star@@ 4149
watching 4149
-up 4148
Professor 4147
Mayawati 4146
Shukla 4146
Along 4144
eventually 4144
Malaysia 4143
Peace 4143
Smart 4143
ailed 4143
fle@@ 4143
work@@ 4143
humanity 4142
rer 4141
62 4140
ared 4140
methods 4138
wonderful 4138
rid@@ 4137
Swami 4136
had@@ 4135
Lu@@ 4134
glory 4133
proc@@ 4133
* 4129
constitutional 4129
respon@@ 4128
applicable 4123
ries 4122
occur 4121
package 4121
Greek 4120
Lak@@ 4120
Mobile 4120
unbelievers 4120
RRB 4119
immense 4119
Charge 4118
Mir@@ 4117
mandatory 4117
nam@@ 4117
spreading 4116
Gov@@ 4112
ju@@ 4111
folk 4110
itable 4110
Wal@@ 4109
demise 4107
letters 4107
acqu@@ 4105
sou@@ 4105
tar@@ 4104
papers 4102
painful 4100
Med@@ 4099
ased 4099
USD 4098
portion 4097
boo@@ 4096
ible 4096
forgiveness 4093
pressed 4093
NDRF 4090
Small 4089
U.S. 4089
pping 4088
.The 4087
uri 4087
emotional 4084
Democratic 4083
Work 4083
aring 4083
towns 4083
fielded 4081
Rev@@ 4078
Happy 4077
Pandya 4077
discharged 4077
allocation 4076
cop@@ 4075
Aayog 4074
Exchange 4074
Rab@@ 4074
zed 4074
funding 4073
batt@@ 4071
jo@@ 4069
hab@@ 4068
Ren@@ 4066
agar 4066
has@@ 4066
53 4065
ects 4064
fying 4063
emic 4060
extension 4060
pension 4060
affordable 4059
timely 4059
borders 4057
totally 4057
UN@@ 4056
ote 4056
Memorial 4055
M. 4054
ees 4054
Center 4053
Ru@@ 4053
Sahib 4051
actual 4051
HDFC 4050
absolutely 4050
Pun@@ 4049
A. 4048
inclusive 4047
batsmen 4044
an-@@ 4043
carbon 4043
anywhere 4040
iding 4040
Subsequently 4039
ces 4039
continuing 4039
passes 4039
Hardik 4037
chemical 4036
characters 4035
fill 4035
10,000 4034
Thursday 4033
master 4033
birds 4032
Black 4031
solve 4030
duc@@ 4029
Tuesday 4028
s.@@ 4028
C. 4027
Dr@@ 4027
Ds 4026
preet 4026
57 4025
hs 4025
Local 4024
Mitchell 4022
explain 4022
articles 4021
coastal 4021
sensor 4021
Bhutan 4020
yed 4020
Ur@@ 4017
dealing 4017
coverage 4016
io 4016
pleased 4016
aling 4015
associate 4015
BI 4011
Tel@@ 4011
enemies 4011
Saturday 4010
households 4010
keeps 4010
rapid 4010
extra 4007
prot@@ 4007
Forum 4006
Second 4006
AYUSH 4005
accidents 4005
ky 4005
ref@@ 4005
Any 4003
Jadhav 4003
discipline 4003
Were 4002
integral 4001
Use 4000
ears 4000
Irani 3999
Name 3999
nation@@ 3999
ion@@ 3998
violent 3998
ik 3997
Ashwin 3996
Vajpayee 3996
ther@@ 3996
Love 3995
ound@@ 3995
.0@@ 3992
Khanna 3992
divine 3992
Coronavirus 3989
sum 3989
BSF 3988
mil@@ 3987
gg@@ 3986
domin@@ 3985
appearance 3980
servant 3980
NITI 3979
harassment 3979
isolated 3979
pic@@ 3979
Nick 3977
disp@@ 3977
dropped 3977
ading 3976
farming 3976
nobody 3975
consultation 3974
counter 3971
attached 3969
tickets 3969
77 3968
Agra 3968
zz@@ 3968
worst 3967
dest@@ 3966
hum@@ 3966
obey 3966
Bhag@@ 3965
roll 3965
Index 3961
command@@ 3960
05 3958
Judge 3958
Rights 3958
91 3957
Paris 3957
Warner 3957
manager 3957
Guru 3955
Through 3955
captured 3955
defined 3955
UT 3954
fre@@ 3954
mortem 3954
rank 3954
Jonas 3953
returning 3953
Nation 3951
SS 3951
Sil@@ 3951
settled 3951
supporters 3951
Michael 3950
drop 3949
inda 3949
teen 3949
RT@@ 3948
remote 3948
Na@@ 3947
asserted 3947
businesses 3947
wheat 3947
graduate 3945
recruitment 3945
sheet 3945
understood 3945
IG@@ 3943
Panchayat 3943
hara 3943
resource 3942
Coll@@ 3941
researchers 3941
alia 3940
ax@@ 3940
equ@@ 3940
otherwise 3940
Bumrah 3939
dro@@ 3938
Taliban 3936
pure 3935
Mer@@ 3933
PC@@ 3933
achieving 3933
chil@@ 3933
formal 3933
prior 3933
Managing 3932
Sing@@ 3932
blessed 3932
breaking 3932
equality 3932
dh@@ 3931
wala 3931
83 3929
essing 3928
SH@@ 3927
Does 3926
invest 3926
institute 3925
anga 3924
initially 3924
Sheikh 3921
newspaper 3920
Leader 3919
covenant 3918
nab 3918
park 3918
shoot 3918
absence 3917
angry 3917
fun 3917
paying 3917
previously 3916
coun@@ 3913
Annual 3912
Check 3911
low@@ 3909
posed 3908
cel@@ 3906
nar@@ 3905
subjects 3905
missions 3904
four-@@ 3903
newly 3903
Border 3902
bha@@ 3902
alternative 3900
Ser@@ 3899
Vol@@ 3898
inspiration 3898
ink@@ 3897
SIT 3896
anna 3895
Rs@@ 3894
coaches 3893
righteousness 3893
satisfaction 3892
statue 3891
post-@@ 3890
struc@@ 3889
driven 3888
Gen@@ 3886
radi@@ 3886
foot@@ 3885
flag 3884
asks 3883
Star 3882
coast 3881
images 3879
7,@@ 3877
Under@@ 3877
aspect 3877
Subhash 3876
transportation 3876
Suzuki 3874
conferred 3874
cred@@ 3874
revised 3874
Lo 3873
XI 3873
bal 3872
venture 3872
Credit 3871
MW 3870
abe@@ 3870
falling 3870
-led 3869
closer 3869
satellite 3868
Step 3867
commanded 3867
Mother 3866
ashes 3866
them. 3866
locals 3865
struck 3865
78 3864
ON 3864
BRICS 3863
Gre@@ 3863
destruction 3863
lic@@ 3862
short@@ 3861
800 3860
ome 3860
aver@@ 3857
coordination 3856
Production 3854
AP 3852
bes 3852
fan 3851
pal@@ 3851
sum@@ 3851
Jai 3850
attending 3849
grounds 3849
SP@@ 3848
significantly 3846
Ahmad 3844
IANS 3844
Personnel 3844
labourers 3844
programs 3844
brain 3841
Cr@@ 3839
TC 3838
Free 3837
74 3834
lab@@ 3834
foot 3832
Sy@@ 3831
wear 3830
wished 3830
Safety 3829
ified 3829
Lok@@ 3828
smaller 3828
Innovation 3827
Prevention 3826
nominated 3826
sport 3826
arm 3823
glad 3823
losing 3823
significance 3823
Jan 3821
Shak@@ 3821
links 3821
yes 3821
71 3820
Fo@@ 3820
nath 3820
Shami 3819
alities 3819
AM 3818
dar 3818
RI 3817
ro 3817
sli@@ 3817
ith@@ 3816
overseas 3815
suspected 3815
Cre@@ 3814
pun@@ 3813
bing 3812
footage 3812
Wednesday 3811
bike 3810
questioning 3810
ton@@ 3808
Trophy 3807
Whether 3807
Britain 3806
break@@ 3805
Sensex 3804
hosted 3801
responded 3801
stayed 3800
auction 3799
generate 3799
Card 3798
ger 3798
cycl@@ 3797
hir 3797
itor 3795
limits 3795
81 3794
All@@ 3794
dia 3794
excited 3793
suitable 3793
verses 3793
replaced 3792
anth 3791
burning 3791
joining 3791
square 3790
Fa@@ 3789
Fin@@ 3789
factory 3789
wave 3787
ancy 3786
sle@@ 3786
worse 3786
raw 3784
www.@@ 3783
combat 3781
eth@@ 3781
featured 3781
gam@@ 3781
Kannada 3780
blue 3776
entrepreneurs 3776
piece 3776
cal 3775
rapidly 3773
sending 3771
uting 3771
Ive 3770
promo@@ 3770
dreams 3768
eration 3768
Kat@@ 3767
suit 3767
BC 3766
mer 3766
Ravindra 3764
emphasized 3764
assist 3763
generated 3761
Ja@@ 3760
hil 3760
inflation 3759
ander 3758
expand 3758
irrigation 3758
Inspector 3757
Sonakshi 3756
consecutive 3756
electoral 3756
4th 3754
Pi@@ 3754
enjoyed 3754
GS@@ 3753
rest@@ 3751
Dubai 3750
Shraddha 3750
tea 3750
61 3749
merely 3749
represent 3749
Vadra 3748
Departments 3747
Agricultural 3746
inn@@ 3746
rs 3746
transparency 3745
fraud 3743
sees 3743
SS@@ 3742
Turkey 3742
worried 3742
App@@ 3739
med@@ 3737
reform 3736
sanitation 3736
argument 3735
ase 3735
consists 3735
recognition 3735
1,000 3734
phases 3734
rooms 3733
Technical 3732
challenged 3732
84 3731
Ranaut 3731
Secretariat 3730
enhancing 3730
eating 3729
solid 3729
taste 3729
Str@@ 3726
dignitaries 3726
crew 3724
My@@ 3723
Vidy@@ 3723
womens 3723
heed 3722
continuous 3721
LED 3720
Shiva 3719
aked 3718
conveyed 3718
assigned 3717
Baba 3715
cattle 3715
aves 3714
kh@@ 3714
Dan@@ 3713
Nat@@ 3713
mand@@ 3713
Malhotra 3712
New@@ 3712
Fac@@ 3711
5,000 3709
E-@@ 3709
conv@@ 3709
pose 3709
ight@@ 3708
store 3708
Marathi 3707
journalists 3706
37@@ 3705
Broadcasting 3705
Out@@ 3705
Bre@@ 3704
Gh@@ 3703
worry 3703
fications 3702
studied 3702
CBSE 3700
y. 3700
composed 3699
elder 3698
ord@@ 3698
porter 3698
judgement 3697
careful 3695
73 3694
center 3694
row@@ 3692
Ben 3691
ades 3691
bil@@ 3691
select 3691
wid@@ 3690
Wor@@ 3687
arian 3687
inner 3686
pa 3686
primarily 3686
Sir@@ 3684
minds 3684
ave 3682
inter-@@ 3682
Dav@@ 3681
Mus@@ 3681
oor 3681
Working 3680
stages 3680
camps 3679
minus 3676
SC@@ 3675
ills 3675
valley 3675
Pratap 3674
Sunny 3674
marry 3674
Gram 3673
Brah@@ 3672
Psalm 3672
K.@@ 3671
municipal 3671
patri@@ 3669
sacred 3669
forming 3668
hard@@ 3668
Spain 3667
Tribal 3666
color 3666
veteran 3665
oh@@ 3664
Gopal 3663
Urdu 3663
Ambassador 3662
appearing 3662
with@@ 3662
Championship 3661
couldnt 3660
investigate 3660
san@@ 3659
answers 3657
AC 3655
mixed 3655
Jio 3654
dam@@ 3654
Number 3652
athy 3652
Mul@@ 3651
continuously 3651
indigenous 3651
enn@@ 3650
fitness 3650
powder 3650
Chin@@ 3649
Naik 3649
enders 3649
eded 3648
hits 3647
decline 3646
ligh@@ 3646
Organization 3645
Cap@@ 3644
behaviour 3644
displayed 3644
ek 3644
88 3638
Gen 3638
Ha@@ 3638
Reg@@ 3638
gained 3638
Rav@@ 3637
Enterprises 3636
weak@@ 3635
arrangement 3634
pul@@ 3633
31st 3632
Ocean 3632
AM@@ 3631
Hol@@ 3630
Rag@@ 3630
pers 3630
Hy@@ 3628
ups 3628
Petrol 3626
proposals 3625
Hall 3622
esses 3622
tributes 3622
Vinod 3621
relationships 3621
upper 3621
.. 3619
Intelligence 3619
SMS 3619
childhood 3619
properly 3619
squ@@ 3619
praised 3618
cam@@ 3617
personally 3617
97 3616
Secretaries 3615
Set@@ 3615
overcome 3615
worker 3615
ure@@ 3614
Es@@ 3613
turning 3613
Him@@ 3612
1000 3610
waters 3609
map 3608
82 3606
pers@@ 3606
Gogoi 3605
contributions 3605
76 3602
Vijay@@ 3602
attempts 3602
mus@@ 3601
united 3601
lal 3600
Punjabi 3597
consequences 3597
Electronics 3596
Padma 3596
believing 3596
ital 3596
activists 3595
Dharmendra 3593
Hereafter 3593
Pal 3593
allowing 3593
Basket 3592
23@@ 3591
8,@@ 3590
Hell 3590
Hooda 3589
Dem@@ 3587
Raksha 3587
bagged 3587
objectives 3587
9,@@ 3586
hydro@@ 3585
motion 3585
commit 3583
Guwahati 3582
Jadeja 3582
ys@@ 3582
Higher 3581
Companies 3580
Sir 3580
gender 3579
KL 3578
ji@@ 3578
pages 3578
root 3578
spending 3578
Cent@@ 3577
Mr.@@ 3577
Comm@@ 3575
bigger 3573
greatly 3573
Roshan 3569
86 3567
92 3567
marked 3565
Covid 3564
S-@@ 3564
Taking 3564
pattern 3564
tures 3563
Islamabad 3562
Var@@ 3562
thir@@ 3561
bowl 3560
treat 3560
crash 3559
ands 3558
infected 3558
Amritsar 3557
arti@@ 3557
traditions 3557
firms 3556
appreciation 3554
object 3554
representing 3554
represents 3553
apping 3551
personality 3551
ition 3548
neighbours 3547
Rani 3546
Venkaiah 3546
entering 3546
op 3546
YouTube 3545
diversity 3545
permitted 3545
98 3544
managing 3544
pilgrims 3544
desires 3543
ascertained 3542
Shipping 3541
Solar 3540
Paswan 3538
regulations 3538
modern@@ 3534
grew 3533
reflect 3532
Congress-@@ 3531
Lakh 3531
preparing 3528
ateral 3527
scal@@ 3526
Saf@@ 3525
adap@@ 3525
occup@@ 3524
Bu@@ 3523
ws 3523
Air@@ 3522
69 3521
uel 3520
observ@@ 3519
Wise 3518
launches 3518
Northern 3517
ashi@@ 3516
ration 3516
termin@@ 3516
components 3514
studying 3514
= 3513
NG@@ 3513
Truth 3513
ania 3513
aut@@ 3513
politician 3512
Chand 3511
latter 3511
porting 3511
Enter 3510
Add 3509
duction 3508
ving 3508
Revenue 3507
equipped 3506
cent@@ 3504
combined 3504
Hor@@ 3503
migrant 3503
taxes 3503
clothes 3501
protesting 3501
encouraging 3500
Cell 3499
Naz@@ 3499
125 3498
50,000 3498
addresses 3498
Aam 3496
ric 3496
touched 3496
comfort 3495
filmmaker 3495
Land 3494
Whats 3493
Woman 3492
predic@@ 3492
streets 3492
Consul@@ 3491
WHO 3491
ar-@@ 3491
ify 3490
oph@@ 3490
ensured 3489
itting 3488
-year-old 3487
cycle 3487
band@@ 3486
bronze 3485
diplom@@ 3485
liber@@ 3485
Thailand 3484
fies 3484
two-day 3484
bit@@ 3483
Chha@@ 3482
Institutions 3482
preparation 3482
railways 3481
him@@ 3480
trad@@ 3480
factor 3479
oo 3479
Paradise 3478
arrival 3477
trip 3477
onic 3476
aside 3475
equivalent 3475
Six 3474
tory 3474
uck@@ 3473
diverse 3471
Islam@@ 3468
Kim 3468
exactly 3467
masks 3467
reiterated 3467
succeed 3467
mothers 3465
retail 3465
diet 3463
empowerment 3463
lots 3462
targets 3461
ye@@ 3460
Ir@@ 3459
Islands 3459
Series 3457
cy@@ 3457
Pawan 3456
dark 3455
Lahore 3454
mit@@ 3454
mul@@ 3454
09 3453
Integrated 3452
Museum 3451
finding 3451
ken 3451
involvement 3450
quick 3449
raped 3449
anybody 3448
wan@@ 3448
Pak 3446
ink 3446
surprised 3446
likes 3444
poll@@ 3444
15th 3443
CR@@ 3443
strengthened 3443
sting 3442
80@@ 3440
Scriptures 3440
Note 3438
Rana 3438
volume 3438
George 3437
Guard 3437
exhibition 3437
seeds 3437
congratulate 3435
monthly 3435
prophet 3434
shoo@@ 3434
Badal 3433
hate 3433
tools 3433
solved 3432
96 3431
Rajendra 3431
customer 3431
mountain 3431
church 3430
nomination 3429
IB@@ 3428
FDI 3427
email 3427
refers 3426
Narayan 3425
portr@@ 3425
outcome 3424
tor-@@ 3424
Shroff 3423
Dal@@ 3422
94 3420
Had 3420
hidden 3420
ag 3419
Da@@ 3414
LRB 3414
alisation 3413
stranded 3413
jun@@ 3412
rescued 3412
Memorandum 3411
Anurag 3410
Loc@@ 3409
inaugurate 3409
Jas@@ 3408
Xi 3408
monsoon 3408
Tam@@ 3406
esti@@ 3406
iah 3406
Er@@ 3404
symbol 3404
Look 3403
magazine 3403
philosophy 3402
renewable 3402
gh 3401
P.@@ 3399
clin@@ 3399
metres 3399
Korean 3398
Promotion 3398
yl@@ 3398
telling 3396
NEW 3395
secured 3395
feed 3394
ored 3394
Syria 3393
mistake 3393
ura 3393
Akbar 3392
Gil@@ 3392
ump@@ 3392
aded 3391
exams 3391
hus@@ 3389
reveal 3388
UAE 3387
globally 3386
Ref@@ 3384
Shakti 3384
actively 3384
island 3384
shortly 3384
Maldives 3382
i. 3381
ren 3381
08 3379
87 3379
pm 3379
cr 3378
ef 3378
mur@@ 3377
percentage 3377
trials 3377
Prabhu 3376
Tw@@ 3375
abuse 3374
CD 3373
T-@@ 3373
oms 3372
yoga 3369
segment 3368
aps 3367
athan 3367
det@@ 3367
stream 3367
ix@@ 3365
practical 3364
religions 3364
revol@@ 3364
tel@@ 3364
Bose 3363
Nothing 3363
bon@@ 3363
crimes 3363
120 3362
Joe 3362
andi@@ 3362
revelations 3361
Apple 3360
lers 3360
Thou 3359
club 3359
coll@@ 3358
engage 3358
ole 3358
Justices 3357
Has@@ 3356
keen 3356
simpl@@ 3356
earthquake 3355
reaction 3355
DRDO 3354
secondary 3354
Empowerment 3353
Qureshi 3353
aka 3353
dar@@ 3352
Territories 3350
LO@@ 3349
Video 3349
whenever 3349
chapter 3348
earliest 3348
Sushil 3347
crossed 3347
emphasis 3347
ining 3347
summer 3347
IL@@ 3346
machines 3346
modi@@ 3346
Data 3345
astr@@ 3344
intended 3342
Ang@@ 3341
Resurrection 3341
bir 3341
protected 3341
retirement 3340
Ret@@ 3338
assu@@ 3338
oured 3338
Airtel 3337
elec@@ 3337
easier 3335
faster 3334
iring 3334
professor 3333
street 3333
Instead 3332
Mac@@ 3332
RD 3332
temporary 3332
asa 3331
cou@@ 3331
atha 3329
situations 3329
background 3328
ved 3328
pair 3327
transformation 3327
Bihari 3326
Kashmiri 3326
biopic 3324
capabilities 3324
direc@@ 3323
poster 3323
tenure 3323
AS 3320
Janhvi 3320
reaches 3320
Vs 3319
ait 3318
intention 3318
Session 3317
spir@@ 3317
strikes 3317
Fort 3316
acle 3316
exists 3316
B.@@ 3314
cricketers 3314
entitled 3314
organic 3314
frame 3313
illing 3313
battery 3312
Af@@ 3311
conclusion 3311
tri 3311
detail 3310
unidentified 3310
vic@@ 3310
Convention 3309
Courts 3309
doors 3308
conscious 3307
Bang@@ 3306
Ghosh 3306
Rishi 3306
wast@@ 3306
pretty 3305
T20I 3304
connections 3304
89 3303
Bay 3303
operate 3303
combination 3302
miles 3302
satisfied 3302
Non-@@ 3301
furn@@ 3301
bud@@ 3300
eling 3300
grand@@ 3299
Aadmi 3298
Star@@ 3298
Coast 3297
professionals 3297
specially 3297
PV 3296
etc. 3296
stic 3296
hence 3295
valid 3294
Whatever 3293
screening 3293
neighbouring 3292
Mic@@ 3291
amazing 3291
blind 3291
supports 3291
venue 3291
App 3290
acquisition 3290
transparent 3290
ishes 3288
monitor 3288
partys 3288
airports 3286
den 3286
plo@@ 3286
visitors 3286
Network 3285
Rama 3284
de-@@ 3284
nur@@ 3284
winter 3284
EU 3283
cleanliness 3283
Q 3282
Sid@@ 3282
responsibilities 3281
shelter 3281
Bhawan 3280
TO 3280
2,000 3279
supplies 3279
Mufti 3278
fly 3278
aur 3277
parliament 3277
radio 3277
Kabir 3276
hike 3276
7th 3275
IP 3275
Jodhpur 3274
developments 3273
ost 3273
Could 3272
Jaishankar 3272
Smriti 3272
2001 3271
Application 3271
entirely 3271
universal 3271
ame@@ 3269
salt 3268
07 3267
Arabic 3267
speaks 3267
ML@@ 3266
acid 3266
ney 3266
ID@@ 3265
Jun@@ 3265
Rashid 3265
Bag@@ 3262
ete 3262
count 3261
ense 3261
pet 3261
Gal@@ 3260
Gan@@ 3260
resulting 3260
tured 3260
BS 3257
kh 3257
ually 3256
Pen@@ 3255
Cur@@ 3254
Hum@@ 3254
Aishwarya 3251
apostles 3250
panic 3250
silent 3250
sick 3249
walking 3249
20th 3248
ema 3248
gap 3248
presentation 3248
Thank 3247
Tor@@ 3247
flo@@ 3247
signing 3247
tremendous 3247
AR 3245
lights 3245
Nirav 3244
Puducherry 3244
institutes 3243
12th 3242
chose 3242
holders 3242
diplomatic 3241
maritime 3241
observe 3241
bearing 3240
posing 3240
Bat@@ 3239
expenses 3239
Parrikar 3238
Organ@@ 3237
gratitude 3237
occasions 3237
productivity 3237
blame 3236
olog@@ 3236
scenario 3236
sing@@ 3236
Vietnam 3235
enabled 3235
ras 3235
circuit 3233
quantity 3233
allocated 3232
High@@ 3231
shortage 3230
entr@@ 3229
ode 3229
ouse 3229
subsidy 3229
vac@@ 3229
metal 3227
700 3226
Noah 3226
PL@@ 3226
borrow@@ 3226
height 3225
jawans 3224
Afghan 3222
R. 3222
cli@@ 3222
exit 3221
precious 3221
UR@@ 3220
conver@@ 3219
hockey 3218
2004 3217
eous 3217
manifest 3217
minority 3216
ideal 3215
Jal@@ 3214
dedication 3214
hide 3214
tax@@ 3214
urge 3213
Por@@ 3212
ene 3211
slow 3211
Saty@@ 3210
add@@ 3210
traders 3210
winner 3209
AN 3207
Cro@@ 3206
93 3205
Amazon 3204
legislation 3204
ention 3201
III 3200
output 3200
patience 3200
cep@@ 3199
ension 3199
sid@@ 3198
Presidents 3197
replace 3197
wel@@ 3197
workshop 3197
Cal@@ 3196
telecom 3196
Officials 3195
threats 3195
poses 3194
NR@@ 3193
reasonable 3193
scope 3193
2002 3192
Goddess 3192
HRD 3192
DG 3190
Young 3190
Hindustan 3187
backed 3187
voted 3187
Cir@@ 3185
Doc@@ 3185
bol@@ 3185
criticism 3184
agreements 3183
mel@@ 3183
TDP 3182
charging 3182
ells 3182
exact 3182
spinner 3182
theory 3182
bin 3181
cy 3180
Penal 3179
unfortunate 3179
Prov@@ 3178
Ansari 3177
Sources 3176
berg 3176
communal 3176
nutri@@ 3176
Jason 3175
extensive 3175
burnt 3174
she@@ 3174
Abbas 3171
ept 3170
representative 3170
Nas@@ 3168
celebrities 3168
ici@@ 3167
invitation 3167
blocks 3166
qualities 3166
appa 3165
AB@@ 3164
starrer 3164
zero 3164
Alliance 3163
Celsius 3163
ava 3163
founded 3163
rid 3163
79 3161
gar 3160
icians 3160
machinery 3160
ood@@ 3160
opener 3160
pieces 3160
requ@@ 3160
colleagues 3157
7-@@ 3156
fiscal 3156
riv@@ 3156
suggest 3156
autom@@ 3155
21st 3154
puts 3153
Political 3152
tool 3151
DELHI 3150
indicated 3150
outbreak 3150
decade 3149
dist@@ 3149
Produc@@ 3148
routes 3148
Arab 3147
fri@@ 3147
handling 3147
mere 3147
shift 3147
Bir@@ 3146
DM@@ 3145
Madras 3145
insul@@ 3145
Hrithik 3144
scr@@ 3144
containing 3143
fat 3143
ison 3143
Shikhar 3142
inputs 3142
Khans 3141
Mahar@@ 3141
mits 3141
hai 3137
Solomon 3136
identi@@ 3135
manage 3134
expectations 3133
fail 3133
mm 3133
ough 3133
pregnant 3133
2019-20 3132
Moh@@ 3132
PMO 3132
to-@@ 3132
covers 3131
hopes 3130
ope 3129
saving 3129
Understanding 3128
du 3127
rol@@ 3127
performances 3126
Chit@@ 3125
component 3124
flu@@ 3123
ress 3123
rumours 3123
Motors 3122
admission 3122
inary 3122
contrac@@ 3121
distur@@ 3121
dear 3120
occupied 3120
mosque 3119
popul@@ 3119
employee 3118
escal@@ 3118
essed 3118
fashion 3117
06 3116
MB@@ 3116
declare 3116
by@@ 3115
dual 3115
kindness 3115
vacant 3115
April-@@ 3114
LPG 3113
poetry 3113
lim@@ 3112
Motor 3111
PRESIDENT 3111
Ranchi 3110
mad@@ 3110
stor@@ 3110
Nis@@ 3109
contained 3108
Off@@ 3107
facil@@ 3107
uter@@ 3107
way@@ 3107
kil@@ 3106
Fr@@ 3105
civilian 3105
firmly 3105
ima 3105
cod@@ 3104
peak 3104
wil@@ 3104
anointed 3102
encies 3101
fat@@ 3101
membership 3101
apped 3100
HE@@ 3099
controversial 3099
garden 3099
hosts 3099
enter@@ 3098
asts 3097
Country 3096
adopt 3095
difficulty 3095
prize 3095
yas 3095
ING 3094
ga 3094
Light 3093
well-@@ 3093
inaugural 3092
dignity 3091
realize 3090
bond 3089
dust 3089
eries 3089
ides 3089
aren@@ 3088
mas@@ 3088
minorities 3088
worshipped 3088
ero@@ 3087
virtual 3087
Bet@@ 3086
moves 3085
visa 3084
examined 3083
CC 3082
Hong 3082
plot 3082
treas@@ 3082
Hand@@ 3081
leg 3081
celebration 3080
rare 3080
shock 3079
Wil@@ 3078
box@@ 3078
branches 3078
discovered 3078
techn@@ 3078
sheep 3077
state-@@ 3077
Pra@@ 3076
blamed 3075
Governance 3074
Sch@@ 3074
qualification 3074
rers 3074
Grand 3073
transgres@@ 3073
reject 3072
flesh 3071
metro 3071
Money 3070
adv@@ 3069
architecture 3069
wounded 3069
Big 3066
Building 3066
Customs 3066
ili@@ 3066
Durga 3065
History 3065
alling 3065
auto 3065
closure 3064
Iranian 3063
OD@@ 3063
afflic@@ 3063
ca@@ 3063
cry 3063
D. 3062
Raut 3062
darkness 3061
in-charge 3061
.in 3060
Online 3060
Others 3060
convicted 3060
stu@@ 3060
symp@@ 3060
Middle 3058
operated 3058
ranked 3058
tons 3058
Ibrahim 3057
Vo@@ 3057
privilege 3057
Kath@@ 3056
designated 3056
grain 3056
lifted 3056
I-@@ 3055
Sourav 3055
eminent 3053
hell 3053
depends 3052
directors 3050
legislative 3049
server 3048
depth 3047
SSP 3045
criticised 3045
culprits 3045
Examination 3044
fir@@ 3044
suspect 3042
fallen 3041
ona 3040
pertaining 3040
Level 3039
introduction 3039
Street 3038
acquired 3038
appreciate 3038
examine 3038
possess 3038
Owaisi 3037
Prince 3037
dress 3037
Teh@@ 3036
ce@@ 3036
hill 3036
largely 3036
van 3036
Mod@@ 3035
maker 3035
claiming 3034
eem 3034
gardens 3034
vari@@ 3034
Calcutta 3032
duo 3032
you. 3032
01.@@ 3031
equally 3031
ician 3031
superstar 3031
mobil@@ 3030
cargo 3027
ulate 3027
wani 3027
entertainment 3026
AT 3025
anning 3025
AD@@ 3023
Pant 3023
Trinamool 3023
aking 3023
distress 3023
undertake 3023
locked 3021
Various 3020
serv@@ 3020
smooth 3020
strive 3020
ib 3019
voc@@ 3019
Tripathi 3018
itated 3018
explore 3017
legislators 3017
rankings 3017
inch 3016
liquor 3016
sovereignty 3014
lake 3013
MSP 3012
yp@@ 3012
Kum@@ 3011
creative 3011
discrimination 3011
script 3010
amendment 3009
Left 3008
drivers 3008
salary 3008
buil@@ 3007
inated 3004
ign@@ 3003
Ber@@ 3002
var@@ 3001
2021 3000
angle 3000
pon@@ 3000
Forgiving 2997
Upon 2997
quarter@@ 2997
ock@@ 2996
play@@ 2996
appe@@ 2995
unjust 2995
ility 2994
HD 2993
part@@ 2993
ble@@ 2992
nationals 2992
produces 2992
suddenly 2992
cle 2991
PA 2990
bomb 2990
Bs 2989
MoS 2989
P-@@ 2988
domain 2987
festivals 2987
Gi@@ 2986
impossible 2986
lap@@ 2986
Super@@ 2985
aches 2985
surveillance 2985
Command@@ 2984
dit 2984
ranks 2984
Rel@@ 2982
Malayalam 2980
Deol 2979
02 2978
Jal 2978
Would 2978
Kir@@ 2977
manual 2977
tra@@ 2977
Muk@@ 2976
vig@@ 2975
Oper@@ 2974
compliance 2972
lif@@ 2971
ples 2971
Ah@@ 2970
Master 2970
breaks 2969
gs 2969
pan 2969
valuable 2969
-megapixel 2967
click 2967
rog@@ 2967
Meteorological 2966
bhai 2966
scrip@@ 2966
scholars 2964
Azam 2963
Khattar 2963
Andaman 2962
hub 2962
collective 2961
Al-@@ 2960
Kartik 2960
MSMEs 2960
Projects 2960
astic 2960
everybody 2960
Blue 2959
meas@@ 2959
sharp 2959
undertaking 2959
PP@@ 2958
asser@@ 2957
asset 2957
registering 2957
expert 2955
motorcycle 2955
offence 2955
Mexico 2954
convey 2953
aspirations 2951
carefully 2950
deposit 2950
gradually 2950
raft 2950
Military 2949
employed 2949
na@@ 2948
nutrition 2948
recalled 2948
grains 2947
structures 2947
Cham@@ 2946
LD 2946
cope 2946
ied 2946
shop 2946
lawyers 2944
receipt 2944
colours 2943
ght@@ 2943
withdraw 2943
Job 2941
Radha 2941
sentiments 2941
Mehbooba 2938
everywhere 2938
Sik@@ 2937
aspir@@ 2937
compar@@ 2936
ing-@@ 2936
DGP 2935
Navjot 2935
ert 2935
Market 2934
PR@@ 2934
broad 2934
retali@@ 2931
rock 2931
artists 2930
aman 2929
pel@@ 2929
Nik@@ 2928
0,000 2927
cri@@ 2926
needy 2926
ud 2926
Being 2925
Main@@ 2925
lest 2925
pursue 2925
riya 2925
Honda 2924
laundering 2924
PG 2923
vir@@ 2923
drawing 2922
Gorakhpur 2921
ganj 2921
motor 2921
Without 2920
ing. 2920
Ank@@ 2918
tract 2918
Know 2917
alcohol 2917
counterpart 2917
tious 2917
FT@@ 2915
BE@@ 2914
130 2913
Avoid 2913
Jewish 2913
Syed 2912
profile 2912
2003 2911
wherever 2911
Pul@@ 2910
Roman 2910
Auto 2909
devotion 2908
Support 2907
agitation 2907
amended 2907
BJP-@@ 2906
owns 2906
Jasprit 2905
lesson 2905
tment 2905
Sit@@ 2904
involves 2904
remembered 2904
Acc@@ 2903
bun@@ 2903
clu@@ 2903
ordinary 2903
Jain 2901
Radio 2901
oot 2901
plying 2901
ze@@ 2901
9th 2899
Educational 2899
Stokes 2899
comfortable 2899
oda 2899
capability 2898
loves 2898
.... 2897
Robert 2897
dra 2897
hik@@ 2897
procedures 2896
Kun@@ 2895
arrives 2895
grade 2895
instructed 2895
Deshmukh 2894
Kong 2894
dismis@@ 2894
Samaj 2893
Sav@@ 2893
Peoples 2892
entity 2892
integration 2892
Chahal 2891
clashes 2891
sudden 2891
Kane 2889
authenti@@ 2889
chances 2889
inform 2889
TB 2888
edge 2888
shan 2888
wage 2888
seemed 2887
Knowing 2886
alli@@ 2886
top@@ 2886
Queen 2884
greeted 2884
clos@@ 2883
financing 2883
Bhagat 2880
Doctors 2880
allies 2880
souls 2880
-19 2879
attract 2879
mak@@ 2879
slave 2879
Asi@@ 2878
lev@@ 2878
survived 2878
arrive 2877
long-term 2877
ghts 2876
bi 2875
stan 2875
Martin 2874
ori@@ 2873
ply 2873
Gol@@ 2872
brief 2872
quest 2872
2015-16 2871
Church 2871
Partnership 2870
guests 2870
PF@@ 2869
expensive 2869
IPS 2868
athletes 2868
Bud@@ 2867
Holy 2867
Ven@@ 2867
owners 2867
roots 2867
Daniel 2866
Lets 2866
heavenly 2866
transaction 2866
impl@@ 2865
realise 2865
urgent 2865
aon 2864
log@@ 2864
corner 2863
lov@@ 2863
meat 2863
onto 2863
fees 2861
tin@@ 2861
ua 2861
Vas@@ 2860
kin 2860
surprise 2859
Pension 2858
nan 2858
repeatedly 2858
Alok 2857
ES@@ 2854
collision 2854
Ku@@ 2853
tensions 2853
contested 2852
flying 2852
10th 2851
MD 2851
Top 2851
deep@@ 2851
Thomas 2850
diabetes 2850
faculty 2850
intervention 2850
Crime 2849
Pu@@ 2848
Pay 2847
lighting 2847
Messengers 2846
corridor 2846
Surat 2845
Case 2844
Order 2844
Lt 2843
Stock 2843
abilities 2843
AD 2841
Beg@@ 2841
Nep@@ 2841
Phil@@ 2841
sanc@@ 2841
abor@@ 2840
determination 2840
iling 2839
protein 2839
shocked 2839
-to-@@ 2838
Pandit 2838
happ@@ 2838
jeet 2838
institutional 2837
sends 2837
None 2836
Om 2836
honor 2835
Ri@@ 2834
Saina 2834
consul@@ 2834
ratio 2834
SAW 2833
Village 2833
calendar 2833
enquiry 2833
anth@@ 2832
atively 2832
Rak@@ 2831
automatic 2831
imagine 2830
tweets 2830
DP@@ 2829
PDP 2829
pain@@ 2829
Mallya 2828
Stat@@ 2828
Territory 2828
inclusion 2827
interim 2827
assistant 2826
livelihood 2826
regarded 2826
Spanish 2825
politicians 2825
sake 2825
lah 2824
slammed 2824
update 2824
dog 2823
fighters 2823
-e-@@ 2822
Nand@@ 2822
ranking 2822
cow 2821
Babu 2820
Distribution 2820
aving 2820
acres 2819
ecosystem 2819
fastest 2818
unprecedented 2818
disclosed 2817
variant 2817
Acts 2816
cup 2816
regulatory 2816
viewed 2816
examinations 2815
hatred 2815
oting 2815
gen 2814
publication 2814
releases 2814
soft 2814
train@@ 2814
Khar@@ 2813
innocent 2813
premium 2812
nic@@ 2811
oes 2811
remarkable 2811
wari 2811
Band@@ 2810
Teachers 2810
resign 2810
Universities 2808
afternoon 2808
Area 2807
gam 2807
shed 2807
Rang@@ 2806
plain 2806
quar@@ 2805
sy@@ 2805
Manager 2804
Rom@@ 2804
Ka@@ 2802
Nabi 2801
staying 2801
soldier 2800
officially 2799
recognize 2797
Commonwealth 2796
Sometimes 2796
obtain 2796
ster@@ 2796
6th 2795
Rather 2795
grav@@ 2795
mandate 2795
fun@@ 2794
illness 2794
extreme 2791
poly@@ 2791
scared 2789
bag 2788
Rep@@ 2787
Unit 2787
Direct 2786
blocked 2786
emo@@ 2786
eter@@ 2786
momentum 2786
Music 2785
glass 2785
Brahm@@ 2784
Remember 2784
Shashi 2783
affair 2783
invite 2783
probing 2783
technological 2783
tongue 2783
commun@@ 2782
Johnson 2781
Tharoor 2781
bright 2781
zones 2781
Fre@@ 2780
Royals 2780
vel@@ 2780
Ganesh 2779
Hasan 2779
supreme 2779
Shimla 2778
Citizens 2777
DMK 2776
Kol@@ 2776
lowest 2776
enterprises 2775
petitions 2775
sung 2775
bills 2774
borne 2774
divide 2774
hoped 2774
intim@@ 2773
road@@ 2773
0s 2771
prestigious 2771
behold 2770
fron@@ 2770
Hus@@ 2769
Never 2769
vulnerable 2769
lik@@ 2768
Community 2767
Everything 2767
aint 2767
favourite 2765
toilets 2765
Baj@@ 2764
Os@@ 2764
Sridevi 2764
Israelites 2763
athi 2763
chastisement 2763
deemed 2763
dition 2763
PNB 2762
commissioner 2762
bought 2761
delayed 2761
blessing 2759
ly-@@ 2759
MA 2758
Relations 2757
ishment 2757
rain@@ 2757
04 2756
Pro 2756
torque 2756
Kartarpur 2755
Vik@@ 2755
dependent 2755
priced 2755
techniques 2755
beaten 2753
clarified 2753
viol@@ 2753
announce 2752
connecting 2752
Jail 2751
determine 2751
elderly 2751
Secondary 2750
atures 2750
Bish@@ 2749
DNA 2749
frequently 2749
earn 2748
loaded 2748
seventh 2748
bags 2746
commonly 2746
Mirza 2745
accurate 2745
in-law 2745
lasting 2745
pick 2744
Chauhan 2743
Crude 2743
cotton 2743
calm 2742
kills 2742
surrounding 2742
Rai@@ 2741
calcul@@ 2741
G-@@ 2740
weapon 2740
bone 2739
chi 2739
gather 2739
hasnt 2738
mid@@ 2738
Referring 2737
rebel@@ 2737
brigade 2736
fulfil 2736
settlement 2736
Gambhir 2735
Randeep 2735
substantial 2735
Spe@@ 2733
Prem 2731
revolution 2731
Model 2730
excellence 2728
nav@@ 2728
unveiled 2728
Ul@@ 2727
upset 2727
Grievances 2726
NB@@ 2726
push 2726
adjoining 2725
essions 2725
severely 2725
economies 2724
Vikram 2723
arch@@ 2723
nan@@ 2723
twenty 2722
Marketing 2721
Pilot 2721
activist 2721
ich 2721
pool 2721
shrine 2721
skilled 2721
indi@@ 2720
withdrawal 2720
native 2719
Goods 2718
cin@@ 2718
suspects 2718
tery 2718
hes@@ 2716
instrument 2716
relative 2716
Isaiah 2715
PF 2715
oked 2715
prevention 2714
throw 2714
Met@@ 2713
aud@@ 2713
meal 2713
Lab@@ 2712
Putin 2711
empty 2711
bb@@ 2710
removal 2710
iciency 2709
Direc@@ 2708
Employees 2708
Silver 2708
identification 2708
11th 2707
Dalit 2707
anim@@ 2707
mate 2707
cast@@ 2706
Admiral 2705
exhib@@ 2705
met@@ 2705
Match 2704
surgery 2704
whol@@ 2704
Sc@@ 2703
Still 2703
administered 2703
messengers 2703
residential 2703
Americans 2702
ba@@ 2702
Sidharth 2701
conferencing 2701
03 2700
tes 2700
writes 2698
GS 2697
Relief 2697
explosion 2697
Advisor 2696
awaited 2696
ectors 2696
rang@@ 2696
ensu@@ 2694
protecting 2694
advis@@ 2692
productive 2692
conven@@ 2691
Christ@@ 2690
Israeli 2690
establishing 2690
ision 2690
mark@@ 2690
osis 2690
kno@@ 2689
rounds 2689
Gardens 2686
Kish@@ 2686
e.@@ 2686
Ireland 2685
fulfill 2685
Indian-@@ 2684
aching 2684
boundaries 2684
secular 2684
Traffic 2683
bow 2683
desired 2683
element 2683
criminals 2682
Associ@@ 2680
otic 2680
render 2680
Omar 2679
Sah@@ 2679
alli 2679
competitions 2677
estion 2677
stocks 2677
Hes 2676
journal 2676
sixes 2676
clean@@ 2675
asses 2674
beds 2674
walls 2674
Ki@@ 2673
priest 2673
tackle 2673
Sham@@ 2672
Yog@@ 2672
bonds 2672
eable 2672
fire@@ 2672
mature 2672
thrown 2672
Jud@@ 2671
Kaushal 2671
Ts 2671
anand 2671
here@@ 2671
ao 2670
reads 2670
ib@@ 2669
SUV 2667
ola 2667
tar 2667
tial 2665
Club 2664
Deep@@ 2664
Fil@@ 2664
isolation 2664
telephone 2664
Ni@@ 2662
Daw@@ 2661
at-@@ 2661
badly 2661
Fun@@ 2660
Gandhis 2660
dollars 2660
oldest 2660
tle 2660
activ@@ 2659
comedy 2659
eas@@ 2659
kmph 2659
turing 2659
Hollywood 2658
gun 2658
marine 2658
ox@@ 2658
savings 2658
Jet 2657
boundary 2657
ny 2657
rival 2657
genuine 2656
terrible 2656
Gandhiji 2655
Kisan 2655
Tim 2655
Up 2655
V. 2655
exposed 2655
joins 2655
Chancellor 2654
Come 2654
item 2654
Next 2653
Ve@@ 2653
input 2653
wheel@@ 2653
IR@@ 2652
Sai@@ 2652
Ari@@ 2651
Mulayam 2651
Clean 2650
auspicious 2650
Art 2649
Jacob 2649
No.@@ 2649
Siv@@ 2649
execution 2648
perspective 2648
Ayurveda 2647
password 2647
grants 2646
observation 2646
ause 2645
grap@@ 2645
engines 2644
repeated 2644
collabor@@ 2643
quarantine 2643
Dad@@ 2642
Umesh 2642
sch@@ 2642
Eff@@ 2641
Ms. 2641
Sri@@ 2641
Tell 2641
entities 2641
prayed 2641
preliminary 2641
TS 2640
manufacture 2640
rop@@ 2640
Creator 2639
ashi 2639
walked 2639
introduce 2638
Cy@@ 2637
Sh 2637
assessee 2637
temp@@ 2637
territories 2637
Wel@@ 2636
arer 2636
arise 2636
dom 2636
Multi@@ 2635
forthcoming 2635
launching 2635
manufactured 2635
bling 2634
imag@@ 2634
TH@@ 2633
profession 2633
PAN 2632
militant 2632
plan@@ 2632
Plus 2631
Mandir 2630
ardhan 2630
succ@@ 2630
Tagore 2629
ez 2628
pay@@ 2627
asi 2626
god@@ 2626
by-@@ 2625
grave 2625
havent 2625
labs 2625
wai@@ 2624
converted 2623
cov@@ 2623
ere@@ 2622
finds 2622
promp@@ 2622
Commander 2621
Processing 2621
HO@@ 2620
airline 2620
NP@@ 2619
raids 2619
robust 2619
akh@@ 2618
arranged 2618
certificates 2618
RTI 2617
heal@@ 2617
bread 2616
inity 2616
And@@ 2615
champion 2615
kind@@ 2615
Prav@@ 2614
Delhi-@@ 2613
beings 2613
advoc@@ 2612
ner@@ 2612
photograph 2612
theres 2612
Abhiyan 2611
Dilip 2611
Il@@ 2611
Proverbs 2611
usage 2611
Gha@@ 2610
Vivek 2610
ential 2610
pulses 2610
cleared 2609
Enforcement 2607
illa 2607
mood 2607
Sin@@ 2606
ried 2606
wills 2606
Disha 2605
enabling 2605
murdered 2605
Cultural 2604
intr@@ 2604
outfit 2604
abl@@ 2603
arguments 2603
ook 2603
Rupee 2602
aviation 2602
originally 2602
bly 2601
144 2600
cru@@ 2600
subsequent 2600
ideology 2599
8th 2598
flowers 2598
industri@@ 2598
san 2598
tender 2598
wild 2598
distancing 2597
credited 2596
mob 2596
Construction 2595
Hockey 2595
jewellery 2595
1999 2594
Ghulam 2594
Rat@@ 2594
refuge 2594
Care 2593
acceptable 2593
hil@@ 2593
Chak@@ 2592
Minority 2592
illustr@@ 2592
promoted 2592
Bro@@ 2590
aled 2590
reviews 2589
Rob@@ 2588
Ty@@ 2588
ark 2588
Renewable 2587
Schools 2587
jac@@ 2587
alty 2585
manufacturers 2585
sey 2585
TO@@ 2584
iya 2584
ural 2583
craft 2582
Golden 2581
Ji@@ 2581
Leela 2581
estate 2581
whosoever 2581
Farhan 2580
Where@@ 2580
balanced 2580
INS 2579
Select 2579
appoint 2579
Chandrababu 2578
Inf@@ 2578
mans 2578
winds 2578
Bis@@ 2577
Films 2577
Rijiju 2577
chairperson 2577
flowing 2577
non@@ 2576
tivity 2576
wash 2576
Dam@@ 2575
starring 2575
Ish@@ 2573
Satish 2573
Soci@@ 2573
celebrating 2573
icon 2573
presided 2572
una 2572
2011-12 2571
Sisodia 2571
lear@@ 2571
tran@@ 2571
Mount 2570
Rahman 2570
JP 2569
Javed 2569
Nm 2569
chair 2569
hall 2569
jurisdiction 2569
priests 2569
Aj@@ 2568
Marshal 2567
tennis 2567
Che@@ 2566
compe@@ 2566
Excellency 2565
speaker 2564
Seven 2563
plate 2563
deals 2562
prevailing 2562
arrests 2561
Ghaziabad 2560
Medicine 2560
kilometres 2560
A.@@ 2559
Medium 2559
risks 2559
Tu@@ 2558
considerable 2558
scre@@ 2558
Corridor 2557
casualties 2557
widespread 2557
Judah 2556
normally 2556
Rate 2555
authorised 2555
bowled 2555
favor 2554
indicate 2554
Standard 2553
intellectual 2553
sanctions 2553
og 2551
riots 2551
networks 2550
Malaika 2549
hin@@ 2549
Triv@@ 2548
lift 2548
stolen 2548
Saeed 2546
teachings 2546
gi 2545
globe 2545
presidential 2545
puri 2545
stadium 2545
tiz@@ 2545
backs 2544
backward 2544
announces 2542
bow@@ 2542
objects 2542
Review 2541
ota 2541
Export 2540
mix 2540
poss@@ 2540
accessible 2539
specifically 2539
clinical 2538
tracks 2538
Bol@@ 2537
Perhaps 2537
Wi@@ 2537
eted 2537
golden 2537
intense 2537
correc@@ 2536
gation 2536
rows 2535
verse 2535
BCM 2532
microSD 2532
dep@@ 2531
Give 2530
forbidden 2530
bers 2529
cra@@ 2529
ministerial 2528
Prof@@ 2527
sible 2527
Chairperson 2526
counting 2526
legs 2526
udi 2526
negoti@@ 2524
restore 2523
201@@ 2522
CS@@ 2522
Ta@@ 2521
Corinthians 2520
hero 2520
care@@ 2518
ases 2517
ich@@ 2517
spouse 2517
Farooq 2516
endeav@@ 2516
league 2516
teen@@ 2515
tally 2514
Prices 2513
Sangh 2513
lam@@ 2513
Communication 2512
Fir@@ 2512
honest 2512
Yuvraj 2511
oxygen 2511
thankful 2511
theatre 2511
Abhi@@ 2510
deposits 2510
lions 2510
split 2510
30th 2509
Pankaj 2509
chemicals 2509
Part@@ 2508
Speci@@ 2508
educated 2508
Gowda 2507
ambitious 2506
functional 2506
ols 2506
Tribunal 2505
submission 2505
ule 2505
Cop@@ 2504
Kap@@ 2504
Telecom 2504
ancing 2504
distinguished 2504
ga@@ 2504
spon@@ 2504
supposed 2504
31.@@ 2503
shoulder 2503
stly 2503
Official 2502
Revelation 2502
kal 2502
meters 2502
tam@@ 2501
Bij@@ 2498
emplo@@ 2497
RO 2496
You@@ 2495
communic@@ 2495
transf@@ 2495
03.@@ 2494
ign 2494
Mid@@ 2493
anding 2493
convention 2493
declaration 2493
flagship 2493
foo@@ 2493
super 2493
Kumaraswamy 2492
consolid@@ 2492
interacted 2491
cing 2490
dealt 2490
emia 2490
injustice 2490
retri@@ 2490
Inv@@ 2489
SR@@ 2489
Should 2489
enforcement 2489
referring 2489
Bhup@@ 2488
CO 2488
miss 2488
alise 2487
wages 2487
Bajaj 2486
ed. 2485
Sev@@ 2484
Azhar 2483
ML 2483
citation 2483
divorce 2483
punished 2483
Southern 2482
buying 2482
trib@@ 2482
Nathan 2481
gradu@@ 2481
tied 2481
Masjid 2480
Vic@@ 2480
disputes 2480
abol@@ 2479
iti 2479
variants 2479
Khur@@ 2478
Vishnu 2477
aug@@ 2477
tier 2477
Bhuvneshwar 2476
cip@@ 2476
parent 2475
influenced 2474
lessons 2474
everlasting 2473
rev@@ 2473
ASEAN 2472
far@@ 2472
franchise 2472
gang 2472
processor 2472
renowned 2472
ulation 2472
ech 2471
restored 2471
heading 2470
le-@@ 2470
Challengers 2469
Naqvi 2469
Implementation 2468
Rajan 2468
ammunition 2468
onion 2468
tragedy 2468
aste 2467
emer@@ 2467
forgiving 2467
AND 2466
DC@@ 2466
Timothy 2466
amendments 2466
vice-president 2466
ica 2465
Get 2464
INDIA 2464
erated 2464
IB 2463
India@@ 2463
Nicobar 2463
Search 2463
sion@@ 2463
ther 2463
Buddhist 2462
N. 2462
ditions 2462
usion 2462
Sul@@ 2461
judiciary 2461
Consider 2460
it. 2460
Thousands 2459
ety 2459
Scindia 2458
attrac@@ 2458
evident 2458
ey@@ 2458
ght 2458
aks 2457
triple 2457
after@@ 2456
messenger 2456
19th 2455
speedy 2455
Dou@@ 2454
cation 2454
path@@ 2454
Vij@@ 2453
ater@@ 2453
parameters 2453
rating 2453
reporting 2453
planet 2452
school@@ 2452
eman 2451
tac@@ 2451
communications 2450
sen 2450
baptized 2449
Kher 2448
pura 2448
Compl@@ 2447
Persian 2447
moderate 2447
utes 2447
consistent 2446
lawful 2446
spl@@ 2446
Pooja 2444
grad@@ 2443
midst 2443
Common 2442
depic@@ 2442
doubles 2442
tak@@ 2442
Bahadur 2441
Dhar@@ 2441
Ek@@ 2441
R.@@ 2441
silence 2441
Over@@ 2440
cumulative 2440
Himalayan 2439
legend 2439
lit@@ 2439
Has 2438
MI 2438
Response 2438
Manj@@ 2437
eled 2437
Greater 2436
Highway 2436
behavior 2436
brut@@ 2436
graphy 2436
inform@@ 2436
MG@@ 2435
mistakes 2435
spectrum 2435
TI 2434
en-@@ 2434
rehabilitation 2434
ver 2434
Unto 2432
depending 2432
irs 2432
supplied 2432
Pakistan-@@ 2431
complained 2431
priv@@ 2430
vers@@ 2430
Men 2429
UL@@ 2429
photographs 2429
trem@@ 2429
itions 2428
Front 2427
Systems 2427
desc@@ 2427
isn 2427
pha@@ 2427
Emergency 2426
Z 2426
liked 2426
preparedness 2426
FO@@ 2425
oring 2425
Championships 2424
Tru@@ 2424
jet 2424
selfie 2424
Bhagwat 2423
Death 2423
enthusiasm 2423
prac@@ 2423
Tech 2422
creates 2421
dece@@ 2421
Ki 2420
bottom 2420
cool@@ 2420
indic@@ 2420
vessels 2420
Error 2417
gal@@ 2417
Dep@@ 2416
Hos@@ 2416
bestowed 2416
econom@@ 2416
Live 2415
tag@@ 2415
thetic 2415
aired 2414
journ@@ 2414
oriented 2414
producers 2414
susp@@ 2414
establishments 2413
instruments 2413
Prab@@ 2412
allotted 2412
Textiles 2411
fare 2411
gro@@ 2411
Mines 2410
nice 2410
petitioner 2408
Entertainment 2407
brave 2407
Modi@@ 2406
regul@@ 2406
Medal 2405
disc@@ 2405
Ratna 2404
delegates 2404
miti@@ 2404
B. 2403
ater 2403
enary 2403
imprisonment 2403
tank 2403
Ras@@ 2402
closing 2401
margin 2401
erv@@ 2399
year@@ 2399
Buddha 2398
fort 2398
absor@@ 2397
accorded 2397
consent 2397
Very 2396
dam 2396
guarantee 2396
Gurugram 2395
tis@@ 2395
arts 2394
respected 2394
lak@@ 2393
Daily 2392
Sl@@ 2392
pris@@ 2392
tune 2392
Movement 2391
catch 2391
tie 2391
Kas@@ 2390
interv@@ 2390
Adv@@ 2389
Till 2389
appl@@ 2389
fav@@ 2389
rested 2389
writers 2389
Kapur 2388
ror 2387
California 2386
Phase 2386
fishermen 2386
rig@@ 2386
uram 2386
Williamson 2385
ashing 2385
inations 2385
wrong@@ 2385
Han@@ 2384
tting 2384
Details 2383
wonder 2383
yer 2383
Aar@@ 2382
Autom@@ 2382
Kak@@ 2382
Studies 2382
fed 2382
humble 2382
humili@@ 2382
tem@@ 2382
AG@@ 2381
Zone 2381
apps 2381
arising 2381
attendance 2381
St. 2380
forests 2380
resurrection 2380
shou@@ 2380
Ker@@ 2379
absolute 2379
adds 2379
constr@@ 2379
inauguration 2378
heavily 2377
scoring 2377
pa@@ 2376
expertise 2375
Mayor 2373
Play 2373
Rajeev 2373
islands 2373
pass@@ 2373
Lal@@ 2372
eer 2372
Kochi 2371
hav@@ 2371
aun@@ 2370
finish 2370
itate 2370
default 2369
Bah@@ 2368
pacer 2368
restricted 2368
tear 2367
belonged 2366
laugh@@ 2366
tain@@ 2366
Help 2365
agent 2365
electr@@ 2365
godly 2365
oli 2365
prizes 2365
Grover 2364
dering 2364
Magistrate 2363
Netherlands 2363
compassion 2363
cooperative 2363
Sen 2362
impressive 2362
singing 2362
Communications 2361
ache 2361
ported 2361
layer 2360
dating 2359
hypo@@ 2359
ordin@@ 2359
youngsters 2359
Register 2358
bhp 2358
neck 2358
Statistics 2357
convicts 2357
newspapers 2357
Shivaji 2356
interrog@@ 2356
magic 2356
recording 2356
Harbhajan 2355
centers 2355
developmental 2355
fic 2355
pleas@@ 2355
Schedule 2353
Womens 2353
ear 2353
highways 2353
sh 2353
ested 2352
Lake 2351
assure 2351
Luke 2350
lifestyle 2350
Nobel 2349
sacrifices 2349
Advisory 2348
long@@ 2348
expanding 2347
yield 2347
Mel@@ 2345
depression 2345
een 2345
sentenced 2345
setup 2345
findings 2344
lod@@ 2344
translation 2344
syst@@ 2343
tering 2343
boun@@ 2341
civil@@ 2341
sincere 2341
tains 2341
105 2340
C-@@ 2340
Gauri 2340
boat 2340
defin@@ 2340
iter@@ 2340
transform 2340
True 2339
advisory 2339
ira 2339
Vin@@ 2338
black@@ 2338
resp@@ 2338
Nan@@ 2337
affection 2337
ferti@@ 2337
fic@@ 2337
13.@@ 2336
Cri@@ 2336
IMD 2336
episode 2336
eva 2336
typically 2336
Old 2335
efully 2335
lauded 2335
relatively 2335
tun@@ 2335
vit@@ 2335
Kumari 2334
Nal@@ 2334
Nax@@ 2334
Pil@@ 2334
Raina 2334
SCO 2334
class@@ 2334
exclusive 2334
royal 2334
translated 2334
artisans 2333
es-@@ 2333
mid-@@ 2333
uli 2333
serves 2332
Micro 2331
Samsung 2331
emphasised 2331
laying 2331
etary 2330
disputed 2329
transl@@ 2329
updated 2329
Hi@@ 2328
attri@@ 2328
long-@@ 2328
customs 2327
fearing 2327
imal 2327
maybe 2327
opposing 2327
aning 2326
premier 2326
preserve 2326
ener@@ 2325
Ali@@ 2324
Contin@@ 2324
Web@@ 2324
all-rounder 2324
respects 2324
Directors 2323
sealed 2323
Snapdragon 2322
govern@@ 2322
library 2322
repe@@ 2322
reveals 2322
Italian 2321
Kend@@ 2321
Rajinikanth 2321
deficit 2321
flat 2321
ouring 2321
resh@@ 2321
Block 2320
qualify 2320
Banking 2319
snow 2319
Imp@@ 2318
commodities 2318
progres@@ 2318
contemporary 2317
noticed 2317
rein@@ 2317
withdrawn 2317
Kailash 2316
Sand@@ 2316
amounts 2316
definition 2316
impressed 2316
open@@ 2316
Prad@@ 2315
indicates 2315
14th 2314
prisoners 2314
showcase 2314
Kor@@ 2313
explains 2313
landing 2313
ford 2312
interact 2312
entrance 2311
suspension 2311
bh@@ 2310
colourful 2310
fever 2310
itu@@ 2310
lord 2310
Sem@@ 2309
listening 2309
Atomic 2308
TR@@ 2308
doub@@ 2308
onal 2308
remark 2308
Island 2307
Tab@@ 2307
entary 2307
manife@@ 2307
rely 2307
Dehradun 2306
confirmation 2306
contrast 2306
frustr@@ 2306
publ@@ 2306
Institutes 2305
andi 2305
gates 2305
inning 2305
iny 2305
movements 2305
uted 2305
bird 2304
hood 2304
thor@@ 2304
wine 2304
3,000 2303
To@@ 2303
cutting 2303
insp@@ 2303
resh 2303
Long 2302
consisting 2302
k-@@ 2302
Anj@@ 2301
negotiations 2301
ulated 2301
Nanak 2300
IRCTC 2299
Patnaik 2299
Vicky 2299
key@@ 2299
temperatures 2299
Amethi 2298
LE@@ 2298
Pras@@ 2298
arding 2298
lis@@ 2298
merciful 2298
whatsoever 2298
Having 2297
ew 2297
Mark@@ 2296
TE@@ 2296
Train 2296
alled 2296
ranging 2296
BSNL 2295
Shr@@ 2295
contrary 2295
monitored 2295
tant 2295
uncle 2295
06.@@ 2294
Siddiqui 2294
emerge 2294
fault 2294
oul@@ 2294
sett@@ 2294
uma 2294
DI@@ 2293
terminal 2293
20,000 2292
Desai 2292
Self 2292
roof 2292
eful 2291
Ann@@ 2290
Bhu@@ 2290
Date 2290
flows 2289
sal 2289
Aligarh 2287
ben@@ 2287
concrete 2287
routine 2287
theft 2287
2.0 2286
Account 2285
Persons 2285
cool 2285
database 2285
enc@@ 2285
Jon@@ 2284
Sub-@@ 2284
accordingly 2284
wat@@ 2284
Lankan 2283
Nov@@ 2283
enters 2283
adoption 2282
estimates 2282
Joh@@ 2281
Vinay 2281
eing 2281
rying 2281
Sush@@ 2279
asting 2279
burn 2279
Kargil 2278
attractive 2278
mentally 2278
ude 2278
Kalyan 2277
Mike 2277
disappointed 2277
ful@@ 2277
rif@@ 2277
argued 2276
tidings 2276
warn 2276
Language 2275
ives 2275
purchased 2275
refugees 2275
Lieutenant 2274
Tom@@ 2274
nationwide 2274
nec@@ 2274
ET 2272
encing 2272
nor@@ 2272
Assistance 2271
rallies 2271
Prize 2270
structural 2270
16th 2269
author@@ 2269
consciousness 2269
fore 2269
hel 2269
mit 2269
anpur 2268
influ@@ 2268
lia 2268
Sel@@ 2267
aved 2267
hail 2267
idols 2267
ahs 2266
ares 2266
discharge 2266
federal 2265
fray 2265
Garden 2264
attackers 2264
avo@@ 2264
spots 2264
Heritage 2263
extraordinary 2263
it-@@ 2263
ship@@ 2263
Sadar 2262
ME 2261
Hyundai 2260
PE@@ 2260
pip@@ 2260
04.@@ 2259
Anti-@@ 2259
Bagh 2259
Philippines 2259
notices 2259
cleaning 2258
conventional 2258
Moon 2257
basically 2257
fast@@ 2257
funded 2257
petroleum 2257
audio 2256
Efforts 2255
Jinping 2255
ond 2255
sweet 2255
17.@@ 2254
2014-15 2254
Finch 2253
hang@@ 2253
anned 2252
button 2252
critics 2252
parking 2252
universe 2252
Henry 2251
Khan@@ 2251
haz@@ 2251
pledge 2251
printed 2251
suggests 2251
ministries 2250
uv@@ 2250
wasn 2250
07.@@ 2249
Roh@@ 2249
Wing 2249
life@@ 2249
alize 2248
convinced 2248
discre@@ 2248
Anupam 2247
interventions 2247
civilians 2246
innovations 2246
recover 2246
Gill 2245
oral 2245
punish 2245
Operation 2244
casting 2244
exchanges 2244
passage 2244
Finally 2243
Squ@@ 2243
imported 2243
rav@@ 2243
survive 2243
2020-21 2242
Chinas 2242
Was 2242
corrupt 2242
deployment 2242
abide 2241
clearance 2241
literary 2240
representation 2240
Bare@@ 2239
NS 2239
TA 2239
airs 2239
aper@@ 2239
executed 2239
reflected 2239
Maharaj 2238
ca 2238
diff@@ 2238
resistance 2238
derived 2236
adverse 2235
pro-@@ 2235
Administrative 2234
Jer@@ 2234
ed-@@ 2234
Nearly 2233
dness 2233
Goel 2232
angel 2232
depend 2232
Gulf 2231
escaped 2231
museum 2231
profits 2231
AY 2230
Det@@ 2230
U.@@ 2230
cautious 2230
pulled 2230
demonetisation 2229
abandoned 2228
dian 2228
tap 2228
CL 2227
commerce 2227
dwell 2227
loyal 2227
constitute 2226
uck 2226
Strategic 2225
rum@@ 2225
Bhansali 2224
allegation 2224
interrogation 2224
Eat 2223
Surjewala 2223
mour@@ 2223
predicted 2223
sar@@ 2222
block@@ 2221
bod@@ 2221
categor@@ 2221
slowly 2220
lo 2219
Ayushmann 2218
Panch@@ 2218
simultaneously 2218
voluntary 2218
Asif 2217
agents 2217
disposal 2217
masses 2217
scri@@ 2217
Ishant 2216
Kann@@ 2216
flee 2216
ride 2215
Presently 2214
Unnao 2214
Operations 2213
succeeded 2213
Ministerial 2212
batch 2212
album 2211
kms 2211
refer 2211
Ger@@ 2210
Pokhriyal 2210
collect 2210
dent 2210
rab@@ 2210
Nay@@ 2209
cap 2209
giant 2209
itive 2209
Entrepreneurship 2208
Log@@ 2208
bones 2208
cooperate 2208
exciting 2208
pit@@ 2208
poems 2208
-India 2207
OBC 2207
holder 2207
settle 2207
accel@@ 2206
int 2206
homage 2205
itted 2205
weigh@@ 2205
Houses 2204
Raipur 2204
defend 2204
fet@@ 2204
operators 2204
Mach@@ 2203
Poll@@ 2203
annually 2203
migrants 2203
Body 2202
hos@@ 2202
increasingly 2202
shi 2202
stating 2202
Liber@@ 2201
personalities 2201
keys 2200
rail@@ 2200
trace 2199
udd@@ 2199
physically 2198
strategies 2198
Yuzvendra 2197
plas@@ 2197
Serv@@ 2196
folder 2196
beg@@ 2195
lan@@ 2195
ld@@ 2195
everyday 2194
helpful 2194
sters 2194
AB 2193
agers 2193
protestors 2193
sac@@ 2193
beli@@ 2192
350 2191
Swar@@ 2191
foods 2191
practi@@ 2191
lady 2190
preferred 2190
stal@@ 2190
Active 2189
Kedarnath 2189
Rejuvenation 2189
aths 2189
bab@@ 2189
freight 2189
aggressive 2188
AK 2187
Shastri 2187
inspire 2187
interior 2187
Liter@@ 2186
VSM 2186
fting 2186
legacy 2186
possibilities 2186
recogn@@ 2186
artist 2185
liquid 2184
Maulana 2183
bla@@ 2183
pione@@ 2183
Nay 2182
abs 2182
highlights 2182
tees 2182
Quality 2181
fer@@ 2181
tioning 2181
Cle@@ 2179
Hope 2179
not@@ 2179
pillars 2179
realised 2179
realized 2179
cyber 2178
Gandhinagar 2177
NGOs 2177
San 2177
Sustainable 2177
alizing 2177
topic 2177
minerals 2176
parti@@ 2176
Gun@@ 2175
Navratri 2175
Pensions 2175
Prin@@ 2175
ket@@ 2175
priorities 2175
rolling 2175
ules 2175
Arabian 2174
VC 2174
Whoever 2174
dad 2174
Madhuri 2173
Qur 2173
Yamuna 2172
associations 2171
ea 2171
extending 2170
ament 2169
Fertilizers 2168
creatures 2168
guides 2168
IA 2167
UP@@ 2167
correspon@@ 2167
09.@@ 2166
Hun@@ 2166
assess 2166
confron@@ 2166
person@@ 2166
Canadian 2165
ames 2165
motivated 2165
pronounced 2165
May@@ 2164
erve 2164
photo@@ 2164
Bon@@ 2163
desig@@ 2163
gress 2163
passport 2163
popularity 2163
stimul@@ 2163
Catholic 2162
ez@@ 2162
retain 2162
Behold 2161
Nur@@ 2161
inhabitants 2161
slain 2161
edi 2159
helicopter 2159
tasks 2159
affects 2158
Romans 2157
endeavour 2157
allied 2156
idation 2156
10-@@ 2155
Main 2155
acquitted 2155
ership 2155
Branch 2154
PPP 2154
Process 2154
enjoying 2154
Bahujan 2153
truthful 2153
Presid@@ 2152
ul-@@ 2152
logging 2151
possibly 2151
05.@@ 2150
tent 2150
targeting 2149
win@@ 2149
sar 2148
yellow 2148
M.@@ 2147
devoted 2146
prosecution 2146
Sukh@@ 2145
Town 2145
involve 2145
onom@@ 2145
recall 2145
sat@@ 2145
grievances 2144
istan 2144
witnessing 2144
Deb@@ 2143
Third 2143
cha 2142
smoke 2142
obe@@ 2141
prob@@ 2141
anch@@ 2140
asaheb 2140
cement 2140
segments 2140
technique 2140
Mut@@ 2139
Sriniv@@ 2139
evol@@ 2139
itary 2139
pitch 2139
rob@@ 2139
mud 2138
Dravid 2137
Guest 2137
floo@@ 2137
idhi 2137
vir 2137
PMs 2136
adia 2136
comparison 2136
gall@@ 2136
hia 2136
ication 2136
.com 2135
Ly@@ 2135
nearest 2135
t-up 2135
Scientific 2134
bility 2134
ority 2133
stuck 2133
Bra@@ 2132
hop@@ 2132
Champions 2131
Hebrew 2131
Rishabh 2131
Tem@@ 2131
hotels 2131
sens@@ 2131
supremo 2131
contacted 2130
merged 2130
minim@@ 2130
ost@@ 2130
8-megapixel 2129
Choudhary 2129
Scripture 2129
ambassador 2129
ems 2129
oration 2129
updates 2129
Ground 2128
dynamic 2128
electrical 2128
ematic 2128
purcha@@ 2128
refin@@ 2128
valued 2128
cho@@ 2127
focusing 2127
nephew 2127
oppose 2127
Sania 2126
optim@@ 2126
paise 2126
FS@@ 2125
apologise 2125
describe 2125
editor 2125
stores 2125
talented 2125
testimony 2125
elim@@ 2124
inga 2124
18.@@ 2123
Eight 2123
fears 2123
handled 2123
meter 2123
11,@@ 2122
DM 2122
ops 2122
spac@@ 2122
weaker 2121
Pak@@ 2120
Products 2120
Watchtower 2120
cles 2120
offences 2120
opted 2120
pilots 2120
Sank@@ 2119
Switzerland 2119
ashtra 2119
boards 2119
hunger 2119
reliable 2119
receives 2118
commenced 2117
couples 2117
erable 2117
occurs 2117
vacancies 2117
Zak@@ 2116
infections 2116
retained 2116
s' 2116
Chemicals 2115
delighted 2115
surviv@@ 2115
Mann 2114
strictly 2114
Directed 2113
Kiran 2113
Launch 2113
Raman 2113
joy@@ 2113
Neither 2112
antry 2112
rai@@ 2112
surrounded 2112
Hir@@ 2111
Kaus@@ 2111
Vilas 2111
prosec@@ 2111
08.@@ 2110
DoNER 2110
Ear@@ 2110
Set 2110
trol@@ 2110
Beijing 2109
Vidhan 2109
disbelieved 2109
err@@ 2109
bullet 2108
martyred 2108
queries 2108
wada 2108
Nifty 2107
gifts 2107
immor@@ 2107
uded 2107
Anderson 2106
Bhupinder 2106
e- 2106
generating 2106
gra 2106
ruler 2106
tern@@ 2106
Jais@@ 2105
Mov@@ 2105
Yatra 2105
asc@@ 2105
1.5 2103
Corps 2103
Gaj@@ 2103
criteria 2103
Hour 2102
Northeast 2102
evalu@@ 2102
hrs 2102
pleasant 2102
convert 2101
hydr@@ 2100
Rio 2099
PSUs 2097
acknowledged 2097
gross 2096
tense 2096
unemployment 2096
Chandr@@ 2095
crow@@ 2095
fted 2095
18th 2094
Smt.@@ 2094
disperse 2094
integr@@ 2094
strange 2094
EVMs 2093
hailed 2093
ransom 2093
30.@@ 2092
low-@@ 2092
telec@@ 2092
yav@@ 2092
Dil@@ 2091
Dixit 2091
beliefs 2091
itating 2091
recru@@ 2091
Sanitation 2090
Sikhs 2090
signal 2090
14.@@ 2089
Knight 2089
Rathore 2089
lamp 2089
uru 2089
xing 2089
DP 2088
Ayushman 2087
Beh@@ 2087
briefed 2087
sole 2087
ts@@ 2087
wom@@ 2087
AK@@ 2086
Accoun@@ 2086
Excellence 2086
Karachi 2086
avi 2086
scientist 2086
Madan 2085
Nad@@ 2085
Tribes 2084
commissioned 2084
Hinduism 2083
NCC 2083
pays 2083
Gujarati 2082
Real 2082
consensus 2082
heights 2082
Nic@@ 2081
adul@@ 2081
ern 2081
lion 2081
Any@@ 2080
Gener@@ 2080
fish@@ 2080
won@@ 2080
GO@@ 2079
stret@@ 2079
Krish@@ 2078
autonomous 2078
orous 2078
cylinder 2077
ei 2077
ounding 2077
resort 2077
BO@@ 2076
Cummins 2076
cher 2076
slightly 2076
threatening 2076
Patani 2075
Sher@@ 2075
aran 2074
cited 2074
Inte@@ 2073
chest 2073
hills 2073
scar@@ 2073
Minimum 2072
Neg@@ 2072
feedback 2072
abi 2071
aggreg@@ 2071
devast@@ 2071
may@@ 2071
Jog@@ 2070
Sanjeev 2070
bath 2070
forum 2070
shots 2070
Sehwag 2069
airlines 2069
e-up 2069
emotions 2069
fe 2069
DSP 2068
Personal 2068
Terrorism 2068
carries 2068
committing 2068
itra 2068
viz 2068
compete 2067
.gov.in 2066
eral 2066
graph@@ 2066
Shekhar 2065
Television 2065
motiv@@ 2065
oss 2065
payable 2065
reputation 2065
voy 2065
J. 2064
ementary 2064
martyrs 2064
sequ@@ 2064
docum@@ 2063
somewhere 2063
yiel@@ 2063
C.E. 2062
Ray@@ 2062
twe@@ 2062
4,000 2061
Cat@@ 2061
migr@@ 2061
separately 2061
stick 2061
EPFO 2060
cos@@ 2060
junior 2060
teas@@ 2060
ter-@@ 2060
confir@@ 2059
lic 2059
reception 2059
snowfall 2059
Irrfan 2058
Mit@@ 2058
attempted 2058
Muzaffarpur 2057
OS 2057
adult 2057
ceasefire 2057
harvest 2057
hast 2057
mac@@ 2057
oa 2057
E. 2056
Kriti 2056
alleging 2056
committees 2056
expl@@ 2056
ocr@@ 2056
oe@@ 2056
It@@ 2055
forecast 2055
ignored 2055
moments 2055
kes 2054
Kashyap 2053
mism 2053
openly 2053
shar@@ 2053
than@@ 2053
Yash@@ 2052
blow 2052
conce@@ 2052
countrymen 2052
essors 2052
rivals 2052
NF@@ 2051
neg@@ 2051
stepped 2051
Ahead 2050
MM@@ 2050
Panchayats 2050
drew 2049
shor@@ 2049
T20 2048
exposure 2048
icious 2048
sam@@ 2048
swing 2048
ser 2047
Accordingly 2046
origin@@ 2046
recompense 2046
Jordan 2045
associates 2045
gearbox 2045
legislature 2045
Flag 2044
detected 2044
fold 2044
Sweden 2043
contributing 2043
disrup@@ 2043
plenty 2043
110 2042
Lev@@ 2042
MH@@ 2042
adults 2042
buyers 2042
Ken@@ 2041
loom 2041
nom@@ 2041
recommendation 2041
romantic 2041
Colin 2040
Jayanti 2040
Ujj@@ 2040
aar 2040
alias 2040
IV@@ 2039
Sam 2039
TRS 2039
Orig@@ 2038
corporation 2038
forgotten 2038
reverse 2038
tech 2038
amed 2037
sul@@ 2037
zy 2037
NCR 2036
dip 2036
jets 2036
minute 2036
rulers 2036
Hom@@ 2035
anded 2035
empower 2035
instruction 2035
magnetic 2035
wronged 2035
Picture 2034
itya 2034
separated 2034
tobacco 2034
Sibal 2033
Srik@@ 2033
Sunrisers 2033
Pin@@ 2032
endor@@ 2032
utter 2032
cured 2031
Bipin 2030
hra 2030
detention 2029
mitting 2029
AIMIM 2028
Sengar 2028
YS 2028
ary-@@ 2028
constable 2028
reserves 2028
akk@@ 2027
Hamid 2026
Rajkummar 2026
assurance 2026
limit@@ 2026
acad@@ 2025
acquire 2025
chargesheet 2025
wad 2025
Design 2024
audit 2024
impe@@ 2024
m. 2024
passion 2024
substance 2024
Plant 2023
quiet 2023
Jos 2022
rises 2022
fabric@@ 2021
ullah 2021
lined 2020
Shilpa 2019
aide 2019
distinction 2019
hot@@ 2019
hya 2019
defamation 2018
engineers 2018
nabbed 2018
agon@@ 2017
sequence 2017
tribes 2017
voter 2017
Orissa 2016
Standards 2016
cooking 2016
single-@@ 2016
yn@@ 2016
Amrita 2015
Din@@ 2015
Root 2015
ae 2015
aker 2015
verification 2015
develop@@ 2014
main@@ 2014
pil@@ 2014
ron@@ 2014
Electricity 2013
Panchayati 2013
coffee 2013
volunteers 2013
ICMR 2012
Parents 2012
distinct 2012
fts 2012
organizing 2012
Alex 2011
Raju 2011
determin@@ 2011
ground@@ 2011
log 2011
tionally 2011
Governors 2010
Santosh 2010
indul@@ 2010
duration 2008
Christmas 2007
Doing 2007
conviction 2007
Expo 2006
chiefs 2006
completing 2006
power@@ 2006
Federal 2005
Guidelines 2005
baseless 2005
laboratories 2005
societies 2005
AL 2004
Ved@@ 2004
continent 2004
16.@@ 2003
Eli@@ 2003
eved 2003
iss 2003
pioneer 2003
pregnancy 2003
Hav@@ 2002
Program 2002
cross-@@ 2002
frag@@ 2002
,@@ 2001
Asaduddin 2001
Masood 2001
discrimin@@ 2001
licence 2001
mut@@ 2001
yam 2001
-free 2000
Bhand@@ 2000
Schemes 2000
eternal 2000
gang@@ 2000
ographic 2000
condemn 1999
counter@@ 1999
hib@@ 1999
rat@@ 1999
throne 1999
Kes@@ 1998
couldn 1998
hectares 1998
initi@@ 1998
sanction 1998
Tokyo 1997
permit 1997
conversion 1996
feared 1996
half-@@ 1996
Kush@@ 1995
atics 1995
ato 1995
critically 1995
kin@@ 1995
lining 1995
supervis@@ 1995
usual 1995
Voting 1994
ino 1994
ym@@ 1994
Saini 1993
highlight 1993
husbands 1993
molec@@ 1993
prophets 1993
sir 1993
Birla 1992
apprised 1992
grams 1992
motor@@ 1992
partial 1991
regards 1991
NA 1990
bles 1990
top-@@ 1990
weakness 1990
Fat@@ 1989
Va@@ 1989
ethnic 1989
discussing 1988
delight 1987
kidnap@@ 1987
legendary 1987
remin@@ 1987
ump 1987
Jamia 1986
Portal 1986
Way 1986
100@@ 1985
found@@ 1985
Spirit 1984
appreh@@ 1984
ocean 1984
stretch 1984
sty@@ 1984
1998 1983
Registration 1983
comb@@ 1983
threat@@ 1983
travelled 1983
urg@@ 1983
Mighty 1982
Task 1982
Visakhapatnam 1982
confusion 1982
duced 1982
triggered 1982
PL 1981
anxiety 1980
collapse 1980
EF 1979
Headquarters 1979
accompl@@ 1979
destinations 1979
15.@@ 1977
Hanuman 1977
cub@@ 1977
cultures 1977
rela@@ 1977
tears 1977
Workers 1976
centr@@ 1976
definite 1976
providers 1976
speeches 1976
threw 1976
habit 1975
Drinking 1974
Ze@@ 1974
mega 1974
presents 1974
Parishad 1973
quali@@ 1972
rever@@ 1972
Against 1971
Incre@@ 1971
fifty 1971
maiden 1971
outer 1971
Buttler 1970
Pictures 1970
book@@ 1970
list@@ 1970
Committees 1969
Fri@@ 1969
staged 1969
Base 1968
Knowledge 1968
Law@@ 1968
fi 1968
sword 1968
17th 1967
bridges 1967
high-level 1967
protocol 1967
Hindu@@ 1966
encomp@@ 1966
Cho@@ 1965
Dalits 1965
TE 1965
demol@@ 1965
publications 1965
Vehicles 1964
sab@@ 1964
Dist@@ 1963
Acharya 1962
Reports 1962
mask 1962
mines 1962
span 1962
avery 1961
description 1961
emon 1961
familiar 1961
inate 1961
pursuing 1961
semi@@ 1961
cell@@ 1960
six@@ 1960
Bench 1959
accur@@ 1959
benefited 1959
ensions 1959
shalt 1959
ayal 1958
Analysis 1957
maj@@ 1957
publicly 1957
ventil@@ 1957
20-@@ 1956
Ask 1956
Collector 1956
memorial 1956
icked 1955
twelve 1955
Computer 1954
constitu@@ 1954
ections 1954
kan@@ 1954
second-@@ 1954
Communist 1953
Moun@@ 1953
Pot@@ 1953
RA 1953
doc@@ 1953
oke 1953
summoned 1953
Animal 1952
JN@@ 1951
Oc@@ 1951
Start 1951
ston 1951
scenes 1950
appreci@@ 1949
ceremon@@ 1949
dil@@ 1949
micro 1949
ologist 1948
pression 1948
Aer@@ 1947
entures 1947
Meerut 1946
Saj@@ 1946
Vidya 1946
forwarded 1946
heart@@ 1946
tube 1946
violations 1946
Chil@@ 1945
Shinde 1945
fix 1945
inte@@ 1945
itory 1945
Aw@@ 1944
assemb@@ 1944
kumar 1944
swear 1944
well-being 1944
180 1943
Dur@@ 1943
assumed 1943
badminton 1943
featuring 1943
DE 1942
Delhi-NCR 1942
anagar 1942
distri@@ 1942
eliminate 1942
fro@@ 1942
harmful 1942
laboratory 1942
milestone 1941
spiritually 1941
wars 1941
graph 1940
Hari@@ 1939
NT 1939
ware 1939
Amar 1938
Latin 1938
copies 1938
sively 1938
util@@ 1938
ration@@ 1937
ulous 1937
DD@@ 1936
brilliant 1936
icing 1936
ought 1936
'd 1935
Bhumi 1935
N.@@ 1935
NAT@@ 1935
ires 1935
Mith@@ 1934
Works 1934
beating 1934
chron@@ 1934
manifesto 1934
Additionally 1933
Inter-@@ 1933
Rahane 1933
bid@@ 1933
icks 1933
psych@@ 1933
rit 1933
sample 1933
13th 1932
excess 1932
haven 1932
musical 1931
Hotel 1930
ousness 1930
Conc@@ 1929
Jha 1929
MU@@ 1929
giv@@ 1929
northeast 1929
privacy 1929
dozen 1928
narrow 1928
ultimately 1928
apparently 1927
HIV 1926
Iqbal 1926
Mahajan 1926
Ravichandran 1926
Turkish 1926
Develop@@ 1925
Ton@@ 1925
atically 1925
noise 1925
Hardeep 1924
iced 1924
sporting 1924
Microsoft 1923
reas@@ 1923
Axis 1922
Pollution 1922
alpur 1922
buff@@ 1922
habits 1922
obvious 1922
Seva 1921
demonstrated 1921
ipur 1921
thinks 1921
broadcast 1920
circum@@ 1920
citing 1920
oud 1920
publishing 1920
subjected 1920
Jama@@ 1919
Trav@@ 1919
hardly 1919
Sagar 1918
aught 1918
dues 1918
fal@@ 1918
gir@@ 1918
iel 1918
Arti@@ 1917
Kiara 1917
arpur 1917
entrepreneurship 1917
obviously 1917
proj@@ 1917
slaugh@@ 1917
charity 1916
checked 1916
cribed 1916
outcomes 1916
promising 1916
websites 1916
Leh 1915
teenth 1915
Fans 1914
cordoned 1914
inspector 1914
partition 1914
pistol 1914
tragic 1914
classical 1913
denies 1913
evolution 1913
selfies 1913
sworn 1913
Things 1912
Whe@@ 1912
aband@@ 1912
apology 1912
deduction 1912
compromise 1911
dominated 1911
invested 1911
tin 1911
2030 1910
doubts 1910
dum@@ 1910
hanging 1910
ument 1910
CH@@ 1909
Certificate 1909
Competition 1909
Gau@@ 1909
commented 1909
containment 1908
dings 1908
risen 1908
Jav@@ 1907
Nevertheless 1907
fate 1907
flash 1907
therapy 1907
199@@ 1906
CWC 1906
Patiala 1906
dict@@ 1906
Kajol 1905
concentration 1905
etc.@@ 1905
formally 1905
milit@@ 1905
ocation 1905
Ath@@ 1904
Taylor 1904
ayan 1904
cash@@ 1904
habit@@ 1904
illed 1904
locks 1904
Ric@@ 1903
glorious 1903
tionary 1903
tribe 1903
vain 1903
Bridge 1902
accum@@ 1902
celebrates 1902
computed 1902
Cities 1901
Shoaib 1901
Witness 1901
cher@@ 1901
Mao@@ 1900
affiliated 1900
buried 1900
educ@@ 1900
betr@@ 1899
cros@@ 1899
ins@@ 1899
ray 1899
Babylon 1898
Corruption 1898
Electronic 1898
aja 1898
superior 1898
Dutta 1897
asion 1897
regist@@ 1897
scores 1897
uniform 1897
Siddharth 1896
allest 1896
gaon 1896
keeper 1896
Allah. 1895
accepting 1895
deity 1895
organis@@ 1895
Musa 1894
PCB 1894
ac 1894
hima 1894
remake 1894
Airways 1893
artificial 1893
avan 1893
booking 1893
comfor@@ 1893
dir@@ 1893
occur@@ 1893
Head@@ 1892
gusting 1892
D.@@ 1891
Dig@@ 1891
Puja 1891
hunt 1891
linking 1891
Pat 1890
affecting 1890
hardship 1890
ibility 1890
pilgrimage 1890
requests 1890
tism 1890
Exp@@ 1889
Gayle 1889
dinner 1889
thieves 1889
Bharat@@ 1888
Pati@@ 1888
Sultan 1888
demonstration 1888
eli@@ 1888
Nature 1887
SE 1887
accountability 1887
mes 1887
prophecy 1887
utmost 1887
felicitated 1886
heav@@ 1886
infiltr@@ 1886
palace 1886
ticals 1886
you@@ 1886
IV 1885
Protest@@ 1885
Sydney 1885
kid@@ 1885
contr@@ 1884
tolerance 1884
annum 1883
mon 1883
shocking 1883
Plat@@ 1882
isha 1882
abrogation 1881
recognise 1881
sibility 1881
Mandi 1880
Om@@ 1880
Param@@ 1880
50-@@ 1879
Chan@@ 1879
Jeh@@ 1879
Venugopal 1879
accommod@@ 1879
benef@@ 1879
chase 1879
engineer 1879
operative 1879
tiv@@ 1879
Nawazuddin 1878
angles 1878
Bap@@ 1877
Conn@@ 1877
Morgan 1877
acceptance 1877
aga 1877
enterprise 1877
izes 1877
rolled 1877
Don@@ 1876
Gate 1876
No. 1876
Ros@@ 1876
ip 1876
snat@@ 1876
Pompeo 1875
William 1875
esome 1875
taluka 1875
BH@@ 1874
Doval 1874
Knower 1874
Pradeep 1874
Thr@@ 1874
off-@@ 1874
salvation 1874
tired 1874
Authorities 1873
Call 1873
Holi 1873
ISIS 1873
Mauritius 1873
Sind@@ 1873
khar 1873
quake 1873
trends 1873
upro@@ 1873
UGC 1872
burg 1872
character@@ 1872
contacts 1872
holistic 1872
itan 1872
regret 1872
Neeraj 1871
Roads 1871
exception 1871
prosp@@ 1871
sors 1871
wrath 1871
10,@@ 1870
Bai@@ 1870
Gavaskar 1870
Mos@@ 1870
resili@@ 1870
FA 1869
Tai@@ 1869
expe@@ 1869
fool@@ 1869
sensi@@ 1869
NTPC 1868
Phar@@ 1868
Tit@@ 1868
entrusted 1868
rendered 1868
Chang@@ 1867
cops 1867
decrease 1867
rejoice 1867
steady 1867
FY 1866
amy 1866
attacking 1866
Scre@@ 1865
a. 1865
dram@@ 1865
fear@@ 1865
grac@@ 1865
ii 1865
knock 1865
prosperous 1865
sour@@ 1865
Regulation 1864
Unity 1864
acre 1864
aer@@ 1864
contracts 1864
fam@@ 1864
lending 1864
reflects 1864
well@@ 1864
Boo@@ 1863
Districts 1863
Singhs 1863
esha 1863
know@@ 1863
36@@ 1862
Megh@@ 1862
RE 1862
cuts 1862
Administr@@ 1861
Brothers 1861
Junior 1861
iers 1861
impose 1861
interpre@@ 1861
statutory 1861
Save 1860
toral 1860
del 1859
yal 1859
CR 1858
Facil@@ 1858
Grand@@ 1858
LoC 1858
approaches 1858
cked 1858
demonstr@@ 1858
Bobde 1857
af 1857
Buil@@ 1856
ardi@@ 1856
heartfelt 1856
persist@@ 1856
Amar@@ 1855
Keeping 1855
Lakshmi 1855
satellites 1855
sor 1855
Ashish 1854
CSIR 1854
FT 1854
Haasan 1854
Naveen 1854
aur@@ 1854
breach 1854
exercises 1854
strang@@ 1854
youngest 1854
Final 1853
Soviet 1853
logistics 1853
margin@@ 1853
nominations 1853
swi@@ 1853
wr@@ 1853
MHA 1852
ownership 1852
Jaya 1851
lab 1851
spite 1851
150th 1850
par 1850
prev@@ 1850
tries 1850
2.5 1849
RCB 1849
crick@@ 1849
delivering 1849
gradation 1849
larg@@ 1849
mainstream 1849
196@@ 1848
LL@@ 1848
Saul 1848
interface 1848
oe 1848
poem 1848
circular 1847
manufacturer 1847
meanwhile 1847
Football 1846
cogn@@ 1846
eld 1846
incorporated 1846
printing 1846
reminder 1846
1996 1845
Airlines 1845
applying 1845
fulness 1845
high@@ 1845
prevented 1845
Faridabad 1844
Lt@@ 1844
collapsed 1844
contingent 1844
empha@@ 1844
painting 1844
partic@@ 1844
regulation 1844
Provisional 1843
Rahim 1843
adh 1843
breathing 1843
corona 1843
hind@@ 1843
intent 1843
resume 1843
Harish 1842
expressing 1842
progressive 1842
outs 1841
nodal 1840
pag@@ 1840
poc@@ 1840
roman@@ 1840
waves 1840
BJP-led 1839
avati 1839
cheating 1839
cloud 1839
enty 1839
fibre 1839
reserve 1839
Co-@@ 1838
landed 1838
sorry 1838
Bhubaneswar 1837
Red@@ 1837
conscience 1837
nered 1837
poo@@ 1837
2013-14 1836
Mahal 1836
Rampur 1836
TP 1836
coordin@@ 1836
cried 1836
mati 1836
minent 1836
bids 1835
hab 1835
parallel 1835
posting 1835
Bhav@@ 1834
Glenn 1834
Kharge 1834
aine 1834
confessed 1834
contem@@ 1834
humb@@ 1834
sand 1834
900 1833
screen@@ 1833
singles 1833
Es 1832
athon 1832
counc@@ 1832
horse 1832
missed 1832
rad@@ 1832
rafts 1832
tend 1832
Kishore 1831
lad@@ 1831
periods 1831
riding 1831
Faith 1830
column 1830
CG@@ 1829
flower 1829
import@@ 1829
mou@@ 1829
Umar 1828
dha 1828
vitamin 1828
Hafiz 1827
arh 1827
hast@@ 1827
Dre@@ 1826
Gor@@ 1826
amp@@ 1826
commander 1826
ction 1826
disbur@@ 1826
safely 1826
Arts 1825
eggs 1825
eline 1825
oon 1825
repair 1825
Nit@@ 1824
automatically 1824
bars 1824
shore 1824
somebody 1824
Says 1823
cies 1823
designs 1823
Highlights 1821
Leone 1821
mediate 1821
slaves 1821
sub 1821
Ex-@@ 1820
adju@@ 1820
competent 1820
fame 1820
kits 1820
mother@@ 1820
Cu@@ 1819
Growth 1819
afford 1819
deserve 1819
stric@@ 1819
tre 1819
und 1819
Excise 1818
Fer@@ 1818
Nishank 1818
Rad@@ 1818
Srivastava 1818
eighth 1818
prohibited 1818
searches 1818
spar@@ 1818
Khadi 1817
campaign@@ 1817
cave 1817
consultations 1817
cyclone 1817
phys@@ 1817
resist@@ 1817
tively 1817
utter@@ 1817
Key 1816
asted 1816
describes 1816
diagno@@ 1816
rejects 1816
19.@@ 1815
Hassan 1815
abbed 1815
cryp@@ 1815
Bedi 1814
Bharati 1814
Delhis 1814
Polling 1814
ault 1814
nt 1814
feeding 1813
todays 1813
Iyer 1812
Rud@@ 1812
Scientists 1812
Similar 1812
agarh 1812
ascertain 1812
bold 1812
circle 1812
rebel 1812
,999 1811
Mathura 1811
Hindutva 1810
Well@@ 1810
curb 1810
Cases 1809
Pauls 1809
TRA@@ 1809
Message 1808
crossing 1808
falsehood 1808
Laughter 1807
facilitating 1807
install@@ 1807
condoled 1806
dol@@ 1806
incentives 1806
mean@@ 1806
C.@@ 1805
Kumble 1805
amenities 1805
lam 1805
otes 1805
portfolio 1805
uka 1805
ution 1805
Reacting 1804
West@@ 1804
gan 1804
illu@@ 1804
reminded 1804
Gurgaon 1803
Prashant 1803
Qualcomm 1803
Signs 1803
booth 1803
businessman 1803
wings 1803
cler@@ 1802
fluid 1802
harass@@ 1802
sponsored 1802
Afridi 1801
Journal 1801
Singh@@ 1801
Yusuf 1801
ecture 1801
HS 1800
Parineeti 1800
ancer 1800
chopped 1800
girlfriend 1800
38@@ 1799
Flipkart 1799
Kiren 1799
Pujara 1799
Tihar 1799
Veteran 1799
exce@@ 1799
itor@@ 1799
Interest 1798
differen@@ 1798
rets 1798
CSK 1797
mineral 1797
transition 1797
weekly 1797
aire 1796
arming 1796
holiday 1796
Bec@@ 1795
apar@@ 1795
spo@@ 1795
Congress@@ 1794
mang@@ 1794
dible 1793
dict 1793
diver@@ 1793
issuing 1793
160 1792
Empire 1792
formula 1792
gy@@ 1792
ification 1792
Gok@@ 1791
Prior 1791
Riders 1791
righ@@ 1791
Hundreds 1790
abode 1790
xim@@ 1790
Car 1789
Dim@@ 1789
One@@ 1789
SSC 1789
ior 1789
misleading 1789
statistics 1789
Oman 1788
Sre@@ 1788
lyrics 1788
merit 1788
releasing 1788
shepher@@ 1788
yard 1788
ager 1787
levelled 1787
quarters 1787
stored 1787
Chowk 1786
Dabangg 1786
crip@@ 1786
paddy 1786
1,0@@ 1785
checking 1785
tan 1785
20.@@ 1784
exclusively 1784
persecution 1784
shel@@ 1784
shells 1784
Co 1783
breast 1783
step@@ 1783
stringent 1783
stance 1782
Khand@@ 1781
Rohtak 1781
aster 1781
elsewhere 1781
helicopters 1781
ots 1781
Galaxy 1780
Large 1780
Monitoring 1780
clouds 1780
expelled 1780
otive 1780
pursu@@ 1780
shaped 1780
suggestion 1780
Advanced 1779
Congratulations 1779
IFFI 1779
elaborate 1779
revelation 1779
stunning 1779
Rajkumar 1778
cess 1778
continu@@ 1778
dium 1778
reve@@ 1778
sidelines 1778
yours 1778
Oh 1777
atra 1777
brow@@ 1777
eradic@@ 1777
freely 1777
griev@@ 1777
Ky@@ 1776
aid@@ 1776
Prof. 1775
rightly 1775
violated 1775
Cooperative 1774
Dubey 1774
Strict 1774
V.@@ 1774
bution 1774
Tejashwi 1773
desert 1773
earnings 1773
fulfilling 1773
iPhone 1773
merger 1773
preventive 1773
slams 1773
clothing 1772
isal 1772
mindset 1772
t.@@ 1772
Electric 1771
PT 1771
attain 1771
compare 1771
debit 1771
shal@@ 1771
1992 1770
ISI 1770
Vill@@ 1770
bearers 1770
confirm 1770
Representatives 1769
advantages 1769
bus@@ 1769
deliberations 1769
dish 1769
eed 1769
rendering 1769
NPR 1768
authorized 1768
chat 1768
essentially 1768
neighbourhood 1768
pushed 1768
sculp@@ 1768
doubling 1767
IM 1766
arded 1766
competi@@ 1766
taxpayers 1766
tude 1766
umps 1766
Andrew 1765
Ms.@@ 1765
Pet@@ 1765
Rain 1765
VP 1765
depend@@ 1765
pus 1765
DO@@ 1764
Sali@@ 1764
crafts 1764
inqu@@ 1764
lessly 1764
lin 1764
scholar 1764
variable 1764
failing 1763
inaugurates 1763
spring 1763
wore 1763
xed 1763
Misra 1762
assignment 1762
ch-@@ 1762
histor@@ 1762
loading 1762
pad 1762
postponed 1762
quota 1762
tow@@ 1762
Dr.Harsh 1761
HU@@ 1761
legislator 1761
tings 1761
trapped 1761
Aut@@ 1760
Sak@@ 1760
Virender 1760
cultiv@@ 1760
devo@@ 1760
plication 1760
alike 1759
erts 1759
hosting 1759
inser@@ 1759
jawan 1759
Inaugur@@ 1758
best@@ 1758
restoration 1758
violating 1758
Million 1757
odes 1757
uploaded 1757
virtually 1757
Jagan 1756
Pvt 1756
incurred 1756
web@@ 1756
V-@@ 1755
fours 1755
hygiene 1755
planes 1755
Publ@@ 1754
Transfer 1754
Web 1754
eption 1754
ergy 1754
eria 1754
Accounts 1753
Chautala 1753
Establ@@ 1753
est-@@ 1753
extre@@ 1753
fix@@ 1753
mist@@ 1753
Diesel 1752
Jha@@ 1752
fishing 1752
titles 1752
bomb@@ 1751
ologists 1751
Neh@@ 1750
Sanju 1750
Savarkar 1750
asp@@ 1750
exha@@ 1750
mos@@ 1750
noble 1750
Embassy 1749
Filmfare 1749
Making 1749
framed 1749
Mess@@ 1748
gal 1748
ger@@ 1748
mobility 1748
necessarily 1748
resting 1748
simil@@ 1748
symbol@@ 1748
Category 1747
Commissioners 1747
Kav@@ 1747
Physical 1747
Units 1747
concentr@@ 1747
drun@@ 1747
orph@@ 1747
removing 1747
smartphones 1747
justi@@ 1746
ultimate 1746
SO 1745
dairy 1745
entally 1745
02.@@ 1744
ABVP 1744
Syn@@ 1744
congregations 1744
drought 1744
enormous 1744
ahe@@ 1743
capture 1743
eri 1743
interc@@ 1742
offspring 1742
Hebrews 1741
campaigns 1741
empowered 1741
losers 1741
salute 1741
Argentina 1740
CI 1740
enables 1740
favourable 1740
subsidiary 1740
Moscow 1739
preach 1739
resol@@ 1739
Kant 1738
bad@@ 1738
capit@@ 1738
commemor@@ 1738
esting 1738
uity 1738
anas 1737
succumbed 1737
Prot@@ 1736
iconic 1736
inter 1736
replacement 1736
wadi 1736
Girl 1735
Library 1735
explanation 1735
fined 1735
Heat 1734
accomplished 1734
adu 1734
disobedi@@ 1734
i.e.@@ 1734
sorrow 1734
watched 1734
Jayant 1733
Mechan@@ 1733
Pran@@ 1733
Py@@ 1733
exceptional 1733
recoveries 1733
spr@@ 1733
Crores 1732
apparent 1732
mated 1732
mutually 1732
48@@ 1731
Whenever 1731
condi@@ 1731
ridic@@ 1731
see@@ 1731
treating 1731
Bagh@@ 1730
Complex 1730
Musharraf 1730
ald 1730
anka 1730
bounty 1730
divisions 1730
interpretation 1730
ori 1730
plun@@ 1730
Mumbai@@ 1729
essional 1729
exemption 1729
house@@ 1729
iation 1729
initiate 1729
ris 1729
thum@@ 1729
Khurrana 1728
Nair 1728
first-@@ 1728
lashed 1728
Equ@@ 1727
ais 1727
filling 1727
upgradation 1727
1997 1726
disrupted 1726
hoods 1726
missiles 1726
safeguard 1726
topics 1726
Gandhi@@ 1725
ange 1725
departed 1725
inspection 1725
shame 1725
trillion 1725
Ever 1724
naval 1724
nominee 1724
subscribers 1724
Mittal 1723
Post@@ 1723
campaigning 1723
instances 1723
vis 1723
wider 1723
Devil 1722
Rule 1722
castes 1722
census 1722
decreased 1722
ko 1722
1947 1721
Download 1721
aints 1721
dividend 1721
Narmada 1720
Tej 1720
H.@@ 1719
Taimur 1719
Thiruvananthapuram 1719
enture 1719
evaluation 1719
inar 1719
reduces 1719
ushing 1719
Gwalior 1718
Minist@@ 1718
gers 1718
pling 1718
Aaryan 1717
Netaji 1717
boycot@@ 1717
females 1717
hospitalised 1717
mun@@ 1717
odhi 1717
tile 1717
LMT 1716
consist@@ 1716
three-match 1716
Income-tax 1715
Nor 1715
ankar 1715
conclude 1715
dominant 1715
hopeful 1715
Lam@@ 1714
Mayank 1714
Prac@@ 1714
Regulatory 1714
ity-@@ 1714
menace 1714
Sai 1713
Suhana 1713
cc 1713
e-commerce 1713
procured 1713
restric@@ 1713
vil@@ 1713
Anniversary 1712
Vivekananda 1712
tractor 1712
uro@@ 1712
Lock@@ 1711
ate@@ 1711
computers 1711
earning 1711
shopping 1711
short-@@ 1711
smoking 1711
tually 1711
Bhai 1710
Cancer 1710
hyper@@ 1710
innov@@ 1710
finalised 1709
installation 1709
seconds 1709
syl@@ 1709
Bar 1708
Mohit 1708
Tun@@ 1708
duct 1708
enses 1708
formats 1708
them@@ 1708
Initi@@ 1707
MA@@ 1707
agon 1707
disclose 1707
thrust 1707
Pow@@ 1706
beside 1706
gath@@ 1706
proceed 1706
Appro@@ 1705
Manufacturing 1705
believer 1705
eb 1705
fodder 1705
gle 1705
restr@@ 1705
toilet 1705
vibrant 1705
Discus@@ 1704
Expressing 1704
Leaders 1704
Lim@@ 1704
Maurya 1704
deposited 1704
occ@@ 1704
sit@@ 1704
-day 1703
1995 1703
Protests 1703
Maxwell 1702
anj 1702
carrier 1702
disciplinary 1702
endure 1702
locate 1702
nesses 1702
onia 1702
oper@@ 1702
repentance 1702
sexually 1702
25th 1701
Address 1701
Ml@@ 1701
SAI 1701
thesis 1701
Again 1700
Freedom 1700
altar 1700
ano 1700
anticip@@ 1700
persu@@ 1700
Adviser 1699
Qatar 1699
Standing 1699
compli@@ 1699
Jacqueline 1698
cluster 1698
migration 1698
ourable 1698
thunder@@ 1698
Anantapur 1697
Leg@@ 1697
Nu@@ 1697
dancing 1697
guys 1697
ights 1697
liver 1697
socio-economic 1697
Nehwal 1696
Statement 1696
landmark 1696
meaningful 1696
monetary 1696
mortality 1696
responding 1696
stry 1696
AIR 1695
Groups 1695
Rajkot 1695
Vehicle 1695
collections 1695
seminar 1695
visual 1695
emissions 1694
Commercial 1693
Study 1693
cultivation 1693
fails 1693
tta 1693
civic 1692
crying 1692
disabled 1692
logical 1692
opti@@ 1692
utt@@ 1692
scription 1691
strugg@@ 1691
Anti@@ 1690
Hit@@ 1690
das 1690
shu 1690
thirty 1690
9-@@ 1689
Aurangabad 1689
Keshav 1689
awaiting 1689
dest 1689
discount 1689
Domestic 1688
Electoral 1688
Raje 1688
SAARC 1688
Lot 1687
commence 1687
conqu@@ 1687
presenting 1687
Ford 1686
Los 1686
affidavit 1686
agu@@ 1686
trusted 1686
POCSO 1685
ideals 1685
lyn@@ 1685
perception 1685
seam@@ 1685
sues 1685
theirs 1685
CJI 1684
PI 1684
R-@@ 1684
human@@ 1684
CB 1683
Initiative 1683
Kishan 1683
fraud@@ 1683
parade 1683
unbeaten 1683
BA 1682
Kalam 1682
PCC 1682
Week 1682
igned 1682
unions 1682
veget@@ 1682
vocation 1682
Akali 1681
DF 1681
Starc 1681
Stu@@ 1681
Vishal 1681
Water@@ 1681
insti@@ 1681
no-@@ 1681
128 1680
Except 1680
RP 1680
Securities 1680
alaya 1680
urges 1680
CP 1679
Jhansi 1679
Shweta 1679
assi@@ 1679
Legal 1678
anker 1678
iles 1678
Engineer 1677
Ori@@ 1677
complex@@ 1677
vessel 1677
critic@@ 1676
deprived 1676
rap 1676
Laxman 1675
Palace 1675
Thane 1675
attributed 1675
bble 1675
eigh@@ 1675
estimate 1675
Samuel 1674
license 1674
medic@@ 1674
Pednekar 1673
SHO 1673
Yam@@ 1673
decides 1673
diction 1673
Ekta 1672
electro@@ 1672
genetic 1672
honey 1672
onions 1672
surve@@ 1672
utation 1672
Hearing 1671
Sag@@ 1671
chang@@ 1671
comprise 1671
impar@@ 1671
lecture 1671
60@@ 1670
organising 1670
peror 1670
Cour@@ 1669
FE@@ 1669
Jai@@ 1669
cut@@ 1669
barrel 1668
dig 1668
Dwar@@ 1667
PG@@ 1667
accusing 1667
cere@@ 1667
commits 1667
24.@@ 1666
NASA 1666
turn@@ 1666
coin 1665
counsel@@ 1665
fortune 1665
mechanisms 1665
Rupani 1664
anag@@ 1664
governing 1664
gran@@ 1664
outlook 1664
themes 1664
Chavan 1663
Constitu@@ 1663
Motor@@ 1663
investing 1663
presidents 1663
sist@@ 1663
Cad@@ 1662
Prof 1662
VI 1662
armies 1662
attracted 1662
rive 1662
taining 1662
Dera 1661
Jackie 1661
Naj@@ 1661
Particip@@ 1661
UPSC 1661
string 1661
Matt 1660
eta 1660
gent@@ 1660
wildlife 1660
Ca@@ 1659
Eid 1659
Provided 1659
juice 1659
saddened 1659
varied 1659
vide@@ 1659
Ashutosh 1658
Conservation 1658
Kos@@ 1658
Payments 1658
Rand@@ 1658
beneath 1658
mens 1658
oj@@ 1658
Atul 1657
Tou@@ 1657
Belgium 1656
magistrate 1656
mates 1656
plies 1656
politically 1656
bio-@@ 1655
epid@@ 1655
Os 1654
Vodafone 1654
briefing 1654
palm 1654
processed 1654
tap@@ 1654
virtue 1654
Rescue 1653
Taj 1653
cated 1653
streams 1653
23.@@ 1652
CL@@ 1652
Ez@@ 1652
ordinate 1652
surgical 1652
compreh@@ 1651
vaccines 1651
Dhan 1650
asha 1650
instruc@@ 1650
relates 1650
solidarity 1650
tancy 1650
UC@@ 1649
curse 1649
traveling 1649
unite 1649
Den@@ 1648
Harv@@ 1648
adventure 1648
applies 1648
classified 1648
counted 1648
exploration 1648
gearing 1648
tend@@ 1648
varieties 1648
Bid@@ 1647
Thanks 1647
urity 1647
Saxena 1646
hoping 1646
inconvenience 1646
Acad@@ 1645
DST 1645
Windows 1645
avoided 1645
gency 1645
nam 1645
protested 1645
umin@@ 1645
spin 1644
Arm@@ 1643
Responding 1643
consistently 1643
hospitality 1643
phot@@ 1643
Abu 1642
Allahs 1642
CSR 1642
lovers 1642
meals 1642
overse@@ 1642
Cross 1641
construct 1641
drens 1641
ov 1641
Everybody 1640
duce 1640
persec@@ 1640
projected 1640
surge 1640
wicketkeeper 1640
Hari 1639
Hur@@ 1639
Maritime 1639
bears 1639
coaching 1639
inspiring 1639
intensive 1639
ustin 1639
Capitals 1638
bel 1638
frequent 1638
worldly 1638
Net@@ 1637
clusters 1637
economically 1637
privileged 1637
refuse 1637
shirt 1637
tops 1637
banner 1636
perform@@ 1636
tified 1636
Yeddyurappa 1635
atistical 1635
nose 1635
Digvijaya 1634
aw 1634
detection 1634
drag@@ 1634
mild 1634
raises 1634
Judgment 1633
SB@@ 1633
mai@@ 1633
ment-@@ 1633
rage 1633
three-day 1633
11@@ 1632
Hero 1632
lucky 1632
posters 1632
assume 1631
companions 1631
keepers 1631
operation@@ 1631
sand@@ 1631
Basic 1630
Jak@@ 1630
Modern 1630
Non 1630
champions 1630
ignore 1630
partnerships 1630
walks 1630
Bajwa 1629
Ease 1629
FIRs 1629
approv@@ 1629
ores 1629
paradise 1629
stit@@ 1629
Lee 1628
proportion 1628
saffron 1628
tible 1628
Abhin@@ 1627
NSG 1627
cheque 1627
cooper@@ 1627
probed 1627
propag@@ 1627
Birth 1626
Gurdaspur 1626
Jeevan 1626
evacuated 1626
indirect 1626
vid@@ 1626
Ind@@ 1625
kti 1625
lok 1625
module 1625
other@@ 1625
trigg@@ 1625
undergo 1625
21.@@ 1624
CII 1624
Isaac 1624
Suc@@ 1624
Zafar 1624
cheaper 1624
comeback 1624
thoroughly 1624
1990 1623
Baroda 1623
How@@ 1623
KKR 1623
saf@@ 1623
swearing-in 1623
FM 1622
deliberate 1622
departure 1622
extends 1622
parks 1622
Heres 1621
Journ@@ 1621
Lin@@ 1621
Results 1621
Swamy 1621
supervision 1621
lens 1620
nat@@ 1620
react 1620
viously 1620
Chandrachud 1619
Records 1619
Wat@@ 1619
apolog@@ 1619
emy 1619
windows 1619
RK 1618
divid@@ 1618
faith@@ 1618
longest 1618
Cannot 1617
nest 1617
repent 1617
uda 1617
Nirbhaya 1616
SD 1616
Vice-@@ 1616
Within 1616
bureaucr@@ 1616
charg@@ 1616
elect 1616
immune 1616
Find 1615
anj@@ 1615
liar 1615
north-@@ 1615
Full 1614
House@@ 1614
North-East 1614
Reforms 1614
Testing 1614
amounting 1614
intensity 1614
proofs 1614
capacities 1613
deplo@@ 1613
De 1612
Nationalist 1612
Range 1612
Shane 1612
Siddaramaiah 1612
Tehsil 1612
erring 1612
fairly 1612
1991 1611
Furthermore 1611
Sop@@ 1611
Sun 1611
appeals 1611
overing 1611
rena 1611
sad@@ 1611
yn 1611
Early 1610
composition 1610
exporters 1610
identifying 1610
NG 1609
custom 1609
encouragement 1609
icient 1609
ij@@ 1609
immunity 1609
manpower 1609
FIFA 1608
Fair 1608
Lady 1608
acker 1608
bacteria 1608
Agencies 1607
Dhaka 1607
Loo@@ 1607
Prat@@ 1607
and-@@ 1607
grid 1607
jal 1607
osity 1607
query 1607
tariff 1607
uality 1607
Jyoti 1606
Karisma 1606
foreigners 1606
liability 1606
28.@@ 1605
Campaign 1605
Fore@@ 1605
iri 1605
casualty 1604
utilization 1604
Part 1603
Shab@@ 1603
Visit 1603
contin@@ 1603
diversi@@ 1603
hall@@ 1603
marking 1603
que@@ 1603
eye@@ 1602
nationalism 1602
red@@ 1602
utilized 1602
Gand@@ 1601
rior 1601
ad-@@ 1600
coast@@ 1600
devils 1600
UNESCO 1599
Villiers 1599
boats 1599
comprised 1599
eagerly 1599
operates 1599
warner 1599
accommodation 1598
cryst@@ 1598
expecting 1598
fertilizers 1598
naturally 1598
typical 1598
Karthik 1597
Mahabhar@@ 1597
Proc@@ 1597
graced 1597
propor@@ 1597
spinners 1597
Girls 1596
ivers@@ 1596
sustenance 1596
Exercise 1595
INX 1595
Menon 1595
PGI 1595
arances 1595
hitting 1595
sounds 1595
surrender 1595
ICU 1594
demonstrate 1594
feat 1594
securities 1594
Gall@@ 1593
Harry 1593
Indr@@ 1593
Mam@@ 1593
Stuart 1593
haran 1593
literally 1593
revival 1593
voices 1593
27.@@ 1592
TH 1592
aith@@ 1592
desper@@ 1592
inev@@ 1592
merch@@ 1592
remand 1592
sof@@ 1592
subscri@@ 1592
examining 1591
Amb@@ 1590
Performance 1590
incl@@ 1590
trophy 1590
22.@@ 1589
La 1589
Path 1589
dogs 1589
isa 1589
lifetime 1589
lock@@ 1589
Bhat@@ 1588
Um@@ 1588
anners 1588
cadre 1588
cow@@ 1588
screened 1588
Bom@@ 1587
Garg 1587
NPS 1587
ex 1587
kilometers 1587
loyalty 1587
noti@@ 1587
refund 1587
smo@@ 1587
Ananya 1586
Barack 1586
Something 1586
bond@@ 1586
distr@@ 1586
objection 1586
plac@@ 1586
twin 1586
vand@@ 1586
Hab@@ 1585
Muker@@ 1585
Sections 1585
tag 1585
uti 1585
willed 1585
Haj 1584
Wasim 1584
geographical 1584
reck@@ 1584
Berlin 1583
Form 1583
clock 1583
entials 1583
handic@@ 1583
kit 1583
peac@@ 1583
view@@ 1583
Chapter 1582
Kad@@ 1582
combine 1582
dwelling 1582
edly 1582
harmon@@ 1582
insects 1582
bhar 1581
raj@@ 1581
450 1580
abundance 1580
rao 1580
Criminal 1579
discovery 1579
stun@@ 1579
tful 1579
Ross 1578
Short 1578
deleg@@ 1578
thermal 1578
Haw@@ 1577
Nai@@ 1577
bitter 1577
prospects 1577
ty-@@ 1577
Sharing 1576
Sonu 1576
administr@@ 1576
intensified 1576
Sabarimala 1575
bulk 1575
characteristics 1575
circulation 1575
copper 1575
luck 1575
obligation 1575
1993 1574
Aad@@ 1574
Nanda 1574
ambi@@ 1574
chaeological 1574
nant 1574
of-@@ 1574
resigns 1574
test@@ 1574
North-@@ 1573
ached 1573
ducted 1573
paintings 1573
versions 1573
25.@@ 1572
IE@@ 1572
cum 1572
presid@@ 1572
repeat 1572
Morcha 1571
Ok@@ 1571
Vladimir 1571
alid 1571
define 1571
eu@@ 1571
isance 1571
environ@@ 1570
ject 1570
thick 1570
108 1569
breath 1569
Gita 1568
Let@@ 1568
Push@@ 1568
a.@@ 1568
bless 1568
certification 1568
harb@@ 1568
reign 1568
tight 1568
Janm@@ 1567
mass@@ 1567
surprising 1567
wit@@ 1567
Baz@@ 1566
Course 1566
Ludhiana 1566
Nil@@ 1566
draws 1566
occas@@ 1566
rati@@ 1566
revision 1566
Chandrayaan-2 1565
forcing 1565
locality 1565
motive 1565
tone 1565
26.@@ 1564
AIDS 1564
Expenditure 1564
befitting 1564
dan 1564
hole 1564
VS 1563
theastern 1563
ugg@@ 1563
Bun@@ 1562
Chakraborty 1562
SU@@ 1562
acks 1562
emen 1562
memories 1562
mixture 1562
onau@@ 1562
pack@@ 1562
pour 1562
silk 1562
Eden 1561
sat 1561
ATM 1560
BR@@ 1560
Gad@@ 1560
Nath@@ 1560
commission@@ 1559
eping 1559
pher@@ 1559
reacted 1559
Cook 1558
Rain@@ 1558
belt 1558
envisaged 1558
hay 1558
treaty 1558
Kochhar 1557
Liv@@ 1557
Shall 1557
install 1557
lesser 1557
neighbor@@ 1557
parable 1557
planted 1557
ASI 1556
BBC 1556
Stay 1556
U. 1556
Vigyan 1556
atoes 1556
blasts 1556
pup@@ 1556
tissue 1556
Tra@@ 1555
VV@@ 1555
esp@@ 1555
Rawal 1554
funeral 1554
gol@@ 1554
BSE 1553
County 1553
Nuclear 1553
enger 1553
fulfillment 1553
pursued 1553
saith 1553
KS 1552
Manu 1552
Sm@@ 1552
Some@@ 1552
colleague 1552
interactions 1552
ker@@ 1552
mic 1552
stam@@ 1552
Rhea 1551
deed 1551
exemp@@ 1551
somewhat 1551
wary 1551
Angeles 1550
Hill 1550
Path@@ 1550
negligence 1550
pink 1550
pull 1550
tit@@ 1550
waiver 1550
Pari@@ 1549
earth@@ 1549
resid@@ 1549
104 1548
Adil 1548
Fit@@ 1548
ONGC 1548
Store 1548
Suk@@ 1548
arch 1548
beach 1548
inger 1548
prevailed 1548
reconc@@ 1548
--@@ 1547
-1 1547
FI 1547
aqu@@ 1547
bereaved 1547
compulsory 1547
contents 1547
earthly 1547
engers 1547
humility 1547
searched 1547
tala 1547
ults 1547
Ashwini 1546
T. 1546
felicitations 1546
ho 1546
oul 1546
sleeping 1546
Prabhas 1545
awa@@ 1545
controlling 1545
revive 1545
Haridwar 1544
Karti 1544
beloved 1544
bio@@ 1544
hani 1544
Bodies 1543
Uni@@ 1543
ague 1543
reaffir@@ 1543
valu@@ 1543
Masters 1542
atia 1542
dying 1542
lists 1542
speakers 1542
stomach 1542
Aud@@ 1541
anced 1541
hana 1541
stitu@@ 1541
dat@@ 1540
fantastic 1540
fog 1540
hostel 1540
organ@@ 1540
CIL 1539
agg@@ 1539
assic 1539
disbelief 1539
ident 1539
interfere 1539
multilateral 1539
Hemant 1538
Presidential 1538
engaging 1538
grou@@ 1538
influential 1538
similarly 1538
zeal 1538
Benefits 1537
Notification 1537
Tower 1537
ayer 1537
dur@@ 1537
emi@@ 1537
gling 1537
lane 1537
Pap@@ 1536
Tre@@ 1536
incidence 1536
inheritance 1536
precautions 1536
robo@@ 1536
JD@@ 1535
Konk@@ 1535
Payment 1535
Radhika 1535
Tandon 1535
asy 1535
ator@@ 1535
hasn 1535
polic@@ 1535
torate 1535
Mush@@ 1534
accounting 1534
adopting 1534
insisted 1534
juven@@ 1534
literacy 1534
maturity 1534
ood 1534
utor 1534
2012-13 1533
Believers 1533
MP@@ 1533
Shel@@ 1533
ensing 1533
existed 1533
phr@@ 1533
present@@ 1533
-long 1532
Fai@@ 1532
Field 1532
Marcus 1532
choices 1532
commerci@@ 1532
deadly 1532
spectac@@ 1532
stag@@ 1532
turnover 1532
Histor@@ 1531
Prof.@@ 1531
anis 1531
materi@@ 1531
osp@@ 1531
sheets 1531
1989 1530
cows 1530
four@@ 1530
guards 1530
modified 1530
pipeline 1530
Import@@ 1529
tracking 1529
Almighty 1528
Pon@@ 1528
Tabu 1528
Trent 1528
decisive 1528
inducted 1528
Christs 1527
Lib@@ 1527
cloth 1527
curren@@ 1527
curriculum 1527
requisite 1527
tural 1527
Genesis 1526
Maharaja 1526
Jahan 1525
Think 1525
grass 1525
immensely 1525
opinions 1525
oti@@ 1525
Back@@ 1524
Dab@@ 1524
dial@@ 1524
mu 1524
settings 1524
PCL 1523
Story 1523
alore 1523
camp@@ 1523
const@@ 1523
investor 1523
omi 1523
rier 1523
21-@@ 1522
Innov@@ 1522
Vijayan 1522
Fs 1521
Infosys 1521
Kunal 1521
allowance 1521
butes 1521
finite 1521
11-@@ 1520
2010-11 1520
Analy@@ 1520
Certainly 1520
Framework 1520
akshi 1520
hypocrites 1520
warrant 1520
UA@@ 1519
ornam@@ 1519
reactions 1519
Kabul 1518
Neha 1518
Satans 1518
bha 1518
disturbed 1518
donated 1518
Ill 1517
Mysore 1517
NC 1517
density 1517
embar@@ 1517
separ@@ 1517
.nic@@ 1516
FS 1516
ICT 1516
UIDAI 1516
chal 1516
eli 1516
embarr@@ 1516
recited 1516
set@@ 1516
stro@@ 1516
workshops 1516
Thir@@ 1515
ifying 1515
pressing 1515
ulations 1515
une 1515
Rome 1514
erous 1514
lunar 1514
reless 1514
Farm@@ 1513
Tari@@ 1513
differently 1513
exchanged 1513
writings 1513
Regulations 1512
Sawant 1512
rown 1512
utility 1512
oy 1511
profound 1511
programm@@ 1511
stic@@ 1511
PCR 1510
extensively 1510
ific@@ 1510
informal 1510
particip@@ 1510
secretaries 1510
JEE 1509
Van@@ 1509
contempt 1509
exemplary 1509
notable 1509
yo 1509
Bac@@ 1508
T20Is 1508
distant 1508
jah 1508
.in. 1507
Subhas 1507
chains 1507
fires 1507
preventing 1507
wrongdoers 1507
Bal 1506
Initially 1506
Techn@@ 1506
ossi@@ 1506
under-@@ 1506
Cru@@ 1505
IITs 1505
edic@@ 1505
rated 1505
refuses 1505
teeth 1505
virtu@@ 1505
Diljit 1504
Tourist 1504
WE 1504
unve@@ 1504
140 1503
Akash 1503
Pathan 1503
Pragya 1503
confined 1503
fraternity 1503
immun@@ 1503
metre 1503
oming 1503
Identi@@ 1502
Naresh 1502
Redmi 1502
classification 1502
full-@@ 1502
instant 1502
underlined 1502
Dharam@@ 1501
Poonam 1501
Sindh 1501
Writ@@ 1501
assed 1501
defense 1501
er. 1501
light@@ 1501
okay 1501
tail 1501
Melbourne 1500
Ol@@ 1500
Rece@@ 1500
Us@@ 1500
cure 1500
excessive 1500
onwards 1500
textiles 1500
12,@@ 1499
PoK 1499
Stan@@ 1499
Sudhir 1499
VA 1499
audiences 1499
offerings 1499
rak@@ 1499
weekend 1499
5000 1498
Agn@@ 1498
Shor@@ 1498
aha 1498
measured 1498
some@@ 1498
Appe@@ 1497
MG 1497
assionate 1497
condol@@ 1497
jump 1497
onda 1497
Arab@@ 1496
Subramanian 1496
Pack@@ 1495
Swach@@ 1495
Wales 1495
YSR 1495
expedi@@ 1495
patterns 1495
5-megapixel 1494
Bairstow 1494
Bin@@ 1494
Richard 1494
brown 1494
centric 1494
stern 1494
tunnel 1494
coordinated 1493
num@@ 1493
slowdown 1493
tox@@ 1493
Ambala 1492
Emp@@ 1492
Venkat@@ 1492
eclipse 1492
grieve 1492
stre@@ 1492
tall 1492
4G 1491
Tim@@ 1491
feas@@ 1491
hectare 1491
heroes 1491
must@@ 1491
pious 1491
Diffe@@ 1490
Ris@@ 1490
amidst 1490
atri 1490
clay 1490
differ 1490
evolved 1490
fath@@ 1490
insult 1490
Awareness 1489
Integr@@ 1489
arent 1489
ation. 1489
brotherhood 1489
compos@@ 1489
consuming 1489
leep 1489
ont 1489
Choksi 1487
Learning 1487
30,000 1486
Hem@@ 1486
Sap@@ 1486
defeating 1486
ect@@ 1486
EV@@ 1485
deepen 1485
prefer 1485
bidding 1484
offee 1484
relate 1484
unusual 1484
Clinton 1483
Pink 1483
Shreyas 1483
achment 1483
economics 1483
tel 1483
tuary 1483
unda 1483
FA@@ 1482
Pramod 1482
bir@@ 1482
hip 1482
Bring 1481
MT@@ 1481
Republican 1481
amal@@ 1481
dri@@ 1481
skir@@ 1481
AIADMK 1480
Padmavati 1480
assisted 1480
derer 1480
puted 1480
thly 1480
whomever 1480
CPSEs 1479
Rajas@@ 1479
Sita 1479
Williams 1479
ensed 1479
erings 1479
imitate 1479
Bobby 1477
Palestinian 1477
Resp@@ 1477
Sport 1477
inviting 1477
Qualification 1476
horiz@@ 1476
loses 1476
ordinance 1476
strain 1476
Hospitals 1475
Exam@@ 1474
Ghaz@@ 1474
fellow@@ 1474
was@@ 1474
Bod@@ 1473
Lic@@ 1473
Monsoon 1473
itorious 1473
obedience 1473
ppers 1473
Fisheries 1472
Jabalpur 1472
Procedure 1472
formerly 1472
rant 1472
sustain 1472
750 1471
Bath@@ 1471
Boards 1471
Dam 1471
Taiwan 1471
Trains 1471
Yas@@ 1471
consult 1471
mechan@@ 1471
obligations 1471
opathy 1471
spare 1471
untoward 1471
upl@@ 1471
Ajinkya 1470
List@@ 1470
aller 1470
corpor@@ 1470
overnight 1470
refl@@ 1470
Age 1469
Malay@@ 1469
ade@@ 1469
assembled 1469
complicated 1469
rey 1469
uous 1469
Meet 1468
Shanghai 1468
dhar@@ 1468
organiz@@ 1468
sav@@ 1468
showcased 1468
Comb@@ 1467
dedicate 1467
dim@@ 1467
mounted 1467
penned 1467
policeman 1467
Krishan 1466
Offices 1466
Ratan 1466
Sub 1466
Ukraine 1466
backing 1466
observations 1466
rand@@ 1466
stances 1466
suspicious 1466
Bills 1465
aun 1465
modes 1465
onomy 1465
Zo@@ 1464
aly@@ 1464
enacted 1464
gence 1464
pois@@ 1464
Table 1463
denom@@ 1463
helper 1463
occupation 1463
CNG 1462
Meg@@ 1462
abundant 1462
anese 1462
considers 1462
forensic 1462
mic@@ 1462
nominal 1462
stup@@ 1462
vendors 1462
Advocate 1461
Ephes@@ 1461
Mani 1461
aras 1461
decree 1461
deleted 1461
DBT 1460
Khal@@ 1460
Overseas 1460
Sales 1460
Taxes 1460
fierce 1460
trucks 1460
BMC 1459
Das@@ 1459
M.Venkaiah 1459
acute 1459
corporations 1459
equation 1459
veter@@ 1459
Charles 1458
granting 1458
interference 1458
zation 1458
Gop@@ 1457
formulated 1457
irrespective 1457
pairs 1457
Dikshit 1456
Property 1456
Ray 1456
academ@@ 1456
altern@@ 1456
p-@@ 1456
tra-@@ 1456
3D 1455
Ahuja 1455
Chawla 1455
Commissions 1455
Paper 1455
accountable 1455
commemorate 1455
country@@ 1455
ella 1455
emission 1455
horri@@ 1455
investig@@ 1455
objected 1455
plains 1455
Nana 1454
aik@@ 1454
captains 1454
chand 1454
vaccination 1454
Economy 1453
aic 1453
calcium 1453
condem@@ 1453
hails 1453
lays 1453
obedient 1453
struggling 1453
transformed 1453
4GB 1452
linkages 1452
livestock 1452
magn@@ 1452
Geor@@ 1451
Previous 1451
Rah@@ 1451
Recovery 1451
deeper 1451
ernity 1451
ki@@ 1451
sis 1451
1994 1450
NHAI 1450
Truly 1450
adha@@ 1450
bey 1450
bhadra 1450
complainant 1450
contam@@ 1450
flour@@ 1450
hr 1450
ince 1450
warriors 1450
Kanhaiya 1449
Mahi@@ 1449
affir@@ 1449
fixing 1449
harm@@ 1449
incumbent 1449
mechanical 1449
organisms 1449
pop@@ 1449
six-@@ 1449
wav@@ 1449
Current 1448
Jayalalithaa 1448
Maybe 1448
memorandum 1448
Dance 1447
Rup@@ 1447
SDM 1447
Sanj@@ 1447
ambulance 1447
hire 1447
idol 1447
lity 1447
reviv@@ 1447
salaries 1447
Josh 1446
Until 1446
acking 1446
commands 1446
stroke 1446
Broad 1445
Coastal 1445
Future 1445
cousin 1445
dial 1445
doctr@@ 1445
follow@@ 1445
king@@ 1445
laun@@ 1445
s- 1445
26th 1444
Anna 1444
Bansal 1444
DD 1444
Economics 1444
allo@@ 1444
g. 1444
loy@@ 1444
lunch 1444
nurses 1444
pur-@@ 1444
25,000 1443
AW@@ 1443
BE 1443
Giriraj 1443
Of@@ 1443
View 1443
crashed 1443
drowned 1443
legitimate 1443
sacrificed 1443
sta 1443
supp@@ 1443
64GB 1442
Philipp@@ 1442
Primary 1442
third-@@ 1442
time-@@ 1442
HAL 1441
India-China 1441
Scotland 1441
accord 1441
feder@@ 1441
insu@@ 1441
opponents 1441
past@@ 1441
rol 1441
shr@@ 1441
substantially 1441
vide 1441
Maha 1440
Meena 1440
Miss 1440
Stations 1440
electronics 1440
incredible 1440
lifting 1440
seasons 1440
southwest 1440
voltage 1440
HT@@ 1439
Rit@@ 1439
Thak@@ 1439
angal 1439
custom@@ 1439
haul 1439
proven 1439
Castes 1438
mation 1438
much-@@ 1438
tedly 1438
utili@@ 1438
Ow@@ 1437
accelerate 1437
Failed 1436
Koh@@ 1436
Marg 1436
Rou@@ 1436
assailants 1436
dilig@@ 1436
excep@@ 1436
sional 1436
taluk 1436
Kenya 1435
Wa@@ 1435
attraction 1435
companion 1435
decre@@ 1435
gging 1435
hes 1435
shell 1435
Improv@@ 1434
Tran@@ 1434
experim@@ 1434
shipping 1434
telephon@@ 1434
tless 1434
uk 1434
ulam 1434
astar 1433
garlic 1433
gau@@ 1433
logy 1433
sty 1433
Province 1432
arity 1432
hars 1432
separati@@ 1432
Chandrashe@@ 1431
Manjrekar 1431
Revolution 1431
Status 1431
arshan 1431
counter-@@ 1431
icking 1431
smug@@ 1431
touching 1431
1956 1430
Mata 1430
circulated 1430
duly 1430
experiment 1430
Bibles 1429
Pos@@ 1429
RR 1429
Sign@@ 1429
Sonali 1429
Taj@@ 1429
ador@@ 1429
communicate 1429
misuse 1429
outrage 1429
warns 1429
yar@@ 1429
NH-@@ 1428
Pakh@@ 1428
aren 1428
left-@@ 1428
max@@ 1428
ured 1428
vacation 1428
winder 1428
Denmark 1427
Fate@@ 1427
Glo@@ 1427
Pit@@ 1427
Tahir 1427
Yash 1427
awa 1427
lamps 1427
males 1427
sim@@ 1427
suspicion 1427
thorough 1427
Governing 1426
Shim@@ 1426
Sidd@@ 1426
asth@@ 1426
brother@@ 1426
clubs 1426
introducing 1426
sciences 1426
thes@@ 1426
IMF 1425
Krishi 1425
Situ@@ 1425
aki 1425
oh 1425
paramilitary 1425
tories 1425
warnings 1425
watch@@ 1425
15,000 1424
Exc@@ 1424
Hans@@ 1424
Regarding 1424
eman@@ 1424
embrac@@ 1424
fut@@ 1424
ogen@@ 1424
plantation 1424
surfaced 1424
wheel 1424
Cant@@ 1423
ero 1423
exceed 1423
lay@@ 1423
now@@ 1423
pered 1423
pes 1423
remembrance 1423
sewage 1423
Explan@@ 1422
Madhav 1422
Richardson 1422
ayers 1422
grievous 1422
nervous 1422
preserved 1422
shouted 1422
2-megapixel 1421
6,000 1421
Govind 1421
acies 1421
ovic 1421
protocols 1421
transform@@ 1421
viable 1421
00,000 1420
24th 1420
Cou@@ 1420
clud@@ 1420
commencement 1420
consu@@ 1420
diverted 1420
para 1420
pros@@ 1420
residing 1420
revolutionary 1420
Lat@@ 1419
Travel 1419
aces 1419
applicants 1419
believ@@ 1419
clusion 1419
indra 1419
justified 1419
mas 1419
pillar 1419
quantum 1419
sinners 1419
Babri 1418
Christianity 1418
Diplom@@ 1418
Max 1418
Nigeria 1418
SCs 1418
cable 1418
Flood 1417
Km 1417
Muzaffarnagar 1417
Net 1417
PO 1417
Toyota 1417
ials 1417
ktop 1417
13,@@ 1416
Lad@@ 1416
Launched 1416
Saraswati 1416
enthusi@@ 1416
pat 1416
Gs 1415
Mallikarjun 1415
bench@@ 1415
Jeremiah 1414
Mari@@ 1414
St 1414
argue 1414
cements 1414
collectively 1414
plat@@ 1414
Eupithecia 1414
Exhibition 1413
Greece 1413
Rog@@ 1413
Unfortunately 1413
applicant 1413
deliber@@ 1413
enna 1413
odiversity 1413
Cont@@ 1412
Jagann@@ 1412
Race 1412
Shivpal 1412
Universal 1412
Workshop 1412
arriving 1412
nights 1412
upgrade 1412
dge 1411
edness 1411
improves 1411
independ@@ 1411
BB@@ 1410
Dw@@ 1410
Paresh 1410
alous 1410
employer 1410
illary 1410
or-@@ 1410
Anantnag 1409
Tul@@ 1409
awarde@@ 1409
eases 1409
ece 1409
pit 1409
recur@@ 1409
styles 1409
Blood 1408
Surendra 1408
cid@@ 1408
consequence 1408
designer 1408
hid 1408
CSIR-@@ 1407
agiri 1407
efs 1407
factories 1407
ionally 1407
liberty 1407
vary 1407
Areas 1406
Graduate 1406
Poland 1406
omes 1406
ou 1406
Census 1405
Merkel 1405
disasters 1405
guns 1405
paired 1405
Parv@@ 1404
cir@@ 1404
humanitarian 1404
illegally 1404
indicators 1404
outreach 1404
tab 1404
Technologies 1403
http 1403
oves 1403
AY@@ 1402
Chet@@ 1402
ISA 1402
JK 1402
Zimbabwe 1402
advertisements 1402
dang@@ 1402
desp@@ 1402
flagged 1402
stabil@@ 1402
India-Pakistan 1401
Place 1401
hiding 1401
D-@@ 1400
Kag@@ 1400
anic 1400
ja@@ 1400
lat@@ 1400
Jyotiraditya 1399
compassionate 1399
consumed 1399
focus@@ 1399
navigation 1399
polytheists 1399
propaganda 1399
recite 1399
sian 1399
Chaturvedi 1398
Gaurav 1398
Godavari 1398
Wi-Fi 1398
canal 1398
deter@@ 1398
guru 1398
halt 1398
istry 1398
kars 1398
resemb@@ 1398
restraint 1398
sy 1398
Attorney 1397
Bus 1397
Zero 1397
eshs 1397
prop@@ 1397
shadow 1397
A-@@ 1396
H-@@ 1396
Student 1396
alistic 1396
benefitted 1396
ordination 1396
scattered 1396
Sew@@ 1395
appointing 1395
execute 1395
nas@@ 1395
pas@@ 1395
respite 1395
Lalit 1394
levied 1394
riches 1394
safegu@@ 1394
KVIC 1393
Nation@@ 1393
Respon@@ 1393
Scriptural 1393
Unable 1393
aken 1393
alumin@@ 1393
cigarett@@ 1393
consume 1393
fingerprint 1393
guardian 1393
idolat@@ 1393
slogan 1393
tlement 1393
urs 1393
DR 1392
Sony 1392
ainted 1392
augm@@ 1392
ester 1392
iss@@ 1392
ras@@ 1392
ressing 1392
stuff 1392
tee 1392
treasure 1392
Kashmiris 1391
ameter 1391
apati 1391
compound 1391
frequency 1391
municipality 1391
prise 1391
Gaz@@ 1390
Moeen 1390
abil@@ 1390
heated 1390
roadmap 1390
shoes 1390
washed 1390
Estate 1389
Eve 1389
Recruitment 1389
cav@@ 1389
mess@@ 1389
seri@@ 1389
Amid 1388
Cameron 1388
Feb 1388
Fernandez 1388
Rash@@ 1388
Ther@@ 1388
Yad@@ 1388
chandra 1388
coins 1388
hospit@@ 1388
ressed 1388
Ajmer 1387
Shaheen 1387
canc@@ 1387
descendants 1387
green@@ 1387
inging 1387
legisl@@ 1387
pora 1387
proceeding 1387
spared 1387
steadfast 1387
Athle@@ 1386
Kot@@ 1386
cribe 1386
flock 1386
improvements 1386
osa 1386
perfection 1386
pi 1386
rush 1386
teaches 1386
Senate 1385
Surve@@ 1385
aspora 1385
controls 1385
ldn 1385
30-@@ 1384
Pay@@ 1384
dios 1384
esar 1384
insight 1384
unlimited 1384
Champ@@ 1383
Drug 1383
Ek 1383
Mukhtar 1383
avenues 1383
dal 1383
fail@@ 1383
mission@@ 1383
seal 1383
Delhi@@ 1382
Laun@@ 1382
counters 1382
grass@@ 1382
inating 1382
poets 1382
pot 1382
AF@@ 1381
Badminton 1381
Custom@@ 1381
Maneka 1381
NL@@ 1381
erate 1381
ingredi@@ 1381
resign@@ 1381
aph@@ 1380
appointments 1380
directorial 1380
ferv@@ 1380
osh 1380
outlay 1380
queen 1380
regulator 1380
tire 1380
appropri@@ 1379
pack 1379
peacefully 1379
texts 1379
Hop@@ 1378
Said 1378
bert 1378
calculated 1378
function@@ 1378
iva 1378
spaces 1378
survival 1378
utilised 1378
Kaul 1377
Noble 1377
chart 1377
impetus 1377
incre@@ 1377
math 1377
muscle 1377
orbit 1377
ort 1377
Dec 1376
blood@@ 1376
cum-@@ 1376
etings 1376
impacted 1376
territorial 1376
thered 1376
Divine 1375
Divisional 1375
Ramayana 1375
get@@ 1375
Night 1374
leather 1374
nit@@ 1374
ATION 1373
Hina 1373
Lank@@ 1373
Protocol 1373
clam@@ 1373
incid@@ 1373
mathematics 1373
meg@@ 1373
workforce 1373
Australi@@ 1372
Bhattacharya 1372
Chowdhury 1372
Dialogue 1372
acles 1372
assing 1372
eda 1372
mosques 1372
sentiment 1372
shareholders 1372
Weather 1371
certified 1371
distor@@ 1371
qi 1371
round@@ 1371
scriptures 1371
L. 1370
Nawab 1370
Sheh@@ 1370
Text 1370
alog@@ 1370
stamp 1370
BMW 1369
Ec@@ 1369
ITBP 1369
NREGA 1369
Vaish@@ 1369
championship 1369
switch 1369
Bhan@@ 1368
Lou@@ 1368
VE@@ 1368
obtaining 1368
ott@@ 1368
southeast 1368
zabad 1368
28th 1367
Experts 1367
aa 1367
adhe@@ 1367
idi@@ 1367
offensive 1367
oll 1367
osh@@ 1367
Agar@@ 1366
Ira@@ 1366
Kand@@ 1366
Kem@@ 1366
Raghu@@ 1366
accepts 1366
deal@@ 1366
eller 1366
esy 1366
guiding 1366
operator 1366
secret@@ 1366
seem@@ 1366
shine 1366
tribals 1366
Mob@@ 1365
Nov 1365
Sus@@ 1365
gov@@ 1365
lessness 1365
val 1365
Celebr@@ 1364
Kharif 1364
Taapsee 1364
candid@@ 1364
desirable 1364
richest 1364
whats 1364
Basu 1363
Capt 1363
His@@ 1363
RF 1363
Soren 1363
admonition 1363
ceiling 1363
colli@@ 1363
drops 1363
grows 1363
los 1363
partmental 1363
trafficking 1363
1,4@@ 1362
Pharmaceu@@ 1362
disability 1362
essly 1362
knife 1362
pled 1362
tative 1362
tionable 1362
Kashi 1361
Living 1361
exploitation 1361
luxury 1361
quint@@ 1361
rus 1361
usal 1361
Boney 1360
Brother 1360
Gra@@ 1360
Joshua 1360
Late 1360
colum@@ 1360
tiger 1360
tolerated 1360
2025 1359
GST@@ 1359
binding 1359
miscreants 1359
readers 1359
shut@@ 1359
uplo@@ 1359
wheels 1359
BP 1358
Dor@@ 1358
Happ@@ 1358
ITC 1358
Start@@ 1358
distingu@@ 1358
harvesting 1358
metro@@ 1358
pump 1358
unlikely 1358
32GB 1357
Men@@ 1357
Ye@@ 1357
ashamed 1357
erti@@ 1357
illy 1357
mita 1357
Aff@@ 1356
Vigilance 1356
YO@@ 1356
dges 1356
Dosanjh 1355
Risk 1355
ekar 1355
hibition 1355
mers 1355
ooth 1355
Aziz 1354
Chall@@ 1354
Try 1354
aggression 1354
bacter@@ 1354
ball@@ 1354
rubber 1354
128GB 1353
aci@@ 1353
equals 1353
garments 1353
hao 1353
mar 1353
pen 1353
tum@@ 1353
Acting 1352
Brahmastra 1352
constructive 1352
drives 1352
prep@@ 1352
viz@@ 1352
DY 1351
Govern@@ 1351
aerial 1351
free@@ 1351
unfair 1351
warm@@ 1351
Much 1350
Oberoi 1350
Pathankot 1350
Teams 1350
altitude 1350
cease 1350
conceal 1350
conflicts 1350
implications 1350
jumped 1350
kitchen 1350
moc@@ 1350
ninth 1350
streaming 1350
Giving 1349
Legislature 1349
Stri@@ 1349
Violence 1349
adversely 1349
counts 1349
defending 1349
dio 1349
elevated 1349
nursing 1349
-related 1348
Abe 1348
Box 1348
Kutch 1348
Tax@@ 1348
nap@@ 1348
troller 1348
1988 1347
Chal@@ 1347
Lewis 1347
Mongol@@ 1347
Vihar 1347
bare@@ 1347
dish@@ 1347
founding 1347
lain 1347
net@@ 1347
rough 1347
superintendent 1347
tack@@ 1347
Quar@@ 1346
deities 1346
enhancement 1346
gia 1346
gotten 1346
governmental 1346
radiation 1346
Agr@@ 1345
BD 1345
F-@@ 1345
Messiah 1345
ageous 1345
anki 1345
approaching 1345
goodness 1345
mAh 1345
negl@@ 1345
thers 1345
unconstitutional 1345
Fal@@ 1344
icity 1344
lu 1344
Access 1343
Mir 1343
UI 1343
ethical 1343
isations 1343
prevail 1343
Beli@@ 1342
Hasina 1342
Sudan 1342
ancest@@ 1342
anonym@@ 1342
ayana 1342
iso 1342
myth@@ 1342
tang@@ 1342
29.@@ 1341
Manchester 1341
dual-@@ 1341
erial 1341
evolving 1341
icy@@ 1341
lingu@@ 1341
unaware 1341
ION 1340
Kota 1340
Roo@@ 1340
Satya 1340
alternate 1340
ariya 1340
asing 1340
ications 1340
kruptcy 1340
medallist 1340
signature 1340
tanks 1340
22nd 1339
CEOs 1339
Nodal 1339
SW@@ 1339
Shan@@ 1339
Speech 1339
liti@@ 1339
proposes 1339
respiratory 1339
DO 1338
Syrian 1338
arn@@ 1338
automobile 1338
burst 1338
collecting 1338
ington 1338
recre@@ 1338
rejo@@ 1338
Chatterjee 1337
Conclave 1337
Fle@@ 1337
Luc@@ 1337
Vadodara 1337
ensation 1337
taxation 1337
Hot@@ 1336
autopsy 1336
immigrants 1336
pursuit 1336
striking 1336
Benef@@ 1335
IG 1335
UNI 1335
archit@@ 1335
assaulted 1335
atis@@ 1335
essor 1335
indigen@@ 1335
nak@@ 1335
store@@ 1335
Elec@@ 1334
comply 1334
enjoyment 1334
isher 1334
siblings 1334
steadily 1334
Aware 1333
Bachel@@ 1333
Given 1333
SAD 1333
jam 1333
sex@@ 1333
whichever 1333
1971 1332
1984 1332
Pannu 1332
baptism 1332
bra@@ 1332
ende@@ 1332
world-@@ 1332
70@@ 1331
Jalandhar 1331
Sanon 1331
finest 1331
narrated 1331
organ 1331
tower 1331
upright 1331
1962 1330
Lakshadweep 1330
Warning 1330
backdrop 1330
bean 1330
deliberately 1330
e-based 1330
evil@@ 1330
formulation 1330
hale 1330
sang 1330
Democracy 1329
Sonowal 1329
Stor@@ 1329
disciplines 1329
exempted 1329
hardware 1329
naught 1329
onboard 1329
penetr@@ 1329
triumph 1329
turb@@ 1329
Drugs 1328
Funds 1328
Lov@@ 1328
Narasim@@ 1328
Swam@@ 1328
impression 1328
pensioners 1328
Ahmed@@ 1327
Notice 1327
Peri@@ 1327
Tap@@ 1327
adorable 1327
physics 1327
unseen 1327
CBDT 1326
Paytm 1326
Supply 1326
am-@@ 1326
cribing 1326
foster 1326
gm 1326
helmed 1326
recomm@@ 1326
valuation 1326
G. 1325
READ 1325
Surya 1325
caution 1325
client 1325
disposed 1325
eco-@@ 1325
references 1325
successive 1325
sustainability 1325
Deliver@@ 1324
God. 1324
Narayan@@ 1324
TM 1324
chairs 1324
com 1324
expresses 1324
nick@@ 1324
north@@ 1324
perce@@ 1324
Batt@@ 1323
Internal 1323
Jonny 1323
U-@@ 1323
consist 1323
consult@@ 1323
ghat 1323
queues 1323
webinar 1323
29th 1322
Expressway 1322
Forests 1322
Jack 1322
advisor 1322
configuration 1322
need@@ 1322
Eng@@ 1321
Mela 1321
asan 1321
biological 1321
intelligent 1321
kidney 1321
magazines 1321
pel 1321
tants 1321
SM 1320
donation 1320
raping 1320
verified 1320
Cycl@@ 1319
Leave 1319
Sach@@ 1319
breath@@ 1319
cs 1319
glo@@ 1319
orable 1319
shameful 1319
temporarily 1319
AICC 1318
ASH@@ 1318
Apostle 1318
Recogn@@ 1318
Stone 1318
Theyre 1318
Weve 1318
andan 1318
calamity 1318
centi@@ 1318
outfits 1318
overwhelming 1318
Amir 1317
Arms 1317
Ramdev 1317
Winter 1317
decent 1317
i.@@ 1317
ity. 1317
likewise 1317
mills 1317
sugarcane 1317
unlike 1317
Deleg@@ 1316
check@@ 1316
throw@@ 1316
112 1315
BJD 1315
Mud@@ 1315
Visa 1315
Xiaomi 1315
biom@@ 1315
evidences 1315
master@@ 1315
mountain@@ 1315
Manik@@ 1314
Posts 1314
Saheb 1314
Wrest@@ 1314
anya 1314
dispat@@ 1314
distinc@@ 1314
essence 1314
mantra 1314
Telec@@ 1313
door@@ 1313
talaq 1313
Cau@@ 1312
Himself 1312
resumed 1312
textile 1312
Bethel 1311
Point 1311
entries 1311
ferences 1311
him. 1311
parag@@ 1311
real-@@ 1311
Cz@@ 1310
Lead@@ 1310
cancellation 1310
cholesterol 1310
inmates 1310
landscape 1310
opt 1310
1,5@@ 1309
198@@ 1309
hoomi 1309
memb@@ 1309
remedi@@ 1309
Russell 1308
alion 1308
divor@@ 1308
praying 1308
stem 1308
ATS 1307
Chandrasek@@ 1307
Otherwise 1307
Source 1307
arbitr@@ 1307
coconut 1307
horses 1307
preference 1307
veer 1307
23rd 1306
Arun@@ 1306
Faz@@ 1306
considerably 1306
enly 1306
enrol@@ 1306
gras@@ 1306
validity 1306
Dutch 1305
PM-@@ 1305
afterwards 1305
bombs 1305
cc@@ 1305
doubled 1305
litres 1305
sedition 1305
Lun@@ 1304
Player 1304
chro@@ 1304
computing 1304
connects 1304
erec@@ 1304
pre 1304
resentment 1304
specify 1304
ume 1304
Core 1303
Follow 1303
accomplish 1303
deteriorated 1303
ict 1303
organize 1303
tolerate 1303
worth@@ 1303
Chicago 1302
Doll@@ 1302
Hay@@ 1302
lion@@ 1302
mathem@@ 1302
mila 1302
opher 1302
prohib@@ 1302
remanded 1302
rom@@ 1302
switched 1302
Balakot 1301
Exper@@ 1301
Vid@@ 1301
authors 1301
captaincy 1301
convenience 1301
emor@@ 1301
erred 1301
ethanol 1301
guy 1301
tiya 1301
velocity 1301
15-@@ 1300
Kotak 1300
PMC 1300
Shaikh 1300
Swiss 1300
ackers 1300
ailers 1300
prejudi@@ 1300
Emirates 1299
IOC 1299
Lords 1299
Neel@@ 1299
Sale 1299
Shu@@ 1299
Udaipur 1299
adh@@ 1299
eager 1299
gues 1299
imperative 1299
magnitude 1299
speculation 1299
tips 1299
Irrigation 1298
Jinnah 1298
axis 1298
cum@@ 1298
indication 1298
recommend 1298
Cul@@ 1297
EVM 1297
Holder 1297
IST 1297
Kaz@@ 1297
Trumps 1297
eme 1297
fu@@ 1297
jar@@ 1297
judg@@ 1297
meric 1297
ricksha@@ 1297
PPAC 1296
Say@@ 1296
thin 1296
Jenn@@ 1295
Mandal 1295
Riteish 1295
Tro@@ 1295
URL 1295
arises 1295
civilization 1295
co-operation 1295
essi@@ 1295
iser 1295
missionary 1295
tonne 1295
GE 1294
Polic@@ 1294
SIM 1294
Shik@@ 1294
Vasundhara 1294
fier 1294
pressu@@ 1294
-in-law 1293
Amarnath 1293
Columb@@ 1293
Corp 1293
Countries 1293
Days 1293
Jubilee 1293
directory 1293
erupted 1293
foodgrains 1293
iciently 1293
iest 1293
lawmakers 1293
privileges 1293
prone 1293
rewarded 1293
saints 1293
sizes 1293
1950 1292
ABS 1292
CMs 1292
Marsh 1292
attained 1292
https 1292
ignorance 1292
pricing 1292
sel 1292
Edition 1291
chemistry 1291
partly 1291
pronoun@@ 1291
renewed 1291
Chow@@ 1290
NE 1290
clusive 1290
enmity 1290
restaurant 1290
tournaments 1290
CS 1289
Defense 1289
Kapo@@ 1289
Loan 1289
NABARD 1289
ayi 1289
pesti@@ 1289
Braz@@ 1288
Kid@@ 1288
Nutri@@ 1288
Terror@@ 1288
akash 1288
motorcycles 1288
start@@ 1288
workplace 1288
Apply 1287
Raveesh 1287
alam 1287
anted 1287
destroying 1287
digit@@ 1287
itys 1287
right-@@ 1287
39@@ 1286
Ranji 1286
Software 1286
acknowled@@ 1286
monuments 1286
oma 1286
oz@@ 1286
rituals 1286
son@@ 1286
wholly 1286
Four@@ 1285
advances 1285
dawn 1285
poon 1285
shouldnt 1285
sinful 1285
Finland 1284
ICAR 1284
Sakshi 1284
ference 1284
womans 1284
Balochistan 1283
Heg@@ 1283
Likewise 1283
PSU 1283
Phase-@@ 1283
Relig@@ 1283
Sahar@@ 1283
apu@@ 1283
barriers 1283
cel 1283
directing 1283
disorder 1283
edy 1283
garbage 1283
gesture 1283
inception 1283
nish 1283
ometer 1283
teries 1283
troubled 1283
Arth@@ 1282
Estimates 1282
Goswami 1282
J.@@ 1282
Karun@@ 1282
Portugal 1282
Ut@@ 1282
archi@@ 1282
bore 1282
employers 1282
inars 1282
insi@@ 1282
leys 1282
stitute 1282
warming 1282
EA 1281
Himalayas 1281
Kathmandu 1281
arajan 1281
correctly 1281
embassy 1281
etric 1281
psychological 1281
scholarship 1281
semi-final 1281
ste 1281
washing 1281
CN@@ 1280
Lyon 1280
cataly@@ 1280
erstwhile 1280
gear 1280
sanctuary 1280
weal@@ 1280
Bot@@ 1279
IIS@@ 1279
dramatic 1279
provinces 1279
resurrected 1279
sle 1279
Baghel 1278
Chair 1278
bamboo 1278
cus@@ 1278
hero@@ 1278
ower 1278
uti@@ 1278
zo 1278
000@@ 1277
DCP 1277
Irfan 1277
Portuguese 1277
Promo@@ 1277
atical 1277
ean 1277
helpline 1277
intervene 1277
jur@@ 1277
outlets 1277
pering 1277
rebellion 1277
unacceptable 1277
Cold 1276
End 1276
Nain@@ 1276
beneficiary 1276
cater 1276
convenient 1276
deaf 1276
disk 1276
engue 1276
interactive 1276
radical 1276
uments 1276
Haq 1275
Israel@@ 1275
Mahmood 1275
Neil 1275
Panipat 1275
Rajouri 1275
Tob@@ 1275
alum@@ 1275
barrier 1275
edic 1275
imm@@ 1275
separation 1275
victorious 1275
22@@ 1274
Back 1274
Dra@@ 1274
Hema 1274
Related 1274
Saur@@ 1274
Varma 1274
avat 1274
disabilities 1274
egg 1274
liqu@@ 1274
sharply 1274
stipulated 1274
tices 1274
tt 1274
Wildlife 1273
Years 1273
ospace 1273
pref@@ 1273
Create 1272
SI 1272
curfew 1272
goddess 1272
Austri@@ 1271
Digvijay 1271
IndiGo 1271
MEA 1271
deserved 1271
sement 1271
Cr 1270
Kon@@ 1270
Mouni 1270
Victoria 1270
arrogant 1270
atories 1270
eans 1270
expedite 1270
finger 1270
loose 1270
northwest 1270
remind 1270
shire 1270
Coimbatore 1269
Coo@@ 1269
Crown 1269
Declaration 1269
atrocities 1269
cate 1269
chin 1269
mption 1269
Marg@@ 1268
ather 1268
declaring 1268
odd 1268
oods 1268
stak@@ 1268
Healthcare 1267
Mega 1267
NO 1267
crushed 1267
dynam@@ 1267
rix 1267
Shopian 1266
adm@@ 1266
mat 1266
Adarsh 1265
Ala@@ 1265
Benjamin 1265
MCG 1265
Mercy 1265
Usman 1265
cop 1265
foretold 1265
listened 1265
lun@@ 1265
odi 1265
striving 1265
Cyber 1264
Poonch 1264
Psy@@ 1264
Stephen 1264
commendable 1264
dimensions 1264
phenomenon 1264
sia 1264
surplus 1264
yers 1264
2009-@@ 1263
Archi@@ 1263
Day@@ 1263
Fear 1263
Shivakumar 1263
collaborative 1263
necessity 1263
ova 1263
pand@@ 1263
ria 1263
1980 1262
Bhojpuri 1262
Fernand@@ 1262
Season 1262
dioxide 1262
fortunately 1262
isha@@ 1262
pics 1262
spi@@ 1262
stir 1262
wind@@ 1262
Dus@@ 1261
Unlike 1261
complimented 1261
preservation 1261
Kazakhstan 1260
Sign 1260
cau@@ 1260
ck 1260
confused 1260
manirbhar 1260
neys 1260
politi@@ 1260
strengths 1260
Iron 1259
draw@@ 1259
favor@@ 1259
flags 1259
ograph@@ 1259
organs 1259
reviewing 1259
self-reliant 1259
stani 1259
Cinema 1258
Guntur 1258
Need 1258
Ports 1258
companys 1258
ilian 1258
minded 1258
moun@@ 1258
roc@@ 1258
Sas@@ 1257
eval 1257
hata 1257
helpl@@ 1257
neighbour 1257
packed 1257
yar 1257
Consid@@ 1256
Constable 1256
MB 1256
Nine 1256
energ@@ 1256
fuels 1256
odaya 1256
ologies 1256
safer 1256
time@@ 1256
tioners 1256
traditionally 1256
upgraded 1256
zen 1256
Norway 1255
elite 1255
et-@@ 1255
ghar 1255
hibit 1255
narrative 1255
specifications 1255
teamm@@ 1255
ulating 1255
Almost 1254
Capacity 1254
RT 1254
Shaw 1254
Vande 1254
diagnosis 1254
ias 1254
Antony 1253
Bluetooth 1253
CT@@ 1253
Marriage 1253
Oct 1253
Relation@@ 1253
concepts 1253
damages 1253
ginger 1253
partially 1253
Frank@@ 1252
Stre@@ 1252
Uma 1252
WTO 1252
bott@@ 1252
eet 1252
wre@@ 1252
MoUs 1251
Population 1251
altogether 1251
clarity 1251
democr@@ 1251
enjoys 1251
fiel@@ 1251
gene 1251
mini 1251
publicity 1251
raid 1251
CF@@ 1250
anymore 1250
expects 1250
plications 1250
riy@@ 1250
terri@@ 1250
tranqu@@ 1250
urea 1250
1986 1249
Sessions 1249
convergence 1249
maternal 1249
ruin 1249
1914 1248
Pathak 1248
bases 1248
elev@@ 1248
hies 1248
Hai 1247
Phys@@ 1247
Radhakrishnan 1247
Sood 1247
Sovere@@ 1247
Using 1247
circul@@ 1247
depos@@ 1247
eri@@ 1247
sym@@ 1247
Interior 1246
MR 1246
birth@@ 1246
decis@@ 1246
disc 1246
earch@@ 1246
sparked 1246
wart 1246
102 1245
Saha 1245
commitments 1245
whomsoever 1245
Disp@@ 1244
Laws 1244
kne@@ 1244
orial 1244
overwhel@@ 1244
pret@@ 1244
Hydro@@ 1243
RB 1243
achi 1243
bag@@ 1243
declining 1243
floral 1243
offic@@ 1243
restaurants 1243
Mujahideen 1242
PR 1242
angel@@ 1242
bans 1242
blo@@ 1242
irregularities 1242
ordained 1242
prostrate 1242
renamed 1242
Cost 1241
Pas@@ 1241
Wik@@ 1241
advertisement 1241
doubtedly 1241
fundam@@ 1241
generous 1241
gur@@ 1241
kha@@ 1241
motivate 1241
sensors 1241
traits 1241
Artificial 1240
BA@@ 1240
Bhut@@ 1240
Guarantee 1240
Print 1240
Wis@@ 1240
eliminated 1240
hua 1240
marty@@ 1240
remarked 1240
Questions 1239
casts 1239
gov.in 1239
practic@@ 1239
resi@@ 1239
stitutes 1239
LS 1238
ayam@@ 1238
forty 1238
holid@@ 1238
iOS 1238
idence 1238
idential 1238
inous 1238
olate 1238
pep@@ 1238
175 1237
AA 1237
Commenting 1237
FP 1237
Franc@@ 1237
Retur@@ 1237
chan@@ 1237
functionaries 1237
swift 1237
KM 1236
Sexual 1236
baz 1236
every@@ 1236
gov.in. 1236
riers 1236
Gates 1235
Little 1235
Srin@@ 1235
counterparts 1235
exhorted 1235
harsh 1235
junction 1235
tained 1235
Ceremony 1234
JeM 1234
Twent@@ 1234
Vide@@ 1234
dul@@ 1234
idable 1234
ius 1234
lifel@@ 1234
py@@ 1234
reti@@ 1234
titude 1234
ulty 1234
unci@@ 1234
FCI 1233
Indus 1233
atile 1233
diamond 1233
hiked 1233
jay 1233
lovely 1233
oner 1233
phe@@ 1233
stays 1233
170 1232
Acqu@@ 1232
Arjuna 1232
Heads 1232
Jit@@ 1232
Laksh@@ 1232
array 1232
cancel 1232
compens@@ 1232
continuation 1232
f. 1232
fabric 1232
marginal 1232
networking 1232
uals 1232
visas 1232
Cong 1231
Rampal 1231
Upper 1231
crimin@@ 1231
fing@@ 1231
nes 1231
refresh@@ 1231
regulated 1231
1,6@@ 1230
JMM 1230
empowering 1230
equitable 1230
individ@@ 1230
lemen 1230
movable 1230
Biotechnology 1229
Confederation 1229
Haj@@ 1229
Soni 1229
asw@@ 1229
fortunate 1229
internationally 1229
itement 1229
killings 1229
sovereign 1229
viewers 1229
1961 1228
Bop@@ 1228
Rohing@@ 1228
instituted 1228
itis@@ 1228
liter@@ 1228
mom 1228
patent 1228
prompt 1228
sortium 1228
udu 1228
CE 1227
Cyclone 1227
Mughal 1227
TCS 1227
Vitamin 1227
dres@@ 1227
enrolled 1227
good@@ 1227
hang 1227
icate 1227
myst@@ 1227
protective 1227
tiveness 1227
wk 1227
Netanyahu 1226
OP@@ 1226
atar 1226
awada 1226
enz@@ 1226
gaz@@ 1226
incorrect 1226
node 1226
preceding 1226
Alwar 1225
Dat@@ 1225
Woe 1225
advise 1225
barred 1225
bash 1225
collector 1225
eric@@ 1225
exec@@ 1225
forged 1225
gaining 1225
1,9@@ 1224
Bak@@ 1224
Chaudhry 1224
Sundar 1224
askar 1224
contributes 1224
denying 1224
iver@@ 1224
run-@@ 1224
turne@@ 1224
Between 1223
etal 1223
forec@@ 1223
insec@@ 1223
Ga@@ 1222
bedded 1222
chequ@@ 1222
ellate 1222
fruitful 1222
hungry 1222
iliation 1222
laugh 1222
oted 1222
praises 1222
sincerely 1222
thine 1222
tu 1222
Alexander 1221
Kotw@@ 1221
Tejas 1221
convened 1221
dense 1221
dynasty 1221
frontline 1221
ity@@ 1221
magnificent 1221
pig@@ 1221
34@@ 1220
Achiev@@ 1220
Jaff@@ 1220
availed 1220
cruise 1220
editor@@ 1220
infant 1220
isition 1220
smoo@@ 1220
takings 1220
thal 1220
wicket-keeper 1220
'an 1219
Merced@@ 1219
NSS 1219
Zonal 1219
greg@@ 1219
refu@@ 1219
subur@@ 1219
ucle@@ 1219
Fif@@ 1218
Seeing 1218
stein 1218
Environmental 1217
F-16 1217
LIC 1217
Lord. 1217
SL@@ 1217
boosting 1217
chamber 1217
focuses 1217
note@@ 1217
procession 1217
Announ@@ 1216
Bahrain 1216
CM@@ 1216
Upadhyay 1216
ansh 1216
corrup@@ 1216
inclined 1216
throat 1216
unanimously 1216
1,7@@ 1215
B.C.E. 1215
Khawaja 1215
Maryam 1215
Satellite 1215
Sut@@ 1215
Wood 1215
indicating 1215
lav@@ 1215
mani 1215
ro-@@ 1215
will@@ 1215
GPS 1214
Khe@@ 1214
Malini 1214
Pent@@ 1214
Saurabh 1214
beauti@@ 1214
fielding 1214
goodwill 1214
payee 1214
unnecessary 1214
64@@ 1213
BY 1213
Value 1213
cadets 1213
coupled 1213
grandson 1213
widow 1213
650 1212
CCI 1212
Institution 1212
Job@@ 1212
NGO 1212
Tushar 1212
anal@@ 1212
arose 1212
big@@ 1212
boyfriend 1212
cad@@ 1212
capped 1212
decorated 1212
ent-@@ 1212
intentions 1212
underground 1212
Bhatia 1211
Maximum 1211
Put 1211
accounted 1211
alties 1211
inaugurating 1211
inherit 1211
instal@@ 1211
pin 1211
topped 1211
CAG 1210
Vallabhbhai 1210
hali 1210
incomplete 1210
solving 1210
1948 1209
27th 1209
Nab@@ 1209
affili@@ 1209
better@@ 1209
gorgeous 1209
grandfather 1209
petitioners 1209
resorted 1209
summons 1209
Corpor@@ 1208
Grant 1208
I. 1208
Must@@ 1208
Raman@@ 1208
empire 1208
epic 1208
remun@@ 1208
CMD 1207
Filmmaker 1207
Sajid 1207
Treas@@ 1207
bikes 1207
enrich@@ 1207
imagination 1207
spell 1207
ution@@ 1207
CH 1206
Challenge 1206
Ind 1206
Mukul 1206
Politics 1206
Tej@@ 1206
drome 1206
feren@@ 1206
fertilizer 1206
reat 1206
rocket 1206
survivor 1206
traced 1206
Biden 1205
Product 1205
Soor@@ 1205
Spokesperson 1205
iors 1205
menu 1205
seize 1205
vigil@@ 1205
wrestler 1205
yu 1205
CISF 1204
HP 1204
Waqf 1204
eously 1204
invented 1204
ommunications 1204
organise 1204
state-run 1204
viv@@ 1204
Channel 1203
Meth@@ 1203
Mosque 1203
Uzbekistan 1203
ananda 1203
envisages 1203
tabled 1203
uta 1203
Khalid 1202
Sky 1202
Tamil@@ 1202
acharya 1202
elabor@@ 1202
errors 1202
jour@@ 1202
offline 1202
sil 1202
snap@@ 1202
subj@@ 1202
travellers 1202
Degree 1201
GE@@ 1201
LJP 1201
PN@@ 1201
abled 1201
alry 1201
dishon@@ 1201
documentary 1201
fleet 1201
landslides 1201
40,000 1200
Brun@@ 1200
Centr@@ 1200
Chemical 1200
ET@@ 1200
accid@@ 1200
ayak 1200
expres@@ 1200
gonna 1200
harder 1200
imperfect 1200
legally 1200
lips 1200
manip@@ 1200
possessed 1200
puram 1200
scalped 1200
warfare 1200
Daman 1199
Mira 1199
Ranjit 1199
Secret@@ 1199
Six@@ 1199
clave 1199
enth 1199
erations 1199
hasten 1199
pleas 1199
somehow 1199
trou@@ 1199
302 1198
Disabilities 1198
gren@@ 1198
intends 1198
issuance 1198
medicinal 1198
paste 1198
smile 1198
Clearly 1197
Flo@@ 1197
Teacher 1197
\ 1197
ego 1197
ellow 1197
exalted 1197
immigration 1197
insur@@ 1197
mort@@ 1197
suburban 1197
unle@@ 1197
Imam 1196
Record 1196
loads 1196
neutr@@ 1196
normal@@ 1196
Laboratory 1195
culmin@@ 1195
discover 1195
rhy@@ 1195
tia 1195
unhappy 1195
Advance 1194
argu@@ 1194
disciple 1194
eti 1194
uro 1194
Ashraf 1193
Hind 1193
Reserv@@ 1193
admon@@ 1193
anguish 1193
nov@@ 1193
pushing 1193
redly 1193
solem@@ 1193
umping 1193
Gabri@@ 1192
Tat@@ 1192
chromos@@ 1192
locally 1192
theism 1192
Boult 1191
Colleges 1191
Consu@@ 1191
Factory 1191
Wid@@ 1191
adjust@@ 1191
chec@@ 1191
clarify 1191
commodity 1191
gated 1191
headlines 1191
anner 1190
ests 1190
fulfil@@ 1190
lease 1190
revoked 1190
VK 1189
attempting 1189
churches 1189
fatalities 1189
grati@@ 1189
metric 1189
Flight 1188
Prob@@ 1188
acknowledge 1188
angi 1188
listing 1188
robbery 1188
scrutiny 1188
Stop 1187
comment@@ 1187
etting 1187
14,@@ 1186
assessed 1186
jury 1186
lightning 1186
mayor 1186
pro 1186
rup@@ 1186
Dun@@ 1185
FICCI 1185
anjali 1185
tice 1185
trap 1185
Buddhism 1184
Gross 1184
Jaish-e-Mohammed 1184
Permanent 1184
Rest@@ 1184
Rice 1184
bribe 1184
conducts 1184
ghtened 1184
rendra 1184
stream@@ 1184
-in 1183
3000 1183
Colombo 1183
Mehul 1183
Navdeep 1183
Shatrughan 1183
atomic 1183
bru@@ 1183
divisional 1183
fast-@@ 1183
limitations 1183
roughly 1183
servic@@ 1183
AFP 1182
Chaturthi 1182
NH 1182
elevation 1182
fitting 1182
perf@@ 1182
pumps 1182
tus 1182
chairmanship 1181
fisheries 1181
gged 1181
invoke 1181
itative 1181
showroom 1181
specialist 1181
transmitted 1181
tribulation 1181
trick 1181
vegetable 1181
Gaya 1180
Hills 1180
Page 1180
Poin@@ 1180
Swedish 1180
chlor@@ 1180
concluding 1180
etic 1180
eties 1180
herent 1180
liable 1180
lip@@ 1180
provincial 1180
Cash 1179
Chro@@ 1179
Prati@@ 1179
Strateg@@ 1179
bani 1179
breasts 1179
clip 1179
figured 1179
that@@ 1179
Asha 1178
Singhvi 1178
aq 1178
event@@ 1178
shop@@ 1178
Guptill 1177
Mol@@ 1177
Yuv@@ 1177
arai 1177
dos@@ 1177
emat@@ 1177
enjo@@ 1177
scuffle 1177
Books 1176
Certi@@ 1176
Judicial 1176
There@@ 1176
advertising 1176
defaul@@ 1176
dressed 1176
insula 1176
judged 1176
prospect 1176
thriller 1176
traction 1176
Constitutional 1175
H. 1175
King@@ 1175
Shir@@ 1175
administrator 1175
announcing 1175
clo@@ 1175
coordinate 1175
dubbed 1175
logged 1175
produc@@ 1175
Investig@@ 1174
Minor 1174
Remove 1174
Sacred 1174
Veer 1174
ateway 1174
container 1174
odh 1174
selectors 1174
Celebrations 1173
PRA@@ 1173
Tennis 1173
urging 1173
Asthana 1172
Kulbhushan 1172
Rifles 1172
Treatment 1172
alising 1172
amins 1172
apprehended 1172
brac@@ 1172
idity 1172
precautionary 1172
requesting 1172
Aircraft 1171
Oli 1171
Prayagraj 1171
SP-@@ 1171
Van 1171
athlete 1171
hvi 1171
indulging 1171
infra@@ 1171
mandated 1171
plicate 1171
Jaw@@ 1170
Oxford 1170
atters 1170
semi-@@ 1170
successor 1170
youre 1170
Jay 1169
Kendra 1169
Sheila 1169
Tour 1169
earmarked 1169
grat@@ 1169
start-ups 1169
145 1168
Benefit 1168
Harris 1168
describing 1168
plied 1168
psy@@ 1168
reader 1168
Bhardwaj 1167
Coach 1167
Guar@@ 1167
Poverty 1167
Saint 1167
Singer 1167
Trin@@ 1167
allow@@ 1167
bes@@ 1167
dwellers 1167
ots@@ 1167
w.e.@@ 1167
Drink 1166
Entry 1166
Wr@@ 1166
adoles@@ 1166
excluded 1166
flood-@@ 1166
jj@@ 1166
responses 1166
sanitiz@@ 1166
sew@@ 1166
Bush 1165
Sandhu 1165
announ@@ 1165
digit 1165
redressal 1165
yang@@ 1165
Grid 1164
UT@@ 1164
Commun@@ 1163
Compare 1163
DK 1163
Gurdwara 1163
Mr@@ 1163
Patt@@ 1163
Run 1163
Stalin 1163
bac@@ 1163
illenn@@ 1163
mortal 1163
publishers 1163
signals 1163
wilderness 1163
Always 1162
Assessment 1162
Civ@@ 1162
Dom@@ 1162
Mater@@ 1162
Mohan@@ 1162
deriv@@ 1162
honesty 1162
labor 1162
securing 1162
trun@@ 1162
west@@ 1162
Classes 1161
Dharma 1161
Diu 1161
Priya 1161
Qaeda 1161
amend 1161
bute 1161
dor@@ 1161
loud 1161
nings 1161
Battle 1160
KK 1160
Kabaddi 1160
avail@@ 1160
dens 1160
havan 1160
masters 1160
ores@@ 1160
popularly 1160
subsi@@ 1160
tion-@@ 1160
upheld 1160
1-0 1159
Broad@@ 1159
Eoin 1159
Invest@@ 1159
JJP 1159
Metropolitan 1159
Micro@@ 1159
capita 1159
chant 1159
eo 1159
kins 1159
leaf 1159
opol@@ 1159
tras 1159
tus@@ 1159
Hai@@ 1158
NSE 1158
Naren@@ 1158
algorith@@ 1158
eshwari 1158
experiments 1158
mind@@ 1158
phere 1158
torn 1158
Babar 1157
Disease 1157
Expl@@ 1157
Krishnap@@ 1157
Release 1157
Tibet 1157
neutral 1157
preserv@@ 1157
swimming 1157
Plessis 1156
Vidarbha 1156
age-@@ 1156
atta 1156
auctions 1156
genes 1156
guil@@ 1156
logic 1156
march 1156
transported 1156
utions 1156
Ethi@@ 1155
Female 1155
KC 1155
Mec@@ 1155
Procurement 1155
Pw@@ 1155
Stoinis 1155
coloured 1155
dimin@@ 1155
distribute 1155
furniture 1155
jee 1155
kash 1155
kid 1155
moist@@ 1155
startups 1155
1500 1154
Birthday 1154
Id@@ 1154
Jim 1154
Meas@@ 1154
Parties 1154
arr@@ 1154
graduation 1154
mik@@ 1154
print@@ 1154
trapati 1154
Ashton 1153
Maidan 1153
PU@@ 1153
ilseeds 1153
interacting 1153
interrupted 1153
Cheteshwar 1152
Geeta 1152
Made 1152
booths 1152
brief@@ 1152
compati@@ 1152
getary 1152
panchayats 1152
prevalent 1152
rarely 1152
umes 1152
unemployed 1152
Grants 1151
Wind@@ 1151
anticipated 1151
astro@@ 1151
fem@@ 1151
reflection 1151
Judges 1150
Sultan@@ 1150
Swara 1150
adron 1150
alerted 1150
brethren 1150
discourse 1150
refrain 1150
thy@@ 1150
Sarah 1149
Scott 1149
cide 1149
horticulture 1149
mist 1149
Councils 1148
Husbandry 1148
abh 1148
dle 1148
provider 1148
sensitivity 1148
slip 1148
stopping 1148
tehsil 1148
versus 1148
Egyptian 1147
Mans@@ 1147
allotment 1147
chilli 1147
conceived 1147
congratulations 1147
debris 1147
dissem@@ 1147
one-day 1147
restruc@@ 1147
uation 1147
Arch@@ 1146
Devo@@ 1146
Eligi@@ 1146
Mix 1146
Shoo@@ 1146
concentrate 1146
flour 1146
great@@ 1146
ider 1146
naming 1146
objec@@ 1146
Bus@@ 1145
Chairmanship 1145
Game 1145
Strong 1145
apa 1145
ayam 1145
ette 1145
gue 1145
indices 1145
intend 1145
postal 1145
scooter 1145
tiny 1145
PWD 1144
Tag 1144
deliv@@ 1144
elephant 1144
titudes 1144
wooden 1144
Anton@@ 1143
Comprehensive 1143
Rapid 1143
Sor@@ 1143
bagh 1143
heres 1143
muscles 1143
satisfactory 1143
tenance 1143
OR@@ 1142
Ponting 1142
Rajinder 1142
Targ@@ 1142
Uttar@@ 1142
Wo@@ 1142
paren@@ 1142
son-@@ 1142
yle 1142
5-speed 1141
5G 1141
Sameer 1141
Shyam 1141
Vice-President 1141
Watson 1141
caring 1141
execu@@ 1141
expressions 1141
perpetrators 1141
Mohali 1140
Pakist@@ 1140
analyst 1140
archy 1140
brands 1140
dump@@ 1140
ifies 1140
missible 1140
paths 1140
puja 1140
smil@@ 1140
storms 1140
Ashram 1139
Cards 1139
HD@@ 1139
Howrah 1139
Moti@@ 1139
Yemen 1139
conversations 1139
dissemination 1139
evid@@ 1139
faithless 1139
retire 1139
Chun@@ 1138
Lokpal 1138
SK 1138
esha@@ 1138
invites 1138
jar 1138
town@@ 1138
Chamber 1137
Idea 1137
Investors 1137
Kom 1137
cris@@ 1137
hati 1137
quantities 1137
sportspersons 1137
IMS 1136
Tyagi 1136
Wayanad 1136
arious 1136
babies 1136
detect 1136
forefront 1136
graded 1136
interviews 1136
jinn 1136
oler@@ 1136
resolutions 1136
tise 1136
Kr@@ 1135
apuram 1135
barg@@ 1135
did@@ 1135
earth. 1135
flames 1135
ignorant 1135
renov@@ 1135
scen@@ 1135
Gospel 1134
istrates 1134
maintains 1134
robbers 1134
shetra 1134
taker 1134
theatres 1134
Billion 1133
LE 1133
liberal 1133
liness 1133
login 1133
ped@@ 1133
perceived 1133
unlawful 1133
Airports 1132
IR 1132
Majesty 1132
NM@@ 1132
Rohan 1132
ady 1132
ax 1132
ifer 1132
kout 1132
people-@@ 1132
Gag@@ 1131
Lashkar-e-@@ 1131
PAT 1131
Solicitor 1131
Sons 1131
airspace 1131
assuming 1131
cogniz@@ 1131
disorders 1131
justices 1131
pharmaceutical 1131
sentences 1131
wrapped 1131
197@@ 1130
Chanda 1130
DIS@@ 1130
GeM 1130
Ho@@ 1130
Shashank 1130
rella 1130
ruined 1130
Palestine 1129
Parade 1129
camel 1129
mem@@ 1129
perfectly 1129
poured 1129
Adit@@ 1128
Ball@@ 1128
Boxing 1128
Mandaviya 1128
RM 1128
Reuters 1128
Scholar@@ 1128
Together 1128
Written 1128
bands 1128
cartri@@ 1128
conducive 1128
Ka 1127
Kuwait 1127
Move 1127
choosing 1127
conve@@ 1127
dents 1127
deserves 1127
donate 1127
drone 1127
eligibility 1127
entre@@ 1127
uscrip@@ 1127
volumes 1127
Dushyant 1126
ESIC 1126
Exalted 1126
Focus 1126
Peti@@ 1126
cylind@@ 1126
dog@@ 1126
ishable 1126
vely 1126
Fam@@ 1125
Kulkarni 1125
Mall@@ 1125
PPE 1125
Prith@@ 1125
bered 1125
effectiveness 1125
filming 1125
hampur 1125
haply 1125
resses 1125
rip@@ 1125
sper@@ 1125
-in-@@ 1124
ECI 1124
acha@@ 1124
crowds 1124
educate 1124
first-ever 1124
timing 1124
tom 1124
twithstanding 1124
Answer 1123
Boy 1123
Curran 1123
Harman@@ 1123
Lucky 1123
Neetu 1123
Organizations 1123
chick@@ 1123
estr@@ 1123
imperi@@ 1123
resist 1123
sition 1123
well-known 1123
width 1123
Camp 1122
Close 1122
Engineers 1122
Plans 1122
bearer 1122
sq 1122
vel 1122
Dum@@ 1121
Maz@@ 1121
Nizam@@ 1121
OP 1121
Ten 1121
clou@@ 1121
gery 1121
grievance 1121
ini@@ 1121
proceeds 1121
rests 1121
tify 1121
ware@@ 1121
Enable 1120
NAME 1120
denial 1120
endurance 1120
front-@@ 1120
guarante@@ 1120
qualifying 1120
tropical 1120
wick@@ 1120
Crick@@ 1119
IND@@ 1119
Modiji 1119
Preparations 1119
TRIFED 1119
Ye 1119
nut 1119
surr@@ 1119
ull 1119
Spic@@ 1118
Squad 1118
Storm 1118
Transl@@ 1118
convict 1118
earing 1118
honours 1118
kn@@ 1118
populations 1118
week@@ 1118
Bhat 1117
Nadi@@ 1117
Power@@ 1117
Regist@@ 1117
Return 1117
Shram@@ 1117
answ@@ 1117
cence 1117
optical 1117
Dhumal 1116
bom@@ 1116
deadline 1116
eland 1116
eni 1116
hybrid 1116
inguished 1116
satis@@ 1116
Heart 1115
baaz 1115
circles 1115
dealings 1115
experiencing 1115
iller 1115
revenues 1115
strateg@@ 1115
114 1114
1987 1114
Arshad 1114
Dak@@ 1114
Electrical 1114
Intern@@ 1114
acked 1114
colonial 1114
congratulates 1114
credibility 1114
rocks 1114
serial 1114
transit 1114
yre 1114
Aggarwal 1113
Girish 1113
Inst@@ 1113
Phul@@ 1113
Russi@@ 1113
Top@@ 1113
aided 1113
cultivate 1113
excise 1113
objections 1113
prince 1113
progressing 1113
psalmist 1113
Type 1112
act@@ 1112
amaz@@ 1112
ben 1112
decreas@@ 1112
directives 1112
expectation 1112
spices 1112
violates 1112
1,8@@ 1111
Boeing 1111
Gon@@ 1111
Prabhakar 1111
arians 1111
exploring 1111
filmmakers 1111
inton 1111
oping 1111
Actors 1110
Bond 1110
Hans 1110
ainment 1110
alla 1110
deliveries 1110
dependence 1110
hardships 1110
idi 1110
illicit 1110
l-@@ 1110
15,@@ 1109
actresses 1109
bottles 1109
combating 1109
discern@@ 1109
evacuation 1109
fasc@@ 1109
first-class 1109
glimp@@ 1109
mast@@ 1109
proph@@ 1109
relaxation 1109
surrendered 1109
urban@@ 1109
AIC@@ 1108
Users 1108
observing 1108
sunami 1108
thro@@ 1108
understands 1108
Backward 1107
English@@ 1107
Mathur 1107
TikTok 1107
alloy 1107
arily 1107
avo 1107
bai 1107
clai@@ 1107
collaborate 1107
flav@@ 1107
poultry 1107
recipient 1107
variables 1107
Bandra 1106
Kumbh 1106
Medic@@ 1106
Programmes 1106
Rehman 1106
Swachhta 1106
arus 1106
blog 1106
concep@@ 1106
fifteen 1106
hearted 1106
label 1106
lish 1106
sigh@@ 1106
tenth 1106
thood 1106
zes 1106
1951 1105
230 1105
Colonel 1105
Domin@@ 1105
achi@@ 1105
chal@@ 1105
incorpor@@ 1105
lig@@ 1105
philos@@ 1105
ATMs 1104
Archer 1104
Bangladeshi 1104
Deep 1104
Kel@@ 1104
MBBS 1104
athle@@ 1104
intern@@ 1104
itably 1104
knowled@@ 1104
plot@@ 1104
spy 1104
Anth@@ 1103
Karnal 1103
Madurai 1103
accusations 1103
anxious 1103
hik 1103
indu@@ 1103
sust@@ 1103
tenders 1103
withdrew 1103
wrongdoing 1103
FAS@@ 1102
Hen@@ 1102
Jair@@ 1102
Shin@@ 1102
Worlds 1102
ample 1102
bund@@ 1102
calf 1102
carved 1102
graphic 1102
inspec@@ 1102
semi-finals 1102
unt 1102
wrong-@@ 1102
-off 1101
Agrawal 1101
Dawood 1101
Houston 1101
Indones@@ 1101
Munde 1101
NDMA 1101
Sarkar 1101
UG@@ 1101
chari@@ 1101
competing 1101
gain@@ 1101
inery 1101
willingness 1101
wis@@ 1101
Emer@@ 1100
Shekhawat 1100
Superstar 1100
Warriors 1100
cali@@ 1100
discour@@ 1100
fig@@ 1100
greets 1100
regulate 1100
restriction 1100
subsidi@@ 1100
Afric@@ 1099
Bikaner 1099
NAM 1099
ND 1099
Provident 1099
Zampa 1099
adjour@@ 1099
apologised 1099
colonies 1099
cong@@ 1099
intimate 1099
method@@ 1099
nus 1099
placement 1099
riving 1099
rot@@ 1099
satisfy 1099
truths 1099
yatra 1099
Cov@@ 1098
Sanjiv 1098
Suff@@ 1098
adviser 1098
cooked 1098
ecation 1098
governed 1098
illustration 1098
indranath 1098
ocks 1098
preached 1098
reiter@@ 1098
restingly 1098
seasonal 1098
Assam@@ 1097
Harsim@@ 1097
Rajapaksa 1097
Result 1097
acious 1097
despair 1097
disappointment 1097
excluding 1097
felic@@ 1097
flex@@ 1097
historian 1097
issu@@ 1097
justly 1097
knoweth 1097
scar 1097
7,000 1096
Resid@@ 1096
patiently 1096
proteins 1096
undering 1096
Fran@@ 1095
Sukhbir 1095
Tibetan 1095
extradition 1095
mischief 1095
ques 1095
uding 1095
Gazette 1094
Inc@@ 1094
Poor@@ 1094
advancement 1094
che 1094
ingham 1094
ranges 1094
stops 1094
strength@@ 1094
vedic 1094
Religion 1093
Strength@@ 1093
middle-@@ 1093
tendency 1093
cheap 1092
defended 1092
favours 1092
fs 1092
guess 1092
plug@@ 1092
realistic 1092
regardless 1092
springs 1092
troubles 1092
49@@ 1091
Consequently 1091
Fit 1091
adha 1091
aeg@@ 1091
along@@ 1091
creed 1091
crown 1091
dowry 1091
fos@@ 1091
ived 1091
wrestling 1091
Cambo@@ 1090
Mono@@ 1090
chap@@ 1090
ead 1090
reckoning 1090
rej@@ 1090
so-@@ 1090
uds 1090
AJ@@ 1089
Appl@@ 1089
Auction 1089
Mathem@@ 1089
Ron@@ 1089
akrish@@ 1089
county 1089
dealers 1089
inherited 1089
jute 1089
lectures 1089
pledged 1089
upta 1089
Meen@@ 1088
Steven 1088
cular 1088
gaps 1088
originated 1088
over-@@ 1088
philosoph@@ 1088
proceeded 1088
replacing 1088
rooted 1088
Constituency 1087
Insolvency 1087
Laxmi 1087
Vand@@ 1087
WS 1087
Wick@@ 1087
Yoj@@ 1087
aiah 1087
cides 1087
lag@@ 1087
prostr@@ 1087
Appoint@@ 1086
Dipak 1086
Ep@@ 1086
Gari@@ 1086
Hell@@ 1086
Jackson 1086
conn@@ 1086
deteriorating 1086
inhabited 1086
leak 1086
polluted 1086
portrait 1086
twitter 1086
115 1085
Baat 1085
Babbar 1085
DIG 1085
GP 1085
Raghuram 1085
Role 1085
Ug@@ 1085
attachment 1085
childs 1085
drinks 1085
estly 1085
favorable 1085
intensify 1085
merchant 1085
pati@@ 1085
respect@@ 1085
sives 1085
zens 1085
Activities 1084
Dayal 1084
Florida 1084
Krishn@@ 1084
Kyrgy@@ 1084
Nadal 1084
Shardul 1084
bottle 1084
diagnosed 1084
financially 1084
gage 1084
liquidity 1084
lis 1084
managers 1084
neglected 1084
ong-@@ 1084
oters 1084
Amr@@ 1083
approve 1083
hadi 1083
incentive 1083
leverage 1083
liars 1083
of-the-art 1083
physi@@ 1083
poor@@ 1083
underlying 1083
Kirti 1082
Nigam 1082
Santner 1082
Traders 1082
alis 1082
arrange 1082
behavi@@ 1082
exceeding 1082
fores@@ 1082
ida 1082
marriages 1082
seiz@@ 1082
tbsp 1082
Aksha@@ 1081
Kashmirs 1081
PRO@@ 1081
Sarban@@ 1081
adjudged 1081
akum@@ 1081
athers 1081
clarification 1081
demonstrations 1081
nuts 1081
testi@@ 1081
thodox 1081
ubali 1081
zar 1081
FOR 1080
Fero@@ 1080
abused 1080
appro@@ 1080
contestants 1080
coo@@ 1080
exercised 1080
promotes 1080
sorts 1080
wouldn 1080
Fatima 1079
Ks 1079
Nichol@@ 1079
PhD 1079
Prahl@@ 1079
cardiac 1079
criticized 1079
flu 1079
kilo@@ 1079
particles 1079
pist@@ 1079
premi@@ 1079
GW 1078
Kevin 1078
contradic@@ 1078
dul 1078
mohan 1078
talents 1078
Aryan 1077
By@@ 1077
NL 1077
Phone 1077
Wash 1077
reluc@@ 1077
seas 1077
1,3@@ 1076
Cas@@ 1076
EX@@ 1076
Moz@@ 1076
Shillong 1076
alleges 1076
bell 1076
burned 1076
characteristic 1076
itiz@@ 1076
mount 1076
Balan 1075
Clin@@ 1075
Jammu-@@ 1075
VHP 1075
meditation 1075
p. 1075
plain@@ 1075
rejection 1075
Eliz@@ 1074
Lower 1074
Not@@ 1074
Ordinance 1074
aul 1074
corridors 1074
leng@@ 1074
ographer 1074
50th 1073
Bajrang 1073
Sig@@ 1073
WF 1073
autonomy 1073
chit 1073
co-star 1073
decla@@ 1073
host@@ 1073
logo 1073
rul@@ 1073
ulture 1073
Awar@@ 1072
Dairy 1072
Madhu 1072
Murli 1072
Susp@@ 1072
equipments 1072
fla@@ 1072
mile 1072
oso 1072
ret 1072
rys 1072
truth@@ 1072
Chem@@ 1071
Manisha 1071
PAT@@ 1071
Ricky 1071
Ronal@@ 1071
assassination 1071
brass 1071
neighbors 1071
potentially 1071
transforming 1071
101 1070
Gir@@ 1070
anshi 1070
ascular 1070
ellow@@ 1070
invent@@ 1070
potassium 1070
studio 1070
Aat@@ 1069
Appreci@@ 1069
Gom@@ 1069
Inc 1069
Poly@@ 1069
Riv@@ 1069
breeding 1069
flies 1069
pleases 1069
Learn 1068
Treaty 1068
Vision 1068
accompanying 1068
chur@@ 1068
foremost 1068
landslide 1068
symbols 1068
undergone 1068
yl 1068
Awake 1067
Democr@@ 1067
Jaish-e-Mohammad 1067
Popular 1067
Qamar 1067
Sain@@ 1067
anny 1067
aspur 1067
avilion 1067
concerted 1067
conductor 1067
oaths 1067
offs 1067
per-@@ 1067
proto@@ 1067
symbolic 1067
Equipment 1066
compact 1066
constructing 1066
festive 1066
knee 1066
placing 1066
prestige 1066
say@@ 1066
uncertainty 1066
32@@ 1065
Choubey 1065
Increase 1065
Tilak 1065
conferences 1065
cream 1065
eering 1065
memorable 1065
obstacles 1065
owers 1065
proclaimed 1065
secretly 1065
sla@@ 1065
vigilant 1065
376 1064
But@@ 1064
Calling 1064
Cypr@@ 1064
Hin@@ 1064
Registrar 1064
auti@@ 1064
bypolls 1064
phan 1064
pore 1064
quet 1064
spirituality 1064
vice-captain 1064
Carey 1063
Sana 1063
conserv@@ 1063
osph@@ 1063
prolonged 1063
scorer 1063
viewing 1063
worsened 1063
wouldnt 1063
Americ@@ 1062
Rising 1062
Vijayvargiya 1062
agra@@ 1062
alarm 1062
compul@@ 1062
dak 1062
expir@@ 1062
incul@@ 1062
jung 1062
nationalist 1062
neuro@@ 1062
packages 1062
purely 1062
shoulders 1062
Hizbul 1061
Resolution 1061
Sahu 1061
architec@@ 1061
assisting 1061
jok@@ 1061
novels 1061
ounder 1061
1985 1060
Gopal@@ 1060
Import 1060
Jagdish 1060
Kedar 1060
Miller 1060
RIL 1060
Texas 1060
adequ@@ 1060
creativity 1060
liv@@ 1060
lung 1060
preci@@ 1060
pric@@ 1060
quick@@ 1060
scholar@@ 1060
sowing 1060
ugitive 1060
135 1059
Annex@@ 1059
Down 1059
alu@@ 1059
commuters 1059
embering 1059
habilitation 1059
level@@ 1059
stationed 1059
strongest 1059
tariffs 1059
Baramulla 1058
Sabar@@ 1058
Samiti 1058
US-@@ 1058
dances 1058
east@@ 1058
frac@@ 1058
instrumental 1058
istic@@ 1058
phased 1058
throwing 1058
Generation 1057
Hamirpur 1057
Het@@ 1057
Male 1057
Pre-@@ 1057
Worship 1057
condemns 1057
developers 1057
pitted 1057
predec@@ 1057
1972 1056
2024 1056
Hazare 1056
Kadap@@ 1056
Wag@@ 1056
bercul@@ 1056
mary 1056
py 1056
testify 1056
willingly 1056
Mumb@@ 1055
Sunni 1055
air-@@ 1055
curve 1055
fortnight 1055
glorify 1055
itates 1055
scandal 1055
Hung@@ 1054
adver@@ 1054
eaten 1054
fewer 1054
gad 1054
igh 1054
relevance 1054
Fortun@@ 1053
Manufacture 1053
Mining 1053
NSA 1053
Prithvir@@ 1053
Self-@@ 1053
dimen@@ 1053
disruption 1053
eup 1053
obstruc@@ 1053
109 1052
ADB 1052
Cari@@ 1052
Chadha 1052
Const@@ 1052
DAY 1052
M-@@ 1052
Person@@ 1052
electrification 1052
m-@@ 1052
numer@@ 1052
patriotism 1052
revenge 1052
Guinea 1051
Issue 1051
boarding 1051
electri@@ 1051
exerc@@ 1051
peti@@ 1051
pets 1051
questi@@ 1051
showcas@@ 1051
sickness 1051
ya@@ 1051
Mail 1050
RPF 1050
businessmen 1050
composite 1050
explored 1050
goo@@ 1050
tations 1050
Hon 1049
Leban@@ 1049
NIC 1049
Roll@@ 1049
Vit@@ 1049
astes 1049
celebrity 1049
mid 1049
prey 1049
theast 1049
Auth@@ 1048
Dedic@@ 1048
Jimmy 1048
Kup@@ 1048
Pash@@ 1048
Pir@@ 1048
Tak@@ 1048
anci@@ 1048
mad 1048
multi 1048
sized 1048
thwest 1048
vision@@ 1048
ynam@@ 1048
Bay@@ 1047
Fig@@ 1047
Que@@ 1047
Summer 1047
achar@@ 1047
agrees 1047
highligh@@ 1047
therap@@ 1047
worn 1047
Connectivity 1046
Milk 1046
abrog@@ 1046
chronic 1046
xibility 1046
Representative 1045
Statue 1045
ection@@ 1045
halla 1045
mill 1045
recycl@@ 1045
yang 1045
Id 1044
Ishaan 1044
NEET 1044
chop@@ 1044
ement@@ 1044
sugg@@ 1044
toxic 1044
Anu@@ 1043
Clu@@ 1043
IND 1043
Ls 1043
PH@@ 1043
controversi@@ 1043
otech 1043
upgrad@@ 1043
Richa 1042
poe@@ 1042
ression 1042
107 1041
fif@@ 1041
sic 1041
126 1040
35A 1040
Traditional 1040
ethics 1040
sphere 1040
PDS 1039
indi 1039
surg@@ 1039
abst@@ 1038
aho 1038
struction 1038
wat 1038
Francisco 1037
porters 1037
Ox@@ 1036
istics 1036
fru@@ 1035
nodes 1035
portation 1035
squared 1035
106 1034
Chr@@ 1034
asty 1034
contri@@ 1034
earchers 1034
nin@@ 1034
Gam@@ 1033
NCA 1033
Parliam@@ 1033
gy 1033
kis@@ 1033
GT@@ 1032
amin 1032
ampur 1032
rie 1032
fair@@ 1031
probability 1031
Ayur@@ 1030
ensive 1030
Green@@ 1029
agen 1029
endar 1029
ers@@ 1029
256GB 1028
3GB 1028
G20 1028
122 1027
Cer@@ 1027
ester@@ 1027
fashi@@ 1027
iel@@ 1027
nu@@ 1027
metals 1026
ru 1026
VAT 1025
elines 1025
gha 1025
ishments 1025
Mode 1024
Send 1024
iance 1024
Citiz@@ 1023
OK 1023
RDA 1023
eves 1023
119 1022
Medi@@ 1022
escap@@ 1022
103 1021
Waste 1021
Jawa@@ 1020
share@@ 1020
2G 1019
Nig@@ 1019
dead@@ 1019
ulative 1019
0.5 1018
Was@@ 1018
cardi@@ 1018
Players 1017
Soil 1017
cm 1017
WD 1016
reserv@@ 1016
Netfli@@ 1015
uhan 1015
encour@@ 1014
ayan@@ 1013
dressing 1013
inking 1013
som@@ 1013
ATE 1011
Econom@@ 1011
[...]
